3723
13C7
37DD
348A
315E
3337
305E
17F7
2D14
3292
32E0
0922
3D30
251E
3469
100B
0DA4
0FAA
1343
01CE
0B65
01B6
39BB
3755
3C8C
0507
3B95
2FE8
29D9
3BB7
3EFA
346A
0578
1333
066C
0208
0923
3CE5
0D52
0D4D
2D97
15BB
18B1
280F
1515
07A1
3ADF
2CC3
3504
2733
03B1
0EFB
07F0
3008
05FF
33ED
3EA3
0981
3B9B
284E
3730
12FC
2DD0
2D4D
00DB
2F4D
0263
0D11
310E
2AA2
3C8D
0949
03AC
2E1F
12DE
0A73
10B7
0279
2D11
13A4
173C
2786
2F93
2CCE
0525
2851
089C
15CB
3EC0
318D
0EFC
0C01
36C8
0D95
2CB9
0771
3646
08BD
38EC
0B94
3F21
00F5
2F01
36D7
0749
184E
2A0E
2E9B
00FD
1789
0485
3338
0EC2
13BE
2441
108F
0B23
0566
2A5F
2987
187A
0B17
072F
18D9
0066
26C1
28F0
1585
1586
27B7
34A9
0575
164C
3CAC
143F
058C
3B19
335F
0BC1
1095
2FA3
3FFB
3993
10E5
2CD7
337C
3FDB
078D
1530
34F0
35A0
3F3E
07F7
319B
3A06
3CE8
370C
048A
2AEC
3607
0449
3139
08A0
28ED
340D
3C89
2BBA
0A2A
36E3
3630
0D67
1202
0589
01B7
3915
24F0
0B17
3E1B
26B1
1103
3D93
3A7B
39C7
0E49
10C6
2D1A
1098
3501
0CBC
3AB1
11A5
26DF
0E47
025B
2A95
0B04
3DC9
3E02
2D1B
2E03
3D98
3DA0
2D4C
325C
0129
038B
30EB
31BF
1381
267D
3EAE
09BB
3709
0150
138A
178B
0222
3A57
1844
0253
0FE6
0D6B
35C7
0563
30E2
0406
11CC
151F
0CE4
13F8
339C
3D02
36E5
2A95
3944
3B43
2E6E
2AFC
3AB4
249B
334D
345E
0E36
0A35
043E
2CA3
3DAB
26CF
3146
26E1
3029
3346
317C
130B
32D4
0A53
0A01
3C05
30D4
0685
1453
0133
0D37
195C
2CDA
3D72
0496
3063
033C
3F35
2838
2D4A
304E
0AEE
363E
3142
2E69
02A2
13FA
2FA3
075A
31D6
183A
37D8
05C5
0383
07A8
374E

