03B8
F2BB
259C
FEFE
E9D4
031F
38F6
176F
FECD
EB12
E674
EA6F
E3C5
1337
E4D9
0923
FC8B
E7EE
0C17
106C
0D4D
059E
2579
4A00
4014
EFE2
29B5
0CF6
F09C
05FB
14D4
046C
EAB0
06B2
CFCA
026E
F438
01AA
E553
09D2
FE1E
1403
02FF
050C
DE82
DF0E
EBC5
1AC3
10AE
1D9E
0219
138F
127A
EB24
C01F
35A6
0E0F
EE06
13F9
14D0
12BB
FA6B
0569
FB65
0FE1
FEE0
D2B1
FB02
F38D
EF17
EA78
EB2F
F0B3
EEB7
E924
ED57
B3AD
CDF0
11DF
FB17
EDDA
15BF
04FF
FC05
F6BB
1229
FCAB
C546
CBEE
0C86
D3BE
FB85
EF3C
FA80
F2AA
0EBD
F73D
0E41
374D
FEC1
01D8
1755
2DF4
E881
01C4
FB06
EA7A
13CF
E76D
0792
E857
013F
EC7D
0974
0587
118E
F303
160A
28E0
2F33
EFBE
FDD5
1FD3
15DC
E620
0A41
F97A
EF2B
0D9E
ED61
0B4B
00D8
FFCD
0F07
10CA
FF1F
057D
1189
0612
18E8
E800
EB0E
0FBE
FB13
FC7F
1DFF
0B43
F6C6
FE63
F2CB
E8E0
5CA4
FDDE
F972
01F6
F0BD
0FA8
1A15
1892
F47E
13C2
FD61
C840
FA87
0CB5
F50C
02EB
F0D3
E74D
EAF5
09DA
18F6
EB07
F77D
02B1
074A
0855
F0AF
FE52
FB89
1895
029E
F655
BAD2
D790
0C87
C223
0E77
1590
FB30
10D7
FDAF
E84D
FF34
3107
0940
FCBB
10B1
2C2C
EF24
F282
1166
17B7
F685
06F1
2870
1067
F950
11F1
E7C1
ED98
05C3
F73C
ED2E
40C0
3107
E456
0852
281B
FCB5
0FDC
1228
00AD
12EF
E64C
0E51
333F
10D4
FEB7
F292
3596
F529
F4EA
F1C0
F2A2
EB7E
237C
1A78
0781
F994
0DD1
F7B4
0968
0E32
0724
0031
1EE6
44CF
F461
EBB4
31F8
0606
F28A
122F
18EF
EB69
EE58
F203
019E
F6F9
046D
0573
EDFB
15DD
F3AC
0F1C
F063
0E00
D300
D7A4
F537
037E
17DA
080D
FA2E
F925
EA4B
00A1
171C
EC64
127D
F928
F18B
EA13
0C97
12DD
E96D
FFE6

