0C97
34F5
3476
33D8
13CA
394D
326B
18C4
3383
019A
3810
0420
0465
179F
35C8
2EEB
04E3
0471
09F1
08A2
3594
3F63
3255
10C8
05C4
390D
3107
3DE8
391E
2AA4
3414
185A
3544
33CC
00C8
2798
351C
11AE
0DA2
0F04
3ADB
345A
1540
1379
36EA
04AB
288A
3E8A
2684
050F
29E6
320C
2DCF
0D28
2AA3
194D
02B0
34C4
2F21
0A44
2E34
2B79
0153
3959
2899
0A55
004C
3EF8
37CE
3EBD
3433
3A0F
13AE
0852
3550
05F9
32A9
067C
01F4
37A7
3774
1568
172A
04A4
2C6B
1698
10AC
0F57
0A0C
09A0
3FA5
33BE
047F
39FB
0402
2E86
3B55
3D76
0BDE
1410
3CDE
04B3
2E8B
3603
3E18
1786
2E71
0FC7
06CC
39A9
00A4
2D1A
3062
1257
0933
3AA8
10C8
2E45
36E6
02AE
3D2A
030D
0D9B
01CE
299B
12CB
3300
0135
30B5
0A89
10E1
36F1
283F
3B12
3403
15EF
0CC4
26E0
09FA
377D
3B02
09B9
32E0
3137
3512
373D
34BA
3DC9
3E8B
133C
15A6
2721
0857
17D2
0645
30E7
39F6
3EFA
01DE
3BE4
3FAF
0276
39B6
3981
0A34
3E3E
0D54
3483
020B
379F
065E
3897
0E60
096E
0F1B
3C73
3C25
2823
2B09
2CFF
2AD1
0972
29B4
1934
10B0
2DC0
288B
2987
387C
0327
0378
2494
2886
0877
3BA3
03D5
3D7F
2E2C
390B
0CE2
2E08
0BC5
28EA
384F
2B42
12F1
0474
3CCE
086E
3724
2F56
2775
3ED5
1369
2E8B
0273
0B01
185E
1894
13C7
350C
0FE5
3FF7
31DC
1186
2C01
3C18
3CF3
179C
16EC
0322
0762
27DE
354B
39DF
2C89
3742
2D33
33D0
2B54
38AC
394B
37EC
317A
0A96
2BD2
2EC9
0F57
280F
29CE
0673
3F27
26E0
0031
1849
2DF5
3058
3319
08C0
039B
3B71
379C
1025
30A5
3E23
39F9
0DB1
0400
3E9C
3BA4
11AE
1227
2BD7
2CD5
0E20
3F84
1767
1477
2D1F
2B2F
29EE
1537
0D4E
0592
0EED
01B5
09C5
2E03

