3FF6
01B7
2F38
1296
33F5
35B3
0BA4
3651
0442
0446
27F7
0E21
35A8
091C
3338
3A27
32C8
0476
3BAF
19B3
359D
0CE8
06A4
2A10
336D
3CD6
0C79
0D68
2888
0FED
06B1
2BCB
147F
280D
0909
272D
321C
169D
033D
2C39
2A3D
0B07
3B81
0995
0BCC
1086
3184
15C0
0F1D
3751
0CD3
34CA
2826
0DB6
3033
0CC5
24B7
1188
1518
0B24
14CD
0814
3339
360A
38FB
36F7
3A31
3379
3BD6
2CCA
2D9B
006D
37BD
04CD
13F9
1869
3B1F
29CE
39F1
3D34
2DE0
3F1D
0A31
3D19
2A0F
0871
2D36
3923
3206
1692
3E46
3F47
2A1F
3A5A
1827
0634
29A9
036E
3896
33B2
2DC8
3C75
2D04
29EE
30E2
03CA
32F0
281D
2E33
1035
17F2
2A4C
2CC8
2B87
2633
37FE
10A9
3F65
11EE
3779
0168
13C3
0D03
2BF3
13AC
3AEB
035A
3EC9
1617
1263
2944
1563
35F5
3D1A
256B
088B
00F0
00CE
0FA7
3E80
0194
0474
059E
33CF
2A11
2E86
1729
2973
0BC9
3219
3833
0787
128A
278A
340F
305D
1350
0C6B
0028
0811
2557
29CA
331C
0115
039E
0B26
2723
2D74
2830
2B9A
2F3B
3C96
2D89
385B
3200
38CB
3701
0190
2885
2ED8
07E5
3777
3438
0100
1161
26BA
020D
30D1
27B9
36BB
3D98
366E
25AA
33CB
0260
3624
0B42
3A35
3253
2947
097F
2A0E
2873
3581
06AA
1602
1040
25BB
3E13
12F0
1791
19E5
3286
0B84
10A2
2647
12D4
1959
332D
31C1
167D
275C
1006
0416
13A0
020B
0B7F
29BB
1598
16EC
3345
2FC8
39B0
2659
17B2
0DA8
35A4
0A57
3EBA
0732
11C9
0A9A
0C01
1081
38D7
37EF
33CA
09DF
03D5
320E
2CF8
1906
35C1
2B8F
1505
36F1
3B26
2B8F
182C
380D
1577
3DA9
330B
1125
3333
287F
34E5
3AB6
1701
3479
0A4E
01B8
1244
35A6
39F4
30AD
0215
1690
27BA
383B
04DE
1443
29E8
3999
2E12
3F57
0853
3290

