BEF818F1
3D902F9F
3EFD46CE
3EE19E95
3F24FBB6
3F0D2387
BE49953A
BC4C0E80
BECE97C1
BF30DEB4
3E4C0890
BE88B70C
3E90EB11
3E471869
3D08E3B8
3EEB6CB0
BEC282A1
BEA11FF2
3F1D6A25
BE60C9BB
BF140F62
3E6EDC86
BE374BB9
BE2788FA
3D068951
BEDA271A
BECE81DA
3F105639
BE923318
3F60BD92
3E758907
3D4F5BC5
BE83C929
BEDB60A2
BD0E9780
BE285CCE
BD848803
BE8566A3
BF01CED1
BCEAB0EF
3E8C8F5E
3E958267
BF12A82E
BEF94019
3E44ABB0
3E4823F4
BF0BF10E
BE8EDB79
BF4F838E
BCB6AB57
3EF40889
BEACAB94
BBE7C602
3EB20687
BE1C042F
BE24CA55
3D2E1498
3F1A2FF0
3E101A21
BF56AAF1
BEC215C8
BD3294E0
BEC6C5B8
BBF51B00

