3B58
2A60
2C63
04D2
054D
3B9A
3F14
105C
3AE6
0804
2EA3
2EA5
3F07
14C2
0975
2CD3
1841
2BC5
32F2
122C
256E
0BE5
35FB
0793
3AD0
0DCD
0223
16C6
043E
0CC3
2C94
1255
012A
1895
184B
0A04
1295
37BD
09EA
00D0
3F9B
3BBD
13E9
3000
0183
2893
35CD
3EE8
2A0B
049D
3066
3C5E
32BA
16EC
398E
0C36
3218
1803
14F0
343D
1288
347F
1748
122C
01DF
3914
0F6E
2AA6
26C0
0D90
2578
3093
2B5B
017A
0D82
3A3F
3080
3760
051A
2652
3DE3
3F25
109D
0F78
3D61
0D4E
1784
3601
0AAB
03FC
16C9
2ED9
2666
3646
3C9A
3F12
24B7
083C
3C24
3794
2915
0BAB
0F3B
2E05
0B49
0D72
041F
269A
0D9D
386D
0437
33EC
0BF2
11A5
0D61
0427
01A9
0ABF
27BF
1866
395C
1A47
0927
0982
0381
0CE3
37E4
358F
3B07
1621
2C6E
318C
0B90
3313
2566
3035
279B
3A23
1477
01BE
0A95
261A
149E
0CA6
2CCB
0E52
26FF
2DFA
2DB5
2A3D
3F92
259F
0029
0D26
24CC
341F
07BC
163E
2E9B
2E08
04A9
06C7
05B9
3DFD
2AF2
0A96
16AD
3AE0
14D1
2F2C
3DF3
2954
0C3A
07AC
33F6
3716
3184
3046
3F43
3BA3
12B2
2BD5
01D6
2D22
0A50
29D2
13A2
17D3
2E49
386D
3822
03CB
2B02
3CAD
0757
0C55
2909
118C
25A8
1562
1330
1A31
3D34
01C5
25B1
0D64
33ED
3688
2893
265C
266D
2A1F
02CC
3832
0AB9
130D
39F4
36E6
04C9
27B5
0710
1808
06E0
36FD
2A08
0F86
3D7D
3841
118A
1216
03B1
3C5E
1033
074F
0BF4
0CF5
3A56
08F5
19B7
3432
3F8E
3514
37A1
2C83
0E32
01A0
2B04
2954
1315
0A07
04B6
2DB8
08D1
3823
3DB7
3C90
13CD
0D8C
3A08
3F18
2E59
2BB0
098A
3209
0642
2DC2
0FF0
021C
3458
2888
2BB6
0B38
31E8
3524
0E57
2853
394B
260F
143A
2694
1694
1862
3B58
059F
28A9
26B9
089C
01BE

