BB9BC9C0
3C6E3223
3C98B669
3D84B97D
BD1F60B0
BD497E7D
3C6613CC
BCA385C3
B91AF9CA
3D917E2C
BC34E79C
BDCB8CB6
BDAB2CD0
BD82159B
3D16325B
3CCB8041
BD948BA1
BCD1BE9A
3D1CE464
3D148DCC
3CC10882
BCD8BE9C
3DB66534
BD23C409
BDBD582C
BD8AD820
BDCC3001
BBB89FBE
BC94E85A
3D380F47
BBEBCC39
BB6E3159
BCDAEB28
BD544140
3DC03152
BDBBB652
3D613F48
BDCBAD24
3DC24080
3D94DE5B
3BDBB740
BDB85BA3
BD393616
3D95CC1E
BD157900
BD92266A
3D5DFD78
3DAB034F
BC2733D0
BC3EABD0
3D228AB0
BDBBCA4E
3CF6B118
3AA0C100
BD4F9E9D
3CE32331
BD29BBD5
3BCA3587
BDBE7DCC
BC53022A
BDACFC2C
39DC9500
BD5A74D0
BD251FD1
3D82FCF8
3E16715B
3E261A9B
3DC68D66
3CEFEBDD
BDD1DC44
BA93FF4A
3D339F12
BD86396F
BDD6EE74
BD8B3C0B
BDD0CF17
3C35AC13
3DD1B8F0
3D6F0B4C
3D35161A
3D296B81
BD040D97
3BE4CD40
3C9A56EA
BDD51FD6
3D268461
BE0BF87B
3E4D13F9
BD914D6D
BE18F547
3D0F41C8
3D9EA258
BD9CE173
BCB32312
BD5AA897
3D83BBB4
3D27F5C0
BB80FFA2
BD447A70
3D98684B
3D440ADC
BDB563C2
BC61CA90
BDA7009C
3D94B048
3D82767F
3D8A69F6
BDAA7851
3BE5F5DB
3CF57490
3CDECC78
3CB6B217
BCFF903C
3D81BAC8
BD883551
BD33799E
BDCDFAEF
BD7C5695
BD4275CE
BD220C01
3CE53808
BCB62CB9
3D30A244
BD8F9306
3C9A4858
BD64751E
BD9FF07C
BDAEA5AC
BCE73CEC
BDB15ED2
BD964881
BDCA4869
BD90F856
BC9ABC3C
3AC47C40
3CDEBE70
BD40A34C
BBDA5720
BC9E3890
3C1935C0
3CAD816C
BDBBF425
3D91F198
3D15D058
3D13BA58
BD81AAAC
3D2265BC
BDBE7E31
3D59353C
3CEF2E50
3D35A584
3D3B0F38
3B750900
3D8CB3EA
BD88757A
BD22B1AC
3CA9AED8
BAC39200
BDA9AD0F
3BDAC380
3C64DEC8
3C47F8FF
BD953CE9
3D4A1E6B
BDC5425A
3DACD5B2
3DAFD716
3D39BC78
BD24C24C
3D4F44A0
3D93513C
BD171C7C
3D65FE8D
BC659576
BD33DA38
BDA78BC9
3DCDECFE
3DB81EAA
BD9933F8
BC642587
3D63EF0A
3DC07224
BD9C93E7
3DB59B1D
3D42F716
3DA733C1
3D7E136D
BD8D8810
BC8CB16D
3DB25D04
3D013DF4
BC9229E4
3CD78F70
3E63D939
3D8394E4
3E31786D
3D6A027F
3D2996FE
3CE0934C
BD82DBCA
3D3A4A45
BE233582
3D044D64
3C850F77
3D60D018
3D71F36A
BDDB189A
3D4E5077
3C72AD4B
B90DBCAD
BCCB7A98
3D65D887
BC275EB9
BDA7FD34
BD8BC9AE
3DAE4EF4
3D1C0588
BE22BF3E
3C5DA84C
3DB4718C
BB6BDA1D
3C918DB7
BDDA5D98
3BDEF481
3DBE0D08
3DBB7804
3AA6EDC0
3D8ADE5A
BD88B92E
3CFC8F58
BDA80AD9
3D520614
BD1AE19C
3DB0B13A
BD0737F0
3D74A8E0
BD94B0D4
BDCBB80D
3D713B08
3B0C8040
BD7D00AC
BDAC746B
3D008F74
BCCE2478
3D846ABE
3D17883C
3CFB7388
BD7A8C0B
3BA0D510
3D8E2CE4
3C056D38
3DBDE3EA
3D82E7BE
BDC3A854
BC08C120
BD355F8F
3DA49A90
BB9975BF
BDC5FCF2
BD521E42
BD97084A
3D6BE280
BCD18948
BCBBE70A
3C88557B
BAEFBCC0
3D98281C
BDC8469A
3DA272A1
BD44D210
3D615AA4
3C614A85
3D9C9A1C
BD90662E
BD69F29D
BDBCEE25
3C79C3AE
3D249F38
BDAACBF4
3D3444C7
BD0D92F1
3DC33186
3D8619BC
BD862CE0
BCA32865
3BF1B870
BDCEF2F8
BDA236B8
BC29F490
BDA76CD1
BD74AF5A
3D25BFBA
3D68DA60
3DAD06AB
3C66F875
3B1B9ED3
3C88C218
3DCC86F2
BD5F7F5B
3DA43448
3DB30F1E
BC8A9B00
BD102B9C
BDAE04A3
3D8AF36A
BC9FE244
3D895B32
3DC377B8
BD0B7A4E
BD5099E4
BDB519E8
3C77E9C0
3D013B0C
3C2F3AB1
BD2443B5
3D69F700
3D0042BC
BDB4FEF8
BD981ED2
3D9188D0
BD939FD0
BDCC5B55
3DA3ECDA
BB9D0E90
BDB405AC
BC621198
BCA632B8
BD533AA2
BDC046CE
BD87DCFC
3DBF2232
BBB62270
3DB49A63
3DC5559A
3D9FEF46
3DBC3D1F
BD5AB15C
3DB746A6
3D726D78
3C4A05D0
BD1A93D8
3D3BC49C
3D09EBA4
BDBD8792
3C3BA0E0
BDCF4D52
BD944B1D
3D7F9420
BD8AE516
3DA646D4
BD9168CC
3C893F54
BD7F9C14
BDAC80D0
BCDC47A4
3D23B7DF
3D378918
3DC54EE0
3CC3EB00
3D15D2A2
3D621B1C
BC83C47C
3D3E2BFA
BD79401D
BDA9EDED
3D06B8EE
3DA445EE
3DB7498D
BDB9AC7A
BD0DFC8A
BDCA6593
3D1A5482
3D6EBE7D
BC552A58
3D807D70
BCAEEEFF
3C4FD158
BD80829A
3D21D194
BDBE3B9B
BD8AD510
3DAF9C6E
BDB28B85
3D8463F1
BD3F066E
BDE1D281
BD78E9E9
3DA0216F
BD3C9BB5
BD97AB9A
BD2949BA
BDBF1760
BD257243
BEA05E51
BD8225C2
BD960CA7
3D257AA8
BCE5333D
3D1320CA
BDD1844C
BD6BD46C
3C2E7D7A
BB805CC0
BE2BFA71
BD98FA8E
BCA47B1C
BD239E6A
3DD0ACE1
BCF8B9A7
BE6CC77A
BDA350C4
3D454DF7
BB787A75
BD78BF14
BA681A0D
3D23CA5C
3C6A8758
3D99BA15
BCDE65C4
BD520ED6
3D63D75E
3D9CFC6F
3D5D1BA0
3D732D93
3D11C3B8
BE8677A6
BCAD4566
3CE2C5EB
3DD4748D
3D9C0AE2
3A65888E
3CE3A1B7
3CBE324C
BDB01C6E
BCF302A8
BE11B7EB
BE2E27B3
BD8D396A
BE14BCCC
3DBBCCB3
3C0062E3
BE64A919
3D05928B
3DB43E20
3DA611C2
3D955420
BDE2B7CA
BDC10004
BC0996D8
BDD934C5
BD9B15D9
BCB19230
BDAA9D08
3CCA5BD8
BD0CF496
BCD6A704
BD4C7733
3D68932E
BDB33C0C
3D127B04
BCE9BBBA
3D996581
BD04B7BA
BD22FE1B
BDB3B9B9
3D606EF4
BD8CE631
3D91EB76
3B360F7E
3C4778A0
3DBBAE9E
3CC5A79F
BCF3AFE9
BDADE430
BD2D35B0
BD9BF31E
3D175F50
3D9D9DBC
BD0B042E
BC5619B0
BDB282D8
3D123C9D
3CC668BF
3D307491
3B2A622D
3D988E13
3DA3BF12
3D98D84D
BCBB1A24
3DD03E48
3D1FAA83
BDC3BB69
BD7BA053
BD319E20
3CE79702
BCE8725E
BDAC2E7E
BE04DC45
BDA4A44F
3DBEEA82
3C6CCA8A
BCCC16E0
3D8335F8
3D314718
3D3D4D8B
3D42390D
3DA602F7
BDBF8945
BD9963D0
3C8E6EF3
3D0E1D63
3CEC25CD
BD6FB393
BC5D0E2D
BD9ACF4D
BDCE0341
3C9B5B1D
3C219CDD
BDB3292E
3E012DD7
BD537114
BD5C5EA3
BDD7E297
BD9933BC
3D08956B
BD6BF5B7
3DA8991D
3C82F2C2
3CCA6421
BDDE7BB0
BCE9F994
BD154EBF
BCB6223D
BDE1E7FD
3D35D1C7
BBCEF76E
3D1827DA
BDBC24DA
BD43BEF8
BDAA3D49
3DC20D98
BD14FDE3
BDDBE6CC
3C8A7A67
3D7EF338
BDC08E71
3CA5DF2E
3D1235ED
BCC4C916
3D90CCF9
3DA4A0AF
3CA05EDF
3C8ECFAA
3D5D5EA6
3CECBB02
3DA5E1DC
3CB24071
3D6D615D
3D97372B
BA82D4E0
BC26050C
3CFD5653
3DCE3236
3D3D14FD
3D0D7474
BC68E438
3D30B987
BC1781C8
BD83AAA5
BD210EF6
3D397D24
3C9974E8
BDA1D1AC
3DA25D53
BDCF4B8A
BDAD6573
BDC4EEF4
3D4175D5
BD2D9FAD
3DACDEE2
3CF886C0
3D3AA78C
BD084F82
BD9A2342
BC8A0A94
3D679CFC
BD4CF94E
3DC840D2
3D8DFFC2
BD8CC888
BD85B94E
BD1C5F66
BC53C0F0
BD4E1789
3D822358
BDA6200C
BD8D59C7
3CAD17D4
BABDDC1D
BDBD9C01
3D8D1590
BD701223
BBB59840
BA59F2FA
BD50D9E2
3B54A3E0
3D10B030
3D4D8D44
3CFAD5C8
3D836642
BD21CBAC
BD46CC0E
3C258330
3CB3CDBC
BD99F370
BCF88388
3DCD9B84
3DC6B972
3D40F794
3DB7C5CE
3D925992
3D94B4D0
BD95E95E
BB57EDA0
BD2A63E7
3D04BDC0
3C5BD7B0
BDAB37B2
BD696DC8
3C71B3F0
3C11BE08
BC211D20
BC0DA450
BD20D87C
3D2DDE44
3D65035C
3D916130
3D3DBE0C
BDB85D14
3D34B7E4
BD6017BE
3D54DE1D
BDA9E7EE
3DBE69A0
BDB957D2
BD91D39C
BD444B28
BD23AB2B
BD2625B3
3C7108EE
BD4893C1
3DAA35DB
3CC35965
BD4B0EA4
3CD6871C
BC805280
BD191C0C
3D9B83BA
3D504CFC
BDA351EA
3D6E15BE
3DAF3658
BDA47D25
391C1358
3D8EFF1E
3DCEE495
3D147B82
BD895FB5
BDD48EF2
3DEBE997
3D1CA000
BB257C35
3D181474
3CB3CB76
BB6888F7
3DA1B2B0
BDC073FB
BD497D4E
3DC9646A
3D2C9D9E
3D4E8D4C
3D4CEDE0
3D5C23BF
3BC7D0E0
3D2403CC
3C84FCCE
3D9F5CC4
3D9C89F3
3D8F22EA
BC254A70
3D9C92AC
3DD8DB47
BD3CC450
3D734490
3CC84B2F
3DA44FC0
BD0A016F
BBC97F0C
BD150754
BD65C9A4
3D3E5264
BD056F08
3D3BECC0
BD8F3531
3DBF013E
3E15E43D
3D909C1F
3CAB7787
BCF54EF6
BD29EEAF
BD5BA19D
3DDB0C7F
3CD496AC
BE1DC52B
3D336661
3C794F81
BD6A8993
3E3224B6
3DBBACF7
BDB27766
BD8E5899
BC88C437
BDA4950D
3D360C3D
3E04D29D
3C2109A2
BCB52916
3E58420C
3DAAEB52
BE206E69
BD8F4936
3D096ACC
BD204EE5
3D16C2A1
3C01F737
3D8CD340
3DA4E00E
3E940184
3D2AE2C6
BD0C88CE
3D4C6BF1
3D5C1A03
BD75499D
BCE4FCF4
BDAF7BC7
BEB40C29
3D1EACE4
BC0D8BBC
BDEEF902
BCC70970
BBC8DE5F
BE049B43
BD334FBB
3C8A1F1F
3C98F978
3D930516
BDDBC0AC
3CBBA771
BB1625CF
3D3F5ED1
BD7BCDE0
BE315AAE
BCF6F78D
3C7DD7A3
3CF26D16
BDDF156F
BDE10086
BD5896FF
3D7EDAC0
3E80285E
3C6550D2
3D8462F3
3B94065F
BDDF684C
3D080508
3DB81B99
BD492250
BE7470BE
3C840265
3BDF309B
3DE32B0C
3E59E72D
BDC97D5D
BD8EAFA3
3D5E8DAB
BD66AD80
3D026EC0
3E98BA59
BCC4EC6F
BBDD8B8C
3EC24FB8
3D5FF08E
3CE3C946
3DF1E569
BD43C1B2
BE0BB6D8
BCA5FDD9
BC808EB2
3D99844C
3D3A9CA2
3D55C454
BD80EB56
3DC38FF9
3DCB036B
BDBB5693
3DB3A8AA
3D12EEE8
BB53C6D5
BC4A7E40
3C98867D
BDC731B0
BDC1B687
BD1FA23F
3C3DCEA2
BD7BEB8A
BD962B9D
BDC9C7DD
3C83C675
3D86373A
BD3B8D9A
BC2A2E8D
BD69F650
3D9AB924
3D76501B
BCCAD285
3D2981E9
3D4A491A
BC8A9172
3D5CD6DA
BDAE5188
BCDC49FC
BDCB7401
BDAC5EF2
3E26D7CB
3D016101
BADF288C
BBED77FB
3BC86363
3D214F20
BCD0ACD1
3D479FE9
BE6DAF8A
BC20A1F6
BDA8A0D2
3D796B88
3DA3D79A
3D23A312
BE207978
3CB32037
BD34880E
BD249445
3E27E0BF
3D8AEB26
3DA0B0E9
3DA8AE2D
3E416872
BD99DB77
BDF56AE5
BD756E09
3D92520A
3C08D62B
BD8EA3F9
BD1B9CEC
BCB4B804
BDB8EF24
3D4F67FD
BDA28016
BDA3C5EE
3DC02089
BD8B2F1F
BDBDE39A
3CA1A9AB
3D568E25
BD9BE7F3
3D97C64C
3D9C38FC
3D7E0E9B
3D3779A9
3DCF8DC0
BD2EB65D
BCAC8DE4
BD23C5FA
BD1131FC
BDBACA6A
BC08362E
BD8B348E
BD56E724
3DA1221B
3CE657B7
3C0055D7
3CD9AAEC
3DBBCD6C
3DB631AE
3D9BCCDA
BD91D4F4
BCB39AB6
3D98E7A4
BD763D6B
BCE55D64
BDB8D7B4
BD89040E
BCA91BC4
3D9CF104
BD82BC01
BDBBB980
3D8AA240
BD382EE5
3D3A8DE0
3C5C22D0
BD52BBAB
BD0EA124
3C81C2DC
BC59CC38
3C046F98
3D7C900C
3D396000
3CB2C534
3D9F4A72
BD8D09C3
BCFB10EC
BBCF7C30
3DC9A38E
3CB58854
3D5E2C78
3C87C3F8
3B388460
3CA0FD20
BD1C2194
BCCCFF9C
3CBF75E6
BD1DEA90
3B629C51
BDBEA65A
BD394EA2
BC26E438
3D50EE4A
3D7ED07C
B9214800
3D496B94
3D905FF8
3D2CCF04
BD3F15EB
BD880D90
BD2E3356
BD70672D
3BB610E0
3DBABFB6
3D8A2574
3D97C866
3D6F99B4
BD24D0B8
BDC45F07
BD5F6BB7
3DAD4B24
3CA712E8
3CE02B80
3D4C3F6C
BD06E924
BDB1912C
BDA29EBA
BD8BEDD0
3DA6A5E0
3D8C41E6
3D235AEC
3C3B2E70
BDB44E8E
3D4DF058
BDCBAE1D
3CD62E58
BDC03AFE
3D7FD830
BAA56500
BC6EC598
3CCB3E48
BC4B9098
3CAF1F2C
BD31FCF3
BD64AA78
3C28DD18
BD7AB132
BDBD4021
3D828CC6
BDBCBDA4
3D58F34C
3DBEE6A4
3CACA01C
BCC855A0
BDB7B26E
BD9B5ABC
BDC2F70C
3D561FBC
3D257B80
BD2173C6
3C8D8163
3D87B330
BD049A77
BDA54E76
BD8985F8
3C85E3DE
BDB52F59
BDA1A395
BD9DCA96
BDB1D67B
3C75B41F
BD2B31E5
BDA713A8
3D2127BC
BD683DEA
BD2874F4
3BD642A0
BD3181A9
BD9586D7
3D51B87E
3BBDAF50
BDB8AE49
3DBF4E1F
BD090C07
BDD2BF93
BD144FEA
BD82340A
3D92AEB3
3DBB9514
3DCEC2A2
3B851557
BCF6EE70
BDAA7AF0
3D595556
BDC2208D
BD236EEE
3D74E8AB
3D61A483
BDACF401
3DA3FCBC
3DE0701E
BD8C17FC
BD4EECCD
BC9EF3EE
BD629043
BDD3BB84
3D958AF0
3DB0675B
BD938F2D
3D534EB0
3D2BDDD3
BD1918CB
3CAE32EE
3E1DB1A5
BD8499B2
3D5C784A
3DAE2A31
3D84449F
BDA60588
3B9554F1
BB56FF16
3D851632
BDF9432A
3D8A12CE
3CD647CF
3D539B9C
3DAB5A5C
BC4C73E0
3BB6AF50
BD88CFEE
3C319346
BDBF938F
BD9C1B18
3C447D98
3DB6BD64
3D39C22E
BA051700
BD1F4516
BDA68A6F
BD0DB74A
BD9F64B6
BD65EC7A
3CD46CEB
BD24CD6D
BD911841
BC651542
3D8C6085
BC91B54C
3C8DF08E
BD6144E7
3DCE1A34
3DC4AC94
BDC6CE15
3CE1E770
BD0FAC44
3D82A4DC
BE40D714
3E362E7B
3E05A60C
3C66F6D4
3D1031C4
3D7ECF3F
BD2CC0D3
3D109A0B
BE9919CD
BC3A3244
BD881EA4
BDE8E307
BDAA7A57
BD120B10
BE8883CB
3D71C979
3D786059
3D907DA2
BD672CC7
3C340C42
BAE8E37A
BD9FE3B1
3E12BAF1
BBFECD63
BEA9CF2A
3CCA640D
BDE0B0E9
3DC25E0F
BC891227
BDA88551
BCF6F65D
3D695220
3C1B97C7
BDA88701
3C624E75
BC87FB88
BD8F7ED2
3C52A158
3C0350A2
BDC692C9
3DCCAF0E
3D89C2E4
3D8FEB02
BD988F62
BD818CBE
3D64D6F8
BD84D401
3D5DA15C
3BDE2FC8
3C46FDB8
BD43AEE1
3DAA642C
3D931C94
BCDEC833
3D844A3B
3DB8913E
3C38F3F4
3CA213C0
3D9AED6B
3D2048FC
BC04CF20
3CC953E8
3BB21480
BD950FE3
BD3C7329
BCBACA14
BDB0505A
3DCB4A56
BD069E54
3B077EE0
BD8A286D
BD5E3F52
3BA97200
BDC3F6CA
3B646480
BD99D4E5
3A418580
BD317C95
3DC53DFA
3D9AD386
3DB8C7B8
3D72ED7C
3D8A65F8
3B7BCE00
3ADE6080
BDB6EACC
3C1B6570
BD915D1C
3D14FEB8
3C865188
BD92E7C5
3D94AC2C
3D308DA0
3D0A6558
BDC9B1FC
3C13EA28
3BD50B6D
BD306D02
BD48FA88
BD6B4046
3BC95FC1
3DA52AFA
BD2F4581
3DB4ED9E
3D82DC70
3D789068
3D853BB7
3D8BE6A6
3DBB012B
BD667FBA
BD93798C
BD834B02
BD993D00
3D31C3F4
3D9C46A9
BCD19957
BD80DEEE
3D21D543
BDA670CF
BD9EC8CC
BB9DB1B1
BDA5D1C7
BD9B7228
BD0425A7
3D84997A
BDC02B67
BD8F86EB
3BB38A70
BDD56170
3E0A81F5
3D1D2A67
BD646E25
BAA628B4
BD29710A
3DC9CCC8
3C4F4A61
BDE03029
3D81F5A3
BD6CC8FB
3DE01DC2
BD627624
BDCE19F7
BD917079
3D4DCB6E
3D28E00C
BBF64630
BDC3ED5C
BCA69A00
3D3B21D0
BCF76D5C
3DBF1347
BC7049AF
BE5BACC2
BDB9D302
BE2068C2
3D1EAD74
BD93D9CB
BDB0B7C9
BD922808
BD2258D3
3D1D22B8
3CEB2968
3CC096C8
BCEB4674
BCBDA840
3D88A7BA
3D8FA5AA
BD9E3309
BD2E0330
3DBC91B4
3C1B4C08
3D86CE8C
BD870BB8
BB0083E0
3D735330
BDA8C0A2
3D2BB2E0
3D762944
3CBA779C
3CA25A14
BD58035A
BD2AF874
BDBF0B06
3DCF835A
3DA6EE40
3B1D1EA0
3D3D8C58
3B50D960
3D8413C6
3DC7EF8C
BD3CF009
BD0C3A7A
BBF094F4
BCCEC6CD
BDC0CDF0
3C9FCF9E
BD36BD71
BDA85E69
BDA9FC51
BDAE12B4
3D90501A
BD8DCB78
3D0C277E
BD8994B2
3B5AC535
BCD8C89C
3CBF5446
3DA1526C
3DA986E6
3D8661FC
3DA11DC7
BDB2AE32
BD73B4DD
3DC147D2
BD08229A
3D6A0D36
BD9F2B4D
3D9055F7
3DC855F6
BAC9CE27
3C10A1E0
3DBED1AE
BD616F5A
BDA7FE96
3DA01F81
BD48F886
BD563F52
BBDD5FF8
3C4012E2
BD4E8B64
3DAC59C2
3D3075BC
BC3369F8
BD3E7637
BD1C0AAB
BD775F4F
BC5BD0E3
BDBF190C
3D83950C
3DC0C838
3D8C9C22
3D8B276E
3CEB9AD9
BD3A4F6F
3D053534
39F80FBB
3DBF4B20
3DC0C19D
BD04DC2E
BC91D295
BC3293F0
BC885E85
BCB35D60
BD88F7D6
3C00408E
3C93C4B4
3C3FCA46
3D051D40
BCD2758E
3DB9A4C2
3D79D858
BD2903DD
3D0CF3A3
BC8FC608
BC19D808
BC6CC278
3DCFA050
BCBC5CA5
3D94634A
BD248D20
3BC3CA68
3D0EDFFC
BC8E08F0
3D8B91B6
3D8353DA
BD71437A
3DC21930
3CB9C4A7
BDCC87CF
BD060BEC
BD4A049D
3CA3BAC0
3D931D72
3D9F4900
3D505E7C
BD16D95A
3CBA2318
3D893B74
3CA195C3
3DB0F1BC
BDC933B9
3D15C750
BC895B8C
3D172804
BDC69B32
3D19540C
3CD73200
BDC782E2
3D0AF300
BD8298A6
BCC8EF52
BD9CCFA8
BD4C4990
BD099510
BDCFC2A1
BCBC7BE4
3D046FE7
3DAB3367
3D9B3BD0
BD88F6FF
BD8A6C52
BCFCEA50
BD03EC63
BA7C6FEB
3DAEEACF
BD7FFE7E
BDD0C476
3D950110
BC3EF018
3BF51F70
BE05F6C6
3E17024D
3DE81A89
BD086E19
BD57A832
BDBF3F31
3DB23B78
3D3CC058
BE55B5DA
BDAFBC96
3C56E121
BD288FCA
BE475567
3C8C13AC
BE35DF00
BD4D61AB
3AF6DA2B
3CFA08A0
3D4F6952
3DE49675
BD81F7FB
BDE36B0D
3D3D9D93
3DAE4C7D
BE86CE1F
BD9FF1B0
BD8EA07F
3BC1E146
BC07F5F4
3D3C8A73
BD7C3ECC
BCCA7528
BE03C42A
3C9C657C
3DAE19AB
BDD11FAF
BD3BA1AF
3DB1D6B2
3C8C6B22
3D843730
BE439C82
BD09C109
3D2FE88D
3D67832E
BE09404C
3D577D0F
BE34449E
BDD9CE18
3C287017
BDC1E8C0
3C15C93D
3D062CC0
BBFF6333
BE401881
BBD5AA65
3CB991E2
BDBE5E53
BD883758
BCAFEE3E
BDBB65A6
BC9006BB
3C81495F
BDCBD316
BD9290AC
BDA1D46F
3BE7E225
BDBAC106
BD53A21F
BD89DA49
3CA0F7D9
BC995AE5
BD67B6AF
3D4244C4
3D9A558E
BCF4F938
3D5E266A
3D9E1215
3D8FF990
3CC110B3
BDC9F016
3CE0DA58
BDBD2634
BD7C0C6C
3CA53A45
BD2A3281
BCF5606D
3D3B835A
3C9C8108
BCE11ED2
3DA99281
BCC374AB
BD2325B7
BD95ED7E
3D880A28
BD9519BC
BDB94943
3DD61E53
BD8C873F
BDD48E3D
3D4169A8
BDA5B1E1
3D36764F
3DBA6B9B
3DAE05EC
BCF3278E
BCED1460
3D252F74
BD269650
3DCFE011
BDBA1B51
BD894F94
BDDBB36F
BCA952A0
BD5B3C10
3D1BB90A
3DF1FA70
3C86A863
3C16B219
3DCCDF50
BD8C2BEA
3D8479DB
3D128770
3B6D202A
BB8BFA55
BD7499D2
BD746E54
BD038A86
BC4B3160
3D8574A7
BB7C5FFE
BCF9A56C
BD589F5E
BDDAFB54
3CF8159F
3D63FD7B
3D71DCA6
3D7F3195
BDCD9A3F
BD8200A4
3D5CFFBB
3D4F1284
3B4F2F52
3C7D889C
BDD9213C
3D86778F
BD52A49A
3C949894
BDCB2A53
BDE43992
3D9718F6
BD1823A8
3DBB2309
3D4A8765
BC9702C7
3C6431F2
BDAFA7C2
3D596217
BDA5E179
3D124D26
BD8FE114
3DECF54F
BD136D25
BD120C3F
3D990899
BDCC3941
3D9B9EB5
BDA65F15
BD0AE69E
BD8DAE72
BD0A44E8
3D9E20F9
3DBF978F
3DE0D8F6
BCD864A7
3D9A4FE0
3B508E1B
3A4ED607
BD22CC07
3DFAA0EA
BD8E47E5
3C31D10F
3DA322CE
3DF63544
BD1C6F66
3DEC1EC5
BAE1E775
3C4CD6C4
3C93A6FC
BDCA9060
3C47B578
BAF5A2AC
BC6A6C80
3C067079
BD6FB3A6
BCF82D98
BDBF9AFF
3BE81D60
3D149A70
3D91FEC2
3D4D3CEC
BDB42B2B
3DB92A5A
BC7BC710
3DDAB506
BCFE4CDC
BDB3CA73
BCDD0C74
BD9DF363
BD58A785
3D16B718
3D83C965
BCE195D4
BD335F8A
BCC4E771
3D29CC9C
3D3B9C18
BD97E3A7
3D5EC95C
BB68DBC7
BD7991D0
BDC96B6B
BD3302D1
BD49098B
BD70F9CA
3D9C7D7C
3DB824FA
3D6817C0
3D558768
3DC546D8
BD47946E
3CB64104
BD335393
3C88DA64
3C1FC9A8
BD856545
3D1585F4
3DA3720E
3D0D6B50
BAFEF100
BD13A1D8
BC808B28
3DAE1354
3DBDC9C2
BD3F7E7B
3D77F7C0
BC86C3C8
3D13A380
BD8B89FC
3D835B1E
3D781298
BBA45040
BC687300
3D150694
BDA7EBAE
3D181248
BD42118C
3D93D331
3D88A16B
3B513E44
BCE36C80
BD033044
BDBC3484
3D5CDF9C
BDBECA75
BDBDBC3A
BDA00FBC
3D1E3F7E
BC24995D
BDD2A5FA
3D1384E8
BD04A9F4
3C4E7BC8
BD8D539C
3CF05E18
BD3D9840
BD80C0E2
BCE458C4
3CC7110D
BDCA449F
3D07F799
3D1BE4A0
BC73C333
3D018DB3
BD5459EE
BB6DB718
3D61D6B4
3D801078
3B772580
BDA6DFEA
3DA4562B
3D8660B7
3DC0650A
3DC557F6
3CBF097C
3DC9B092
3D5B6AF0
BDB51897
BD93F2F6
BD8D9290
3D4DA8E3
BDAC6FF4
3D2A8A80
BCDC7F78
BD892694
BD66FD29
3D2F1724
BD8EB8F8
BD167534
3D80E834
BD61DDF6
BD3A1CEB
BD759AE0
3C2DC361
3DB4050E
BCA21B37
3DB764E0
3C9A8FB0
3D049AC4
BCE4BBAD
3D97B59A
BE7F818D
3A0DEF31
3E3A84C0
BD624AB2
3D981C04
3B1E3CE7
3E442BA5
BD7CC6F4
BE8A02EB
BCAA00D3
3BAC3E15
3D893F1F
3D5BDEFD
3D967DA9
BDB27A0D
3D68B018
3D009034
3C0C2F10
BE35C285
3D977DB2
BD1399AF
BC1335DB
3DE2BF85
3D641278
BE241D33
3D93FE1F
BE406C1E
BCCE3DC9
3D92DABF
3CE79448
BD5C9A99
BD6A1B35
3E569AE4
3DE39764
3DE0C237
3D9283C8
BCE129B4
3BEC2A50
3E0B454A
3D4C5EFA
BE79C5DD
BCB0AC2E
3C9837B1
3D5C5CAC
3E172E5D
BDC988BB
BE260A22
3D94FBDA
3CBAF773
BD887A94
3E39CD02
3D450930
3D975C41
3D9FD421
3E2070AF
3D74D847
BE920572
BD563BC2
BCFC862E
3D4360FC
BD9F957D
3D163BED
3D670B93
3C461398
3D60F74C
BB4B9EA2
3D5ED27F
BCCCA567
3D84A1D3
BD8DBBAC
3E1C113B
BDDA405E
BD128406
BD4EA471
BD1AA4F8
3E7906E4
3DAF3A0C
3D96BD49
3E3BC7DA
3CAE99A6
BD3F6577
BDCE33E2
3DCA518E
3DC7020C
BDB53432
3EAACC82
3E222C77
3D10D8D8
BC0B8DD2
BBF044FD
BE8301A7
BD5E789A
BDEC1020
3D8F504F
BD165F01
BD06CE0C
BD8FCA1C
BD8E25C4
3D7F6BEE
3C24D198
BD347B04
3BE9AD10
3D9D20C9
3D8C45F8
3D377611
B899914B
3D217169
3C813749
BB1A9B5D
BD0AB726
BDBCCDBF
3CB0B26D
BDBA8314
BD8D9F0E
3D9556C4
3DD13DE7
BD120562
BD96DE5E
3D42773E
BC373FEF
BD5BF14A
3DA6CFBA
BD2DFA99
3DC01B6F
BCD03B54
BD809836
BCC828F2
3C8B9E80
3D9FC842
3CD1A125
3C4EDBAE
BDA6980C
3DA04935
3CBE811D
3D3F1C7B
3DA8C6EA
BE6057F7
3D9B17B9
BD94DFE3
BDC684FB
3DB7C13B
BD99A2BA
BB9A1549
BCE5BEA3
BDD31D05
3D87F19A
3E3F786C
3E6E6D88
BD1FD77D
3E97BC1C
3E1D7677
BDADB911
BE5A2B4F
3D3CC9F9
BDD64511
3DA78469
3C49F327
BD29DC01
BC873135
BB83B1C0
3DA68503
3AAE4F41
3C532575
BACFD234
BD0B62C4
BDC131F2
BD866D24
3D324E13
3D156E18
BCAD43CF
3CF4386F
3D7A0768
BD99C058
BD9315EE
3D6C2F60
BC4C2390
3DC30672
BC804F5C
BCC2C3BD
3DA09778
3D5030EC
3D97A3D7
BC9A9154
BCCFD094
BD7F1469
BDADDE83
3D410708
BD3C2807
3D58D6E0
3BF171A0
BDC2887B
BD16E658
3D95D864
3D58F100
3CB93F58
3DC75B5C
3C4AB130
3B9B3E60
3D589328
3DA66E70
BD99CC5C
3D525DD8
3D739C84
BD20B1DA
3D898B12
3D2B2880
BC46D658
3CBC9670
3DC249A2
BD722AB3
3C1C6980
BD641B20
BD51B4F5
BDB2E7D2
BD88C26E
3CAEE4B0
BD5ABB29
BCD04C44
BDC8FDFC
3D9440BE
BCB1E68C
3D374AF8
3C3C8CD8
BC892E3C
BCB29767
3CED5340
3D2C8E2C
BDA27CC7
3D39A548
3D611178
BDBDF5E0
3D0144A4
BD40543A
BC8D370C
BD33BEA9
3DA32D14
BD8B91A6
3D3858EC
3DBCB3A4
BDD09BF5
3DA691D8
3C7C02E0
BCD231D7
3D4E0C34
BAE2C1C0
BD24CB21
BB8C6ABC
3C5BE110
BC54F9A8
3D89999E
BD8570F2
BD3801DC
BDCE3881
BD41CCA1
3B90E850
3DA2AB0A
3CAD3848
BD3DE601
3D8611F2
BDCF8635
3D8F4DB0
3D8F5798
BCCA8150
BD4C66BE
BD294A30
3D1C16DC
BC958694
3DADB4D2
3CA0BFFC
BD700E07
3B6634A0
3D877AD2
BDC14C7E
BCD1E3C0
3DA6D88E
BD4C5B35
B962E200
BC7956F0
3D94ADB8
BDA61EFC
BD8FDD1D
3C955668
3C8A9800
3DBA4730
BBE8C1B0
BC83E448
3D489B1C
BC231AF0
BC935F4B
3CCAFB32
BD9886CE
3D7F848D
3D9DCEEF
3D705975
BD4BD832
BD1F517A
BCD057B4
3DA10103
BD6D184C
BDAFD410
3DBCBC07
BDBB3997
3D6C27D6
BD488038
3D83FD28
BD96238F
BD102E85
3D1968DC
BD72A53A
3D2325FF
3DC115CF
3DC5E035
3C2058EA
BD45F021
3C6097A8
3D916763
3DB0988C
3D97279C
3B6CDA39
3DAF3058
3D7E1D5D
3C62B5E0
BDBB5C02
3DC2C720
BDB4C3E8
3D23BA40
BCBC06E6
BCE09895
3E22A351
BC97147B
3D6B8816
3DABEE06
3D92B8C6
BC86BF10
BD6E4392
3D1728DE
BDCDA2F9
BD141F88
3E0A410A
BD9FC11D
BDCEFE18
3D401B76
3D1B51E5
BD9E51B3
BCE1A013
BC89D726
BCFE9F64
3BEF8D16
3D58A1B0
BD333DEC
BC883429
3D5D5A08
BB8FA320
3DC7524A
BDBE9862
3BD19F70
BDB04A72
BD266092
3D16F45D
BD1081E8
3D1B0A67
BD9C409E
3C05AE70
BD66A94A
BCAD9CEC
BCDB6A44
BDCD5C58
BCB7A464
BC94DC4C
3CA5E378
3BC34E7F
BDC22876
3DA05CEA
BDA0B3C8
BD9B34A8
BCCD6B08
BD1921B2
BD466B1F
3DCBEAAB
BCDD6980
BD8303B1
3D572ADC
BDC61F5A
3CE47AA8
BE353B9D
3D085F41
3D7A8185
3D8E0698
BD8B0801
3D7BA1C3
3C9120B7
BCB9D03E
BDDFB2C0
3BAE7F51
BD060DF5
BE14BA58
BE12BEB6
BDA593F1
BE185628
3C2816A2
BC0EB076
BD9BFBE4
BD807866
BD8A0D56
BDDA2026
3E2454DC
3DBB278C
BCF325E2
BE49FDD7
3DAC4A38
BE690BE9
3D76E82F
3BA1917E
BD8BB717
3CD49F75
BC51A540
BC9FB695
BD7732F4
BDB91ED0
3D45A3CC
3CF79210
3CE2DE08
BD3DF26F
BD486A2C
BD7E540B
BD7E1B27
BDAE1BF3
BD3FC520
BDC87BF2
3C26DA68
3D26B665
BDBEDF19
BB53E7AA
BCE1AAE8
3D55244C
BDB7BCCD
3CFA2060
BC8C03D0
3D1883E3
BD95B2E2
3D35A91D
3D50BC5C
BDA61BFC
BDAACC81
3BEF2790
BD360F08
3D3DA7D4
BCB0C798
BD472154
3D5CE104
3D96CA92
3D78F6BC
3D91B44E
3D1B48D8
3C927FE4
BC8539C8
BD5854B2
3BA3B380
BC8FF530
3D882DD8
BDB1F6EE
3BF397F0
BDB5CC07
3D9BFC42
BCB19CB4
3CBF25B8
3DAB8588
BD2A602D
BCB6A7BC
3D4D7168
BD7BAD5D
BC09B958
3C9EBB18
BCE938F0
BCB67F44
BDC9FDBD
BD37B4F4
BD8D6B55
BD861FDD
BDA5E59A
BD8747DD
BC553670
BD488D75
3D2E09B7
3D41E365
BC5F8634
BCAFECDE
BD99AE24
BDCA4B62
3CD97737
3D92B59E
BCCB0355
BD9BFA1F
BB8853C0
BD6B971D
3D936B36
BD701300
3BBEC690
3D020C26
3CFCED5F
BD3360BD
BD8D1121
BD2ADC15
3CF034E6
BD9A16AC
3D61F4CF
BD0A7BC1
3D5904CD
BB918540
3CCB8E40
BD974CEF
BC553250
BDAC3EC3
3DB5A045
3C82C064
BD19F28D
3DB3CF9D
3D4A451B
3DB8C871
BD9324D9
3D99D0C1
BCAD88F1
3D2D2096
3C94C0A8
BE2161CA
BDE3D2AB
BE05B71D
3DAA0597
BD1B5E1F
3B34FE20
BE71833D
3D05C805
BD979121
BD50332B
3D28F140
BC2E89B3
3B56FA82
3D69495A
BB5EA4B5
BDD43981
3DB53849
BD9508A0
BD4BE76E
3DBF0984
BDA686B4
BD508AE9
BDA82D7F
BBADEF40
BDCC62E0
BDCB87EA
3D7D0508
3ADA5600
3D482450
BBC6EA10
3C0D05D0
3D86FE38
BD6BF7FE
3DA89E8A
BC34C8C0
BD572805
3D4991F8
BCCA2178
3DB67492
3D5D2418
3D5C7B7C
BC7B0E38
3D8603D0
3DBE0384
BC9AD330
BDC7DE3B
3D4CA2F4
BD76C866
3B99C420
BDB6EA0E
BD15C1F6
3C95213C
BD74CF53
BDA4C5D8
3BD860A1
BA8A2900
3DA0957F
BD56F609
3DBB96E4
BD042E60
BDAAD34A
3DAB00AE
BC3060C8
3DB0D220
BDAEC3E6
BD965536
BDCA2237
BCF90A80
BCD6D6A8
3CF014E8
3D9C5080
3CED6ACF
3DC1DB82
3CE1C27A
BD19117C
BD9372A7
BCAE2482
BCD27EDC
3DB00C1C
BDA52014
BDAABCAF
3AA6AD40
BD6F6C1A
BC579160
BD8A4116
BDD57EB6
BC283150
BD30132B
3DBCBE90
BCEA40BE
BD5D10C2
3C99A8E1
3DB8FE50
BD09DD8B
BD01FC68
3D4C2EFE
BDAD1A50
3C845F28
3DA07945
3D9355EE
BDB94102
BC63ABF8
BC93AAE0
3D2D42DA
BDD0B763
BD8D2CF1
BD9BAF50
3C9AC20C
BDB8475F
BC632AAF
BD80F0D4
3BBD3E83
BD86772E
BC5649F8
3D47829A
3DA313BE
BDB6DC78
BD94995B
3D17BC3C
BDAE39BD
3CA0DA2C
3B10CF60
BD670849
3D9FCFD4
BD16E14A
BD7FF964
3D385F80
BD8D72BE
3D9DB2AE
BB0A9940
BDC27DCF
3D782ABC
3D52EE8C
3B8935E0
3D8F7F92
3D338C98
BD7BD926
BD65344E
3CF54C98
BCCF0A38
3DBB76DE
3DB48928
3BB0D120
3D582020
3C2CF630
3D7DB320
BD33C3E4
BAEBABC0
BD954203
BB99B290
BDC87E9F
BCFDEB41
3DD091DA
BD856873
BD07BD3E
3DC34B88
BD0F4C1E
BCBDE285
BC956438
3D3FDE2D
BD872E55
3DA06420
3CD035CE
BD65A0A5
BDCD49CB
3D10B198
BDA2F731
3D8EA8B5
3D86FF88
BD30D536
3D749E04
3D5CAC82
3D1A799B
BD4EC377
BD8A25DA
BCB80CEF
3D884D3A
3D4466E4
3DBF8697
3D9B4C54
BE98A474
3E240F64
3CE8FB97
BC87B6C5
3A8A22DE
3C3E7005
3E18B716
BC9C1BEB
BE66CF02
BDC9436E
3D5F4437
BD218EFD
BE1D4CBA
3CCE3F85
BE0F7352
BDCE2A45
3D3C9081
3DB6A7BE
BDD85CD1
BD463BE8
3D8CAF85
3D15722F
BCC02591
BD3905FB
BE05927E
BDB4A68C
BE6AFF74
BD77F1C2
BCD61399
3D0E3DD0
BD1CEAF6
BD88B564
BE483E16
3DAEC15F
3D813EFE
3D4619EA
BDD6998A
BDBF8615
3DA602FF
BDB189CD
BC689331
BD0B0BE2
3D342E17
BCBA0C45
BE0B6F1A
3DCCEC5B
BDDB16F4
3C1321FE
3D074968
BD78C6D6
BD35FE3A
3DAEE1FC
3DA4EC15
BE44C005
BDD39187
BD173D13
BE76AB3F
BD9B246F
BDFB6380
BD09F62E
BD9A66B0
3D314717
BD7B01FB
3DAE4304
3D8EF98B
BDB7DFE5
3CA7ACFB
3B0E499E
BDB7960D
3D781E2E
3BDA7183
BCC1D1E4
BD157D74
BD19A6F2
BDA01414
BD069FDE
BBB33922
3C4A5BF8
BD690B91
BCB76EC4
3D287204
BD00EC2C
3C2E5A4E
BD3364DA
BD9AC4FC
BDBFA8C5
BD98E6AD
3D5A1482
BD98B368
3D8D067A
BDE1AC8A
3CA35EB0
3D26F384
BCEE8478
BD9EF670
BAEB1640
BC9D14BD
BD9C7861
BDCF1196
3C8B8A6C
3DB4D6CC
3C7D7743
3E10979D
BC32D7F7
3DE21859
3B090DFB
BDCF71AE
3D7F2CE7
3C60E718
3D584D07
BCCB45DE
3BEA9F20
3D0D9746
BD39F842
3C6E8BCB
3CBBDD9F
3CCB720B
3D006FF0
BD2FFBA8
BB996146
3D4C8D45
BCA417B9
3DB76D42
BDCD6DFA
BD16EF03
BC58B623
3C6E73C8
BD1CD3A0
BD9128E1
3C942F89
3CC11452
BC7E1D51
BB717B70
BD7418C8
3CA4DEED
BD90FE76
3DFC5322
BD326DC4
BD60A233
BD0FB1E9
BC9EE01C
BD11F028
BD129005
BDD93FCA
BD8DB4DE
BDCC8627
3B9167DD
3C4F0509
3C4B5464
3D73DB4D
BDAA5E3B
BDA34D88
3D1B9AE7
3C420938
3DCAA795
BC07178D
BD32901A
BD6A0114
BBEEED11
3DA55658
3DADFBED
3CE3D6A5
BDB348D3
BD95CB0B
BDC6665A
BCA6DAE9
3DD56AF7
BB627E7E
3D650FE6
3BBCF9F2
BDC1FBB8
3DA9C4DE
3C9CE5B4
3D95BE9E
3D2D2146
3DB6A209
3CB21176
BD844F85
3DD98325
BD8122D4
3D16D37A
BD5419D7
3C502427
3D49978E
3D92539B
3D17BD40
BCB223B9
BB5A0320
3C87EEA6
BD6A71F6
BD837592
3C0D0688
3C9FE8C7
BDCB2665
3DA6086A
BD3D0D1F
3CE92778
3DB616F0
BD0D6F48
3D231500
BC95C208
BC89F2D0
BD84D55C
3DC12E7A
BD8C00AE
BCA78114
BCFD82E9
BDBEB279
BD37925B
3D9EE826
BD581B37
3DCB617E
3CAF5010
3D96DD0E
BD75C028
BD99F11D
BC25E3E6
3C7B6E10
BD760C4A
3D84EBCA
BDA823E7
3CA647D8
3D625B34
BD4BF1C1
BC7E8D18
3D5C97F8
BD0A7D2D
BDCCE3A4
BC6CC748
3DBE43FE
3C0DCE8F
BC39A170
3D89594E
BDB7CFE9
BCA40464
3D6D50E4
3BB0FB60
3CB776C4
BD8C909A
3D9F1FCC
3C2DF838
3D98A1B6
3CECEFB7
BD728B05
BD01EE64
3DB832A4
3CF37A3A
BB4D8220
BC873C94
BD95AA14
3DA04F9F
3D778030
BD8CE475
BDC243B0
3DB7CE76
3BF2E550
BD1444D0
BDD5FE8C
BD6E3BA0
3CC915FB
3D58B934
BD8995F2
BD837860
BDAF8213
BC8DF408
BD27FD41
3CCEF73B
3DA8BF37
3CC2EB22
3DC7D458
3B458AC0
BD51C557
BD454F78
BD51E60D
3D6AAFFE
BDB137E1
BCF57C04
BCD8AF8C
BDAAAD7F
BC26D236
BA164EE1
BC219A9C
BC835685
BC27A455
BCBDDDC2
3DAECFDC
3D60A015
BDC2805D
3D914A3B
3C0559AF
BBE9EC72
BD2903D5
3CE0510F
3D9FC2D5
BD44E10A
3D071128
3B02C6C0
3DA328FE
BDB1456E
3C3D8D60
BDC28456
BD49B873
3C0BE8C5
BD6AF282
BDB14458
3C88942C
BD7C4ED6
3C9CC274
3C2EBA40
3D349C9B
3CDFE593
BC7B125F
3CC36967
BD99666C
3DC43964
3D54E15A
3DA67E80
BCCC5038
BD93BC23
BD0FA72A
BC550F60
BC98D4F8
BD91A31D
BD456476
BD8BCFED
BCB73A4D
3E2144A4
BD964AD1
BCA9A16A
3C289CB5
BC20777D
3C11FA1C
BE35CEF7
3CD0DDBA
BE173219
BD113CDC
3D873AF4
3CB75138
BE249CF8
BDA8B8B8
BD0EB941
3CAE1D36
3C962298
3BAB78EE
BDF85D6A
BD925F70
BDDF6999
3DBC2742
3A90A835
BC87F67C
3CEB4B06
BBE41960
BE6AE4E4
BC9DD2C6
3DF9AB10
BDB0F170
BD47E2A0
BD96756E
3E962E70
BCDB855B
BE807993
3D0D1524
3DA12F5A
3E181176
3D00BD67
BB610D4C
3C5273D3
BCFA5AC9
BDE9336F
BDACDC99
BE32D9C4
3D9E7F3F
BD9299BE
3E350EB8
3D1775D0
BDCE6ACB
BE8497D8
3D40D65F
BE07E23D
BD1FE972
BC87E519
3D349C4F
BC26A873
BCDCC72C
BE5047D7
3CA3A4CF
3E21BD58
3C987E2A
3CC4908A
3D946555
3E301C7C
BD5F9FC1
3C8B8C54
BD2F2168
BDA3FCF1
3EA09A98
3E2E7015
BCBF5B7F
3E2F3ABE
BC211C2A
BC473B18
BD36F007
BC110294
BE1A15D7
3D4EB704
3EC3D42A
3E8F0C5D
3D1BC930
3D2DB66B
BDA4E3D6
BDCF0CA2
3D2AB81C
BDCFA759
3D588DF7
3CE79072
3BA1CF50
3D486541
3CDB38DE
BDD07278
BDBFBCD8
3D7433D8
BC815CA4
3D035888
3DB49648
BCAC2CAF
3B7010A5
BCCE1264
3DA83698
3DB48BC4
3D4A56AC
BCA4E464
BD4BD260
BD2419FE
3DAAE034
BB8EC5E4
BD0661AE
3D917FCC
3DA63BED
BD492EAF
BC78B094
3C8A3465
3CFE119E
3D948205
3C7F1FA9
BD670568
BDA54250
3BEF9E84
3D7E5A74
BE3106B0
3D7F2F26
3E11513B
BDBF8CE5
3D5B26A3
3C35210D
3E3CDBF6
BBDCB8F9
BDE24A3B
BCC84875
3D353473
3E319ED7
BD72C27E
3BA613E8
3DB1A6BC
BCF6A7F2
BDE0A83F
BD8F6B33
BC7D1F2F
3B05D355
BD32D587
3EAA0BD4
3D0507CE
3DB1ED34
BBCDC6CC
BD943B2C
BDF3230E
3DB649C9
BC9A8B3E
BD576D3D
BD870A5F
3DBE36DC
BC8F40FC
3C8C9579
3D2D7FBE
BDB55E29
3B061729
3D349FB0
3DA6EC85
BB3866F4
BDA749AE
3DA60A22
3C157E20
3D9018E9
3C0E9415
BD387EC8
3D789FEE
3AF1D380
BC2676E8
3D3E3A30
BD62B654
BD8AA04A
BD51FB1A
3C580DF4
3DBB5CF0
BC90250F
3D848311
BD93B744
BD36C233
BD8936F5
BD8FEC4C
3C85334C
BD1A4031
3D3C40E0
BD861A46
39BF4D00
BDC25527
3D1DDEF8
3D2E3BF4
3DA23522
3CE04828
BDAF0442
BD1A49B8
3DA6CBA6
3B99FB40
BD966DC5
BD514FDE
3C146DE8
3D6A9258
3DB4A7F4
BD05E136
3D14EFF0
BD31A7FC
BD932976
BC90EB9C
3D3528AC
BDBB8650
3CA28AB4
3BCC3670
BDC1E6A2
3C1A0330
BDCCCF2A
3B8B5130
3B928D00
BD47399E
3CE55888
BCAFF1E0
3D4D3BB0
3D1F1C34
3B3F8360
BDC1E160
3D846056
BD5C64F6
BCB4ACCC
3DCC7C64
BD19AE00
3DBA1A36
3DA90AD2
BC392F38
BC3663C8
BB9D0A10
3B81A0B0
BCBE68B0
BDB3E174
BD67555E
BC2A91F0
3D12F094
BC8998FC
BD2C5398
3D77339C
3D02DAEC
BD91F64E
3D1C68E4
BD1B9684
BD3E293D
3947C200
BC87BD70
3D29C010
BD555CD3
BC8AACA8
BD260B98
BD87E01A
3D012401
BD51C339
3CCF8458
3DC13F94
3D9EED0E
BD998856
BDAF0983
BD90A05F
BDBB9F7C
3DA8249A
3D86686D
3DB0006A
3CD16518
BC0F4178
3DB9F1C0
BB8AE360
BDCA0E50
BCCBA128
3C9133C8
BDB62E53
3D9F42CA
BD94F928
BD345140
BC5948C0
3DB5AC12
BDB83492
BD4E2339
BD72A8CC
3D6BDBBE
BD3CC000
3DB95217
BBE7B1A3
3DBD15EA
BD8C4BED
BDC783B1
3CC68C6E
3CC41A30
3DA55725
3D9A5A5D
BD390D93
3D94A824
BC562A68
3D204F53
BC89AB68
BD850980
BD810AAC
BBF54BA9
3CB5BBFE
BABF4080
BD6B247D
3D01B9DD
BD7F7BEC
3CF8537A
3C867D6A
BD1ED9B5
BB6DD781
3D8B8530
BD0BDDBA
BB78318F
BD9220F1
BD0C2183
BDD7DC48
BCD7FE34
BDCDCF0E
BCC0585D
BA37FD81
BCBAFC0F
BDB2B303
3DF9D3E5
3B01560D
BD3EE28E
BC9F1CB6
3DA8581F
BD1D1968
3CFEE35C
BDA3D1CB
3D22AAB4
B9C54300
BDEAB635
3CD3D384
BD91E3DF
BD014F37
3C3D12EB
3D91EF4D
3D5A39A6
BD8BD659
3C27979E
BDDA4264
BDB12C31
BD923AC1
3D54A164
3D7A4BA0
3D64196D
BDBB7CFA
3D259214
3D4A534C
3DBC1588
3CEF73D0
BD579446
3C5BA888
BCF113DE
BCBD3F08
BD9B2E9E
BD0BFD02
BDA62B28
3D7E5884
BD77A610
BC456168
3DAC032A
BDAA8C76
BD1459CD
BD9EE7A9
BC571808
3DCD51D6
3CCDD7F9
BD922EBE
BD1ADDB1
3D04CFF8
3D7396A1
3D03C1C0
BD74804C
3DA79668
3D1BB2D8
3CF7EC60
3E5D34C9
BCC95349
BE05D137
BD0F78F6
BDB118E9
3D835EE2
BDAC572E
BCED2B59
BD5C16ED
BD425566
3C085FA4
3E154919
BCAE2E13
BD9694AE
BC19F9C0
BB7CC590
3AAD6CB8
3D89B472
3E1FE2CE
3E544E02
BDC84C61
3EC7A8F9
3DDA346C
3CCC6234
3E9812F8
BD13380A
3E24CC71
BC76D439
3CAC2DFD
3D0E6823
BCDC9658
BDB6E5F9
BB9F7C64
BD959D00
BBD59CFA
BD46DB4A
3D556780
BC256B68
BDBB505A
BD44DDF2
3C1C148D
3D90C732
3DBBE2B2
3DC29FE8
BCE6C498
3CDDE660
3CDEDDDF
BCEBCE68
BB7715D0
3D120D10
BD50F99D
BDC840A2
BD1E9F36
3D89F127
3BC32A01
BD41EB05
3A5FA828
BDB81328
3D3A5059
BD06B362
3CE40D00
3D38A388
3CA53920
BB5E07A0
3BEC5770
BD7592DF
BD6EEBE4
3CD836A8
BDA969E7
BDB2B005
BCC60538
BD91BA58
3DC709D8
3DCF608C
BC0D2FD8
3DA699C6
3C090D28
3D9EFC96
BD25B818
3D2612D8
3DA9BB24
BDBD2E75
BD1CBB62
3BB10290
3D9AE648
BDC851B4
BD480B8F
3CE34190
BDC74B71
3D5FC7A4
BDA3F22F
BDB75627
BD8A9186
BD869785
BD78F1CE
3C2BF3B0
3DBAAF8C
3B7C1154
3D8DD507
3C964A47
3D1627C4
3CA7320A
BDC94025
BC62BE85
3DC22B48
BDBE7E55
3CB279B0
3DB52FF9
3DBF828B
3D93AC7C
BD2F3881
3D5C21AC
BDC96FBF
3CD9F328
BC0EE1D8
BC6480CA
BD63AB5D
BDB57446
3D1602F0
BC8EB8EA
3B861C76
3C9CE069
BDAEBDC3
3D3AB163
3C87BE0C
BDA21BE5
3DB2B4CD
3D9981F2
3E37D0F3
3CC1963F
3BB79194
BCADD474
3D0BA26C
BDBF6FB4
BCE248A6
BD97DDFA
BDE9ADF9
BD0226E5
BCCF16BD
3DC5B8B0
3CADC99E
BDA2972C
3CD30F1F
3D87C705
3C6504E4
BD9E90BE
3E51008B
3DED38F2
BD57A98F
3E88D399
3DCD5618
BD8EE5FF
3DD4E598
BD8E0297
3C927E9B
3D73B576
BABAE3FE
3D85FB78
BC2CB3EB
3CD5C508
BDBBF721
3DB5168C
3DA33CC2
3DA78870
BD7232A9
BD1AD866
BD9A264D
BDB08D0E
BD3B9D10
BD9F5032
BCFC5FF4
3CEA2320
BDBB5D08
3D2895D8
3D38C16C
3D8FD38E
BCA522C8
BD6A5A07
BD57512D
BD855718
BDAB4780
398C4F00
BD60346C
3D09079C
BD1E7374
3D3389B8
3DC044DE
BD8FD2AE
BD1EEA26
3DA21F2C
BD518052
BD33CB65
3BE204B7
3BE00CEF
BD1BAFC4
3D533D9C
3CDA8540
BD00D71E
3D1DEA94
BD71D0F6
BDCBC970
3D9AAE4C
3DA7913E
BD3825EC
3D9250A4
3D0C8344
BCE5711C
BD4D17D2
BCA18C04
BDA4F341
3DAE67D5
3CC16A80
3D5090C8
3D839569
BD480A0D
3C42AE91
3CB4BAA2
3A94CE1B
BD40D8C1
3D349293
BB54BA40
BD49C1BD
3D91229B
3D138924
BC9F242C
BDB4F6B4
BDBA1CDC
3BFCC4D2
3D013BFD
BD087477
3D40A2D8
3C72A3FA
3D341318
BC8A967C
3CFB58ED
3C84566B
3DB7AD26
3DAA4B68
3D36219E
BDA9F6F4
3D589F6C
3DB487DE
BD049DCB
3C93AC76
3DC05B30
3D96B759
3D5FBDD2
BCBCDC5C
3CBB776A
3D958994
3BA75C70
3D5722B7
3B9B1B40
3DB9E7D0
3C69DF54
BDA92F58
BDAC2D5F
3CE5ACD8
3D2BEAFC
3D988A5E
BCE63580
BD29524D
3D8E7BB6
BD50FAE6
3D1779C4
BD5796E9
3D8CFF1C
3C717F48
BCAEA958
3DA5651E
BDC1B678
3BAF5B60
BDBD7812
BDBFD03C
3C013A03
BBC29AF0
BCF55CBC
3DAE6663
BD8A2BC2
3CF7BFA0
BD9A4CE8
3D98561A
BC99B9F8
3C83E660
BD8D64A2
3CFEF158
3DB4A778
3DA761BA
3D9E7B0C
BD581284
BCE3E52A
3D74EFDF
3D87F4C6
3D218808
3AE4D403
BDBF1112
BD304524
BDCBF34B
3D5D9AF4
3B0DBEE5
3DA20C41
3DAC1FA4
3DB221C0
3DB830DC
BCFACF68
BD98596E
BD80313A
3CD707C2
3D77EAB0
BD34B0CF
BD93555B
3D4E0E10
3CE3D81B
3D92F69A
BC8C79C2
BDCB2C33
3DB4FF36
BC399C88
BC9216A1
3B176920
BDC49119
3E084C71
BDF3B4ED
BD32D8C1
BD2853C8
BC849875
BD3C1ECE
BD8E6024
BE54882B
3D8C8676
3D148BF3
3DF6CEEF
3DC7D906
3BEC3134
BE2F3337
BD89DFDD
3D50A610
BD40C100
3E7CC08C
3D202644
3CBEE8D9
3E8CBD75
3E4E8BCE
BD56393B
B9CB66E2
BDCC9247
3BB52E48
3D59DBDC
3D52B187
3C7D063A
BC3517EC
BC9AB524
3CF24167
3CCEABED
3A516E83
BD494E1C
3CC9A48C
BD082D46
3CBA00AA
3D81A908
BE240290
3DBCE95C
BDD8B489
3DAF8E94
3D6D14F5
BC51E7C1
BD1C033E
BDE087C6
BC3A2302
BD3EEF6B
3E2F72E4
3C367CBF
BBAB1C3B
3E464219
3E095A2D
3DBD5EAE
3DA30514
3C8689D5
3E05C35C
BCF25B8D
BCCFD267
BDD417D7
3D54973B
BDD0E0AF
BDBD45B3
BC926806
3D41E7FC
BDA80BF2
BD883E32
3D3E9F94
3D55AFF9
3DBF9412
BA303F80
BDA11B1A
BCC2601C
3D829045
BD07D551
BB702000
3D503273
BD89BEAA
3D29C698
BD57D784
BD352F97
3DBBB71E
BD7ED93E
BD27C64E
BDA17A5B
3D5FB218
3D1A9F41
BC1C763B
BC4CDB76
3C86F8D0
3DB7AF7C
3DB0EF02
BD5E8BEB
BD19EFC0
3B9F95DC
3D649D37
BA9316B7
3CE059C8
3D26101D
3D78216F
3D15A58D
BDAD9B6C
BDA64274
3D933B3B
3D8A2605
3C2D9BBA
BDC8070E
BDB210B3
3CD0222E
BC29C2C5
3D6073E6
3BD0EE10
BD6D4894
3D3A0DEE
BD9D9EAA
BDF5CDA2
3D228AAC
3B3EEB42
BDAF53B2
3D1B8CEC
3D9927B7
BD413D72
BDB91342
3C33EFA9
BDF33FD0
BDACB4E9
BD9C1002
BD8A923C
BD957DC2
3BD8B53A
BD3687C5
BD568A0C
3E05F274
BD99BB15
3E067FAC
BDAE3022
BBAD5355
3D41361B
3CDD3A4C
BD1F6A33
3CCB7657
3CA0A80D
BD5F3B28
BD1CB3C2
BCDD5B2B
BDD4D715
3C3D919A
3D4C665F
3CF1CBA0
BDBA7BDE
BD2DFA0E
3D9191A2
3DCC5409
3D3F2E4D
3BDAA099
BD86F73B
BD194652
BD874408
3D174E34
BD68EA43
3C78ABFC
BB94C2F8
3DA68615
BD3B22EF
3DFBF57A
BDA3C09B
BDD7B8C7
3D3760F6
BD1E8393
BD74BD69
BDBF66F0
BC636DBF
3D1E1752
BD6FA4D5
3D93B218
BD86C51A
BDC66217
BDB16628
BD7E12CE
BE0F3931
3D656D3F
3CE2F42B
3D9B847C
BD504740
BD54CAD3
3D8D2CE0
3D654266
BD4BD759
BCD6D40C
BCFEFDD4
3CB0E2C2
3DCD879E
3C4638A8
BDA9ADE6
3CEA2FA0
BC9D3D48
3D8F179B
BDCE6140
BDBAC111
BD045366
3D9683FE
BCA2083E
3DA417CE
3DA331FC
BD920874
BD7AD594
BC673738
3D9C92F0
BCA6C8B7
BD79FB8D
BBCFAE90
3CA5195A
3D3EC27B
3D473DF0
3D0FE8A2
BD1A8A6C
3D99FAEB
3D561D60
BCAF71A4
3CD17768
3D063B1C
BDB41D8A
3D8C721C
3D6E2E98
3DBB522C
BCCEA940
3D1DF8F8
3CDA4410
3CDF7F70
BD0013EE
3DC16B54
3B178BE0
BCFC0290
3D7EFC04
3CC5AEA8
3D8BA8F2
BD2AF994
3BC97250
BC1F4890
3BE7E670
3D7327E4
BD925485
3D58C278
BC402468
3D74EDF0
BD9D8F23
BDBB240A
BD37E12C
3CF1EF50
3C84F334
BD408B64
BDABEC44
BC6F3110
3DBF2646
BD4FCD71
3D676BEB
3CB698F5
BC7D1220
BBF10423
3BEC8589
BDCD785D
3D854CCE
BBE470BD
BD063106
3C6A65BC
BC97A770
BC0FAAF7
BCE95FA7
3D14E034
BD913922
3D209ADD
3CEADBB0
BD03315F
3CCA1F58
3DB374DC
3D073190
3D984A30
3D7F8D67
BC854D63
3C268A8E
BCEA42A2
3BD4F442
3DC53236
BDC4984D
3CC96BE6
3BA97410
3DB0540E
3D93412E
BDA2FB05
3D0C5E74
3D9C5076
BDBFF5BB
3D81B432
BB1A4BA4
3D823A5C
BD7B813C
BC2CD9B8
BD6E8DDF
BD74679C
BD7090F2
BD53F497
BD4C2334
BD8D7BF4
BD0C5544
3DD604E6
BDA7E6F6
BD6516B5
BDA3AA56
3D2B211B
BDB61849
B9AF296C
3D42AF2F
BD81BC26
3D2BF7C7
BBE58660
BD5870DD
BD5C33E0
BD9ED86D
3E23826A
3D8802C4
3D850B86
3DAE6115
BCD3CE8C
3C741160
3DCF8C73
3D8F74A9
BE1FDF53
3CC71118
BDBA3A77
3D9D276C
3E18E429
BD961068
3E49BF45
BCF1FC6C
3C9458AC
BD9FE2AE
3E2D2137
3E1224C1
3D2840CE
3E3DFD2D
BB436B8A
BD96EA0F
3E7A58EE
B965DC99
3D61C3B6
BDC205E6
3D93602C
BDAD511E
BD9442C7
3D647B70
3E3CCD2D
3D3F02E5
3D3DBB16
BDB371FF
3DB51542
BCD89DEA
BE0540C3
BD08600D
BE601E42
3D232A6D
BD904C98
BDB99D8B
3B5D2E3B
BD892EF3
BE47C576
3D90F44B
BD92D34D
BD479A32
3EC86807
3E3094DF
3DA352CF
3E8A79A9
3CB9C92C
BCB9718F
3E4734F1
3D889867
3E12E12D
3DC335F3
BCD25DCB
3C5CA1D3
3D346FC5
3D998D6A
BD820AF8
BE63EACB
BDAD07AD
3BE40F07
BD25FBA5
3DB75A04
BC9CB0DC
3BB4465F
BE90E094
3D7D2AFF
3D860D73
3E2E64C8
3CCBB87C
BC80AC8C
3E2386DD
BCE7E365
BDEB5E1F
3D7D8A5C
3E11BC3B
3E0661D3
BD8E842B
3E9C10C7
3E018297
BDAD2018
3E640815
3CDAF254
BE885AF4
BCD46F81
3D86A0ED
BCE9ACD4
BDB65057
BC0B3A08
BC0A9AE8
BD0F9124
3DAD3CC7
BDC0FC01
BC2855C8
3DB0128A
3B33A010
3D9E1FE0
BBAF61C8
BDA33AF3
3DD0E255
3C4547FE
3DAF8BD3
3D9928C4
3D37B61B
3DB46A53
BD8D14FF
39B1B100
BD50ACE3
3DAC3E0B
BDCDE331
BCFB49AF
BD0DD3AC
3D4AC68F
3D0357D6
3D7775E0
BAC3569B
3DD23DD0
3D309A47
3D838F36
BCB30A76
BC93DE1C
3DFE9F32
BD9271DC
BD89C502
3D2BD582
BD945F5F
3C5FA2FB
3CB337C5
3D5039E8
BE8FCE63
3D204F57
BDC3B806
3DB7EC83
BD5FDE19
BD6201D3
BDD9DA81
3DA1CFCF
BD89E4E8
3DD0EED4
3E8F0BA7
3DCC258F
BD8DB5D9
3E317B41
3D754005
BDC8864B
3DE281A3
3D1C40BD
BD6770F0
3D12701C
3B2F79E8
BD5A40C6
3D206B49
3DCCE818
3DAEE7C1
3DC03914
3D429AB9
3D8B65EC
3D9B9F5C
BCCFF47A
3D2FD82D
BDA0622F
BD839510
3D30882E
3D9FDDA3
BD774946
BCDCF1A3
3D9E08FA
BCF23DE0
3CFE0FE0
BDC167C4
3B67A480
BD854DC1
3C52F26F
BD7CB587
3D908F28
3DD55814
BDBB318E
3BE5F110
BD9628AB
3D9109BC
3D1826A2
3C632A78
BD70F15E
3CC80384
BD53F5E4
BDCEF991
3D7BA8F8
3D6B2A8C
3D3C4358
3D0A1780
3DB77AA0
BD3C8DAC
3D9D6748
BD9709B5
BD97B458
3D7918D8
BD54AA28
BD2DD549
3DC10366
BDA85380
BD805B80
BD02B6CA
3C9A3B14
3D16FA60
BD650020
3C3692E8
3B961EB0
BD1D5B58
3DC22028
BD50CB50
BD7FEC6E
BD9F2415
3C605360
BDAE2B53
3D827560
3D3C38B0
3DB6D1E2
3D2417D8
3D89A4E4
3CBAC6A8
BD3A9865
BDCBBC6D
3D8F5352
BCC61BFA
BCA28F24
3D4201E0
3D7677D4
BD4C645E
3D8125B8
3CF2AFE0
3D8ABBD8
BCCFD5C2
3D88D502
BD8FD5E1
3C9E1CB4
3D462B1C
3D2B6C6C
3CB74FD8
3D4D14EB
3D26946D
BC6E5070
BD57F3A9
BD156FCC
3D89EF6E
3D4E34A8
BCCE89E0
BD58994E
BD8B594C
3D47AD70
BCD0B184
BDAE2121
BCE216BC
3D95C2AA
3DC72AA0
BD956533
3CB05F64
3C56BF88
BD868D8B
3D38A568
BCCF12D8
3D42A928
3D70AF70
3CE435A8
BDA10F4E
3D17144C
BCEB0910
3D409AB4
3C8F6F2C
BC81F158
3D015D68
BC869638
3D7C2600
BB51B8C0
3D25E1DC
3BF92540
BC890AEC
BD01BE5E
BD4E28C2
3DA5D8C4
3CCC7D88
BD88C9E2
BD86A0AF
BC5B2EE3
3D985AA6
3DA9317E
3DBADEA1
BBAB7106
BC8F53F6
BB9B69C6
3D85275C
BDC4E04A
BD3A75E8
BCF9FFDA
3CB57FB3
3DB35140
BD9B6EA6
3D615AC4
3D6ABE34
3D931198
3DAAE394
BC992F4A
3D073048
BD08391A
BD6E39DF
3C169DB3
3D2BAB35
3D78263C
BD5F0C33
BD270F27
BDBF1F80
BD11CB3C
3DAB065C
BD8D8157
3D59E746
BCF3F285
3D5775A7
BD94AAFE
BDD49C8B
BCC0C6DE
BD8A0D85
3DB0BACB
3DD88728
BD929BDD
3D78B117
BBF1BDB9
BBC6599E
3CE6225B
3D5E308C
3D719B9E
BD489D97
3D1E5DF0
3D038B39
BCA77738
3D881222
BD1139A8
BC3D1407
3D63DC60
3DF04E69
3D00F830
BD9BF22D
BC9F1045
BC38915B
BD1D2C46
3D7F2D20
3D2D556C
BD94F359
BC05A0A8
BDAE552E
3CC5D498
BD479603
BD227E7D
3CD545AC
3D931F48
BDC30A5C
3D9FDF94
BD9447D2
BD9B4615
3DA1429A
BD7745E3
BC1878C1
3B15F4E0
3CDA0998
3D13D4A0
BC0135AE
3D909344
BD023C8A
3B158103
BC39E0FD
BD8484F3
BD17D5C8
BD6A4A01
3DA05365
3DB10E78
BD8D5DD9
BCE0C784
3D9FC03A
BC365428
3D34B88C
3DFFFBF5
3DA5F7EB
3D59C275
3C891AC6
BD7E8183
BC9FC06A
BDB5DF40
BCA8A17C
BDD54D5A
3DB3A273
3DFFAF3D
3E3DAD8C
BDDC9C2E
BC01B74D
3CC3223D
BD5230AD
3CC5B040
3E86FCC8
3D7F4AF8
BC33EFAA
3E6FB8E1
3DCBD325
3D98C466
3D85713F
3D8E0E81
BCDC195D
BD9C89B8
BD0D4B41
3D262394
3CB82FC0
3D5ECF5C
3B58A65C
BD9A2FBE
3D18359D
BC0A4590
3DA2E27E
3CD34770
3D3991E6
3DAB19F2
3DAFAB0C
3DC0AF50
3CBC0910
3D5AF639
3D779E74
BDBFD233
3D1C6480
BCAD5C5C
3D9C8DF9
3BA49DA0
BB7B8C10
BD82CE67
BC6C7070
3DD4E5D4
BDA5C490
3B907560
BDA00EB1
3D2852F0
3D69AF0A
BD67340B
BDBB0685
3D0849A4
3DC623BA
BCB28C58
BA490C80
3D7B879C
3D1E6EB4
BD55A892
3DADA418
BCC4DDCC
BB9E00D0
BD20A2C6
BB975BE0
BD8B6C24
3DC87FBC
BB537200
BD2541C7
3D01D7A0
3D654928
3DA2212A
3D2AEE10
3DC96EEE
BD784B3E
BD1EA978
3DB1F99E
3D5F5304
BC97538C
BD01E364
3DC54E34
3D059C74
BC439E30
3D390414
3C891760
BD8410B6
BD873A34
BC455EF8
3D707379
3CE3D463
3D9D14B0
3D289B06
BD0F30CC
BD7BD55B
3CC82AAB
BC396870
3D5C8F64
3DAFF072
BDC46ED4
3D90A3D8
3D9CE48F
3D98F6E6
3CE9CA73
BD55B5D7
BD8F5404
3CF0FA68
3D8F763F
3B4B9122
3DC2C3DA
3C30DBA2
BDAF9999
BD4FA003
3D733D77
3D643410
3B82647C
BD4EC57E
BC188560
3DAAD294
BD4AD10A
BD57FDA3
3D8655B0
BC80DDB5
3DE1CDA8
BCC9CEC7
BC7FD5F9
BD99A399
3DA2CDDF
BDD4A74C
BDB1A12D
3CE17ABE
3A9535C4
3DF72FE7
3A91F451
BCAFEC9F
3E2DF764
BD6834CF
BDC999FF
3BBBA830
3D46CC2C
BCD920D6
BC7F3514
3E6AD6A2
3E1D9912
BD8DCA63
BDB62580
BDB7B59A
3DD8C8E8
BDD4CF7B
3DA2D8E7
3C22EC34
3DB95619
BB72F7E0
BB601B80
3C6C70B8
3BB40EF0
BD58D6FA
BD6C5D92
3D259F70
BC9C0F14
3D08BA98
BB541DE0
BD6A8BA1
BDB84495
3DB095BA
3CE310A0
3C84AE1C
3D9644D2
BCAB2258
BD845614
BDBD3E0C
3DC903AA
3D82679A
BDBBDE68
3CE6B150
3DA3C020
3D4069DC
3C886940
BCAA9230
3D8EC8E2
BD7CAECA
BD41BE10
3C29A818
BD5F4F44
3D8A702A
3CAFAF18
BD0EB1E5
BD22160C
3DCC51C3
BDA3F5F8
3D713968
3D57E7C9
3B7069EB
BDA1863C
3D6AAA6F
3D8F9D2C
3D06C455
BC1370F7
BDA5F023
3D7B4FFA
BD400055
39D58000
BD909CB6
3DBDE7EB
BD81C09A
BDB57EE8
BCB10A96
BC4DDC90
BD746C1D
3D42F86E
BD5E8257
3C8697F4
BDC320C7
BCD9B5CC
BBEE94D0
3DB8FE4E
3BDD5C50
3D8C4DC2
3D581667
BD5EF928
BD94B180
3C877CCE
3DAF02B0
BD06AF88
3B4E5AA4
3D4A8090
BD58D4D1
BB2C34C8
BC868AE6
3D085E01
BDD0ABCA
3D1CC601
3C7428F8
3D4EC974
3D6E3EA4
3D8EC543
3DAFA0D6
BD5A3844
3BDB007F
3C00B44C
BDCFB84D
3D2AD376
3D8CC120
3DCB1E82
BCBB87A2
3D91EF0E
BDACC047
BD2E9A2F
BDAEA8E3
3CC25070
3DCB1536
3BBBEF70
BD866252
3D4A8774
3D8AD750
BDBCBF79
3D7A74E0
BCC8114C
BD7D0E86
3DB21B82
3DA32327
BD30197C
BC28B120
3DCB05DA
BC22FE70
BD724979
3D7A7734
3D4F92B8
BD4A2B25
39A93B00
3D9DADB4
3D34B647
BAD536C0
BD5A0444
BD93C05F
BD114322
3DA3BF1E
3D87D780
BD4FD3FE
3CB53884
3CC3BC68
3DC74795
3DB94FCD
BDD87ABF
BC2D8765
3D8C670A
BD7A9298
BDBB52D0
BBBF8AB0
BDA4EC53
3DD09C22
3CD0C82B
3D895257
3CD0BC7E
3D1F82AC
3DBBAA00
3B195720
BCD64E0C
BC1DAFE8
3924081C
3DA0D3B2
3CFF50E0
BDA1C8B2
3D00F8EC
3DAC5149
3D4D67A2
BD8C962E
3D4464EA
3BDF39D8
3DA490A6
BC80B510
3D273232
BDB86BF7
BDBFFB91
3E19A286
3E42C7C5
3D04BF24
BD5986E5
3CD8E408
3D24D138
3BCA16EE
BD2B828C
BDD0848E
3D8330B7
3D8A996A
BBAF9C6C
BCC60E13
BD98A849
3B86E6FF
3C250722
BDCA40B7
3E5233A0
3E6DDD34
3D5B77B0
3E7191C5
3E44E5EA
BB007808
3CE56691
BCAB7CA6
BD46C98E
3D29531D
BD19354F
BDA7D095
3CE67CF5
3DA1A2EA
BDA78DDF
3C161DAB
3E38FAEB
BCA0CF2C
BD80B0A7
3CEBD9AF
BDAF3B07
3C8E9865
BDBBF1DD
3D776061
3D95EB4C
3D251232
3E325E0E
BD1E8AEF
BDAA8EC4
BD100CE1
BD5254EC
BCB3B2A4
3E22545F
3E1E8842
3D80B27F
3E4A2EAD
3E239C30
BDB021A1
BE48C037
BC4A2FAB
BCCBD284
BDCF2A6C
3BE9B988
BD638169
BD8472E3
3DB00C00
3D7BEE22
3DB9D344
3DB57192
BDA351ED
BD013842
BD3B0B44
3D317F33
3CB3C458
3D656DE3
BD13022A
3CF74CA8
BCCE8D93
BA8B48C5
3D9A40BC
BC5E8D36
BD91A340
BD69CA53
BD61D69F
3C2E097F
BDDF07EE
BDA76E3C
3DC705BE
BB94ACE4
BD4CC8FA
3D81FD99
BD4F2F3B
BDC0B895
3DA4F1C0
3DB94688
BDA700FA
3D66FC7D
3CF847C8
BC9D8A78
BD9B3482
BDA2091C
BDAE155F
3D48C107
3BB7CC42
3DFF044C
BD4301DF
3D81DF52
3D99B867
3D570C52
3D1C2E63
BDB4B684
BC9808C5
3C8B76EA
3DBE2075
BDD4849D
BBD1A040
3D8A3378
BDD4282E
3D7091FE
BDB1A0F2
BD002092
BC45ECBD
3D928D69
3DB98917
3AB80993
3D4A6371
3D528FA5
BD9E9EFD
BD9A3E1D
3D3E3A74
BC600F01
3C6ADE45
3D1CFF19
B940BA24
BCFD3065
BDA25FD2
3C0E1F60
BDAF7397
3DA21172
3DA62485
3D883A4D
BCD5377F
BDC2CCBB
3DB05A07
3D80C173
BD8F13B2
BDC6C9C8
BD679521
BD59A77C
BD435AFD
BDD68DF7
BDBC0E1A
3D2DC315
BD69B6A2
BD9B7D49
BC33EA72
3CD21DBB
BD99A6CB
BC0AB077
3D40E2CF
3D23A93F
BD4468D5
3DEFFEC9
BD0EA526
3D1B0C73
BD9205FE
BD32D38E
BD956AB8
BD60B715
BD8BC858
3D1AEB4B
BD480945
BD918520
BE0818C8
BC30DADB
BD17C2CC
BC3FF077
BD26A60D
BD04605E
3C015988
BD1B0EC7
BDBA08B6
BC13A446
BE4BA5D7
BDE1A076
3D5DC67A
3E079D4B
3DB5D9C4
BB136D5B
3D6526A3
3D674BF1
BDA584C4
BDC31D75
3D845C2A
3D343BF6
BCF456D4
3AD5A780
BD86118D
BDB3593A
3D72650C
3BF2C434
3DB94A4E
3D497BB4
BBADAFC0
BDBD2764
BC01DBE2
3D105E68
BD3D5392
3DC0945C
3CFDFF48
BD9ABF41
3D1C67C4
BD2ABB40
3D766F34
3D42F9BC
BD25C67D
BD33F31B
3DA08392
BCAA759D
3C805EC4
BD13DCE4
BDC80471
3DB256E2
BD046860
BC1BBE40
BCAC3930
BD1396AF
BD9686DA
3DA51DC0
3DA8E34E
BCEF0B18
3DCF22EA
3DC13E2A
BDB460F7
3D4C4CE0
3DC9FFD2
BD89A77C
3D864E56
3D075798
3CA02430
BBB3D86E
BDC48707
3D1A5770
BCE3D464
3CDA4260
3C40B348
BCD34BAC
3DAAB460
BD8B2C8C
BCF8B57C
3DC9C16E
3D364450
3C97F49C
BD9029DD
BC29FA60
BB3677C0
3D7D4260
3DBF9450
BBCE50D6
BD666951
BDB9609D
3D56C046
3DB5144F
BD4E0C36
BCAD12CB
3D3C9C15
BD8BA168
BD428D87
BBC723EE
BDBE9BDC
BDBCE4BC
BC7F51B0
BA427001
3D9167CC
3C39587A
BD479FE3
BDC6B8AD
3DE64845
BD6FC15A
BB657FFD
BD528F34
BD35D151
BD1E6552
3CFFE19E
BD4DB113
BD925658
BD8A03ED
BDCC0CC9
BB9D0E79
3D34307C
BD5345A3
3D35A427
3D747ACB
3D8F2288
3CD7D350
BA2BCD69
BD78CC07
BD5E6121
BCC7C004
3D673381
BB96ECD0
B9D56356
3B06EE61
3C8D9ED8
BCC3EAA1
BCCDFA38
3CBD2498
BDAFFCC0
3D8B8FF7
3D19DB5C
3CF4A3A0
BD84E3AF
3D9C8C06
BCCBCDD2
BC10F617
BDC1790B
3D96D11E
BDAE151A
3C9173C4
BC8986E0
3C1089D9
3DB9F518
BDB8FEBE
3DA5B257
3DA2BAD6
BB1CF52D
3CEB481C
BD5EF39D
3E2B13BD
BCF98D4C
3B8BAF22
BBB67D37
3D9604EE
3CF53C45
3E33750A
BC164D0C
3DB0E003
BD064500
BB868B29
BDB55224
BDB0D6DB
3D7E5A9A
BDB2CA0B
3E881B92
3D1576BE
BD8CCA5E
BC81E4CD
BD2C0F2D
3A991F6A
BADB145D
3D507394
3D853C41
3D6626BC
3D801FD4
3EB94856
3DCB6F72
3D67F106
BDA4930A
BDB8651E
3D85BEE5
3DC40554
3CF0F98C
BE5C55F0
BDC8B18E
3CF7B9F9
3E36CA73
3E1BE860
3DAA2775
3E993B1B
3DA66913
BDC04722
3DC310F8
3E8F7F50
3D523205
BDE52831
3E828703
3DA6A133
BD117642
3E605829
3D4A14F4
BD038E7F
BDD30610
BDB01D63
3D84CFC0
3DBBA78D
BC8B64BC
BC084585
BE8C68F3
BDDDC1AB
3D38383C
3BDB1766
BCC60881
3E3D5624
3D94567B
BDE1AAE1
3D2A31C5
BD1DE293
3E9F9B27
3BFF187C
3C6A07BA
3E7480FF
3D59E35B
3CB34BBC
BC2A87A0
3DD66F7F
BE8446A0
BDBF69A2
BD8CCBA8
3D388066
BD687B36
3E1E1362
3DB99B45
BE2F7459
3A248D32
3D988D75
BDAAEC56
BD3260CB
3CE97310
BCD1B61F
BC46096E
BD380181
BD06BEE9
3D680064
3D67453C
3D2A6080
BDC3AE2F
3DBF54FC
3DB2FC5E
3D9842F8
3CFEC6E3
BDC37EAD
BD693C96
BDB8B65C
BCCC9FBB
BD5DE5C7
BD86DC38
BD92C928
BD88F90D
BD611EA7
BB37558A
BCC1AB78
3C0B7121
BDB48A41
BD85C8E6
BD677B9C
3D52634D
3DCDA2C4
3D896A66
BD3CC045
BD5B345C
3BFB20F0
BDD1A2F1
3D7A4B53
BDA45933
BD6188A3
BDBB4448
3DF3B82B
BD3F0085
BE2E0D66
3CCEC763
3D6A06C0
3E9B4705
3E17F2C2
3D0871B6
3E8EC646
3D839256
3C5ECC08
3BB67890
3E103A34
3DA01296
3CAC79EC
3E8F07B3
BD68620E
3D8B2566
3E4CF371
3C267A1F
BDDE9215
BDD99D0A
BCC6FB83
BCC51CA9
3C9048BC
3DCDC7C6
BD742AEF
BB8FCC76
BDAC767C
BDB03999
BA43EB8E
3CDA09B7
BCE3229A
BD7A2BB1
BD616878
3D8D0F73
3DB62D71
BD90DC4A
3D100CC0
3DA98B9C
3D9AA345
3DB4F0A2
BDB0598A
BC8C27B8
3CE85EA4
3D111BFC
BD18E68A
BD1B38D3
3D34C78F
BD0E7F39
3D0142AC
3C0BBBCD
BDC278BF
BD3E015E
BDCD8A0D
3DCC2518
3DBC3055
BBB75060
3D7A8A7C
BDC84E73
3D1BC46C
BDBC70F8
BDA9F8B3
3CDBCBD8
3D029DAC
3D9A8408
3DBF1E5A
BD8221B3
3D0C83FC
BDCEA7D0
3D72F230
3C01E368
BD72DA80
3D27501C
BDA98CFC
3CD3D728
BD804F7B
3B913C60
39560C00
BD8BA00A
3D90FBB4
BD0FADA4
3D1CB4C8
3D57E720
3D472C38
3CF78080
3D20AA04
3C00D338
BD9AAC76
3C09C750
3DD0AD4C
BC9441C4
3D699CB4
BD8AD280
3CCADF50
3D441444
3D848C04
3D46B3A4
BDC4AFCA
BDB6A7CE
BD19691A
BD0948C5
3D8EB458
BCECF0F8
3D88A777
BD9344E4
BDB4CBEA
3D542988
3C895406
3D947EBE
BDD0867F
BD2AB43D
3D8513B7
3C8EFB8C
3DA61DDA
BC93BD40
3D03907B
3DB1F7B6
3AB83740
BDBD1DF0
3D8E35A2
BDB6702B
3DC49064
3D1234E4
BD71C322
3D97A9D4
BD3DE107
BD7DC009
BD29ABD5
3A21A580
3B2A9FC0
BD4C458C
BD99E680
BD34E339
3D070B9C
BDBE6D05
BD8F22E0
3DB82C44
3C3D1B18
3DA04C06
BD91B452
3B61BFA0
BB7EC280
3CE5EA80
B9CEBD00
3C28A600
BD53E3C0
BD84300C
BD7B5B96
BD8B250E
BDBEF71F
3D6FD4F8
BC389FD0
BC93A964
BD3813EA
BC77A209
BCA84EF6
3D7D0931
3C39654E
3DB63873
BD27BF6B
3D011151
BD2F39D0
3D7CDCCF
BD880DE5
BD0907D8
BDAF6BBC
3DA3DF4A
3DB1DC38
BD0CFAB4
3DAF1384
3CCA6520
3C6CE5B1
3C99BB5C
BD52D535
BD2D7647
BD0EF09F
BDD5FD6E
BD17EDED
3D90F857
BDB14657
BD8FBE83
BD22A579
BDAECA9B
3D3164C9
3D3F65BC
3D9E13C2
3DBDE976
BD82C92F
BCDAD0B1
BD53CFB9
BB037EE2
3C8C1055
BDD54762
3DA392CB
BDB4D5A7
3D829493
BE1C2AB9
BD9B22DD
38E976D1
3D14C55F
3CD70C30
3D13502F
3D143504
3CBF36E0
3CF67FB7
3D8770F6
BDE3E746
3DB806B1
BDAA7E07
3DD3B159
BDA45716
B95BD0BE
3C9535C2
BC93B53A
BDEE15D0
3C6B1C78
3D643B44
BC278794
BDC4B100
BD60C038
BD9DBFC2
B9A68A00
BD9AB1A4
3D81EC35
BDB1AE01
BD93A896
BD6D96B8
3D817758
BDC7A438
3C772220
3D6503EC
BD0A5DC3
BC7976B0
3C610CA0
3DC0D248
BD120C99
BD7161F2
3DC18D26
3D3E472D
BD0D4D06
BD728BC9
BD91E598
BD9BA9CE
3CCE1228
3CD8F268
3DCAB598
3D53544C
BD0BF42E
3DBAACB4
BE5EFDD0
BD821EA4
3E56E77C
BCA871BF
3DAED887
BB4242C2
3E0499D7
BD4E3411
BD041A89
BD8C279B
BD326C8C
3E83DCCE
3DD4B929
BD11C8AA
3DFB004E
BD199D3E
3D7CD1CD
BD446281
3D905CF2
BD636581
BC86392E
3E86C214
3E91E346
3B1592A5
BCEC70C1
BD1174FC
BC382BB7
3CB73C32
3D23E366
BD8C9E30
BD6B5790
3DC8C7A6
BCAF0CC4
3DC2B34A
3CC34254
BC06EDE0
3DA3C762
BD96A057
3DBB379D
3B8A8F10
BCAD936C
3DB237A6
3CC59790
BD8E4C5B
3D463190
BD43AF90
BC59647A
BC72B298
3C8293B4
BD902842
3D831513
3DBD866A
BCD380B4
3D68AE6D
3D48FE5D
BD8D83AC
BDB1B20F
3CF209C8
3D7FB356
BC00A5E8
BDB4F363
BC8DE76C
BD478AB5
3D3DEA04
3D4B5B1C
BDC77ED1
3C5ADCD0
3DBE4B22
3D60B588
BD054AB8
3D4788AC
3C67AF70
3D38E774
BCC072E4
3D7EB8B4
BDC3FD0A
3DA1DC56
3DA2DC94
BD4C4D47
3D9FA7BA
BCB11B8C
BD73E367
BD86F41A
BC8B1FFC
BD983DB1
BDA70BBE
3DA3549C
3DC9D3A0
3D0B5474
3D35BB1C
3DAFF6AE
BDA86A91
3C937920
BD8C6D94
BD922537
3D0EE9B0
BD2F3AA5
3DBCFB00
BDA86A67
BA0ECFDA
3D1D1DDD
BDBE88CB
BD232AF9
3D32693E
BD49D668
B8B77CCC
BCC0831C
3D5012F0
3D42C72E
3D57FAD4
BC0F03DD
3CAB21BC
3D92A1FC
BD59F6FF
3D23C29A
3B53E350
3D21040C
BD477F5E
BDC96203
3D369158
BD182A3C
3DB6B146
BC058207
3D296CEA
BD147B56
BD8E8D5A
3D343220
BB515940
3C3ADEB9
BCE41816
3CEAD590
3DBEFD46
BCB84382
BD44486D
BDA40F79
BDC6E1DF
3DF341BD
BD3AFD43
3CCF36F7
BC5E1909
3DD0EFD3
3D9C7E0E
BDD1D15D
BD68631B
3D941772
3C9D64AC
BC023F2E
BBA73C14
BDE3A165
3DA52BAF
3DCD6E89
BDA6E239
BD2AECC0
BDBD9751
3D109058
3DB56AC8
BD32A13F
3D53D85D
BD8EDF99
3D1C8D4C
BD72C580
BD46B9D6
BD83D018
BD07EB70
3C990AD4
3C792CD0
BDC7600C
BD9458FB
BD299B05
3D0F1FC0
3BFC3A60
BCD4620C
BD314F86
3DB1CE00
3D8A28C6
3D9B4084
3DA90610
3C0D7610
3D9FDA20
BB3A2660
3DB7BB1A
BC1DEDBB
3D27970C
3DA8C646
3C42EFF8
BD07B1DE
3DA5C6F8
BCA3F898
BD753D58
3CE39470
BD94C102
BBF05610
BDC5955E
BD86027D
3D0D879B
BCA023BC
3D97E356
3DC2B436
3D984FE7
BDBE7C09
3D75D8E8
BD914766
3CA45F14
BD9469EA
BDCA7DDD
BC93FACC
BD8067E2
3D10E498
BD8BE9EC
BD7DCC14
BBEBC7AF
3C988BC5
3D2C8918
3D587F76
BBF72327
3DB519BA
BB3E58D2
BDC1051F
BC583600
3DA68906
3C9EE7B4
3DC12B60
BC5B37FC
BDB15FDD
BDA854CC
BB9BD103
BD949642
BD95EDC0
3CB41BD9
BC9F11AD
BCD5A56B
BDA32FF3
3C26DC28
BD2EB645
BCB9DA3A
BD4CA262
3C28B165
3D7ADA00
BD9B746F
3DA233F8
3D1A464C
BC246168
BD7EF12C
3CB2401C
3DA94168
BD321419
3B8094F6
BC279D96
BD9C226B
BDA3F364
3D05B398
BD869A58
3D9D8296
3D7082E8
BD054F64
BBEC9750
3D1DAC7C
BD021F26
3C62DA70
3D8A27DB
3D10D385
BCE0C0A0
BD998416
BD862706
BD35C3D6
3D1C66D8
BCBD3008
3D9640F6
3DC4FE98
BD8D70D2
BD402CBA
3D338A04
BD1B3B7A
3D408410
3DB706FA
BD8FE010
BD4E4BD1
BD76545B
3B5B88A0
3D751120
3D421C94
BCAB2120
3DA1CFC2
BC032A88
3D4DA9F4
3CA66C08
3C369B7A
BD81E87B
3DC7B160
BD0B9695
3D4B0568
3DAD02EB
BD0AA05A
BC68C763
BD98EB3C
BC5A63C8
BD5B0F28
3D679F88
BDB59542
BC8ABD66
BC606BAE
3D457308
BDA26CE0
3DC2BCCE
BDAA1D12
3D55DE40
3DA64578
BD9E8BF9
3CC7F990
3CA40DCC
BD89E76A
3CF9F645
3D91AB84
BDBB38A7
3DB75B17
BDB55EED
BC6057F8
BD495A32
BDCB3452
BDC29EFE
BDA7C5AC
3E195858
3E0615C6
BDC19391
3D9C6550
BC81303C
3E850D61
BD93B507
BD9D7CBA
3DB9BF16
BB30E515
3E394EE2
3D6076FD
3DEBBFDF
3E31D088
BDDD3E4D
BD426FC7
BD0EF8BC
BCA26BC9
BBD867FD
BDDF76D5
3E3D1B32
3E4A3C58
BDCC5A24
3D760E75
BC47C6D2
BDE3221D
3D43AD9E
3DA3B981
3C80BDBF
BD9B6368
3D0B5D20
BD0826D7
3E12F0EB
3C9775FA
3D6BFF15
3C15706C
BDC802D9
3DFBE3B0
BCF49388
3AD5DAB5
3DAB643C
BD6AC21B
3D505513
3DF3426C
BC98546D
3C615A45
BDB13A69
BDA094E9
3CE040B0
3D914902
3DE46411
BD259BD5
3E1D7086
3E54AF00
BDBFDF33
3B679275
BDABBEED
BE2EF040
3CF59C6A
BD9567AD
BD966002
BD8A603A
BD46807A
3C2C65E8
3D9CDC04
3AD66498
3D9C96BE
BD9DCDD8
BD99287D
BDB2F90F
BD5FF13D
3DA3AAE3
3BD4D5CB
3D371464
3A3EFCB0
BC57BEDA
BDC3BBC6
BC7984A1
3D06862C
BD1D96BE
BCAF7EDC
BD8C40CA
3D423618
3D013434
BD793527
3B0BC39E
BD91A7A0
BD1253EC
BD363525
3D6F0202
BD4099A7
3D4B0020
BD09A1D2
BDB7C7BF
BB952740
3CE95D5A
3D803126
3DAFA2F9
BC1ECD15
BDDCF01B
3C474EE1
3B4D1983
BCE68603
3DEABE9E
3DADF9C6
BDA57CAE
3D8375F7
BCAA6D2A
BDA940A0
3D3E5498
3CCCB5D4
3C8DE920
BD38349C
BD31EBB2
3DB0916B
3D95EEEA
BE1F5CEB
BD45D5C3
BD7E6B9B
3D1A8E7C
BD2F6B14
3DDC273F
BD0E9D9B
BDACF48A
3D9A81D1
BC542F17
BC35F6E0
3D055DAA
3DA0C333
3D172D20
BDD9C838
3D12CFB8
BDAF4663
BD38104E
BD0FE8B6
3B226546
3DB59B38
3CC9DAA1
3CB56E45
3D11DEE8
BDE1D8F5
3BB051C0
BCF5FD61
BD8C29E3
BCE17A48
BCC9AF69
3D84892A
3D39A4AB
BDCA440D
BBBEA92B
3D95B2AE
3DA063F5
BCD4B65F
3DCFA2C8
BD67BE53
3C0A636D
3B080379
3D87999C
3D822498
BD750647
3DC5DEBA
BE0149D6
BDB4F651
BBC8CB39
BBF48DAA
3CE9FE17
3BC802D3
3DEF5A80
3D899F5F
3CE4D23F
BE084AD1
BDE09833
BD34591F
BDF5C282
BC493179
BD18132F
3DBEFA56
3D852850
BBACA51D
BD269CC7
BCDC34C9
BCB78039
3D654269
3D1FB1A9
3D96CD26
BD1CB431
BD7B9107
BD2D84CC
3CA64298
BC717B56
3D969A10
BBD6E602
3D2E4934
BC52229B
3BFB0690
3D7F7AB0
3CD90C38
BD25C3CB
BDBBD420
BDBA6053
BD33F029
BD2F2A74
BDA8967A
3D39BF88
3DBEAEF0
BBC8E1E3
BCAD0A44
BD71A4B1
BDC3BAAD
3DAD2F4F
BA172C80
BC799688
BC89F3C7
BD9E3154
3D7E1D18
BCFE65A5
3C262D38
3D03C777
BB3C2320
BD0A7B16
3DBED6D6
3C45C7E0
BD1CC14E
BC8ECDE0
BD734A9E
BDBCDBF6
3D43DA74
3D80E552
BB71CAA0
3DAC27A2
BD89380C
3D5F9666
BC4FDF90
BDB75C67
BDA9D49F
3C840694
BD2EF85E
3C6FCE58
3DC1183C
3A85A5C0
BC8D318C
BD617088
BD5B1B8E
BD0AD28E
BD5FA541
BCD77D04
3D8FC47E
3D92B32E
BD863284
BD4C2D46
BC8B8098
3C71B490
3DC35AFA
3DCCFE16
BC97E4E4
3DC4A8BC
BC368C96
3D61F720
3D99EB23
3D284BDF
3DC66226
BDAC99D7
3CFCA6ED
BDC3C26E
BD442D54
3D9461A3
3D064CEE
3DB37D82
3DB6FD38
3D6AE293
BD89D8AA
3D90F796
BDBF12BE
38CEB8AD
BD16ED9A
3DC76384
BD635A7E
BCFC23CA
BC1699D4
3D8678AC
3C24A6BA
BD653B9C
3D95913A
3CD1630E
BDC3F3EE
BD6A6050
BDC87331
3C27897A
3D9D7984
3C0EB329
BDC6F8FA
3D00F2FB
BD307A77
3C4DF1CC
BD088150
3D7C56B0
3D67FD62
3CFA7848
BC8FB630
3DB7E4FD
3DBB6F18
BD973B8A
3D962326
BD493D91
BDB9AE26
BD034758
BC7E8970
BDC845ED
BDA79481
3D91BAA3
BD06EA65
BD8BA0C4
BDA58FC2
3AD793F5
BDA15565
BD30307F
BDB1C06A
BDC33CF5
3C089300
BD1AA847
BD377006
3E049081
3D0954E2
3CB88BFA
3D970C90
3CBBC174
BD3C77C6
3E4F1A59
BD7D5F1B
3DA93F6C
3D3A62C7
BCA6B4C7
3D7F9CE9
BE05A362
BD9FE9F4
BDD6CD00
BD85B7DA
3E1E73AA
BE0BC0E3
BDCEB842
3E35D0D6
3DD55A1D
3B2CDDB5
BE25B71A
BCBC20C4
3CCDED7C
3BEB094C
BB6B1C71
BDE3C5FF
BBE944D6
BD63A2CB
BE8A5A46
BCDAF9DD
3E8026B1
BD9865C3
3C9820DD
3D0F7B8A
3E293DAB
3B804B84
3D15CA12
BD86297B
3C0DBC92
3DFA4B85
3E03DC2F
BC75A5B6
3DEFE50A
BDC1FF0A
BDD232E4
3D3EE668
BE35F145
BE1388B8
BCA5D9C2
3E723DB3
3E4DF02B
BB2B3338
3C34E8E1
3B7E30E4
BE0952E0
BD96EDCA
3B640788
BDC63E62
BDD62A90
BC6F1F30
BE21BF9D
BD6845BC
BD0F1F61
BDA72212
BDCD5BD4
BD2F9B0A
BDA537C4
3D8B08B2
3BF5E5C7
BA209E09
BCB4A590
3E7BF795
3C2E393D
3BC09399
3DDAEE68
BDCE2154
3C2F38A8
BD24F9FA
3DCDBFCC
BDAE45CD
BDB42D5E
BD6D6478
3CC62E12
3D8A6880
3E2D9B03
BD40A20E
BE37D84B
3D250E56
BD9F9126
BBDC9F83
BD42FCE9
BD747921
3D487C4C
3DC48621
3CFE8B3B
3DBA8C82
BD0ED05E
3D8C8760
BD6173D4
BDCA2D73
3C0CFF34
BD9C2E14
3A33B6D0
3DA95794
BD980878
3D1453BF
BD1DB0FF
3D0DFE0E
BD4FA085
3DD0B8D0
BD489234
3CD8E6E2
BCE30DA0
BD8AC0E2
3C0F01AA
BCACC1C0
3D7A96E3
BD814C19
3BE8446B
BDB16BF1
BDD5AAE7
3D85B9CE
3D0250C5
3D11E118
BE777231
BE4697CF
3D77B1BA
3CC8A3AE
BD303CF6
BBC391F8
3E3A80DA
3C0378CF
3E05788B
BD4DC40C
3D99A51E
3E9802BA
3AA7C514
BD9CC8BE
3E7D41CA
BDC67B31
BDCFECDD
3D9AE58E
BDA71CD0
BE8DA689
BD4E437D
3E32BCE4
3E020CCE
BD9880B5
3DC3E291
BDC2674D
BDE8249F
3D9D131F
BD07EC48
3D51D768
BDEAA238
3C8093C8
3D677F23
BCA66CD6
3C70E4C9
BD12C7CA
BD8D9605
BD9EA5E0
3A876275
BD72EA77
3D7FD4CC
BC3E4C0C
BC21E8CE
BC8AB1E4
BC6FADFA
3D78CF98
BD2A12DB
3DB444FC
3D17AB60
3CFE0CE8
BD06A8DC
3BC39C64
3DCE337C
BD767EE8
BD879CAC
3D49DBCF
3D0B769E
BD4BF07D
3DB0D67E
3DBE98DC
BD4C329D
3D8C452E
BD6B9443
3D93A554
3DAC83F8
3DB80ADA
BDC6E928
3D952522
3CEAB560
3D39846C
3DBD1A18
BDC23076
BDC3D3C5
BD570446
3D93F21E
3D8C6814
BB793280
BD8C5FB3
3DC56BA2
3C8E115C
3CCA3458
BD6220F9
3DB70312
BD81D7EC
3DB6466A
BDA22FBC
BB8DD250
BD068054
BDAD0C2C
BD816CF9
BD8709FC
BD8DB07E
BDABFDF3
BD818E56
3B139560
3D950110
BC99F01C
BD914265
BD69FD00
3D69A4CC
BD7D4F83
BD50882E
BCE001F8
BD144058
3DB25492
3A8F8DC0
BD3D59CC
BD5E7EC1
BD2DAB02
3C9956F8
3D27E968
3CA4CBE0
BBAD68B0
3D7489D8
3D4B09D0
BDCF0A9C
3D44BE50
3DC4DE8C
BDB8F56B
3D26658C
3D812152
3C093180
BD1BF74C
BCF24EAC
BDABC704
BB986880
BD0015AA
3DBB8F9A
3D86BCE6
3DC65BBA
BD4E4D7A
3DBF8C4F
BD23E2F4
3D9B115A
BCBC4C38
BC19E828
3D934630
BD0E1790
3CC23758
BBDAAC00
BCDFAD36
BD3EA108
3DB22DD2
BD0A7184
3DCF67D2
BCF94208
3D49D748
BD6E5ACF
3D2AE46C
3DB23F40
BDC304F1
3D40DFD4
BD0682BA
3D52CD72
3C25E820
BCFBBE48
3B946F90
3CA25D8C
BC4C2B7D
BD34FB69
BC143835
BDA97457
3D93FCBD
3CB7FE1F
3D1533E5
3DC7A242
3BE458AE
BD19143A
BCCCDFA8
3D03FF6D
BD1E1D1B
BD028559
BDD7BF1D
BD8D037C
BDAA52D9
3C319728
3C181D30
3BA45AE0
3D1FE153
3DB412A0
BD09A466
3D190B88
BD9103AF
3D8D6401
BDD1E959
BD67853D
3D1E17A6
3C72C0AD
3C627B08
BD8AF805
3DB26307
BD64E865
BDBD96D8
BCD4662D
BD88CC69
BDC7D2D0
BC3B20A0
3D10B580
3DD52CE1
BDD2AD8A
3DB07170
BDA1E136
3C3F68C1
3C003F73
3DC17ADA
3D993E42
3D81FE03
3D46AF30
3D8545BE
BBF55830
BDAF2AAD
3DBFBB57
3D0365D9
3CDF6807
3DB9FCE1
BDAEC3DE
BE025357
BD875FEA
3990AB6A
BDA7EC10
3D14FE14
BDBEE937
BCFE52AF
BCEB1614
BB4BEF89
BD4F2CEA
3BCE67D0
BDCF3396
3D27665C
3D0EB1F4
BC99ED2F
BD434819
3DCBCE57
3CADA9FC
BB81CB50
3D10E125
BD02E448
3D693CA4
3D287606
3D2996E4
3DC0CAD8
3BD4C4B0
3CED2F65
3DC80CC6
3D1266D4
3CB34C1F
BDC0F0A1
BD3AA872
BDB45BF7
3D1F49A8
3C888772
BC549C98
BD387819
3D3E8660
BC746F48
BD1470C6
3E441C01
BD933B45
BE13F18A
3D5CAD37
BDA7D866
BDC21B22
BC11F822
3C180596
BDF45D8E
3BB36F0A
BDD2D78A
3C9269D9
BE483422
3D27D91A
BDE62BEC
3D776293
BDE49BF4
BD8EEC25
3E736485
3DD5FB69
BDC08F04
BE126AE3
BD86FC3E
BD91A910
3E318B7C
BD946DDC
BA93C5DD
3CEAF7C8
BC9DA354
BDE82DEF
BC41B5FC
3D0B5524
3D1401C6
BDC08830
BD6CCC07
3CA44758
BD8729A6
3D91427C
3D3A09EC
BD1DB9A6
BBD11E3F
BD91F488
3D93CE7E
3D71C891
BDC51047
3D807AE8
BD42CE5A
BD8C00E6
BD125E80
3D555C7C
3CF18F11
BDB7E6BC
BCC60C5C
3CAB73DB
BD34FBEA
3CEE6908
BC932F15
3C9D137C
BD162DED
3D455338
3CA43C1C
BDB7C6E4
3D4109A4
BDACDDB2
BC510AA0
3DBF0C88
3C624C78
BCEF66F4
3C07E580
3C98FF4C
3DBA2992
3D34230C
BBD0D970
BC834584
BC7935B0
BD0D096E
BDA4A356
BDA6FB32
BC903478
BCE7815C
3DA71A7A
3DA448EA
BC7A8458
BDC99A44
BDBE3783
BC6489C0
3D8A0044
3D413404
3C95334C
3DA6E670
BD1B7290
BDB7B0C8
BD347561
3DACAEA8
BAD70840
BD1D9294
3D858DBC
BD899557
BD9DC773
BD87C46E
BDBCC683
3C6E1F20
3DAC3A18
BCB941E8
3C3635F0
3C8E12E5
BBBCFB54
3C8CC26A
3D991640
BCCF584C
BD239AAF
3D4FD6A0
3C593610
3C1ECB88
3D436440
3DBD7A60
BD355B18
BBD4174E
BD92B67F
3C7DC0C9
BDA4A496
BD1A6554
BDB49BE0
3D8C61AE
BC58F528
3D7EBF94
BBA9678E
BCD39584
3E30B298
BDB53631
3D02616F
3CABC40C
BDDF4243
3DAD4BE6
3D402477
BD5AC581
BCFA1549
BCCBCEF8
BCA4A3AB
3DF6A91F
3D9BBA2C
BCCE615F
3E5C41A4
BDB2F043
3D54F0E4
3CEF81D8
3D24A93B
BD957965
3D9C85A0
BD9CEA67
BD6F53EE
3D3F63B9
3E0D9B68
3D258019
3CA013B7
BDD2BDDB
3D8B7B1C
BD289A8F
3C8474C4
3D9580A0
BD86DE84
BDAC9B2A
BDCB7AAF
BC4265F8
BC2E6608
3DB6FF76
BD7AB9DF
BDB5C391
BDB8441F
3D0424D0
BCC0FDDC
3CC0B2C0
BCF84E90
378B7000
BDC834A1
3D96D03C
BD89EDA0
3D8839E2
3BDF6B30
BC832CAC
3D37C3BC
BCED8854
BD5B304D
3B12A340
BD35CF79
BD941E8C
BDBFD6AA
3DAB1322
BDB86D7C
3DA0B366
3D966C7E
3CB87E4C
BD57D0E4
BD89B4A9
3DB4A1E9
3D72E524
3D176410
3D5137FC
3D8F9563
3D17F77C
3CDA94A8
3DB29EE5
BD394C51
BD84C965
3D91D8FE
3CDF0F38
BD090238
BC5E8A20
3DC9BDCC
BCC7449C
3DD40BDC
BD771969
3C4A6AD8
BD41BAD5
BDBA0B28
3D7F8649
BD2DFF2A
BD82B17D
BDC394D6
3D9986B8
3C1D3E50
BC8D9A0C
3D47F70D
3D3CDE00
3D8B31E4
BD477D24
3D47200D
3D8FA2A6
BC60E0D2
BD06D529
3DBEE327
BDAF8879
3D2DDF64
BDB62256
3D87BA1D
BD4C3AD1
BD17815F
3C998EB0
BDB0611E
BD087F66
3CDCAFD0
BCBF05F8
BDBD5A5D
BCAFB443
BD9AE3B1
3DC49E73
3D37827A
BC3230BB
BD0C3341
3C8D4C37
BC1E94B8
3DD18C48
BDCF0F13
3D4003A0
3CD8C392
BC8665A4
3DBDBDBC
BD5A5ABC
BD80B158
BDBD6262
BD814DEF
3DAB7DCC
3D898CBE
BDBC62C4
BDAF9314
BD27395A
3DBAF4D4
BBF269A0
B8948C00
BC46B590
3D9AB608
BD97373A
3DCE743C
BD32D76A
3D29BB6C
BC15BC28
3C0DBEF0
3C3A69E0
BDD06CBA
3D4BBB90
BC1BEE88
3CC46EF8
BDC0CD35
BC32D200
3D861E86
BD8B732C
3D8A2278
BD828C00
BD17AB2F
3DB245BE
BD22D4B8
BDA4D835
3C963320
BD5D9505
BD3A6A20
BD27E240
BC94B55C
3C167415
BAC76B80
BD8A3774
3D2279BA
3BEB4540
3DBC4AB7
3CA13464
BD92BB0E
BDAADB0F
3D318576
3DA3507A
BCCDF200
BD0EB404
BDABE152
BD227383
BD405E9F
3D65930D
BD72C03C
3BE2C360
3D8F84A6
3DC38A2C
3D8200F9
3D0ED374
3CDE39DF
3BC70CF7
BE366532
BD559962
3CF23FCA
BC4FF0B5
3DD05F1B
3CD55FFF
BE052926
BD665718
BD86E847
BE2D65A3
BE1554D1
BCCA893A
BDB89978
3D82A0BF
BDF3310F
BD55E454
3E53FA5A
3E3B6CF2
BDD08C24
B88F9150
BD607173
BDB4D61D
3E9EEB51
3CC4FEBA
3E0673EF
BDD2764C
BDCA1E4E
3D92B515
3DD92BFC
BD226673
3E21C0DA
BDB06317
BDC7DC9C
3D9C1B34
BCBBEF9A
BCE5F3AA
3D0D82A8
3DB01350
3C32627E
3D4F0ABC
3D399F19
3CE6BE86
3CF176B4
3D94DA91
BDA2B08F
BDA254AA
BD526827
BDC823F7
3B81BA00
3D222D4A
BDA7090D
3E5ABE08
3B565A5D
BDA87E26
3E904A09
3CCA5B19
3D9B07F0
3D564487
BDB6995E
BAEC8B03
3CB1FBB0
BDA2E0B9
3D833BC1
3C2A8C60
BD6ACF84
3DB2DED0
BD6B2BE5
BC6262DF
BD7635CF
3D820564
BDAB1733
3CA46AAB
3D28684C
3D46DB2B
BDC48395
BD8B93DB
3D7FD481
3CB648D4
BD38A4A6
BC0DC530
3D288F0D
3DAAE918
BD73A370
3C174F2A
3D8EA6C1
3D5C168E
3DDB5B65
BDAA38E7
3DC34DB9
BD41205A
BD2FC9ED
BDB7E6B9
3D84E260
BC792798
BCD5F8DF
3BB32292
3D5D0D39
BDAC6F29
3DAC84A3
3C717191
3DDEA5D4
BDD222DA
3E0DC4EF
3D529DF6
BDD74FAD
BD78E745
3DE73760
3D2C2012
BCA11D93
BD827A76
3A1865DC
BD6BC7BE
3D2D4B7C
BC8A565F
BB8F8900
BDFEE752
3D4C13B7
3B8533EF
3BBC4CA7
BD7D574C
BD9FD0F5
BD17710E
BD5C9EF1
BD4EEF64
BB91DEA2
BC458DB0
3D8F8FD1
3DCE1B77
3DACD339
3B7C511C
BD941308
BBC45EA8
BD07FC20
BBF64718
3CB387D1
BD36E5CE
BD2D2B66
3B7F6AF0
BD190EA4
BDC149FD
3D9F9D10
BDD9DF4C
BDA08BB3
3DA07BA0
BE001E38
3A1A3661
BD56877A
3D00AEF9
BD8246A4
BD9BA06D
BD48CB98
BCED9E6E
BD8745A9
BDBB6499
3D1A1203
3D8FD380
3C1D410C
3D9C2600
BDC1F552
BBCBD0B7
3D069544
BD143BF6
BD9D51C0
BCC00FE4
3D91093B
3D978774
3E452381
BC859BCD
BD8037D1
3CC6051A
BD84C2F0
3C8599A6
BB28357D
3C277DC4
BDCADB19
BD290946
BD908D4F
3D4388F5
BDA4B939
BDB3EED9
3CA545F4
3C8AFA31
BDE9CB24
3C28BE83
3DAD332B
BDCD187F
3D95FBA6
BD09AAEA
3CBE22F3
3DB17DD6
BD933FF8
3D0CE510
BD6885FF
BDB60FCF
3C46CBB8
3D09F000
3D140BAC
3DBC8B9A
BD4BAC6D
3DA2F288
BD06C524
3D349277
BC4C1CB8
BD2ADEC3
BD92ED5B
BD126ACE
BC6F6900
BDA406F4
BD5615E7
BDA2C653
3DCA7FC0
3D3857F3
BBB11F5A
BD434741
BD5698DD
BD95F781
BD78F04D
BDCC937C
BCAEEE24
3D8D5E8C
BDC4518C
3D418CDC
3CB87854
3D3B520C
BD5D4D21
3DA7AD8C
BD11A820
BC13A990
3DBC4BBA
3DCF2814
3B9BEDF0
3DADCE70
BCD31CF0
3DC6D896
3D418690
3AF07A40
3D706BA4
3D5D53D8
BCDBAD94
3DC7562C
BDB22F1D
BDCE7EF7
3D0DCA2C
3DBDAD72
3CD4C170
BD9BD866
BDC5E630
BD3955CD
3DB805E0
BDAF02B6
BD3D4280
3D46F374
BD8D04D3
BD0B5C08
BD0C3F86
3D1BCBF4
3C9ABBDB
BD72D7D8
3D11194C
3C9C40FD
BDC647CA
BD5790F8
3D554BC3
BC84847A
3CB9B5FA
BD8F040B
BCC1C091
BC418BF4
3DB0CB6E
3CDEE0B0
BCDED92F
3AACE640
BCB176BF
BD82079D
BD31CF82
BDBB3639
3D2E9AE7
BCD4EE90
BD62059E
BDAC3170
BD94D55F
3C33351F
BD056618
BD8B4D9C
BD9071E8
BD695CAF
BD968982
3D96C846
BDA77DE1
BD79BDEE
BDA59970
3D574C16
3DB91EC6
3D3841CB
3CFEAD18
BD555C95
BCF3F32C
BDB547DC
BD8D5DC6
BD8A8F9C
BD53AC12
BC3DA518
BD50EE45
BD0E68AC
3B3523A9
3CE0A820
BDB8F01C
BBBFC76F
BD3AE6F3
BC7F196D
BD0BBCDD
3D711F51
BD86669B
BCF9A55A
BDD03E23
BDBE355C
BDB9905A
BC002DE0
3E8180C6
BE26A97E
BD7EBCA4
BD88A23C
BD6528AD
BDBF5588
3E03FCA3
3D85149C
3D750CB2
BCFB98FD
BDA5814A
3E62C6BD
3DE61879
BD6A9342
3E97BF24
BDA8DF95
BC7E0B71
BD39BFCB
BC1D5F30
3D235066
3C31E267
BE0D3A31
3D63F8B3
BC37A747
3DDD13E7
BDBC06C0
3E344A41
3D2B971C
BC58104C
BD972CFD
BCB2B983
3C810EE0
3E441D5C
3D8CA0D4
BD78AC30
3D53D66C
3D81FD3F
3D3D9456
3D440E00
BDCDC2AA
BDF3D72A
3DAE80DE
BD0EC6CA
3D26DE39
BE3B7141
BCE2496B
BE6B9702
3CF5DBD9
BDECD446
BD86823A
3EDBF2F3
3D569BC8
3AD37BC6
BD90071F
3D9051DD
BD9A1322
BD1AD545
BDBDBF37
BDDBB41B
3D9869E2
3DCC3B83
3CB76ACB
3D486352
3C323020
BDDD4A07
3D9A739B
3DAF08E2
3C2CAC4A
BD69ABF6
3D8BA44D
BAA115E9
3D96A587
3DEADC65
BBA9F470
3BF55975
3EDC8E80
3DA10C09
3C978A54
3DA6572E
3D8B1EE2
BDF237DD
BDA14C22
3DC57530
BD808A42
BC4ACAA3
BD83C68B
BDB37D93
BD389882
BE3C1444
BD121443
3C09E0E5
BCC17913
BD999BCC
3D827A3A
3B8D08CC
3D7929C8
3D052239
BD0AB691
BDA76A84
BD7F57CD
3D7934D2
BD81C198
3DB539FF
3DCAC8B9
3C742655
BD7642F4
3C5CB246
BD60E4F0
3CF07B82
3D34643B
BCE32CC3
3D474B8A
BCC22D64
BC924F74
3D90866F
BD8995A0
3CFDE680
3D71A41C
3D251660
BCDB2A5E
BDA31181
3D75F8A8
3BBC4D5F
BD119336
BC4123F9
3D820478
3D83E063
3CF20280
3E206D19
BD09179B
BCBAE243
BDA69174
BC95AAFE
3D61DB15
3E1120A8
BD4D26D7
3C980E64
BD5458AE
BD1A8E37
3E12E35B
BDF55576
3D3BE324
BC877906
BDB2C198
3DA6D705
3D8E16FA
3E870D40
3DA06341
BDCB3D53
BE4E47D4
3D1C754F
3BEA1348
BC9684B8
3D9910F0
BD0EF889
3C993C5E
BD292669
3ACE1C94
3C98A98C
BD20BD56
BC52B3DC
3DA627D4
BCF2A096
BCF672F3
3DA12F3B
BDAC95ED
BD5C32BC
BD63EEAE
BDC9DD24
BC86629E
BD91FDA7
BDB08271
3D64A11E
3D6AF418
BC17DF55
3C5E36F0
3DAB251E
3D270F00
BDB3CFC1
3C8E0655
3CE90AA8
3D59FD77
3D6475A4
3D813C35
BD68F6D0
BCFCD278
3D7A13EC
BDC25080
3D1767FC
BD82C064
BDAE81BA
3D26AA58
3D7DC8D8
BDCBC146
3D0532E4
BDC17392
3DB37118
BD875002
BD6BA82E
3DB3EECC
BD87F4B3
BD04A512
3CCCF380
3D7A5E94
BD817592
BC7BC690
BC9E746C
BD0FA926
3CD122D0
3D5117D0
BD9814A3
BD8C8E8F
BA398900
3D65E3E8
BDBE1E1D
BD9AF12D
BD934F15
3D006518
3D57DD50
3CE21890
3DCD7D8C
BD960AF6
3D80A5BC
BD57B603
3D9142AC
3DB45136
BD83EA64
BDA59928
3CA89CB4
3DBF1F9A
3C8E20C4
BDC51A96
3D7DE20C
BD9EDB08
BB5F0380
BDBB41A3
3DCEC124
BD6B0FB3
BD309BE5
BDADBE4C
3D61FA30
3D88DA20
3D02EB9C
BDBC66E4
3D9CDBF8
BD64C955
BDC28909
BD8B877E
BDCF3E4B
3CC5DA48
BC72C392
3DC045F0
BD683FCE
3D9D266C
3C2722F8
BBB17DD0
3B2D6200
3DC2C3FE
3D00BDC8
3CF94AF8
BD8BAD66
BC9840E4
BD170538
3D8031EC
3D206EE0
3CA049E8
BDC93CFB
3D1FFF2C
BDCDFDBA
3D51C854
BD4F01B1
3D53E158
3D5F653C
BDCADDE8
BCE90ADC
BB1C9920
3D4B7D94
BD2352EE
BD307001
3D4BF9B0
3C620AC0
BBC02920
BCEA62F4
3CDC15C8
BD1942A0
3D74E228
3CF7F8B8
BD0C9ADE
3D977928
BD4D5503
BCD7902A
BCFA0F26
3D8C7C99
BD57D76D
BC0C14B8
3C82C9BF
BDCCA82A
3C7C1B3D
3D91B65A
3CADFE18
3D9452C2
BC507B20
3DC3A178
BC65FDE0
BD94B8E8
BC9AB678
3DD0B942
BCACC7C4
3CF5E7E0
3CD1A842
3DCC7FF8
BD44837E
3D2003CA
3A05EFE4
3BA86B80
BD1026FE
3B87F4A0
3D73F2B0
BDB15E44
BDC74857
BDCD9D4A
BD0F0DF3
3C0A79D1
BD477CC0
3BE1A119
BDA52F35
BD5641EB
3D9D0744
3E1BD43E
3D161314
3D899D3E
BD77194E
3C713B26
3DBBD781
BDE67110
BD4F9136
BD852F86
3C877330
3DA327A0
BD1844A9
BC87A436
BE14B2F8
BD94FDB8
BCD57774
BE17C5EA
BD23B497
3E11C0E5
BDAFBA3D
3C56A0CB
BCD96B1E
3CCFF183
BCAC06A8
3D6512AF
BDA7E6A4
BBB50620
3DC23CAC
3D47854C
3DA6139E
3CC7ACDD
3C02E6F8
BDA17D57
3D8F4CF0
BDBE0954
3D9EC302
3DC96A8A
BD04BA1A
BD3BEB83
3D9942B4
3AF4B5C0
3DB8139E
3DCF1286
3C174A68
BCC956AC
BDC0D8CF
BD7DFCD2
3D970E02
BD34122A
BD90AA18
3D5EEB82
3D786678
BDADA18A
3C00E7B8
BD500B97
BDB576C1
3E4CFC1B
BE4ACDE9
BD063120
3D4491DE
BD8DEC3D
BDBC950E
3E1EA1FB
3D37F926
BE059FAE
BA351611
BA7A4E9C
3CC617D4
BD82CF77
BD6666B9
3D8A3F13
BD8D8789
BDA01B57
BCB03954
BB575FAB
BD734A7A
BD8965CA
BE236B32
3D1901C1
3DB28FD5
3E886E1B
3D56762D
BDC41E41
BC208DC0
3B72C921
BC8CD670
BD9109F5
BD9F690C
3D86A0BD
3CC198A0
3D59B810
BD2C8869
3DA14192
BDC1ABFF
BD5FD0F8
BDB220B6
3AAE7C65
3D8134DA
BD886DB5
3C6EA990
BD83F73C
BD815B4E
BDACF2F7
BDA34346
3DBC07C9
3C79BB30
3CA2152A
3DB81E7A
BCAD49B0
BD954A65
BD98F6A1
3C357FC0
3DCE0C4A
3D289021
BDC24D81
BCF7CAE4
BD5B5F33
BD1C3E90
BD6E8FBA
3D170C3C
BBA43E80
3DB14A5E
39B27100
BCB4BD64
BCBFC374
BC18FD98
BD4F59A5
3DACC258
BD9E0996
BD0A235C
BD825D68
3C399FC8
BD1DF97C
3D221344
BCC4BFF0
3DC00E98
3D4D8060
3C2C4938
BDA45EEE
BD7A9718
BC6B4738
3D7A0AE8
3C31EB40
3DAADB8C
3D3EE7F8
3C9997A0
BD10F22C
3D8C53C6
BD994BE0
BD6EF915
BD8F9539
3D5BE3FC
BD56DC36
3DAE6080
BDC5C9DE
BCDCFF40
BD817346
3DA9C1DF
BD882942
3DB766C2
BC0D33A0
BD3DCE6F
3CE96ECD
BDC4C397
3D98E998
BB6A0740
3DA97B33
BD05D3E4
3DBD95A4
3C0C1FE0
BDB1CCE6
3D960C17
BDA408D1
3D1F4BC6
3D2241B2
3D4DC34E
3D96620B
BD966E81
3D105EA3
3D90B7AE
BDC4DF67
BC8D187C
3D0E7119
BDAAF3A5
3E565979
BE0A2356
3DF5FE59
3DA74755
BD7E4E46
BDAB2244
3E0934D3
BD4BA86D
3DC25BF2
BDA824ED
BCF9FC24
BC7D43BD
3D9F5E30
3D87B0B7
3D6EA6CD
3DA5A5CF
3D32C88D
BC2C7D10
3C8452DE
BCEA5CCF
BD5036E8
BDD4464E
3D80F229
3DAD95A9
3E3E5218
BD09619A
BD1A6C53
3C6C583C
BD5210BA
3D78777D
BC807870
3D932416
BD2D62BF
BDA64FF3
3D43C968
BDB7669C
3C00E1E8
BDA182FB
BD92DE34
BD81BC7E
BCF69C48
BC0F3BC0
BDAB382E
BC636B78
3CE93198
3D5CE4E0
3C54AF40
BD9D402E
3DAAFC80
3D1E5890
BC9EF510
BDCBF9AA
3D9BFC5C
BC82157C
3A8E7B40
3C3C1CF8
BD4FC61C
BC33D420
3DAE9554
BC684160
3C839C10
BD4215CF
BDC11438
3DA9F2A0
BD315E57
3D914010
BD76546B
3D04A73C
3D72216C
3D9C41A0
3CE5CC13
BCC9F18C
3D804836
3DD4DB03
BD65DA6A
BD4B63E0
3D0CC458
BBE3E110
3DBC8B32
3C9C0BD0
3D67AAF4
BD584B75
BDB6BE42
3D6141F8
BDA9D32A
BC68EB38
3C321168
BD41A1C7
BD7D213E
BCD68F1A
BD24F851
3D819C59
BCC48BBC
3CC1A750
3D1B7B47
3D099C14
BD63F504
3D8A45C1
3D8DDABE
3C42D433
BD6361CA
BDA7DB00
3D2AC8FD
BDCD3333
BD2400AA
3D594570
BDD469E9
3ACE72B3
BCDD5116
3D91759E
BDC7DC0B
BBE7E710
3DCA6C04
BC5253F8
BDD459C9
BDB550AA
3C91207C
3D637174
BCC63421
3D85C352
3C4675F5
BD6B4FD4
3C553FB0
3CE9EFCF
BD0FEC14
3C100B08
BD6F85AE
3DBE074A
BD55DD4D
BD5FFC08
BD2B2B49
3DA3FE7E
3CDBDCE0
BDCEFAC7
3DBD8AD6
3DBD91C4
3D9AE890
BD018F2A
3D58C754
BD8126FE
3C644820
BC6E65F8
3C4187A2
BD4B572E
3D7C8358
3D82B1A6
BBB54F42
BCCF5070
BD3103B7
BD970364
3D12CF10
3C509EF0
3D8A5608
3C923C1C
BD06A565
3D3F47FC
BD81D07F
BC8FFD80
BD607738
BD0B1962
BDA40CDA
BD3C4D06
3D8BE477
3D72F7D0
3C812CA3
3DA131D5
3D2735CA
3D5A8C44
BC7F1958
BD9BCE4F
3C8C7A98
BD994D94
3DC8EE7F
3C80F194
BDC7642A
3CD029F0
3CA54EDC
BC813C3C
BD38D359
BB36C4E0
3D8FADB8
BD4F91A3
3DB8A912
3D6D7771
3DBF1E55
3DB8E1A9
BDB5FC94
3D4F51D2
BDAFAA5D
3DA67D34
BBAAF1C0
BDBD6997
3E0DF275
BDE852F5
3DB350B4
3BB4411C
3CCD6E7D
3C918754
3E5D1CC8
BD25BBC6
BE0D12F9
BDA6BC66
BD914DCB
3DCB944F
3A138548
3CA1FA7B
3DE57689
BCC16BE5
3C293C6A
3DC2E8BE
3E58AE29
3D8E572E
BDE1D80C
3D71AC12
BD80D27C
BDB7996C
3E8D4E0C
3D4BF9BF
BDD4DD68
BCB52BB3
BD54F34B
BDE0A458
BC691822
BD519749
3DD3C1CD
BC5D379A
3DFAD886
BD773D7B
3D3B1BCE
BDD5A1BF
3D369000
3D2570AF
BD9D71E4
BD63DA61
BC365CC8
3CFDF192
3CF392DC
BDCEBBCC
3CF368B1
3D4BE606
BDA23278
3D88AA90
3E14EBE3
3DE956E5
3D81E90D
3DFAEA9A
3D9D6621
B9CB323E
3EA52514
BC582154
BDD78718
3D0F53FF
BDBAB39B
BDBA6C98
3C62F537
3DB61A28
3CF03981
BD048630
BD04F022
BA9521C0
3CF69FD8
3D06AF42
BDC09864
BBA2BCF0
3C841469
3C04CA84
3D3F2F54
3D577A8A
3D6F0844
BD1A5428
BAC224A8
BDA7C901
3D963500
3D921CFC
B9D4ADA2
3D20F1C9
3D90D0CC
BCC90D18
BD66D02D
3CB842D8
BD1D0352
BC9304CA
3DA69A99
3DCDBCE1
BD76A643
BD876E1E
BD0B8924
3CB680DC
BCCD63DF
BB5422C2
3DA24EC9
BD12F849
BC656F2A
3D9EB0BD
3DA1357B
3CE647C8
3D62E53B
BD70CFB2
3D998282
BCA6AB18
BDAE542E
3C307863
3DF06690
BD9512EF
3AD178DC
3CA13F90
3D675750
BD47EE51
BDAF22E9
BC2E4ED3
BD915A4C
3D4732CA
3CD70820
3D875A83
3D4DD950
BD3CD48C
BCF0EE0A
BD740757
BD2F1C70
BD22A1FB
3D5D112A
3DD6F73F
3D4CAF46
BDB7F3C9
BD97D1DD
BCF7EFB9
3D68E76C
3D8E4A03
3E38A5CF
3DA0ECC0
BD225118
3BE77254
3DBC277B
BD1BE346
3CB3BF1F
3C98E805
3CFCD606
3DC591C4
BD473F77
3DB8A086
BCF4F3C2
3D13951C
3BAB28E5
3D5FB03B
BDC9C8BB
BCAB9AF0
3E0E3C6D
BAE3C8B5
3D9E05E6
BD8D4F70
BDF65D19
BC98C630
BD04B59C
BD2EABE2
3A866C89
3D9C7248
BC9BF42B
BDB0017A
BD83CE20
3D29A5CB
3E2A2916
BDC13B29
BC41C2A6
BB42E02A
3CE215A4
BD2B6CE4
BD085655
3D64A0F0
BDB2702D
BD9789FC
BC91A75D
BD2CA2B3
BC8C75FE
BC75D7AE
BD81D7B8
BDBF6324
BC20D996
3D998916
39C05DDB
BD2EB133
3D4CFB65
3D9654BD
BD282C6E
3D24F4A0
3D1682D9
BD28297A
3C91E3C8
BDACC0A2
3BAC31D0
BD55AB4D
BB89C7CF
3D401484
3B96CF70
BD242026
3D20EC08
3DD26867
3D71C3F4
BD4666DC
BD20D0D2
3D342ECC
3D9C7FDC
3DB977CE
BD3B6BC5
BD63988F
BDB49992
3ADE9344
3BDADE74
3C35AE50
BD832310
BD949EC0
BB4699F3
BD05EDBE
3D9860C0
BD06756E
BD0DABA8
BD718076
3D632A48
BDA1EFA0
3C87B8A4
3CAB9370
3D3AB948
3D4025FC
BDC3B52A
3D840B4A
BD0B503E
3D855774
3D19A454
3D5CAE78
3CF1F5E0
BC2281A0
BC3B3DC0
BD1BD458
BC589938
3AB94180
3D4792D8
3CCDE1B8
BCD6BABC
3D4B6148
3C8C03B0
BCFFA75C
3C79DC08
BD87B0B0
BD3670FC
BD9BE6B3
3DAFBDE8
BD65AFA5
BDAA6DA6
3DA361CA
3CE482F8
3C666082
BC422B91
3DB7B3D8
3D857588
3D7EA800
BD4C9546
BCE5149A
BD8C1942
BDD42C36
BDA208C0
BD303C46
BDA4C43F
3D8B5644
BC913C8B
3D307BB8
BD0E1483
3D9B2DBC
BD875BBB
BD2287BA
BD8BF2A9
3D4615AE
3BA4F41B
BDD181CC
B9D8E084
3D47B594
3D2A5F87
3D6321E8
3D4133B0
3D16F7A4
3CD8BC59
BD817F1A
3A47A4FB
BDAFA253
BC83E7D8
BDBC0726
3DA11A98
BD8968F5
BCB46CE1
BD010138
BCFF2CBC
3C3B4661
BC58F280
BDC37B95
BD01B14D
BDABB698
3DB966AF
3DB849E6
3D079A58
BB635440
3DC14902
BD95827E
3D8D9282
BCE794DC
3D4636CB
BD81C73B
BCD25070
BC9A2185
3D00BD46
3BD06F03
BD57BC37
BC407C48
BD9ADF49
BB7DAE80
3DF73595
BDBC5378
3DAEE384
3D72C061
BD8BB7F6
3D892872
3DD2158C
BD435C44
3D6ED27F
3DC978E3
BC9941C4
BD90B4F3
3DD2FF01
BCCEC307
3E3C6783
BDA1D171
3D69F4D1
BCC094F0
3D488015
BD17E72B
BD0A2DD2
BDE7C1C5
3CA9BF20
BC70ADE4
3E401F59
BC99A2F8
3E514798
BDA7DC7D
BD06A3F6
BD827E29
3DE0F347
BCFF1034
3E899E02
BE3DB379
BDBDB706
3CC0FBBD
3D2AB8E6
3D3C7E91
3E58EB3E
3D1DF23F
3DA34D33
BD8DD882
BC412E31
3E82B53D
BE032B06
BD583EAB
3EAF4FDC
3CF761CF
3C8F4E7C
BD895F46
3E147CF0
BE75B51D
3D0B7BF3
BDD5C7A4
3CA9E475
BB913D8C
3DEB88EC
3C7BD4A6
3E6E92B1
BDB55BC6
BD7AE959
BBA64F19
BD5C7B64
3D44A8A0
BD39EF53
BDB89DE5
3D52D63E
3CCD89B7
BDBE71EE
BCBA031B
3D13D634
3C7557CE
3E6D0175
BBFE407D
BDC89685
3E890258
3D6FEB7D
BDBE8F0D
3E63E3D5
BDC7D7E8
BD42ED8E
BC9A882C
3D354C91
BE031691
BDD1C095
BD6155FD
3DAE8F73
BD3E706A
3CCB851C
BCF51C5F
3E6FD841
3D98AB4D
BC172EA2
BDE354A3
3D4A7D9C
BCFE4040
BDA25D6A
BDAB73C9
BDEDCEEF
3DC8F7BF
3D62EE30
3D47FACC
BCD9C3D3
BD5F1151
3D81B99B
BDC0ABC4
3C94647B
3D90A033
BDE496DE
BD9E740E
BD97942F
3DCDB611
3D6C8421
3D447B88
3D738B24
BBA621C6
3C074590
BD33EDE9
3D5B5CDB
BDA97EAD
3CBA8EDD
3D1FA8CF
BDB8A5A4
3D2071B3
BCAE7AC5
3DB4E3A4
BCC5B486
BDC5364F
3E47E37A
BE2592D9
3C635D84
3D326F75
3D150E46
BD216FAB
3E351EB1
BD983E3F
3E365334
BB99FDB0
BC2024A3
3E7DBAEE
BD0C665E
BD0069FA
3E9D6973
BD69C4F2
BCD5B619
BD8B55FB
3DF13260
BE8209B5
3D98C00D
BDDA4A6E
3DA00413
3D642AD6
3E25F8A4
3D2EF681
3DCF652B
3C96D5DC
BD8E5A1F
BD63B808
3D1F1FFC
3C53DB30
3CC0CA39
BC060B67
3D86E960
3CB98B30
BDC09123
BB46F276
3C3B7F0F
3DC83126
BD34BB7F
BDD49213
BD92534F
BD423B5B
BD6BF9EA
BDA983D3
BDA3DA48
BC564458
3CA94C9C
BD1C28C6
3B2633E4
BC120302
BD70F22F
3D8063AC
BDA0407B
3D0D2A23
BD389E45
BDCC2D15
3DC34CFC
BD923F1E
BD5B6AE9
BCA88C38
3D2A630B
3D8CD2EA
BD575F9E
3DA4E01A
3DBDB0A6
3DA6C6EE
BC850698
BCDCFED8
BCB1AD30
BD23E788
BD11373E
BD840270
BD14B174
BD8A604B
BCCB89A8
3AFFD9C0
BCE43E64
3DB3EF94
3DBBBA98
3D4ADA5C
BD9A018F
BCF924FC
3D554F40
BD56236E
BA03D680
BD0AD088
BD9EF032
3D963670
3DC56024
3D0D1614
3D773384
BC8B41E0
3D3D37F0
3D85367C
3D917F9E
BCE68F5C
BBEBC5B0
3D9E000E
BDB5222B
3DA2E040
3D7AA230
BDA3803E
BD8004F6
BD73AA95
3D693F50
BD81EF64
3DBA652C
3C7013D8
BB146C80
3CACB610
BDCCF549
BD7EF358
3D8254E5
BC8D582C
3D1590F8
3DB6E974
BD5E619D
BCB8ECE0
3D737144
3D1DD10C
3D32DDC0
BCFB9D78
3D8EA808
3B903B60
BD8180DD
BC1B14B8
3DC7788E
3CF1C550
BCA184F8
BD42FFF0
B9469C00
BD43CC31
3DB2F072
3DA82A14
BCC49B34
BB740B80
3D53D69C
3D102280
3D4EA7C8
3DCF7DF0
BDCABE47
3CAE5CB4
BD968D1E
BD9C2005
BD8B42A0
3D2B8CAC
BD3AC4E5
3DC068AE
3CE59CE8
BC3956F0
BD37E704
BDB578BB
3D0592C0
BC1228F8
3B4E1580
3C9986BC
3D5D64A8
3C275490
BDA4B26E
3D86EA6D
3DB3B154
3CA9B4B2
3CE0ED1D
3D5B8389
3BAFFFAB
BD10E112
BBCFFD30
BC9EB3B1
3D9D6F20
3D9999A1
BD1D36C2
BD8C608A
3D4BDE7D
3D259048
3D7FF1DC
3CBBDAC8
BC882531
3D7E0200
3CA9F3E4
3D1FCB14
3B9BA0F6
3CF8A986
BD3E08CD
3DB16B48
BDB520D2
BC5BDC22
BD319385
BD4CB153
3D938BDB
3CE72E48
BD8D3958
3D9BB6C4
3CC193AD
BD30F97C
BAFFFA10
BD4DF266
3A9525B5
BC9B3956
BD55CC69
BD07D100
BD21C0D1
3D6AD02E
3D8EABC3
3CDB044C
BE2750AB
3D47C66F
BD89A02F
BD0F223A
BC9EA733
3DDE9F7B
BBBB2AB1
3C9F25CC
3DC632BA
3DC250AA
BBD39512
3BD378FF
BD0435BD
3D9E6F66
BC95B86E
BDD5EF6A
3C418320
BD27CF1A
BD5FC387
3D5B2600
3D85CDE6
BDB3F18D
BC657D30
3D8A45B4
3C8484C9
BDA3855C
3CA8097B
3D97F8D0
3DB20692
3D980DFF
BCBFFC24
BD11CED4
3DC6134B
3DCDE876
3CC47818
3D02A824
3BCE8672
BD80E5E8
BC05FAE0
BD7266F4
BB692FB4
3DC15C70
3DD2B811
BD113D8C
3CE7BAC0
3D58CE90
3D93B2D2
3D703E24
3DB6CD8E
BD8F0E46
3BCF26C2
BDF69815
BCCB54D2
BD52B281
3D9D63D3
BCE5C768
3E2BDA59
3DC161B2
BC8A9253
3D85F550
BD59874B
3DA1183F
3D9E9179
3DA27C3D
3DAB1409
BA812B39
3D56F9D8
3CF1D168
3C112454
BE63A831
3DA0BD1F
BE6A695F
BC3E1D54
BD1B329B
3E083631
BD818675
BE128B93
BCBEF366
BDD53D6F
BD333CDE
3D507583
3DACBE90
BD106E96
BD1D1C4A
BDBB83CC
BD8E699C
3D3B7C0C
3B991810
3D26B853
BCFE4F74
BDAE37FF
BD0678B2
BDB744FE
BD50E43F
3CD00270
BD93213E
BD64AA50
BD2ADDB0
BD82FE39
BD913CC1
3D1B2E46
3DCF96CE
3DC19C78
3DBB92E2
3D9C1D27
3DD00F88
3D8BA120
3D0AD31E
3D9A0910
BB678CE0
BCBD5DDC
3D9D6A20
BC528D20
3DC46B4E
3C8DA18C
3D3CD82C
3DC4AD5A
BDAF9155
3D6F5100
BDA38718
3D539084
3DABBE74
3D741820
BC00D488
BD887DA4
BCE58678
BD1EBCD6
BD70B901
3C6FA000
BD462F77
BD96DACC
BD39AB34
BC021778
BD9D25AB
BD9DB47E
3D7E6518
BDB9C13C
3AB2DC40
3C7D0B38
3D5FC560
3DCBF420
BD8D30DA
3DC222A4
BD8CF154
3DCCF76E
BD145820
3CAE7443
3DBC3685
3D91C0ED
3CEBFB94
BC5FEF83
BBCF6AD4
3D8314ED
BC15B99B
BD043444
BCCFE9D1
BCB1B91A
3D9B944B
BDC776AE
3D88B1FA
3DC0C362
BDA9458E
BD9DD25C
BD3E8FB5
3DDF2A61
BD9DC94C
3CCA2920
BDB66C1B
BD6BA3B6
3D9184B6
3D0696EE
BD213D83
BD42A0DB
BDA2791E
BC322210
3DBC4AA8
BC57EFC6
3CE4DE90
BD9027F3
BDA42955
3D883BCA
3D6FF68C
BC75AF15
BD716FBE
3D93CC87
BD4F41EE
BD77C6D0
BDCDFA69
BDD6A486
BCCA8658
3D0C03A5
BDCAEF89
BDBD0D51
BC1F25D8
BDC498CD
3C760C08
BE1EE505
BD0C02B5
BD165C98
BE144C32
3D6CFBC2
3D898C58
3BB34A45
BD13743B
BC573A92
3D18A135
3CC680AA
BD5396BA
BD344E83
BD42C2C1
3DAEEC48
3CC2F4E0
3D89306A
BC8DCA3D
3D706BA9
3D5454BC
BC8BF2A4
3D892DF4
BDC00072
3DAE2CB0
BDB30C97
BD9300CA
BD12A8AE
BC8EB510
3DB4245F
BD827E42
BDCE7896
3DC63C0E
3D8DE590
BD166DA8
3DC2B746
BD0058BE
3CF64950
BD0295E0
BD053E04
3D831CE4
3D9B97B8
BD5F6584
3DA8D86A
BD7E9B6B
3CA48218
3DAC3B4A
BD453DAE
3C37E6B4
BD4B01E5
3DC38492
3DA63884
3D4FD438
3D31F458
BD4CCE28
BD8ACF25
3C0EDA27
BD6E7946
BCFF8B54
BD89C162
BD976F35
BD560746
3A8DCD80
BD52E943
3D4EC820
BD719102
3B56A020
3DC9FAC0
3DA05238
BD9F3297
BBE7DB94
BC334E95
3AD44100
3C105658
3CC84DE3
BBC63E30
3DC85ABC
BDBD5D7B
3D8EAC7E
3D71C0E2
BDAF15AA
3D3AFF6A
BD441D48
3C16301A
BD87AA6F
3D9AED5F
BDBC0474
BDB22537
BDB9E374
BDAE447B
BDA977C8
BD75DC66
3D83E7CC
3D6F7BFD
3AA95800
3D7E9628
BD1523DE
3D39DE20
BD1F6122
3DB731F8
BCA2D4E7
3D92C203
BCF45A88
3DB1C102
BCA4CF27
BCD023C9
BD91EC70
3DC5193E
BD91FC8B
BD6FC56B
BDC0073C
BD79C94F
3BBD7800
BA84E096
BDBA6C1B
BDC64269
BD963AD7
BC6C09A8
BD31A2BA
3D184FF8
3D0ECC98
BCED55B4
3C956BC0
BC052C18
BC503378
BD950980
BCDE43DC
3C178208
3DC33CB4
BCABFBBB
BD78D19B
3D01C9FC
BD70B428
3D0F1C68
3BE2EA70
3D665078
B9BFDD00
3DB9EAF4
3D7F0FC4
3D942A0E
BCBDD360
3D5190A0
BD4C5050
3D600EA2
3DB52456
BDACF210
3D8297FE
BC077CED
3DAEEE7C
3D351D94
BCA93184
BD9886AE
3D1368B6
BCCA0080
3D0A9B2C
BD5AEE5F
3D161698
BCF72C4E
BDB61F7D
3D301AE8
3DC352C0
BDC1BE1E
BDBD2BE6
3DCBC3AC
3D911B21
BCB26260
3D0E4339
BC3B6821
3D49CFE7
3D3D2342
3C070452
3DB38868
BDB9FB6C
3D56849C
3DAE4360
BE33FEE3
BE1CA7A1
BD03ABCE
3D7AE0A4
3CB6F21E
3B7ABB00
3E02A3DB
3DB80A5E
3E575533
3D9D2145
3D380AB1
3E14D19E
3D6C052C
BC70CC52
3E9896CB
3CF1CA47
3CCC184E
3DA44588
BC11FB15
BE1ABAE2
BAB8F147
BCAC6011
3D666627
3D54BDCE
3D73B2BF
BD9754E4
BDBB9EF9
BD3A77AA
BD6D0FBD
BD9CFB4E
BD8B4386
BDB8F247
BE216CF9
BDF12CD8
BD5A9D8C
3C9B08AE
BDA4392F
BD87D7D7
3B80E9F1
BD386ADB
3D1566A5
BD560D42
3C6E2BCF
3D8ED320
BD868B68
BDC3A39A
3ABAFAA8
3C427D49
3D5F296D
BD858CF8
3D81A75F
BD51D97A
3CB1B976
3D4ED28E
3CF2CC82
3D9F3B6B
3E2CB6E0
BB972361
3C817982
BDBBB820
3BDCDE72
BDE7F43A
BD2FECD5
BC14ECB0
BD2C8DE9
3D033066
3DC91B38
3DA2B893
3D8A3D1C
3D57D788
3C6F5CC9
3D24E238
3D197762
3C3B02DB
BD20FD0C
BC86493B
BDA842D7
BD189890
BD34ED99
BCC199A8
BDD0434D
BA01D900
BDC9CE91
3DBBF324
BD4ED841
BDBDA300
3D4AE8C2
BD06E448
3DDFD60A
BD966E58
3CCD8DB4
BDA24A93
3D908680
BD1240DC
3CC6407A
3CC9AEA8
3C5FA7B4
BD9DCD74
BD877DE7
3D944540
BAF183D7
3DB4F6AA
BB2310F4
3BDC2ED2
3DDA17D6
3D6FE25D
BD4A1F0C
3BCDD680
BD5215D2
3C93DFA8
BD3C73C3
BD9F5B66
3C715AC7
3D2F1188
BDFEA01E
3DE2C5F3
BC8EC725
BE171AA5
BC010D1B
3D097710
3C30F698
BDCA65E7
BD07DFC0
3D338A0D
BBEB286A
BD0C3DEA
3CC4D4B3
BD7CA202
3DBED203
3DD62013
BDC47171
3DB5C8B7
3C9A9B21
BDB8F8DE
3D8B3464
3D922029
BD2182A3
BD2C7865
3D368051
BD505392
BDAB498F
BDDC71E2
BD9A18F8
3D691A58
BDBCAB4D
3C73AAE8
BDA70FCC
BCBC77FF
BD19338F
BD44C27B
BC8E0B0D
3DB0AB27
BE09A14C
BC99D49D
3E03BBC5
BD617E6B
BD8B21DE
3C81FE60
BDA8CAD8
3DC32872
3D00D9A6
3D17F6D7
BD8EA7EC
BD8F81A5
3DA0222C
3D94AAB1
3DE05E9A
BD25925E
BD4345D7
3CC8EF50
BD505E19
3D524C10
3D3D4E06
BD9EC424
3CECD5EC
3D093DDD
3AF224DB
BD78B787
BD8B662C
3D72E129
BDD74573
3D1A2AD7
3D1A27F7
3D83179C
3CA9BBD0
BDCCA92D
3E125BD7
BD2DBF39
BD175430
BD98EA96
BDBD85A0
3D70190C
BCBA2E68
3C9E82DC
3D9B3508
3CC4DDC0
3D59CED4
BDAEC824
3CEFC68C
BCC17F6C
3DB42C8E
BDBAB4DB
BD6CB530
BCF5F574
3A00E900
BDB7FF4B
3DBB21A2
3D913E54
3CA24D60
3C705E40
BD00A045
3C071858
3B859280
BD73A4EA
BCC02172
3D80E23E
BD85C365
BDB80E08
BDB7E51C
3D657650
3D9069E8
3DAA0CA6
3A197B80
3DCC2C6A
BCDB5105
BBDBE1B0
BCCBD6DC
BCFCECF4
BCD91378
BC118630
BD8A2AFA
BD7528E1
3DC2806D
3D5CD394
BD39B619
3C535C88
BD9932C2
3D8D6BF8
BC66445B
3D826DEA
3BECC090
BDD00C4E
BD0A2AC3
BBF50F50
BDB47C8C
BDA61AD6
3D068C62
3D8B634A
BCB1DD98
3CEF1AB8
3DC72698
BDBD6047
3DC1ED7E
3D70F744
3D6D6210
BCF2DD5C
BDADA474
3D5623D9
BC58ED64
BDB75DD0
3DBA904D
BD08027B
3DCC626E
3C054E5F
3D8C2795
BD7D7E1A
BB4D10EA
BC638AE3
BD91227F
BD5583C7
B9FEA00D
3C93907C
3C90C94A
3C843D2C
BCF474BB
BD0C418A
BC757410
BD020D3E
BCB289CD
BD2D752E
3D9B7422
3D8A48AC
BC9248FE
BCD6819A
3DDC9E86
3BCFAC50
BD7A3B40
3D387028
3B21857F
3CA436B2
3C4CC618
BD395584
BDB074E6
3C493C89
BCAF0892
3DB486BE
3C911F00
BD9E8F6C
BCD749E0
BD31FA36
BC01DE4C
BC952E34
BD952615
BD088890
396B2E00
3D052664
3C9EFB1E
3D86B240
BC1B9CA8
BD83A473
BB06BD87
BDAFEA08
BD4EF6B4
BDAF05B1
3D9B3505
BDCF849B
3C1D41F8
BC3A6CD8
BCEFC19E
BD596E90
3DB8E08F
BD934865
3E1A7DFF
3D714B99
3DA43F1E
3CAA3844
3DCF8488
BDC22FD9
BDAF0CDA
BB131312
3D0BA369
BD16CE0D
3D80ACA1
3D715F10
BE06CFB5
3D3075E0
BDCBA5CA
3D98090E
BD78FF1A
BD0F5260
3CEA329D
BDC3CBD1
BD87F3E0
BD2F650B
3E3E1BB2
3CE77D88
3DF7186B
3DA1D445
3BBCC7F7
3DA2C4EB
3DCA9F9B
BD6214EE
BD9CDC36
BE164B71
3D6684BA
B98168C1
3CA4B50B
BDC1A64D
3D9A7E33
BCF89DB0
3EB4AA86
3C6422B1
BD688122
3A7E50DA
3DAAE141
BD4D5905
3E7B8B58
3D9917E0
3D43DEA4
3D0AD570
BE690449
BE0AF9CA
BBAA83BA
BE2D86E3
3CE9CFEE
BD33B5CA
3E16362C
3D74E256
BD249751
BDCB5CAF
3D910B86
3D426E53
BDB36B49
BC3EFA98
3D93E8E9
3D81B3C0
3E931444
3DB4C3A2
BD853688
BD3F9D51
3CFAE28F
3C9BCECC
3D1B8D4D
3CE2AEFA
3CAD5C21
3B606B1D
3D7E281E
3D3E1A83
BE1FE4EF
3D589099
3CE1AF01
BC8DF0B4
BE155FEC
3DDAA9BB
3BC1870B
3CCE28C4
BCEA9C5D
B985185E
3CE0368F
BD90CC00
3DA9FFC7
3DB4A795
BD483B02
3D99A65D
BB41C08D
BD4804F4
BCDAF324
BD9FC7FB
3C3234CB
BDBDFF87
3D46231A
BD095ED8
3DB7E90D
3DA21E95
BCE5A1F1
BD2728A7
3D30AAC0
3DBB05D3
3D855066
BD875652
3CEEBB8D
3D97C25C
3C89EBD8
3DA7A6D6
3DD1648A
BD5AC5C7
BD503746
3D191869
BD286B36
3CED0795
3B22FC7B
3DBD279F
BD5FC714
3DC31358
3D87E0BA
3D5FB8C4
BD0B02A1
BD8BB17E
BD674918
BDBE3A95
3D840A4B
BDA6E966
3DAED0F2
BD6301CD
3E044F78
BDB0BB4D
3EAABA94
BBF2CE37
3B19002B
BD8B170C
3DB8650A
BD5BB128
3E1D458A
BD844BD7
BDA48BC3
3C71DE50
BE36CD0D
BE05DD73
BD6BCD28
BDA4CE7B
3CC47287
3D4D4D30
3DAA5563
BD83B0FE
3E0A6D4B
BC94F9D7
BDBBE35B
BD39FE97
3CD3ED55
3C841630
BDAF65E4
3BD0D0CF
3D93AA45
3D3B7D49
BDABF47C
3C974D8C
3D5D63EE
BCCCC107
BD0E2332
BC7688EC
3D7020DB
3DB72FE8
BD4669FB
3D9762F0
BD7E0EB7
3DC79DF2
3D844A5E
3D577310
3DABD815
BDC8479F
BD554DFE
3DBF9382
3D7026F3
3DC05124
BDB1CD47
BD070742
3D3A3124
3CB3F8E3
BC998EF0
3D805FAC
BBACCD75
BD9AA72B
3D4973C4
BD059BCE
3D7F0E08
BC56A6B8
3CC29B40
BDBAB632
BB02D660
BD8F68D0
3DB38D06
3D5954F8
3CC26E00
BC93312C
39BB3F00
3DC44EDC
3D8A24CA
3D567964
3CBA95B8
BC5894A0
BC936D14
BC720B68
BDBF86A9
BB5C7920
3DC74AF4
3D9488FC
3CDC1BC0
BD477E55
BBDDA9E0
BDBAB2F5
3D823276
BDC65A5C
BD8FCD79
3D35560C
3D96E8F8
3DB03A86
BD4681E2
3D2231E4
3C74DBC8
BBEEA0A0
BD5454A8
BB28EF60
3D885966
3D5EFCFC
3BCAD520
BD8077CC
BD187618
3D84754C
3D874CE2
3BB040D0
BB0E88E0
3D8D081E
BCE81368
BD715B4F
BC5848B0
3D005D68
BBC6BDF0
3D5DF9F8
3D293B28
BCFDC354
3D97B166
BDCA3257
BCB62DE0
3C8CD928
3CBE4DE8
3C35B0D8
BDB497D2
BCFFAC50
3CD66CA4
BC3638A4
3CEF19BD
BD9A69F5
3DC4933C
3D053668
3D8BEC92
3C93CE98
BC881E24
BCB92990
3DC4F0AE
BCF398C0
3D739CE1
3AD1A040
BDA2690A
3CF4CD70
BCA2000A
BD8FFC06
3D8BED2C
BCB1F18D
3CAE90D8
BD2953D5
BD024FB1
3D815658
BD2730DB
3D09CAA4
BD424BB3
3D3B3538
3DABC584
BDC8AEF0
B9CE6E46
3DA378D2
3D1824F7
BDD315CC
3D8991FF
BD82BAC8
3DA152CF
BD56F647
3D6CADB0
3D431623
BD3FF5F0
3CF86DE1
BCCFEB54
BC3E5230
3DD026BB
BDBBFFE5
3D81A62A
3CF37560
3D4FB46B
BD05AA5F
3D605F44
3C5B02BF
BDB88100
BC160755
BB2065B6
3D58D649
BB895267
3BDF514D
BD1D6F04
BDC6985C
3D8233AA

