FAE3
129B
0B39
EB1F
06F5
0B9B
EFA4
0D20
FA20
009B
F2CC
095D
E81D
0F32
F94A
131B
204B
0502
ECBB
F83B
F5C5
0AC9
1B61
F8D8
1703
FF2C
F97A
050D
EFA8
0D0E
E68A
E95A
EA61
02C6
F533
020D
EEBA
F50B
1939
11F4
EAC0
158B
08CF
E72C
1647
0463
FB35
174D
0E3F
EB34
123F
05B2
0DCD
1936
310A
22D1
2704
13A4
0BF1
EF32
0D89
E841
F9AB
F342
FA1F
096F
0489
F420
0493
FA80
1719
0FD0
1772
F22E
F18F
F784
262D
14C0
01B4
2425
0526
1AAD
F729
0237
EF90
F3B1
2851
4B17
2C07
0835
2F36
14DD
0702
F239
067C
E70F
FA28
F286
EA75
E895
F9CF
E6D7
F8ED
ECBB
09DE
0C0A
11CF
0072
F43E
05D0
0D5A
095A
217C
1F7E
11E2
06FB
E650
1036
19F1
DEAF
FB1A
00B3
0599
0AFD
F437
F9CF
0582
FB85
EEBE
06AA
FB01
0B99
FEC3
0641
1459
FB1F
0D7E
F795
E868
E895
0A4D
EA18
0B17
1FE0
0238
F1F4
01E5
1827
FA97
F073
2AC4
1880
2F55
0AA6
1E77
F8E6
0829
1091
F565
F584
0460
103D
2126
1766
0C78
F5CD
EB7E
E713
1309
F952
ECCF
ECE2
4286
1F7C
E9A0
00CD
F47E
074F
F5A3
1584
EA6C
0337
05DE
2A4F
EB59
F1E8
2EA0
0043
17A3
F8FF
FA1D
01C8
1AA5
FB30
FDB8
0BA0
1745
1587
0C02
F054
11F2
17DC
1131
F459
1A0B
08D8
F09C
1BD4
F780
1221
0940
1789
E737
1723
20FF
0C40
FFAF
16A7
2448
F23C
F145
0471
F68F
FDCF
F29B
063D
27A8
F202
F30A
EEFA
224D
EDA4
072E
0AAC
17B1
0A73
3747
0B69
E7EC
1426
0E8E
EF86
FEEC
E789
F336
FA5C
1A42
363A
093D
F931
2D47
02ED
FA72
0FAA
165E
015F
004A
0424
2AF6
0A6B
0D39
1062
1279
FBA0
0B1F
135D
FC4F
0B51
20A8
0101
03BD
FF5C
1166
1C0B
077E
EEBA
198C
FA87
19F0
134F
07D7
16FD
2113
0DD6
FF7D
F2BA
1892
142A

