BE601C46
BE09E14E
3BB84941
3DBFD234
BE9E6C86
BEA70A54
3DF858AA
BE8DA99B
BE7F0E69
BE412072
3E23A8CF
BE6F238A
BE83A98C
3D9D78CB
BDD21C68
BD989F16
3E796ADF
BE45880E
3E52027E
BE51E833
BCDF5E20
3E51981E
3E967ABC
BD9E32AC
3EA0DEBA
BB6E5C20
BEAEF952
BD5BBF08
3E427582
3E0A5BB9
3E6B080A
3EAC3F2B
3D2059D8
3E322612
3DEB8678
BD7C8560
3EADC043
BD1C1E62
BDEC5D28
BE9FDA44
3DBA3821
3E05F65B
BE0C16CC
BE9B1CFF
BE77E0A0
3E71284F
3E29EBDE
3E03A79A
3DF36BB9
BECD7C2D
BE1CAB24
3EDC8BC2
BE9762AD
3D7BD504
3E9C8AFA
3E751ACF
BD1B68C9
3DCF936B
3EA1223E
BE81D7AC
BE1F1DDB
BE6D5367
3D3ABFB9
BF0635A0
3E92DDA6
3E886BF9
BE9E7B42
BE3A78A9
3DB00D14
BE44754E
BE588967
BDDC14BB
3E571F2B
3DE42AB7
3E4CC0BD
3E357A86
3E7C94AE
BCA12A1E
3E2C256E
BE866B97
BE9171BE
3EBC8684
BB2FF27A
3DD72EB2
BEAA6644
BE660CB5
3DBC65A4
BEF86A37
3E526426
BE661FAD
BEB0825B
3F1EF789
BEBC557A
BDB6DA0A
3E4B699F
3EF6D93B
3DC54558
3D8A29AF
3DDE8339
3EA1B470
3E856799
3E2F645A
BC505F12
BE38F7BC
3E3D0666
3EB0E69A
3C756EC9
3EA1A3E9
3E8AE27F
3D5EA4A7
BD38FF1B
BE65DA75
3C486817
3DAC52E1
BB8F69A6
BF0E7AE9
3B067472
BE6C130D
BC0C29AB
BF1EA08B
3F38FA11
BE2AC36E
BF144A3A
3EEE746B
3E7444AC
3E11F5C9
BCE29657
3E4E5854
BDD7A4FA
BD93D9E0
3E00CDBB
BE865C1B
BC233200
BEAC82F3
BDE2D02A
3DEF25E9
3E6B84AC
BD4EA358
BDB2FAE6
3C8C3A10
3E0FD2A1
BEA2BDC3
BC38E3A0
3E7A46E0
BC7C9EE0
3EADCA05
3E13DF94
3E55DA82
3D217578
BE84FA8D
BE00B963
3E6245BE
3D92A0C4
3D900870
3E9B6667
BE97F9B9
BD42D2D0
BE9DA13F
BD6A7B58
3D920FA0
3F15D92B
BE0206F3
3E3B80A3
3F16B82D
BDB4417C
3EC74338
3E853914
3F06D7B6
BDAC488E
3EE63384
3EC376F8
BF06B789
3EE10F9E
3EB83C14
BEA81FF5
BE333F18
BD4F6304
3DE76EDA
3E3EBC19
3EB6221E
BBCAE38D
BDDB8F7C
3E4068D4
BE41984B
BEA3541F
3EA043B0
3DB25957
3DF34250
3E888382
BE9B27DD
BDA0F8F0
3CD69465
3E70B534
BE168C22
BD39132D
BE7B10E7
3DD0D606
BE1CCEE6
3EB46D45
3EBA7827
3DD691ED
3E94CFEB
3EA10C83
BDCC02DD
3D84A0C8
3D343EB1
BE2187B4
3E1C0FB8
BEA8711C
3E8DF00D
BE9381E0
3E0EF6E9
BDD9FB30
BCD6EA10
BD69A65E
BEA4D76C
BE929A71
BEA35929
3D43A489
BE88E78C
BEB3235D
3E38462C
BD1682C8
BE95049B
BE8D5DF4
3EA2188D
39149803
3EA9CCE2
BE335681
BD8E7CAC
3E1F9AD1
BE0E458E
BDEAE943
BE90EC8A
3E6F609B
BE94B0C3
BC731E14
BDD26389
BE913642
3E7B7B61
BE7A1961
BEB648CB
BEA7E307
3E7F2021
3E53240B
3E9EAAAB
3E5E85A6
BE84FFBF
BE3EC2C1
3E98640E
3EB1DF8E
3EA5EDC1
3DF17442
BD11F5B8
3E364971
BD82682E
BE82CEBF
3E4738EA
3E08BE98
BEAAEB9A
BD0B4820
3E6FB18F
BDDF0342
BE155EB1
BC838C8D
3DFFE375
BE57399A
BE4EFD47
3CA73F7C
BC944528
BE30BD93
3DD96842
3D907337
BE9B8394
BD41E49F
3F0DCB19
BE86E77E
3ECBA655
3E63107C
3ECFE687
BEF2E956
3F238274
3F2A3809
3BF94D70
3EA65DB5
3E34091C
3DBACB1C
BE69A703
BDA04848
3E630AD2
3DE9F262
BEE395C4
3D9AE33C
3E32D35E
BE542CF2
BEA57529
3E90C01C
3D565583
3D19B976
3E0A6F2D
BE5BDC00
BE9C1E67
BEC2A019
3E0A387B
BED03EC8
3EE22686
3EAEA3A2
3D9B74D1
3B691DF5
3E8FBDDD
BE5C8D51
3E4A1E5F
3EE69083
BDDBD26B
BE07E41C
3EAC8816
BE32B067
BD9DA779
3D9AD8D2
3E3105BE
3EDB2F7C
BD6D11A4
BECD147E
3E72824B
3C7DD500
BE548B9F
BD09108A
3D818A2C
BF00F304
3DFA542F
3E83BA57
BD1A1998
BEE06892
BDFF0E04
3E269BA6
3DE78AF2
3E9C7522
BDE6B632
3DCD252C
BE59E368
BEA5033E
3D7B1E1C
BD95A778
3E3B9388
3E49FEA4
BBA77A55
3E7CD50F
BCE849DD
3E5CD4A6
BEAA3B99
3D9C64EE
BD83C230
BE8453C3
3D92E904
BE90E406
BEA0956C
3BAB53C0
BE83663E
3EAC3B25
3D4BE960
BCB21E50
BDC3CCD0
BE76AB82
BD81B370
3E8063C5
3E910ABD
3EA1B65F
3E5DF7DE
3ED34D9A
3EA91BA7
3E93DB7C
BDDF0569
BC664CCD
3CF53EB2
3EABF462
3EE511B5
3E102A7A
3ED8EBCC
3DB93024
BEDCB327
3ED3FC9E
3EA19947
BEAB9373
BD84234F
BF049359
3E972E8E
3EB31A14
3DD93A28
BD9DA8FC
BECA980F
BE9A6549
BDE66173
3EF80AF5
BEB8DA89
BEC47132
3F001A2B
3E655660
BE9610D4
3E2C86A4
3EDC57E8
BE79E6B3
BE3F2DFF
BE710E9C
3E6A4C48
BE6D78B6
3D319E4B
BE87B6F2
3EB42297
3E98F378
BD96EA67
BCE205F7
3DEEC3D0
BDD4CC3B
BEAC8283
3DC63004
3D91BC62
3D6A78C9
BD828CD4
BD9E8383
BE26E79E
BE7521B2
3DB62199
BE8C99E3
3E5645E9
BE70596A
3DDCA9EB
BEA12AF6
BE9ABBDE
3D9E3924
BD92DF59
BE8B6A76
3EA4AAEA
3E890EC5
3E7619B6
BE79EED2
BEB06150
3C43F7C0
BD87519D
BE3240BF
3E96604C
3DE05C5F
3DABE986
BEB1544F
3DA19674
3E670D66
BE665250
3D8C2054
BDFB8C0E
3ED5460A
3E439596
BE309ED4
3EEE21CC
BE163CC2
3E5FFC03
3E8D1BAC
3E6DCB2A
3E300749
3E470D17
3F013980
BE6DCAA8
3E6CD741
3EB6C8D1
BE302588
3D1FBD65
3E866568
BE192F20
BE814E90
BEAA6F07
3C062E80
BDF0FD90
BDBF871D
BE96CEEC
BC8B2E83
BD8B257E
3E9060D2
BE5CFA82
BE81C76F
3D9FD39F
BE0D27A7
3E4E30DA
BEA25598
BDA69AD4
3E68D19F
BC0D4819
BDF7B308
3EA07143
3E9A1D95
BD6F89B7
BE14B2D2
BE87C799
3E882D4F
3DE252CB
BB1E93F4
3E90F57F
3E5F9AFA
3E5268CA
3E1079C2
BD0BEBD0
3E94A54D
3E2D8393
BE8863F3
3E1DFC52
3E625B7B
BE5C8C72
BCDED22A
3DE71351
BE88D822
3E05558C
BEA59B46
3DA0D0A5
BEA782DE
3B6FB61E

