3E2C1C44
3B557E71
BE21F844
3E46D10D
3E563EC9
BDC129E9
BE6C32B8
BE29C850
BE5E4CF8
BD624FF0
BE4695BC
3DAAB878
3D5C706D
3E6C0558
BE0215D4
3DE04D20
BDF19BA0
3E20603F
3E312FF0
3E055825
3E2598DC
BE4F2970
BE42CF70
BC1116C0
3E5C3418
BD473FF9
BD6BB570
BD04A5A0
BDBC7B07
3E4B82BC
BCB3946C
39C35171
BE0D0204
BDB2339C
3DDCC040
BE79CFD7
3D879E39
BD3D3740
3E0ACB61
BCC5FFB4
3DB5BC08
BD9CB446
3DA6D544
BD508100
3D001A10
3D81617F
3C7CE52B
3D9C0878
3E0B1BDC
BD6E7920
BE59861C
BE3249E4
3D948DF8
3E6F3A1C
3E0DC0B4
3DC56A6F
3E635962
3D507C20
3CDFAEE2
BE2EAFB9
BE1EB124
BE2E9B32
BE4927A0
BE640F6F
3CB4DEC9
3E7ED569
3D376300
3DF92C98
BC801BD8
3E3435F9
3E43175A
BE5DC204
3E0D333C
BE7C606C
3D2A6210
BD6E1710
3DF6E3AA
BB4A0D68
3E85C1C1
BE28167C
BE2A25A7
3E86161C
BD93A5CA
BDE9FC11
BDFC092B
3E618613
BE3BA60F
BDAE0150
3D82EBEA
3E2C9387
BDAEC076
BE0A13C4
3D9C0169
BE2C05D0
BCE04DBC
3D3D18E6
BDAB2A6C
3E3147BB
BDB73890
BD49039C
BE0FDE88
BE3A1014
BDC5E822
3DF92AE4
3E3F5AAE
BE849E3B
3E6CE784
BE6BB3BC
BCD6611D
3DCC67E7
3DB39458
BE2CB9F0
3E0139CB
3E80F178
BCF88968
BE7F40F8
BE4F171C
3DAE6DBF
BD8F02A0
3E6EBF4B
3E6459CB
BE143DE0
BDC457C9
BD8132E5
BE922E02
3E552567
3E5FC720
BDF72391
BE4B68CB
BDE977F3
3CDB3370
BD8B2A6E
BDBC42E1
BC068D95
3DB1332C
3E1AAFF0
BE09A91C
BD0CF260
BD1C22B6
3DADC0D0
BD8E9A3A
3E520F03
3D50F69A
3DF959A8
BDD3DC94
3E43C2DB
BE7E1D7A
BE1B29A7
3DA58F1E
3D88611D
3E1996A4
BE6ED010
3C2865ED
3E2C51F3
3E70DBBA
3DA44668
3DE27D84
BE47F63E
3E24BE11
BE6B00FC
BE26B25E
BDFB890B
3E74D16C
3E06068D
BDFE96D1
BE78D1C4
BE055EAD
BE122CE7
3D3DEB22
3E159CC4
3D54A1DC
BE7A3504
3DC25054
BE573492
BDAE5116
3E3F3E08
3E0B0B4D
3C4390E9
3DD8065F
3DA80486
BDBFC1E0
3E0178B0
BD804930
BD39216F
3E0262D2
BDD078F8
BE6A88FB
3D8CBC58
BE679074
BE0974CE
BE7D5710
3D353938
3E4C63E2
3DC6BBDF
BDFC93A1
3E6560A0
BE3ACA93
BD1C6BB5
BE862CE9
3DADC398
BE140BAD
BE5BA824
3CA12C65
3C9B62A0
3DFE2ACE
BE19BEFE
BB610F50
BE5B09B0
BE3056A4
BE4837AA
3D917528
BE6135CD
BE6626B4
BDC0E360
3D9EE310
3DCBAB60
3C93EB00
BDFA2BD9
3D5FB410
BE37FFA0
BE2F1C2A
BE29F79D
BE04CAF0
3D1849E9
3E5700AE
3D12A7F0
BDF58B10
BDBBA03D
BDC86916
3DAC3170
3DD53A05
3E381AF1
3E234475
BC806E20
BDB0D85D
3E497078
BE15FBFA
3E0E11EC
3E2A4B4F
3E1D47E0
BE04445A
BE0071F7
3E3E91B2
BD2C8650
BB8C1900
3DB9084D
BE31A12C
BE5BB60A
BE2E2501
3E0DBA9C
BC9CE9EA
BD81BF4E
BD8CD728
3E2C56AA
BE19C336
BE225540
3CB1AAC0
3E6E7E19
3E5E1145
3BECEE65
3E421573
BD5C7BD7
BCE40C17
3D354B00
3E72B02C
BDC0DEA0
BDBF5872
3E76BC40
BC346A4B
BDFFC768
BE70D8BA
3E7646DC
BE4C1990
BE754B22
BE641F34
BDB296FB
3E646922
BE501BE8
BE1A707C
BE3A186C
3E5F6570
BE58BF48
BE237D40
BD864380
3E717914
BE43561C
BD6C8EE0
BE3513D2
3E29DD44
BE588EA4
BD21E470
3DAD9B80
3DC63B50
BE7CEA68
BE75A9E4
3CDB1198
3E5C9DD3
3DFE2D66
3DDA0B96
BDD84560
BE40B210
BDC84FCB
BE522D1D
BC8D9D20
BE4B02D4
BE0847E7
3E2AA4AE
BE4380A3
BE2BCEF4
BDFA37A8
BDBE4580
3E2776F4
BE5FCCE3
BD2A2550
3DE24E7E
BE0F22F4
3E0C927C
BD597B0B
3E71C502
BDFAFF10
3D5D09F0
BD24D480
BE5730A4
BDDB5958
BE57C334
BDCE9A00
3E641B64
3D2BE6D0
3E63563C
BCC87360
BE0364C8
3E3977EC
BE6B0460
BD9B1DA0
BDAF3780
BE04D138
3DF6AF88
BDCD3D38
3E4579E0
BDFB9BE8
3D1220D0
BE40BF20
3E3BF050
BE2C51F0
3E73B8F4
BE009B44
3D40D9A0
3E4F76A0
BCE2A6E0
3DD6A910
BD540EF0
BE523F14
3E104608
BE642350
3D9503E8
BE44552C
3E50F678
3E31AEDC
3E69D738
BE1A66EC
BE0BB724
3E3E4AB0
3D8CCF80
3BF0CD80
BB705800
BD0A4940
3D33C9B0
BDD637E8
BDE5F0A8
BE4D86B0
BD6A6E00
3D31B160
BD765C50
3DF309F0
3DB191F8
3DD12B80
3E721E60
3E0C49F4
3BECA680
3DED77D8
3DA6E4B0
BD28E3D0
3E275224
3E696AEC
3D916ECC
3DD2E45D
BA6A3284
3DFE5464
3E1875F9
3DBCB40D
3C7CC905
3D2DE360
BD299E26
3E054F84
BE65C066
BE3B3660
BE097CEC
3E6F3DDF
3EA463E9
BC92CEC0
BCFFED3E
3E8062E2
3E1B9C6A
3DEAB5A6
3E0DD451
3E044BC8
BE0894CC
BD1E8F90
BE843074
3DE7A343
BE7D2693
BD630C80
BE1E7F64
BE1C1629
3DDFBB05
3E8796BC
BDD63C02
3E79E903
BCD2CABE
BE8039CE
3E56B02A
3DCD1E86
3E231586
3E59380C
3E076411
3E5F9E96
BD64C94F
BE75FBEC
BE6E8D4D
3D3D6B51
3E1857FD
BDBF4618
3D782703
BE4AC3AA
BE42C0C6
3E247217
3E50ED94
3E39189B
BD73F2E0
3DB24D4F
3DDA3B2F
3DD90648
BCD67F33
BE08C0D9
BE7C6AC3
BD8BD437
BE0E80B9
BE3F0897
BD5773B1
BE5F54B7
BDBA0022
3D45F432
3E44262C
3E10CC70
3E61EEC5
BE1F8998
BDDC40F2
BDA33F58
3E5EA2E4
3E129BAC
BD891818
BE2B26F2
3E1E01F9
3E5B9D18
BC026040
3E1FD748
3E5612E8
BAD81800
BDBE2F83
3E5D88D8
BD7587E9
392DA000
3C86234F
3E3DD0B8
3E3A5712
3D149740
BCD83D13
3E1770C2
3E6AB0A1
3E57D3C4
BE3157E0
BE1E9074
BD0EF288
BE0000BF
3DE8BA30
BCECE1E0
3E170CBC
3E1E9B54
3E11EE8E
BE51A787
3E51D765
BE483D70
BE4C3CCB
BE42A464
3CBAA540
BE033164
3E7E5DE2
3E16B602
3CC4029B
BE29FFAB
BE528ECC
3E73B83C
BE24D214
3DC4002F
3E3E9B86
BE6A6AE8
BE663C00
3E439C3C
BC192480
3DFE8DED
BDF20BD0
3E167EE8
BE803D2C
BDD81243
3D8B56E1
3E443CEC
3E50C283
BBDED5DC
3C355E5C
39346000
BD414E10
BDF9FC08
3D6D8693
BD3557F0
3E38A16C
3E23ED1D
3E52573C
BD869708
BC9CEA9B
3E4C9D92
BD949AAA
3E5C39A4
BE65DA5B
3E521E5E
BCBC02E0
BE7106B0
BE266D29
3E6CF282
BD6E8782
BE44FB18
BCF8780B
3E09E1A0
3D11D33C
BD3C08DC
3D892D84
BE433753
BE3F7918
3D6F5816
3DF9D61B
3D7098EB
BD99C6E9
BD82DECF
BDE86569
BC05D9B5
3DEE7677
BE6C70E4
3E308F29
3E172FB7
3E23FC05
BD32CF70
BE585014
3E5A4B5D
3DD03EEF
BE825C35
3DB49828
3ED289B8
3E4ECDD0
3E0DDF38
3DDF28F9
BDEF7218
3E808FAD
3B929A1C
BE0DA29B
BDC0D10A
BE691B66
3D539DA6
3DA4BA8B
3E6BD297
BE24422B
3E74742D
3E359E82
3D15C0EC
BD12C4EA
BE0E1AA8
BE80CF61
BDFA87E8
3D4AFF37
BDA13B78
3E5E4697
BE39AA98
BDB4E400
3D795590
BDE8847B
3E8A5D11
BE3FC07F
BDF3A117
BD5E7E8E
3E3C723F
3DBC89F4
BE47D304
3E0E87A8
BE617DD4
BCEE2FD0
3D260E80
3E6ED995
3E226BB7
BD85E562
3DA58AF9
BE2672CD
3E1F4681
3DF33407
3E10F317
3DCF8306
BD5B70B4
3E78BEF1
3E2F40AC
3E952002
3DBEA07E
3DA00C48
3D63A0B0
BE0609D3
3DC4D752
3DCAD6FE
BE220EB4
BE379FBB
BE20982E
3D209C58
3E1B8322
BDAD5D30
3EDEDD13
BDA25810
BD0B4A5A
BE01D662
BDB129C0
3E2AAC48
3D6D47FA
3E15DD8B
3DAE1845
BE092595
3E3BEF7B
3DC89810
3E384A4B
3D63EC4D
BE643DE3
BD2F5641
3DFD4DBB
BCF57185
3D80CF90
3E44CD7E
BE347C20
BD8D49D2
3E7E2FA4
BCFDBF0E
3DDE52C8
BC201F2D
3E1A15E8
BDAE3A68
3E2EC867
BE7B36E0
3C867BFC
3E5710B8
BDD67D26
3E4B8F10
3E6F4E9C
BC3A7640
BD1934B4
3D5EAAB0
3D4750D0
3D722DDC
3D7BE282
BE2A174A
3DBEDC7E
BD8B6DC8
BD85C3F7
BE10595C
3E1878CC
BCEF7D21
3D7DA1D0
3A1BDEC8
BC91CFAB
BD839179
BDE59CAA
3E7E17FE
BE6A941C
BE2D56E7
BE5E41B9
3D956577
3DB63170
BE4385D8
BD4FEE03
3E5D364E
3D03C872
BE7ABB58
BE632EBF
BD1ABE00
3D93F713
BE3ACA22
3D2D2A60
3E550B28
3CB2C056
BE6B4E4C
3C1DDC64
BCDBFE1C
BD0B2042
3D7B12C0
3E24A43C
BE323618
BE7FAE30
BD093CE0
BD796AB0
3E4F0E58
BE378A44
3E7885C4
BDCC21C0
BCB98320
BE71EB18
3E45C778
BE6DE6D4
BD6B7C00
BE761090
BC6D6540
BD48B3B0
3DE738C0
3E767190
BE10FF4C
BD3C58A0
BDE4F1D0
3C4C2000
3DEA14F0
3E1539C8
3E072590
3E6FF938
3D80CDE8
BE3E55B4
BD40DAD0
BDEBB900
3E18CA50
BDC635B0
3E2C62CC
3E2A58DC
3E6D88A4
3DA77278
BE75B75C
3E23966C
3E05ED28
3E7D3928
BD2B1950
3E75373C
3E75D920
BE05DA74
BD589E10
BDA41220
BD83ECF0
3E21E264
BDF76148
3DA97F08
3E3F7A34
3E304728
BDC4D370
3C241140
3E740BCC
3D09E000
BD52C170
BD927C88
BD2D5270
3E0322F8
BDF675D8
3DA42178
3E1ED9FA
BE3A9620
3CA04BBA
BE2DDB26
BE53C85B
BE752CAB
3D30D8F7
3CC49300
BD806D37
3E5858D4
BE392C80
BE5A55B8
BE6818C0
3D8A7BDA
3E63FD59
BE70E0F8
BDF78F90
3E613CC3
3E178E43
BDB6D64A
3E51C644
BE32B5D8
BE2CEFE8
BC3A6E00
BD2F7364
BE0BE5B1
3CC59506
3E236F7C
BC6F122F
3E5B1AA6
BE2293C4
BE244C67
BD2DBC78
BE6569A6
BD40D1BD
BE0BAD94
BE324FA5
3D3024D0
BE08009A
BE111AAC
3E740991
3D65BF1A
3B1F3311
BD791F40
3E6BC7A1
3DD93915
BDDD8E8D
BDE3F648
3E59D3BE
BDB5B0BF
BE692F77
BC536586
3D2AB740
BE5C0878
BDA51CA8
BE7EAD85
3D8587D5
BDAE1960
BE200459
BCD022F7
BE5C6E4B
BD1BA7E7
3E4431B8
BD8D9328
3DB4BBF6
BD86423A
BDDA2373
BE63A2C3
BBBADF0B
3DB43460
3D9CDA78
3D43C6F0
3AAB3CF7
BD7C08D0
3DF76E84
3DECD6F0
3D1C3B33
3E0E0273
BD8C9EA6
3DEAE708
3CFB8CDE
3EAD5E16
BE885537
3E8F7FAB
3E23A030
BE918989
3E084178
BD99FAA8
BE0871B9
3E9640AE
BD8D2664
3E3E2CC0
3E74E5FB
3E91ECA8
3DFA276E
BE904931
3E680FBF
BCB852C7
3E5B7AB0
3E4CB080
BD3DA192
BE35F62E
3E9EAF84
BE96365F
3E030C3F
BDB97B82
BC2F9486
3E7F40FC
BE77DFF8
BD9CBCA7
BE616AE3
3E14D528
3DBF07F6
3E9E2B66
3D64816F
BE0F0A1C
3C42E9C0
BCD4CC2F
3CD12E80
3DAFC63C
3E1874CD
3E116DDC
3E2B731B
BE6873D7
3E50C2DA
3DB48F2E
3E33784B
BE8DDA3F
3D07A503
BDC9CEDC
3E3A6965
3E564F1C
3E888C90
3C57E0EA
3E850BF7
BE04235C
3D1861C4
BDEF80A8
BE18E1F1
3DF85470
BCD08E69
3E0D51BE
BE310DD9
3E47AD64
3D646223
3AF324C8
3E0E2348
BE07C67D
BDC8272A
3EBA404F
BE23BC10
3DD80160
3E081066
BE6070AB
3D10D2D0
3D4F3EB0
3E33B50E
3BB63174
3E8D81D8
3CCF4966
BE646F00
3E9463E4
BE6B8FE4
BE8EA2BB
3C46341D
BE0FEA92
BE98107C
3E6D8A77
BE14A115
3E83B51E
3E45E640
BD6BAB00
3D4183A0
BC20346B
BE1A31AE
BDB02CF8
3E28FDDC
BDA837A1
BE2A17C0
BE9D41DE
BD6A9C20
3EE87CBE
BE5EB6C4
BE8EBE1A
3D536FE7
BE3C80C4
BE99195E
3E9B5FBD
3D2B65B7
BE77AA71
BE795A50
3C39252B
BE838B5A
BCFC9062
BDD53C3F
3EA788BA
BCA56825
BDAF6138
3E8FCC1F
3E659624
BCCE8C84
BE4625BC
3D40E114
BE5F6ED4
BDA78AB4
3E698A43
3E2485A5
BE0A609C
3D71F312
3CB6D388
3E2D7F95
3D322CB1
3D2A51D7
BDD642C2
BE257A65
BE22AC58
BDDA87CD
BE21F248
3DB78B46
3D62AC50
BCD65E33
BDC003C5
3E5DD9AF
3E03AB86
3DA29A3D
BD889D32
BD559F0A
BD899161
3E968C1E
BE1872B4
BB6CCD3D
BD6CEA4B
BD0CCA33
3E8A5757
BDBAAB1C
BE39A758
3D9D6A84
3D05C4D4
3DA6D3B6
3E0A3BA4
BDE566AE
3D8554A7
BE35FE69
3D2E338D
BE070E50
3E91E279
BD35C800
3DBD801C
BDBD64DC
BD725F40
BE3AFCAC
3E5B53E1
3E2150F3
BE4343B8
BE1B47FB
BDC4650B
BE149E21
3E9D2F0D
3CE7B3BD
3D8710F1
3D8672BF
3E1A041D
BEC44EDE
BD4E5020
BD4FA7CA
BE65AE60
BD2FAE62
3DE0ABA0
3E071B25
3CFD95C4
BE14B6E7
BE0778D4
3BC3CAF6
3E11C613
3DCA9768
3EDCA6FD
3E07841D
BEE10917
3E21BCEC
BD9E5638
BC2E7DF5
3EDF8BDD
3DF71DC6
BE66C7B4
3E87001E
3E9F95CC
BE0F0FEE
BEBED361
BD0AA881
BD9F0D11
BE03016E
BD5B744C
BD92E42F
3D94FE09
BD5BF161
3BFD84BF
3E3017B9
BEA47E74
BE812795
BE063AEC
BCD932FF
3DDAC084
3DDB2C0C
3DEA9FF8
3E1BE72C
3C3C9C84
BE369C16
3D9D05CA
3E4DD780
3E28145F
BE4D82A4
3EDBF312
3DDD6E9B
BE5173B4
3EA00893
BD93D4E8
3D341BAB
3DEDFCA2
3E1EC58F
3DEA18E4
3CAEEDC0
BE61ADE4
3C9EDAFC
BDFCD11A
3E24D7C4
3DFDCDBE
3E6651C0
BDE058B8
3E18E7B6
BE2F055C
3D92E122
3E067618
BE090AAC
3E1E6D8F
BD18F1F1
3D35ED00
3C8770C0
BD903A85
BE3D608C
BE583698
3E5CA0E4
BB8782CF
3E37D3C0
3E1FCDD8
BE712A20
BD8718E3
BD78F070
3E02FE2C
BE478DC9
3E04399A
BDD96D18
BDE130BB
BE0A322A
BDD8D5E8
BD9509C8
BE6B3361
BDE42988
3E4B69F0
BE59AE54
BC4644F8
3E1E5CD2
3DC6A808
3DCEF229
BD8EAD40
BE2E456B
BE3413B3
3E54F8E3
BD797E70
BC5D7278
BCF3ED46
3DCA2334
3DD64828
BDDD8128
3D5EC8BD
3D81E648
3D7EBC27
3E53AC02
BE0AD4D0
3D1F150A
3DF778F0
3E4042A8
BE22BDF9
3D524083
3E08D9E8
3C1E4F2A
3D6178C7
3E0F734D
3E0A9F88
BE4FAA8C
BC1976E4
3D85457F
BE708D18
BE327EE3
BB26EA00
3E709FEA
BD53B8A0
BDD9ECA0
3DF48103
3E1D2719
3E5480B4
BE61426C
3DE3AA2B
3E346385
3E55FE00
BD9FAC91
3E139BE0
3E6C8347
BE528F50
BE6051A3
3E5E94BF
BE168178
BE7044EC
BE60FCD9
3E3E9C0E
3D8F2A6C
3CE390E0
3DE76E00
BE259DC0
3B9DC9BA
3E1216A3
BD14D1A0
BE22A2D0
3E106A1C
3D6A9F30
BE657B27
3E5F0DAD
BDE3D7D0
3C631780
3E40E421
BD5D6AEC
BDD5BF60
3DC937C8
3E7E3FA2
BC05199C
BDF084AB
3DDECAA6
3E78C898
BE2C5280
3E04F4DC
BD2648B7
3CC2C7EE
3E19BEA8
BC17DD80
3E35A518
BE644D0C
3E3FF175
BDF63838
3A111F2C
3DB92711
3F09CFA4
BD279376
BEE09523
3E0C6C86
BECEC1E4
BF05DE24
3E57A574
BD559BE4
3E17409C
3D7D688D
3E2D9598
3E8DE98A
BE4346A5
3E3BCB7A
BE3E5774
BC2D7EAD
3E7427EA
3E5061F6
3E8E1A3B
BDA06D0A
BF060138
3E3B5DC6
3E7CB484
3C8BE688
3F158F56
3D478F67
BE3BD4E4
3DA83DA1
3ECEBF1F
BE6A1E0E
BEFF9202
BD86989B
BED6102E
BE0B059F
3EB97648
BEECEE09
3C87BEF7
3EBB899E
BE76E14E
3EC13020
BE93A715
BDBC4FC8
3E49EF40
3DCAE5DA
3E0DD0AE
BE6DADE9
3D1E25F0
3DCF63E1
3E3B783B
3BD3AC19
3ECE47B2
BE5A6C3C
BE4203FA
BE08F718
3EEC4A45
3E498AC6
BDE4EB68
3EF04DA9
BF0F41AD
3E038A71
3EB8C002
BE42B633
3DFD4326
3E1308C1
BE3223AB
3E70ECEA
3E12F20B
3E33610E
3E5F57F2
3E5EE36C
BE434724
BDE5D11E
3D909720
BE6AA950
3C391740
3DEF1FD7
BE0C4C44
BC5B4BF1
3D4D2730
3E3F08C1
BDB0B404
3DC414D3
BD6CB4B7
3E82DA78
3DED4563
BD104811
3C8CB6A0
3E7E6A74
3E2C8D85
BD98C440
3E08CA58
3DAE73AA
3E1B0C2A
3E1454BE
BD995DB1
3DC719A3
3CDFD2EF
3E00CC1B
BE09EE69
BE41F164
BE43E920
3DE90530
BDB24B17
3E4D988A
BE57A2E5
3C24CD47
3DB78878
BBF86987
BE36CA73
BBA7C0B0
BE07D288
BE121502
BE48DC94
BE0E7837
BE42B738
3DBFE888
BE464016
BE7821C0
3963C1FC
BE75217D
3DB560E0
3E366DAB
BE6D4637
BDEA2AF0
3DD5A7E8
BE2CE0B4
3DF5398F
BDFB76A7
BD2142ED
3CC3F497
BDE43F2F
BE0273BB
3E5535A1
BE5788FE
3E22CED0
3E3A0D68
BCA72C40
3E701740
3E7A8148
3DE236E3
BDF71547
BE3F1164
BE4F0F68
3E0A9428
3DBF037A
3E523759
BCFE2D0F
3E76B3C8
BE468077
3E0DDDD5
3D774280
3DC4696E
3E4D6AC2
3E2596AA
BD6CA710
BE6B31E8
3DF25734
BDA3ABFB
3E160D18
3BC715BF
3DF03590
BE7E7F84
3E49A4E3
BDFD47A8
BDD31D30
BE7A0E93
BE27454E
3E01FC3A
BE6AB41C
3CB102E1
3DD82080
3D0D6179
3DA4940A
BE445624
BD3C77E0
3E7D7380
3E38CFB0
3E602D68
3C6D6BB2
B8DA8000
BE4F3A2C
3E4327C8
3E1B1509
3DDBC4D0
3E0C1EAC
BE404DF6
BD9120B0
BE69712D
3E410281
BE6E702A
3C32DF99
BE497420
BE58ABA4
BE42F0C0
3E4BBDF0
BE13E198
BE306E94
3DEC7548
3E384E3C
3E2BCEE0
3DB0D348
BB861B00
BDBB1A48
BDA74E00
3CC705E0
BE69CF74
BCC8BD20
BE6876D0
3D87A1D8
3DB3DAE0
3E0076F0
BD637470
3DEF4950
BD931588
3DBCD478
BD87F380
3E5AE51C
BE414DB0
BE0B30CC
3E7A83BC
BE6E3D4C
3E1A125C
3D6F2520
BC8587A0
3E0CC764
BE0D7D64
3C14FD80
BC8E27A0
3DF04C40
BE0AAA8C
BD4427E0
BE6CC244
BE23BF14
BD452740
BE1DCA04
3D835D40
BE597E90
BC8EAC80
BE71C590
3D3D46E0
3DA7F748
3E5728A0
3E44CC88
BE7F0ED0
BE137920
3E011654
BE1D4684
BDE57130
BBF59600
3C498CC0
3DBCD888
3E56E514
BE2A9DC4
BACB1600
BE0693B4
3E06F7D3
3E6D3E1E
BE53AEEF
BE45E81C
3D088C60
3DEC4F1D
BDB32088
BD631E50
3E5BA276
3E2D7928
3CEC274F
BDECEAD8
3E67E5B8
BE48B894
BE0C2D38
3E27672C
BE721B8E
3D22536A
3DF1DDC5
3DD12280
3C8D8A91
BE504D9C
3D478B90
BD3C04B0
3C833AC0
3E3223AE
3E14F9DC
3D95EDC0
BE0DB36B
3C389376
BE1C5108
BD8F0E20
3E26DC47
3D5276B0
3D469E00
BE684D14
BE50BBC8
BD943E70
BD68CC00
BE48276E
BE494DB1
3E23628C
3D811051
3D614F00
BD602730
BE643A44
3D28E060
BE1F7F44
BD6EC0B0
BE2735CE
BDC5D42C
BE81488C
3D99B1D8
3E5E5D2C
BC01AA80
3E0FB811
BDB2A752
BE6FBC50
BE3A66B4
3D9B3900
BDE16B70
3DE8D1CC
3E031629
3E5929FC
BE2B2DB4
BDA6C03B
BD924E4A
BCB55105
3E7E23DF
BE3E05BF
BDBD2863
3E1FD3DC
BE45228B
BE76A6CC
BD105057
BD9475C0
BC71F67D
3C96E232
BE6C6AC3
BE05BBC8
39394D94
BE25A867
BC3D24FE
BD940415
BDF0BF20
BD645AC5
3E041B31
3CEB8760
BE61BBF1
BE703827
3C68084B
BDA63888
3E2B46CC
BE70C1A0
BD15652D
3C7D7C2E
3D880F00
3D30DF4E
3E68CA45
BE55435D
3E0AB91B
3E431C20
3C676FF6
BE4BB484
3E466418
3E328807
3E2F24D3
BE356EFC
3E163A8A
BDDC2538
BDA9F97C
BE630258
BC1E8D63
3E452691
3E69AEA4
BE2EDCA5
BC75B580
BE2EB29E
3D1354F0
3E4930B1
BE28CB8F
BE538F24
BD81F797
BE5B661A
BE03E0F0
BE440E78
BE824247
BE198563
3DA2737D
3E0167E7
BDA34AD8
BE80B49F
3EF10C7B
BE1B968F
BE922A75
BE3EBD94
39895C63
3E417580
3DA7166E
BE18B480
3DFE5110
BD8E1F0A
BCF88697
BDEA00D8
3E52B41F
3EC01208
3D69BF53
3E630F07
3DCFF421
BEB16822
3E34CFEA
3C92E420
3E03562D
3C6140DD
3E21BC82
BE1AD9D8
BDFCBB9F
3EED4553
BE87B066
BEB8A88F
BE18A8B6
BDF098E1
BCC7657B
3EA0E85B
3DA39980
BCD3E1A9
3E8E8876
BEAC26D6
3E219009
BE4E7115
BDC25AD1
3CC07F20
3D20B3D1
3E9B7A59
BE4CA493
3DCFF7A0
BDE0B500
BD76C3A8
BD7D2DD0
3E479CCC
3D6D0010
3E5116DD
BDAEDEA0
BC53867A
3DF34462
3DAA8FA0
3ED92C21
3D445F24
3D1B088F
3EAD0421
BE2CD9E3
BE477C4D
3D73DD8D
BB82687B
BD7FA05A
3E359356
3E01BCD8
3D952D8C
3D385A6E
BE44B354
3D9120FB
3CF56760
3E779596
BE060E7C
3DEFBE60
BE24461D
3DA2D06F
BE538840
3E5AD358
3E0D1506
BD63B96C
3E519528
BE2D192B
3AA44000
3D886583
3DA26380
3E7DC014
3DFB7D40
3E1ECF5E
BE4F5F98
3E503E7A
3E536BFC
3E2484D8
3C4B0A00
3D9C4AB0
BD018810
3E574934
3E226FC7
3D863BD0
BDC67B20
BCECEBE0
BE79A377
BE2B7984
BE272CB3
BE538FD7
BDBCD730
BE52B8B1
3DF16767
BCCFF240
3E3DC0A8
BDC6898F
3D863F9A
BE6549A2
BDD2EA9E
3D04C010
3E3847DC
3DC50A00
BDC33F8C
3DB580D5
3D60C300
3E74F588
BBD15380
3CAD8060
3D436AF7
BC3F3F40
3E223184
3E59EB38
3DDDA848
3E141FA4
3D986490
BD78FB70
3D1B7040
3E74F754
BD037D90
BE595214
3E29A0AC
BDBE8A60
3C418400
3D13F0E0
BE082FC0
BDBC8638
BD5F36D0
3E027CEC
BD434BF0
3D4C2480
BD2014A0
BDE20480
BE40CCE0
3DCD7EF8
3BFA5700
3E3A8CF0
3C5C66C0
3DFFD638
BDD9D088
BD29E200
3E2658E0
BD8375A8
BB861480
3DCF2088
BD9148D8
3E5A9568
3E5EDBE0
3E263658
3C502A80
BE2FC7C8
BE7A3C2C
BE79716C
3DF3F598
BE6DB910
BE6E3FCC
3D2B2790
3E1C9A88
3E6B24B4
3E738A84
BDFF1410
3E50AD88
BE748DEC
3E6F6EC0
BE6B6DA8
3E1A9870
BDC128A0
BE0FC8B4
3CAD8A80
3CFE94A0
BCD96660
BD98D528
BE77F528
BA8A4200
BC676480
3DB1DE70
BE0BE111
3DFAF9E0
BD89D201
3DE629CE
3E19F5EE
BE6B2023
3E70B0C5
BABE6000
BDDFC7BA
3E440F2C
3D005DB1
BDCA7480
3D40E087
BBACAF61
3E561939
BE1CF6F8
BE64C8F6
3DCD9331
3E1C16AE
BE0CBE90
BE218776
BE7D7BEF
3E699190
3C4E3FC0
3DCE1B73
3E0CCFAA
3E73A05A
3E55F2BC
3E6E9854
BCCF0FE4
3D53274B
BD792DF8
BE638CD0
3CB45F5D
3E031A30
3BD66163
BDA6FA16
BE451448
BDC1FA04
3E71BC63
BE4614F9
3DE59401
BDCEF3EB
BBBFAF80
BE64DECC
BE5379FE
3DF7FE49
BE008D90
3E26FF0D
BE29DD9E
3E50CEE9
3E89AB07
BDFD5F78
3DD4B09D
BE44516C
BE0D1226
BD3EA05D
3E12ED24
BE09C9D0
3D64F555
3E1DF697
3E4A561A
3D3501C6
BCC158DF
BE499B47
BD3C6571
3E4C9451
BD2D315F
3E88E710
BDA70514
BEACEAE6
BE1865D0
3E374DF5
3E3E1D18
BE111386
BE38FF38
3EAD67D0
BE889945
3EDA1C16
3C5D8040
3DCCFA43
3E3B0B87
BE2342FB
3EC59E97
3E1C9941
BECBE795
BE800107
3D8D7798
BE7BBE04
3EA40E17
BDFAFFF4
BD0D4EF0
3CA270BE
3E907068
BE817032
BE16BC61
3E1850A7
BEA5598B
3DBF9F2E
3EA3853A
BE4DBF7D
3E31D094
3E1799B1
BDF93F3E
3E2FB146
BE3395F5
BDE016B8
BDDF1B48
BDE39141
3EA50DCD
BE743A50
3E3C5378
3E4433E8
3E03BE48
3B9C7AAF
3D3408E3
BE6977C4
3E172ED0
BBFBED00
3DFFACFB
3E533113
BE6C4EAC
3E90A41B
BD2C2063
BE37E65F
3E64B22A
3E0B0C80
3D0778EC
3E781DA1
3EBE777F
BD2EF351
BE9110E9
3E89DF16
BE4185BB
BD9CDC83
BD8397B8
3E0DEC66
BE1FE570
BE8120B0
BE532DB8
3D9B4F98
BE8CA7E7
3E9C3DC3
BE1C0118
3E2072A8
3DF6F4FE
3D10092E
3E9D4980
BD855884
BE2E0C29
BE7E18F0
3D887408
BCE4CE6B
3E798358
3E0C24C0
BD7C66A0
3E21780E
3E4FAF7D
3D94FBFD
3CBC748F
3E2A74E8
BE86D3DF
BDFF051D
3E472693
BE899067
3C4B12E8
3E5CF6C8
3E14A4F4
3E9B9C39
BE27ABC3
BD8AEE78
3DFE1A10
3E411C47
3E0A865A
BE43BC8C
BDE65420
3DDC04A5
3EA90905
3E562B5D
3CE7BB4D
BE18DD54
3EB2C6E1
3D047400
3DC26B6B
BAFE10D3
3E7F90B4
3EC2E0C4
BDAB1D07
3E41C414
3E9C26D7
3E0122A5
BE83DE42
BB1549F8
BEE70EC7
3E6D8F52
3ED5B4AD
BE8D0968
3EB0DCFC
3E2C17A6
BB813000
3E3EEE6F
3E0FA560
BBD49EDA
3E3170B4
BE740593
3D1ACD25
BE1C1A36
BDAA45B0
BD0F1813
BE91BDAA
BC93D859
BEDF0030
3E1D577A
3E443588
BDB776A9
3D381AF0
BE052A78
BE81DC19
BE024008
3D90FF60
BE180699
BEE3255A
3D91988F
3EE864DC
BDEAC34A
BCAB34AF
BDB2F1DB
BD4CDD02
3D97841A
BE3EED26
BC9605D2
3E456D89
BE4CAD09
3EA5BFDB
3E5DD133
BE5D94A8
3E1378D5
BD8E2084
3E54E800
BCB5DDC0
BE5251F9
BE17B0A5
3D13CA3F
BDB823B0
BD818C50
BE0E539E
BDF2A770
BD187B81
3BC237E0
3DC3DCC0
BE9D4EBD
3EECE091
BE1261B4
BD6911A7
BD5793CC
3E004D2B

