2854
3564
2DD6
0729
00F5
0C2F
09C0
0141
3726
0813
02EE
033F
383A
0201
3862
0BD4
0982
2F8A
11A2
3DC9
11DF
375F
155D
3043
071E
39A9
2CC4
0732
3E61
3209
17DC
376F
0DC7
3B72
3E02
1712
2DD4
2C26
3C3E
19F0
0EA0
1818
379F
3818
15C9
05CC
04E4
2E7A
1764
3639
0BB9
2E8E
087F
30A6
0E41
0F4D
090D
3D23
2A48
3981
0577
036F
2B3C
18BC
2C35
3994
3866
2D49
3DD9
0781
3D45
17C0
2D91
04D6
3987
0DCA
346F
368C
0DA1
3ECD
2B96
0C99
2CC1
3F32
3D64
3C13
0156
2632
09BC
3C1D
163D
3B7E
0514
0F73
293A
3008
123D
2DBA
0663
33E1
071A
3B8A
2E23
0890
030A
3A19
07BD
0CE0
329C
17AB
0DFB
00BE
28B0
0717
0C73
2C4E
0FF8
293C
2D22
3A34
2A5B
0CAC
26EF
2899
1844
3C46
3F2E
025A
0E3D
2F6F
1318
0120
37E1
3305
2E46
0C06
30B9
2608
3F95
158A
3F7F
29FB
3333
3CE8
3164
0DDC
1410
383A
34A2
39A1
2E66
36E8
3178
022D
1164
3718
3705
0477
02A2
2540
2AB0
30D7
0095
2E4F
193A
0B69
2B23
1518
16A3
3D61
0F51
07CF
2674
2804
2DCB
3019
12B6
0E54
0FE1
11F8
3DA5
3791
00AC
3F54
114D
3A99
2CEF
0C9D
3797
0A66
0C0D
11AC
2A27
3455
2DCA
0773
0C13
03F7
0BF6
0092
0FF8
3D37
0CBB
35D8
2965
2AF0
0DC1
010A
2C8B
0457
33CB
2C84
3958
3C03
3D21
2CBD
3476
3926
01D4
1027
2CA1
2E8F
0CBF
33B7
3954
12E1
1651
02D5
155B
0CDC
15B2
02F0
33E5
10B8
0342
0ED7
290C
3FE6
05C2
0C73
0DFB
2813
02D6
3802
25CF
2FC7
3C3D
3EDD
3418
2AD0
0E42
08D2
3752
3A38
3D1A
07C5
184A
182B
364C
1A01
0059
1230
1131
37D6
3E30
385D
01C5
08E4
0D4B
13E7
3791
0897
1615
1062
101C
116C
3528
2A02
3509
34C4
3FEF
0768
0CD4
180A
1291
0DDF
356A
3DA7

