3EC8
3928
105F
0A7F
38C6
0393
06BC
17C1
1493
3D58
2D8C
3006
340F
03AA
3DD9
29AF
3104
0FEF
2762
07D6
31FE
0981
17E0
149C
0FED
0D5C
2A74
28E2
131C
3998
2E82
35E8
3848
1142
1054
0E95
2D5E
024F
0167
35DA
373C
2B00
049E
1127
01EA
39AC
2DAD
28D6
3CD3
2E03
3C56
30F0
33DE
00F7
12F6
315E
0318
3793
045C
3EF8
3691
3BB6
1455
3D73
15E6
0DD5
0723
3CB9
3A79
2B43
3CAB
17E1
04A9
3CA1
1462
3F8A
1369
2EE9
15C8
3F8A
3632
14AA
0234
3340
01E5
27AF
3705
3E37
3919
0143
0FE5
17C6
0BC4
072A
0A9C
30D5
2DBB
0FA4
07BF
2923
3F21
02AF
1330
06AE
34C3
0938
2ADA
14EC
0097
3B2A
25E3
3661
2A69
2F17
3808
297C
17E4
0152
2C24
0E47
1331
3DD3
3B61
199D
32C0
16DA
0C7A
2EE6
2E4F
0AD5
3D26
0DEC
3A6B
3CEA
3280
3F0D
114E
01BA
2A2A
061D
28F2
1434
1601
07C2
0BE3
33B9
108B
3A9E
17F2
0B43
173E
1003
3BA4
074B
324C
19B8
3E91
0227
2931
3B62
0BF6
0E43
1755
1918
0BDE
08EE
3F2E
09C8
3E1F
29D4
3E26
2FC2
27AC
08B5
3397
3ED5
3D28
1044
12D3
3633
3B40
26F1
0222
31C5
3C43
30B8
091E
0404
1274
12A0
1771
34B0
31B1
38A7
36B8
08B5
2A64
3626
3963
12B0
05C3
0BCD
3BCC
2FAE
08ED
35D9
2BA3
3C1B
3CE9
1384
162F
0C18
374A
316A
3DFF
0408
02C8
0F92
0790
35F4
0A6A
3284
3E9D
3736
2716
3A9F
2951
2C12
0970
0DBE
2AA1
1264
153E
0899
17C0
374E
2852
32E6
16C3
05B4
35D5
3B39
0A4F
30E7
146C
2FD0
3F02
3807
0C4A
380D
2759
034F
119A
10A6
3D93
029D
0739
3583
2E1E
1597
188D
36BA
0726
33D3
1587
11D5
27FF
333A
15C8
28E1
3DAC
064D
3035
1865
0F01
1985
3869
0B87
3269
31DE
3D04
337F
2E89
0420
2CAB
0B55
02D6
26EA

