16CC
F306
DD01
F3D8
0B5A
EC6D
EE86
07DB
EAA6
E95C
089E
100F
F5C6
DAD0
1775
1066
0B5D
0B0B
FFA1
0246
EB70
0642
FA56
FF69
6127
1357
1515
F291
EE5E
F5B2
E868
E8EA
276C
FC6B
EC03
F909
E922
0A1D
F844
F550
1828
001F
05CE
EEE1
E392
CFF9
F854
025A
12E3
1464
F9D8
FBC9
0638
F1E2
FDB3
13FA
5566
ED24
4BDE
12F4
E9A3
F5B3
FC1A
0A32
0C01
EBE9
2915
FB9F
0CD7
EE5D
F2FC
FC13
070E
EE5A
F1AC
F4F2
0957
CECF
E80A
0806
0F3D
F2BE
12DB
1706
F93A
0B49
0570
2D43
61EA
14C7
5505
0360
0B52
FBB3
F9A2
F14D
F7EB
19AA
63D4
113E
E6F5
E951
4469
0011
1072
12D6
15CC
F4B4
465E
3190
F583
E146
0CC6
DC31
0528
FCFF
0873
EB8A
2F7F
453C
4E08
F825
2C5E
1211
012C
0CD1
FBCB
F77C
F6EC
0095
3BEE
1A9C
0DF5
02C3
3AB5
0735
FA77
01B6
13B5
EBC6
3C64
328B
18E0
E9CB
E87E
CD16
F5A3
1556
FF1A
EF63
440D
4143
EE66
FF48
4783
F64C
EE8B
F554
072F
F528
E383
0BE4
4361
0E8A
EB1E
F388
14A5
FD88
0D87
F4DE
F09A
0520
2F46
275C
F06C
D828
E6B7
F91E
FBB0
F205
F1CA
EB0D
2D74
3C8F
F129
EEA7
2CAF
F098
EBBA
189B
1647
0990
06FB
059A
DB65
055B
FC6D
FE57
EC62
F893
F3E4
1893
02E9
F714
FFFB
36AF
025D
E023
080A
E982
0B85
17B5
E899
FE80
DCB1
EDFF
EF87
0F1A
CC6E
0D9F
0E5E
F1B3
F5CA
068D
DAD3
E7E4
D725
ED56
0FA0
09F4
E577
FBEF
FC5C
0E37
ED1F
F306
0F1A
1F5D
F9B7
FD46
0939
FC28
006F
0CB6
0C61
F8C3
E307
E547
F1EA
F4C1
E4B6
100C
F29D
16DD
180D
09FC
04F9
F0D9
C565
1772
0FE6
E932
DAEC
F7FA
140A
FAE9
F0F4
1223
FA9C
0CED
E84B
DA39
F3B3
09A2
F0C5
EB3C
F7DF
EF8B
E786
D49E
0671
0991
EB66
17F2
FF23
0805
FA70
036C

