3DA3C492
BBA3C0AB
BD1F538A
BB694AD2
BC557B14
BBC49E86
BD3C4A77
BC04D779
BD1ABFEE
BC2CA23D
BC3C0125
BBE38002
BC0B4EE5
BD35A75B
3DAC8604
BC5B0CDB
BD075E34
BC0C715E
BC60A513
BBDFCF56
00000000
BD3477F1
BC1EF014
BD329B7F
3DC15A4E
3DB45BB0
BC374B4C
BC49243D
BC079D68
BC2BCD9E
BBB01F67
3D7A9309
BCDAE555
BC32B154
BC4A0F48
BD1637F8
BC932233
BD2E9E3F
3D803C2B
BBFB1D93
3C0594A7
BA31ED6A
BC62D622
BC4647BF
BC7109C2
BB8FC36B
3D6599A8
BC1DB1F3
BA6246EA
00000000
3D9201A5
BD097717
BB8E1F4B
BBA3C640
3D62DEAF
BC55B1EB
00000000
3D88DB2C
3C909E30
BD219A4B
BBDEB0C3
BCC8C92F
BC76C7BC
BCCD2B98

