3D2C
346C
2E98
114D
3B0E
126A
0844
378C
1305
3208
17E4
0BE2
2FBB
3A95
2998
09FA
2503
0765
3330
0C0F
3376
0DC2
0B36
09EA
0420
2719
3D7D
12F8
347D
0C96
0FFD
29C5
2E7D
0311
3D17
1138
2781
0F89
103E
1792
2E46
3418
3C4C
270F
2A08
3763
134A
3897
264C
375B
1725
027F
2BFE
2D81
3AAF
3A7A
3315
3FFB
1362
3A95
0D25
3B96
09C1
1420
3B47
2C77
015C
301E
0147
06CB
3A93
3E72
1560
3762
3000
3A10
26D7
374F
3665
0089
34D9
0179
3BB0
2906
3580
1465
02A2
08D1
350D
00F0
39BD
14C1
14D9
3665
2CCE
14AA
0081
3A16
33DA
1218
19EC
2830
37DD
2C15
1355
3BAB
3286
2681
1190
179D
2BDC
1267
2A39
0B76
37BA
0097
379C
3047
0638
0A32
0FD2
2B98
0A04
0B08
2D09
0F67
0B8A
2763
2DAC
13FB
2556
1815
2E92
15FE
070B
3157
0EAA
3272
302F
1A13
25EF
0F76
36CF
1337
14C4
337F
3EA4
193F
33D7
0E73
3E93
26E9
0AA3
165F
0676
11A1
2FBB
292B
333B
0FCD
2965
3126
2E7B
1646
39FC
3FFA
3450
08F1
2DD7
3514
09C6
0E79
1737
156C
01A9
15BF
16B3
1133
34C0
3CC0
33BD
0E7F
302A
2F3A
3FD7
2C7A
3323
3D06
328F
0047
371E
083F
2BC3
056D
0166
2DC1
3BE5
0470
39A1
0842
1653
293B
358C
0259
319A
0CF0
0523
0D29
3491
3BD3
145E
15B9
3BDB
32AA
3823
15D0
3EAC
309B
32BA
3BCC
37B5
2C24
0502
03F0
0961
11E9
3FD2
1026
375D
3423
2AFB
3DC3
1A9B
0D94
37E7
2C86
2B28
31C2
0213
30F3
141D
27D8
35BD
10AA
257A
02ED
192F
2E44
3E03
27EA
3ECC
256D
2F7F
30C5
3F0B
3B0A
3782
12FF
10BE
3798
3DFC
3980
2640
15C5
023B
28C3
08EC
0936
13A4
329F
02EC
0EFE
3538
0647
28A9
0DCD
3028
2C2E
3F6C
0390
0715
358D
3E1A
3C25
0D95
0DEF
049E
0C31

