3609
0E13
077F
0C40
2DE0
2757
0EA0
2EE8
2D1E
0E8D
297F
0B78
3436
0E3D
2AAC
00AA
04DA
39D9
07C4
0296
28D5
27F1
3855
0CC6
0128
2895
3E25
1804
2EDF
282B
02EC
2B56
35C9
3CCE
039B
3BC0
1969
314B
31B9
38A5
04FE
3E45
1734
095C
3779
25DC
32C5
0C16
3276
1321
280C
0D58
38E4
180C
31DB
1250
399A
0293
2B2C
3F98
18EB
2BB0
260F
0FF8
1858
01A3
11C0
0C5A
0F8F
0AE0
3660
3EA4
3FBA
34FE
2A38
3810
3BC2
0C61
008E
045C
3C07
2D46
342F
2663
0648
356F
33A9
29E1
04C3
2808
280E
2954
09DD
00BF
2F03
3E30
2646
0CA5
3708
3392
06C1
04B2
3A91
14F1
0D33
01F9
1311
0F4E
34D2
336B
2AFE
0702
01B1
3ED6
2ACA
398A
3C0B
08C5
15CC
2991
01C8
27E0
0ABD
116C
0BC4
3456
12B8
1526
2D6A
062E
0D9C
3DD6
32A5
0A89
39B1
3272
198A
2D69
2F33
3D49
084B
3AF9
2B95
2A3D
3FF3
2DBF
2F3D
151C
0D6C
11E4
3F63
2B6D
0B83
3794
2B74
29F8
2871
2EA5
12F5
0FD0
3929
2C48
3ABC
3DE4
17C9
3FDC
17DF
3781
3AFE
2D42
1144
15A0
27CD
0EBF
1392
3D84
24C6
2961
01F6
0C3D
133D
2720
0895
2CF3
2B1B
1751
0645
36D3
12A4
0E9A
17F1
05BF
2705
2619
0DCA
0522
3884
2F07
055E
3CF6
0F2E
11F4
2853
2B64
32A6
1383
165B
2A72
00FC
36BC
293E
14F5
30D2
3064
2EEB
0D3D
02B2
300A
2B2D
384C
27D1
2B4C
07CA
382F
3388
1847
0C49
3537
3A5A
3918
14E8
2913
084A
030B
147F
0F2F
0168
308C
3FB5
36D0
2901
138E
2A67
055C
16F6
287F
0F2C
0607
066C
191E
0B26
05CC
14D8
13C0
33D0
054D
34F0
2981
32D4
2E32
2A0D
075F
0EFF
3B91
1870
33BE
28B2
1052
0FAE
04D8
1457
1288
16B9
2E0F
0626
3818
2914
346A
0F14
3FEF
1698
2840
2B22
0BB7
3CA5
0A23
3D27
259D

