3D81C3C7
3F09B026
3CC1F156
BEDC6269
BD01E375
BDB9E5CE
BB5583B0
BDB93156
BDA0CE91
BCC50168
3CE175B6
BCD37E24
BD7CBD9E
3E7B3383
BCDB8624
BDDCEC94
3D9174AB
3CADCFE9
BDA763D9
3D8B7C3E
3DC9FC84
BE20E031
BDC5BC1F
BDAC1D83
BD144933
3E92F6EE
BCF295B8
BDD0590A
3ED4BA0B
3D93CB48
BDC7BB91
3D86BD47
BDCD22C2
3A0D98FA
3D1A7A02
BC709436
BD6AF1AE
BDD094BE
3D612BF8
BCF9F85E
BDCA7D40
3CBD1AE8
3C601ECA
3D904ECC
BDABAACF
3E55555B
3DC9FB9C
3ED9DF8A
BBA0B9D7
3D506F21
BD25D6C3
BD2B3929
BDB21517
BD78CDFB
BDCEE53C
BCB00ED0
3D0F2B45
BC8D3F17
3D5ADBD0
3D0EED24
3E2B6627
BDB7D414
BD7D68B6
BD9064DA
BA5AB79B
BE141670
BD71B418
3E56C346
3ACCF72F
3CBA5116
3DB26C04
3D8525BF
3C9124BD
BD4E8299
BDA58F70
BCB1F9A4
BD8F7197
3DF1177D
3B9A0AC0
BE1F8574
3DB5D51C
BC6AEEC1
BD640C1F
BD7EB312
BC1B27E8
3CDC304B
BC8A1CA3
3DC64F76
BD778058
3BADAFD5
3D8D4DBC
BD2269F9
3D224233
3D240E0C
3DB77EC1
3D974311
BDB30AFF
BEBAAAA6
BE008DFE
3EF5D048
BDE93662
BD888840
BD0DAB86
BDB1A148
3D24BF81
BD426B70
BDB0CBAD
3C5B5838
3C82CFB5
3E62EEDD
3CE98670
BE29D89F
3C06242D
3D87917A
BCB0EDA0
3B6C39E0
3D3DDD70
BE43290B
BCBE9123
BD8B8AED
BAC68526
3D99A74D
BDCF677C
BDB0A13F
BE12E01A
3DB21E34
BC8E0679
3D6C1A12
BDBD5752
BC228100
BDC61785
BD531D8B
3DC4905A
BDA62FA8
BD27A195
BDBF755C
3D9F80A0
3CA6ABE0
3DA942D0
BD171B9E
BC8B41AC
3D9248E2
BC514518
BC09A140
3D7DC254
BCED7628
3D553050
3D642740
BD1978BE
3D10CDD0
BD7CF72E
BD998522
3DAC4EDC
3DB0ABA6
BD73D248
3CD88AD0
BBD7F2C0
3BD083B0
3DA0CAD6
BD7CF789
3D30BB28
BD8D6FE6
BC2C5FF8
3D3707AC
BB3C48A0
BD5FA401
3DCD36D2
3D2E819C
BBD10A30
3DC30164
3D556704
BC8FDD4C
3D6C9564
3DB4F51C
BDA6C01A
3C804EB0
3D1DF8D4
BDBC1E2B
BD98F12B
BDC58A09
3D809C3C
3C98A1B4
3D92C8F0
3C3AD798
3CFA7140
BDAA7892
BD667DF0
BDBFD645
3DB91100
3CFBE2C8
BD67A8A0
BCEEA88C
BB4A8E20
3D01A148
BD7621F6
BD89B45E
BD13A4C6
BD27C497
3CA72BC0
BD4BCBEA
3CBD1640
BBDB0B60
3B654160
BDA55402
BDC4C0A1
3D94A912
BDBFDD9B
3DB88CF4
BD57CE8F
3DA19E0A
3AD672C0
BDA1BB1D
3D171708
BDC52904
BD27DF1A
3D65A064
BD004990
BD0B919C
BC11AA20
3D7ED128
3D28E66C
3CAFDA00
BCE62BF4
3DB6AD3E
3D2519D0
BD32C151
BAAD4C40
BD443E11
3CFF21E0
BD192358
3DC71A60
BC9F8A54
3D577D1C
3CD50CD0
3DC9D4A6
BD5F4424
3D2F2FC8
BDA86D84
BCD24B8C
BDA2EFEA
3D36F600
3C1A73A8
BDC8FA87
3C0F34E8
BD1CE372
3C7928A0
BCA5C470
3DB7F1C2
BB23FA20
3DB5E584
3BE98B90
BC260C08
3C1D6208
3C1B06A0
3D6FDF28
BC9611B4
BD6D7052
3D982F20
3D819884
3DBBF74D
BD8BA5DD
3D22B661
BD45D6CC
BDBC4C19
BD931C7F
BD5F7AB8
BDBECCE9
BB852E70
BD3A41D6
3E1ABE42
BC53E9F8
BC36E08B
BD381688
3CB4F381
BC3BDCF8
3D3CFAB4
BBB41670
3BD0737B
3D3BAB93
BD1081C0
3CC86620
BDEDE5EC
BDC3D80B
BD8AD526
BC9B36A3
3D7855CC
BCBF040D
BDD7A7B4
3AF2F502
3D850C36
BD83E21D
BDACA421
BDB0F3E5
BD5903B6
3B1EADB0
BCF61C4D
BD2FE5F7
BDC88620
BB6C79C1
3D3B8850
3D3AAF50
3E045E8D
3CE69300
BE1DE5C4
3D2DA259
BD61ED84
BDBA668D
3D64C9E8
3BC22EF0
BD4C218A
BCCC2A45
BCA42430
3D9310B6
BD435CCC
BD91D94E
BC228C73
BD9C2FC8
BD96902B
BD9390F6
3CBD662B
3DBACA94
BD72EE14
BDAB6498
BDAD3987
3D0E09C4
3DBDC2DD
BD096D99
BDE25A7E
BCA3419B
3C7B8008
BBE1CC6E
BD9F8FC2
3D541DF6
3DAAD7E0
BDC1E34D
BCF6F185
3D13FB57
39DDF076
3C4868E0
BD317F84
BDC327C8
BDCF0231
3D233E02
BD7152F7
3CE03199
BD9F6F02
BC605170
3C4A1699
BD02174E
BDACF9C4
BBCB7DF7
BDC4A145
BD96AFEE
3E10B240
3D8CC37C
3D6F9E60
BD4ECB7E
BDA9CCD8
BB4A29EC
BCB6100C
3D27C85F
3D8B2A28
BDB19402
BB9A3D90
3D96B75E
3CEB000D
BD1B138C
BCFA1526
3D80E2AA
3DA65C87
3C5857C8
BD24746E
BD0DD144
3C3D62DB
BD6233E4
BD380646
3D9A0E28
BE16C541
BDB61D10
3CA1C866
BD904875
3D81B0FD
3C2F84AD
3D96571F
BD920B44
3D95D3FC
3C4F7D30
3AB26100
BD958862
BD95188D
BDBDF8C2
3CEFE6B0
BDA206D2
BD5CF73E
3D213C48
BC1E6C68
BDC9DB93
3D01A868
3C269ED0
BD3D5717
3C525C40
BD05765A
3DC14D6C
3DAB756E
3D92BA74
3B096440
BD8084BE
3D2C8DA4
3DB189C2
3CAC1AE0
3DB6C7CA
3DBF5EA6
BD9C51E7
BDB4D60B
3C7BCC10
3D2B4514
BC8DE25C
3DB56A88
3DA92322
BD8CDE18
BD3A7FD3
BD72FCD2
BCA050C0
3AAE2300
3C1F3B48
3C9CF514
3C82254C
BD3684E9
3C9F9CA8
3C6A19B8
3DC6FD9E
BA120300
3DC83E42
BDA261AE
BB5BE2E0
BD6B30AA
3BCCB560
3D5EFD54
BD9686E0
BD0C386E
3D37E4B8
BC96AEEC
BC2A6800
BD7103CB
BD6328FB
3CF34EE8
3B2D37E0
3DBDBA14
BD83CD6E
BDB1C5E3
3C3E2C38
BDC7B5CE
3D39656C
BCE143E0
3DACEBCE
BDB91D73
BCF015A0
BD591BDE
BDB10E92
BD9403E9
3D39B9A4
3CB65DF4
3D659450
BD7089A6
BB2C2D60
3CA7BF7C
3D7A3BCC
3DA63C4A
BDAC4C0E
3D06ECF0
3DB1D6A0
3D115B88
3D5D8418
3D843754
BC28ECD0
3C224FD0
BD4D41E5
3D8A8EA8
3B824C20
BD083D8C
3D1A803B
BE6B4E12
3DAB5276
3E549510
BDD1A64C
3D1AE1B1
BDC25D35
3D841E6F
3D57617A
3DABC90C
3BE1A13A
BD602E87
3D0D533A
3D3BBCBE
3DAD1300
3D7F89A8
BDBD933E
3D706216
3D6FE4BC
3D0C185C
BD426782
3D2CAB0A
BDD6D17F
BCF087BC
BDABD153
3DB8736B
BD818275
3D647023
3E17D1FF
BCE85B64
BCDFACC8
3CB404F8
3CD6C5D8
3E0B8E39
BD4A509C
BD88CE90
BDA5FE29
BB323794
BC79E147
3DB3FFFA
3D2221E8
3CB7C394
3D203F1E
BC3002E0
BDC5B76E
BBE9FF41
BD10127A
BDB42602
BDC37327
BDB22358
BC9FB954
BD21481E
BD1E3C28
3C975CFE
3DB655EE
3C4CAA48
BD83B7BC
BD9640AC
BD0DB8A4
BDA976FD
BE0F9CA5
BC5BA815
BDB30E6A
BBCD99CA
3DB71DE4
3CD145D8
BD9625A2
BEB8DBD8
3D4D7BBE
3C36165E
BDAA38A9
BDC504AB
BCE6366B
3CE5C720
3C348A22
BD3CD616
3D4E4957
3E782308
BD80452C
3E99DE03
BDD2CC08
BD54D50B
BD9DEC55
BD84F2D2
BCA0B3CC
BDF08677
BD8773FA
3D020370
BCE14AF3
3D8EF212
3C1B3478
3DBF0FAD
3E9C3976
3C730C51
BD067184
BDB4C9A3
BD33A7D8
3DBD195E
BDDA5072
BBCDFFFF
3C9ECA61
BCAB68EF
BC9C73AC
3D9E52A4
3D1BF7BC
BD762E3C
BDAB1978
BC466300
BD5BDA46
3DBD111B
BDC905F8
3B189778
3BC8798D
3CB56122
3C1C6CE0
BD9538A6
BD8B76B4
3D8B3473
BD7516DE
BAF42FC0
3C12E90F
BC8D9DC1
3D8152E6
BDB0B501
BDA06653
3D206668
3D4003C5
3D143E5B
3CA76191
3DA025A7
3D9B6CC7
3D379C44
3D50F401
BD3A0851
BDCD17B7
BDA62E4E
3D99681C
BBA23460
BD8C6EFB
3D454790
3D359E92
3D28B97A
3DA280D8
BDDB3889
BD4EB907
BD76A3B6
BD3005B5
BDBE0311
3C5ED1F8
3DA6FA6D
BD46C289
BBF6F7D0
3D7F787D
BDE73EC1
3D7205E0
3D366F20
3B7A9440
3D9A7A83
3D70F987
3D5E8A9A
3D68CC6C
BC8684B8
3C984818
BDA90728
BDB31142
BC5E7228
BD3404A7
3D894632
BDB33866
3CA9C00C
3BCCEA40
3D91333A
3CDE6018
3C129FF8
BD99A218
BC888B18
BD689984
3C8E63B8
BD899054
BD8162FC
3D8728C4
BC1073F0
BC416310
BD47A4C9
3DC3E0A8
3C40DB50
3BA3D770
BD8DB7EE
3B61A9A0
3C99A0C0
3D60EC1C
3CC7F9D0
3D9F7BB0
3D23815F
BDAF7656
3D4B16B5
3D7EC480
BDBB130F
3D93F220
3D32DF8C
BD119E26
BD3EC4C8
BD5F12EC
3CDF1450
3D96A9A4
BBF70C3D
BDBC4D1B
3DA5244B
BD4B3692
3D9260EE
BD7E2358
3DA45FDA
3D8C3966
3D40BFDA
3CFAE618
3D472E84
BD20BBA0
BD508D30
3D488C44
3D552060
3D8C04A7
3DB36EBC
3DCCF444
BD4408B7
3DCA58C7
3D89605A
BD1839F4
3DCE4AAB
3C3C1B70
BDBE607A
3CC034DB
BDBA3FF8
3DCED279
BD6F4DBE
3B91D650
3D89C4A0
3BF67FC0
BCD6ED19
BDB36E2C
BD28AE4C
BD72CE62
3D90D7AC
3D9F8E92
BCEC1C6C
3D1DE780
BBC18BD9
3DCD95E0
BD6C0EDA
BDA16A92
BCDC4E3C
BD898EE3
BD351D79
3C99A9D6
3D9F1CB5
3DC6A834
3DCE21C8
BD8282B1
BC29D31C
BD985D1E
BCB599AC
3C96B26E
BD368F24
3DA90F50
3D0726D6
3C961C01
3DC8FEBA
3D2ED769
3CDDF1D8
3C21F666
3E15D946
3D0123D8
3D3B76E4
BD7C6959
3D9C8BDD
3B23F4E0
BD21E3FE
3D838B9A
BDEFD3E0
B97BF52B
BD09F71E
BD89A963
BDDD421D
3DAE7C36
BDB558C7
BB53A2F6
3D8C654A
BD21E176
BD2350C8
3D6105A4
3E86B6C9
BD964059
BDED3756
3C13C35F
BD05AFF2
3BC14752
3D6D62C5
3CF51568
BD90BE2C
BD19F582
BDAD5416
BDBCFBB9
3DA854BA
3D91759E
3E0455BC
3D411EC6
BDD96D3B
3D8B78DA
3CB390B4
3D84D72A
3D100065
3B4B494D
3D35F824
BDBB0496
3D498C49
BCA0DA94
3D0195C5
BD36BD29
BD919FEB
3D8556BC
3CBF0E38
BD5E5B4C
BD15F5B0
BCDD3CD7
3E59DE0E
3DC2A2BB
3D817747
3D49A90D
3AA579F9
BDD5ECD5
3D54AF48
3D8B7E88
BD6E34EB
3DB9761D
3E1C2CC7
3D23ACB0
3E4BDAF2
3BA815FE
3D82E11C
BB779080
BCCBBC94
BCF36138
BD925B0A
BCCB7473
BCAEE2A8
3D7EE099
BCECCC95
BD9FF0DE
3D8C423B
3DAD68F9
3D42D652
BD8BB527
BD7536B3
3D9BA081
3D11E68E
3CC6A3AA
BBFB1E67
3D7E37AB
BD991897
BDB7157E
BCD2D255
3C4B00BA
3DA93720
3DA2CC49
BD40CD11
BD61E96D
BDB0171C
BD80598C
3C297702
BDA83DC3
BD018424
3CFA5760
3D73514C
3C7B8C28
BD652399
3B8ED20E
BDB6AD09
BD068DF1
3DABB9F6
BCEA3F3C
3D6757AB
3D85523D
BDD15117
3D224470
3D2A9C8C
BD2B8679
BDA73024
BD8B5B46
3C09E070
3C201DE0
BBD97250
BDB680BA
BD79E11E
BC0B5F28
BCF44D24
BBDCCAD0
3D792764
3DAFBA8E
BD12C6AA
3DB0BD80
BCBB9B00
3D2B99B0
BC557888
3B59F680
BD635625
BCA5FDC0
BD2CE64F
3C491B48
BCCA5814
3D3D4838
BD865FC4
BDA65847
BD97153E
3DA5A36A
BD9C7FC1
BD87CD92
3D435318
3B621BE0
3D231FF4
BDB6EC88
3D79CB6C
3D88E502
BD7F1F07
BCEA2DC8
BD9FC81C
3D161EA8
BD70A70B
BCF3A058
BDC0ED6F
BCF84B98
3B12C7A0
BD29FFA0
3DADCE8A
3D711698
3D058BD0
3C2C0B28
3D907390
BD88A4C5
3D34FDF0
BCD6F990
BC1176C8
3D2C1818
BD79D3E0
BDB807FF
BC274470
BD22CC90
3DB43284
BBC95210
3DA49AB0
3DA09091
BDA9B725
3CBD5DA3
BDEC5EA7
3D9C71B1
BD88055E
3D8557D2
BC63DC4F
BD19F01F
BD35C2A3
BD8F03E1
3D29323C
BCC6FD6A
3E1A5101
B994B800
3E9EB728
3CF91120
3D444609
BB551280
BCDC5EDC
3C104620
BD4A2299
BD848AB3
BD2201A4
BCEB00B6
3D30AA85
BDC016AF
BBCCEC04
3D8AC6F5
3D1DF323
3CEE3C0A
BCB1A8FF
BCE2E4FF
3ECFE1D9
BC671F35
3D85E635
3D9AAF77
3DB9C512
3D7A9103
3D85264A
BDD4CCE5
BD637F0B
3CFEFFC0
3DC02128
BCECBF61
3EF57834
BD96336A
3F2BC160
BD4D79B4
BDCBD226
3D20DD54
BD29EE33
3D6371FC
BD1F235A
3D646427
3D50A004
BC91C597
BE4CD832
3D896264
3C3252A1
3EC6CD6E
BD333C71
BDC3F46B
BD9E499B
BC330312
BE610510
3C169F0D
3E66746B
3DABF0D4
BD8578E9
3D344A12
3D93CAAD
3D1C1B46
BD372EF9
BD2F6232
BD244E5C
3DA6B307
3E67E278
3D89FF7C
3EBCB8E5
BDE5F013
3C589957
3D052960
3BE57C60
BD874984
BC028BAD
BD5907D6
BD80CF60
BBFB8A82
BCC638D1
BD834F03
3DA03058
BCD5098C
BD1A569C
BD4C81C5
BCFBC02C
3DC0C689
3E69B097
BDA453DF
BEA7ADAC
BD50A80B
3D891E3C
3D442372
BD8F99E1
3D62B889
3D8F357E
BDB8D2C2
3DC30F80
BD4A6320
BEBB1229
BD969B0C
BE87E2A3
BDE996C9
3B500794
BC8230AC
3D99D0FE
3CBF2518
3C8B8255
3DBC4379
BDB36558
BD1B66F0
BE1CA7C6
BC9083D0
3D16CB10
BEA97FCB
BD22FA6F
BD77EB10
BCC97D36
3DB6E481
3D618213
BDD4518E
BE898C6D
3BAC2F30
3D7E4212
BBFCB741
BCEAD378
3DA0D902
3D9AE062
3D96A2CF
3D55EEE4
BD3D8689
3E817337
BDA38239
3EB9629E
BDD177EC
BDA60A0D
BDB33B3B
BD6AA0AE
3C817910
3D3286DD
BDE64DDF
3D9D9920
BD65D0A7
3D033FD2
3D107744
3D2088D7
3E4EEE60
BDC4F290
3C919306
3C66A181
3D1F34D4
3EA79AF9
3D8A08F7
BE0CADE7
3D2669FB
BCA9A0A3
3D370A8B
BBF60638
BDA1DC86
3D99C1D6
BD90A712
3DA59B88
BDC27FAC
BE1377CC
3D056614
3DA58423
3C9EBEB9
3DA13A56
BD380A41
BD85B440
BD4C3B5E
3D97B778
3AD07DB0
3C2CEF10
3D52B74A
3E3EA9F6
3D8939AE
BB3FD246
3E07D39A
BDAC454C
BDA5A5CB
BDDA4453
BDC12658
3EE6D0D4
BD46A31D
3DCB193A
BD99C000
3DB0DBB3
3D014FFD
BC98B716
BDBE2D4B
3C605580
BD0E4AEC
3D18AC80
BD4BF553
BEB3DE4C
BD85AC92
BD57D107
BCF8F63E
BDDCEC4E
3DCA0A76
3DC4F73E
BD89B79F
3C500FCF
BD421587
BD9646BE
3D626431
3E8545C0
BCAB5434
BD2CF25F
3E10EA13
3CA157B3
BD562D10
3DA87FAE
BDBC7572
B8928400
3D86F2A6
BBF70F10
3CCC6710
BC3087E0
BDA3B08C
3CDB3D60
BD99EDD0
3D1857D4
3DC8C7DA
3D33638C
3DC96324
BC12EEF8
3C718C40
BD116686
3DC1B5F0
BBEE1A50
BDC3E754
3C9A03E8
3D7BFF40
3CC552E8
3DAC527C
3DB00DDC
3D2F9B98
3D8A952A
BDBA228D
3D545C90
3DC304A8
BC4EC3F0
3D65FCDC
3DC10DC0
BDA502B4
BDC79F01
BD4570FE
3D988E58
3D717718
3DA655DE
3BA06150
3DC39F48
BD093D08
3DC7F098
3D970F48
BD654BA7
3D61A6F0
BCBB4E64
3C6BFB28
3DA2348A
BCBD08F0
BCE41BC8
3D413878
BD8AAA30
BA5D6600
BC9F0970
BD56B815
3D1C9848
3D490174
BD3F3660
3C3989A8
3DA42180
BD58D728
37F45000
BD1A15F8
3D083674
3D5303E0
BD31CE21
3DAE680A
3B9F7BB0
BC3699C0
3C0AA2F8
B9709600
BDB3A70C
BC87F55C
BC8C5A58
BDA76E8A
BC7C0BF0
3CC17440
BD808C32
3D0146C8
BCE8BA3C
BCDA7088
BDA96443
BCECC954
3DB73292
3DB561C8
3C3ABC90
3C98B988
BCEF0DF4
BD2DD379
BCCFE558
3D6B1D58
BD890CD8
3C96BB20
BDB85F48
BD6A4DAE
3CBECD50
BDA417C5
3D6FDC60
3DD0FDE8
3D2FA1F0
3DB28640
3904E200
BA9A1680
3CF599D0
3CF14E80
BDCE14C1
BD9D6AA3
BBD6D5D0
BC89B550
3CE6B508
3DAA2AEA
3D999654
BD1FDFD6
BD5A0451
3DC9E43A
BB931560
3D9AF380
BDA4C690
BD8CDC89
BD593069
BD85977C
3C003EE8
3DB04F82
BD66C984
3D22D058
BD6D059D
3D36B4F0
3D34CACC
3D3A364A
3D3FCFC5
3D0667E2
3E06CB1D
BD9B661F
BDC9BEE2
BD159853
3D844388
BDE2AD76
BD7D42DC
3D0819E1
3DC6E1FC
BB435FA8
BCA23884
3DB86EF6
3D29BBCC
BDBAE6A9
BDCAFDF2
3C781D68
BDC3CFA0
BD5F5ECE
BD3BD433
3C916241
3D9163E2
BCA0053C
BDF1A299
BD66AD5F
3DB795B1
BDEC0BB7
3DAC223B
3D03C530
BD1F4691
3C599164
BD718D1A
BDDD4312
BD1A370D
BDC28236
BDB58B04
BDA15BAE
BDBDBA75
BC60179B
3D8D7ACC
3D89C88C
BCE8E0A8
3DB53154
3DCA7A80
BD6CF021
BE0D39F6
BC9CC225
BD9CE662
BDB06043
BD6F647A
3D14B3E8
BDB67803
3D8B90F1
BD733F43
BD8FFAD8
BDBBBF33
3C788FB8
3D9E7D93
3DA19689
3D7C9861
3BDEF017
BD8970AD
3D23D215
BDC05A1D
BB232C96
BD52B1CB
BCF0F25E
3BBCD826
BD06DE09
BCA67B7D
3DA5A913
3D9A049C
BC636B67
BCE6CD50
BD511B85
BD9174B8
BCA7C0D0
3CB9193D
BDC47377
BCC7798E
3DBAC686
BB510E80
BDBABFA3
BD73B23C
3D9D18B8
BD54BFE5
BD8D4DFD
BCA1BC18
3DAC9EE6
BD33A081
BD216FAE
3DB3818A
3CEA180D
BD8BFD8D
BD84A492
BDCAB1BD
3D7D6718
BCC4534E
BD1078DD
3BCEA2C4
3CF572A6
3D5BDC2F
BD803ABF
3D8955CC
BDBC914C
BDC95EBD
3D6A61FE
BDC418E6
BDAD8B7B
BDBEF6AA
3C0314B6
BD7F962A
3D723B14
3CE24D30
3DCB30A0
3D34A2D6
3D510F5D
3D136D70
3D571F99
BE017B5F
3AD06D40
3DAB7D3F
BDD41CE7
3C88CCE1
BD719605
3D165C72
3D1F86A8
BD23D2B6
3CACEE08
3D86DCC4
3DB8B614
3D431D98
BD1502F4
BCA63520
394F3600
3D3D8138
3D6B4DB4
3C767C18
BDA83B60
BAADCD40
BDAF2441
3CFBD1C8
3DC5F71A
BD9488DF
BD709402
BCA5E838
3D58DD14
BD500979
3DB75AFA
BCF34D60
BB13F000
BD5B2D5E
BC761480
3D799D58
BCE63390
BDAB9D08
BD56F5A7
3DBE9484
3C5CDA80
BD7B343E
BC98D4B0
BD4285D9
BC9EEEBC
3CC83938
3DB2BBD8
3DBD0FBA
3C12FC28
3D9C5158
BCE1D7D0
BDB0FEDB
3D526C1C
3C2E0770
3D417CEC
3D4B6B00
3D52777C
3BD87A40
3D8D5860
BD1BA782
BDCEFBF3
3D0BEB20
3C88543C
BDC07EA2
3D9DACB8
BD32DE41
3D12D0E0
3D9E1672
3D7A8238
3D89DA04
3DC608F6
3DC806A0
BD0736B0
BDC0F58F
BCEB9E70
3DBE9B34
3D490E00
BDAAF5DD
3DC68880
BDA91DBA
BD8D15D1
3D2AB1F4
BCED93F8
BC4479B8
BCF9CE34
3B44C840
3DC10942
39C0CF00
3D24DDC8
BC0641B8
3DA913FA
BD851BFD
BD9BD038
BCEB316C
3B646560
3DC4EA00
3C8C2FBC
BD83BFE2
3D378D00
BD89D767
BAF6EF80
3DA7AE44
3C571198
3DA3ED3C
3CFADE98
3E946943
BC9360AD
BE1E8244
3D620798
BDAEBBC1
3D8BFE8F
BCB93030
3D60116A
3BF0E0B0
BD690FA8
3D3702C0
BDCF3C72
3E2C05F9
BD7E0A0F
3EA2BD33
3B8BE64C
BC4CCC44
3D9B9DB2
3D82FC30
3D93A182
BD08E6D3
BDCCEDCD
3BAEADE0
BCC349FB
3E858322
3DC116B4
BD7F5C32
3E90AED4
BDB7DC24
3D796725
BD94FC22
3DA7A323
BE16036D
BDA5E8EC
3DB3BDE4
BDE95872
BD000C46
3D0A868A
3D4CC8BB
3DB1426B
BDB0CB46
BD719A94
BD8A719E
BDB68408
BD14ECCF
3D1DBA28
BD008168
3D9187C0
BD93B428
BD9EECD4
3D4258C4
3D753F54
BCA7B731
BD9CD9E7
BCCDF044
BC98DB23
3D3BA4E6
3D8E8F78
BD96D5B7
3D4A6B78
BD176A74
BD19A20E
BBA98454
3C77D2B6
BE452B8F
BCC6AE21
BE181D6E
BD15D9B1
3D99511C
3D864C9E
3D7073EC
3D945289
BD12ACF2
BD8E57F4
BD124D7E
BDD73DC8
3E893F9E
3D903ED6
3DDDAC61
BD067AEA
3CEEEDB4
BD5886EF
BC416948
3D3AB4BC
BE04FA35
BDB1758F
BD536F8D
3DA7E32B
3CA43E68
BD812F8E
3D0D6CFE
3E8AAFBC
BDAA96BE
BCD6EC2E
BDC220A9
BD0978EF
3C60DDF2
3C349D70
3DB7D365
3D1A80BF
BDA93F0C
BD5820FD
BDCE91DA
BD76C46E
BD9EA38F
3CE2344D
BCBF1318
BC7EAD11
BDF13600
3D31F918
39616A8A
3C2E91E3
BDEBC3E2
BC5BFF98
BDC2806A
3DC0FA4C
3AF89FAD
3DA86B61
BDBDDCD8
BD1AAB46
BD21168D
BDC7124D
BD9FC5C1
BC63E746
3CB3CDAB
BDC9DE6F
BD1CED23
3D5C6729
BC58CB21
3CB73ECB
3D6A986D
BC6AE937
3C475542
3D5A6C90
BD4F7D1B
BD118394
3C09AAF8
3D7B02CF
3CFED1B0
BC9AAF22
3C8775EB
BDC13DD5
BD2350DA
BA87D15A
BDB6DB54
3D587E48
BCE96744
BDC15D45
BB91D74C
3C8E3415
3DB624B4
3D42277F
3D02A339
BDBD2D11
3D5D250F
3D2299C6
3D83CDDF
3C7F7617
BD464BF7
BD3BED9D
BD204712
BCF4BBB8
BD519BAC
BD416FEF
3DC2E272
BDD01F95
3DC9F8DA
BDA46372
BC24A2A0
BD8162D4
BBCDDED0
3DB2F53A
39E19F00
BD199CF4
BCF49230
BD7432D5
BDCB752C
BD3640BC
3D43D844
BD9122B4
3CBD75C0
BC774BB0
3CB90AA4
BDCF0DA9
3DC170CC
BC687B78
BD4AF442
BCB9C160
BD9E8CFA
BDCCB006
3D28156C
3B0484F3
3D6C9F6B
3CBD8DA0
BD866770
3DB15A44
BDA2FAED
BC3AE1D0
3CC49600
BDAAA4DA
3DC50F7C
3DB31D22
BDC6697D
BD329442
3D03F698
BDCB736A
BC8D1ABA
BD9A1C56
3D7DA49C
BDCB98E2
3BB25AB0
3B327B20
3D6E7BA1
3D9DE6B7
3D4AB584
3DC0BC34
3DA13182
3D1674E8
3B957300
BD8D5B4F
BD44B2DA
BD8855F7
3B962910
3DA239C4
BCF06415
BD9789A4
BD3A7BB3
3D49E380
BCB3277C
BDA170BE
BCD93A34
BD00244C
BC4D2D88
BC4D2700
B9419600
3D580910
BB9F3ADC
3DB0E4D8
3D545976
3DC475AA
3BCC5E10
3D3BB760
BDB6696E
3DC64A08
BDBEC356
BD888B8E
3D08E584
3CD812B0
BDBB0578
BC0A8A10
3D0F9870
3D15DDFA
3BCC13B1
BDA5B36C
3D7E5998
BB00C803
3D2BC649
BDC308A0
BD938316
3CAAD01E
BD613E5C
BD59B4F5
BDCC792B
BD30C4B2
3DBEAB08
BDC01855
BCA86428
BD7B923A
BD259C1F
BCE16D28
3BFAFED3
BDB7B2F0
BDD1639D
3D6DD514
BD13CA0E
BBAC8EB0
3D305137
3CF5136D
3DC4DFC8
BDB622D8
B9BA4AD1
BDC61850
BD3BEDD9
BDAD2942
3DB8FB2C
BD84C1CF
BDBAB7C1
BB50D798
BD76147C
BD347367
3E094E77
3C89C601
BDDB56DE
3D9DE202
3C525197
BD9F09B0
3DC820D4
BD93EEB5
3D89048E
3D854147
BCC47902
BD29037B
3D835EE6
3BBD7A7D
3D9DB532
3D005B04
3C63C358
BD37EFCB
BD8F42F5
3D05F482
3DB35992
BD8AC443
BE544961
BD191436
BC83966A
BE504BAF
3DB658B0
BCB6B089
3D9A1FB7
BD7753BB
3DD4A6FD
BDEB9982
BD954396
3CD2EC99
3CB05FC8
3AAD5671
BDCF07D0
3C59F843
BD9A2014
BD8CD118
3D273A44
BDD35D95
3E49C953
3BE68900
3EB997C7
BD736704
3DA3F635
BD96C9D8
3BC2E5E0
3CB43BDC
3AACE594
BD41F4BA
3D8D878E
3D16DBFD
BB17D5FF
BD00E014
BDBB624D
3E749C79
BD1169D9
BBE9E330
3D32BF54
3DD1BD41
BD172BAF
3D8708E9
3D211932
3D7D0E0C
BD3BAEC5
3D26AFB2
3D4DCC85
3DB26403
BDAC2EFE
3B28D9CA
3C2CBA68
BC833CF4
BD27E559
BD7CC6C0
3DB7EEAC
BCD9BA24
3DBD2348
3D9A6142
3C18CCB8
3C135070
BCF93802
BDC87E22
BD08DF22
3D8240F7
BA0AEA35
BC951800
3D6F40DF
3A926956
BCDCBA27
BD21E4C2
BB226860
BD8A1E11
3DA43BE6
3D3BE9F0
3D28F96C
BDCCF416
3DC11FDA
3CD55498
BDB8FD98
3D9B0BD0
BC8D4358
3BAA0700
3DA54E5E
BDC770F6
3D95981E
BD6D2FF2
BC53AE90
BD8A6BEA
3D96A1F0
BDC75B6D
3DA6C7AE
3DB742DC
BD7915CF
BBF86150
BD80C73C
BD64C127
3DCD8CAA
BCAB429C
3D22DAB8
3DC7E1B8
3C9CDA48
3D495A68
3D485898
BD783941
3DA333D6
BDC6B52B
BD4B5F0A
BD2C8D3B
BB6722C0
BD861148
BD85EB06
BDBD9ED4
BD846DC2
BDA25F1A
BD117F26
BAEE2980
3DBA6EE4
BC268FE8
3DA9AD32
3DBDC28A
BDCC19A6
BD274010
BD7C1AE7
3C4D8DC8
3DC883DA
BDB5CAC3
3B77E500
BD5AA374
BC920B94
3CAEF7D4
3D205F78
3D28D890
BD84A85A
BC8C54BC
3D00E55C
3D369BBB
BD3E9C3E
BBAF91FD
BE4514AE
3D145006
3D8E2AB5
3D259526
3D6DAFF3
BDA83502
BD8F954A
BDA94990
3C485A30
BDBED3D2
3E302E20
3D40A7D0
3E86ACF9
BCC96C7B
BDA7F63E
3C3A0040
BDC5A560
3C60EED0
BDED08CD
BDE1B50A
BD7421F1
BD33A0DE
3E1949B6
3D1D4ADC
BD0CD2FE
3E892F86
BD254A0C
BD691B78
BD2578D3
BCC3B0BC
3E331B49
BD090F6E
BE768A55
3C8ED007
3D392EE6
BDD9ACB9
BDB26F9C
3C9537AB
BDBB53C8
3D008147
BCD12068
3D87F4AC
3E80FBEE
3D78F50C
3E86D57D
BD9AAE78
BDF5A24C
BDC2E01C
BB50BE20
3C502EF8
BDAF91D7
BD9BF8E0
3D4890B4
3CFF761C
3D3FF162
3DAB95AA
3D02542A
3EA4BCB5
3C9235F6
BD8B9413
BD858036
BD101D0A
3BA7FD35
3D7836C9
3E606DFB
BD2E1B1D
BD74BEA4
3D3E2496
BCC584D5
3DB8F35D
BD4D36F9
BC7F7A90
3DC159D6
3D9EEDCE
3E05F796
BD88E090
3D152D7D
3C5F0FCB
BDCA8172
3D28BAB0
3C152000
3D579090
3D31E47A
BD65EA92
BDC55CFA
3D11E4A6
BD805154
3C398B48
BCEDD21F
3E1AF116
3D868C42
BDAA4849
BD89571D
BD140FC5
BF08797A
BD867D9A
BD3629A9
3D8F898D
BDA05396
BD045434
BDA0002F
BDA55B4B
3CF0E778
3D333249
BD4674B1
BDB2EC63
BEFE0B7C
3C269E68
3B8EBA80
BC16ED08
BD61FA00
3D7821E8
BD905CE8
3CA72044
BE01BFB5
3D34ACFA
BDCFED54
BC79D3B7
BD189836
BD4E97E8
BD83CCDC
BE5FAFC8
BCB1954C
BD304A9A
3DBA33E3
BD346D31
BE9B998B
BD1FCA43
BE74DB1C
3A356211
3DA061F6
3DB038ED
3D501405
BDB5015F
3CEC61C8
BD2FA151
BCA16C88
3D9063CA
3DB53810
BC025B88
BE0E610A
3D371B26
BCEFCDAF
3ABC9E00
3D401224
3DCF005A
BDB02691
3D9DDD96
3CAD2CF4
BD740734
BDD68168
BD0189C2
BD9CE216
3D6B2BE5
BCFF9A2B
3CBB6C8F
BC3E9497
3CE7F82E
3E92FE58
3D83A8C7
BE3F1317
BD43497F
3BC0D681
BDD79F36
3DAE78F2
3DAE9C0C
BD7FC958
BD4317F8
3DA924DC
BDAE5450
BDCD65F1
BD33C1FB
3D9E563A
BDA369A7
BD320998
BDBBC8C5
BCE07FB8
3D5BBFB4
3E36B3EB
BCB02539
3C4C3568
BC487123
3E740D72
3D563DEC
BCC2E148
3CBB80D2
3CADED70
3D3B8A95
3DB21CFB
3D8C844F
3E950C84
3CD7AD48
BE847E20
BD4F980E
BD6A49B9
BC558927
3D2FBFDB
BD2BD3A8
3DB301D8
3CC7B106
BC80B2A8
3D230CAC
BE93F5DB
BD8458B4
BE2A8DBB
BDE330EA
BCA725AF
BCCBE2E8
3D8C0DF0
BCE072B4
3E40DC69
BDA6725E
BD41C7C2
3D3D46EF
3EF92BD6
3C7F51B0
3D903BF3
BD865830
BD9F87F0
BDB27431
BDA811DA
3D933F94
BD91D588
3CBB6970
3D4A6A94
BBBB2970
BD99FD5A
3D8C2B90
BD3F38DA
3D13C2F0
BCF19E5C
BDC77EEE
3CC5C250
BCD80A10
3DA2AD66
BD638A53
BDC414D9
3C8BF2CC
3D0FDCF8
3D8ECD28
BCA8A9C4
3D49C2E4
3C354098
3D98BD10
BDB5F3EB
BDAB25C8
3BEF23B0
3D20CBE8
3C9C04EC
3DBAA78C
BD155A44
3DC391F0
3D5EBFC4
3DC57D02
BD1917F8
3BEFA3B0
BDC38348
3C930F7C
BC83DB0C
BCB8D378
BDCC1A8A
3D848678
3DBD2C9E
3D94DC58
BDC1BCC9
3D1F6A10
3CB6A454
3DC02976
BBE782D0
3DA91848
BDA0D274
3DBA2684
BDAB8074
3BE654C0
3D832E7A
BD853CB6
BD89C260
BCFB5F50
3CAD23C8
BDBD5721
BDC14BE8
BD43ECF4
3D42CB24
3CBD7ED0
BD2A010E
3DB851CC
BD5F3643
BADE9D00
3D9C4324
3CA91764
BD05E834
3D4B91A8
3D4F3748
3D7FBB48
BD46725E
3D1E72C4
3D2A6074
3D05F1A4
3B7BB860
BBEFB880
3B3F2C00
BD0D1178
3D9C55EC
BD382081
BC1DAB50
3C9B971C
BB283B60
3D9F7B42
BDADF9C9
3D8E00DE
3D9F3A9A
3D507150
3DBDA080
3D4E7968
B9BE4F00
BDAF2B38
3DBF9F06
3C8281E0
BD83F355
BC1F6520
BD8E89EC
BD9463C9
3D06D5C0
BD41B879
3C4B6550
BDC4F81A
3D3EE148
BDCE4A98
3C225330
3CB61704
BD71CAC3
BD17222E
3D7B0A8C
BD2E1D0F
BD4CEAEA
BD810C70
3DB08BB8
3D91F8B0
3B95D500
BDC10DB3
BD622641
3DB4CB6E
BBAA2E30
BD1D1884
3CC05938
3D85DFF2
BD73B02B
BDD01D63
BD2A13BC
3D1B4329
3DAEC4E4
3D4F5432
BCA202E9
3DA837AF
BC260F19
BD17AA49
BD9277C8
3D5320AF
BC91543C
3C83EDFD
BDB55F2D
BDD80B87
BC6C445A
3D716904
BD8823AB
3C61B747
BC0A6C7C
3DB04CA8
BDAE7089
B95A2800
BC1AFF4A
BC6E70E4
BD9020D8
BDAC9B99
3D8918A6
3CF073B8
BCE7CF7B
3D47E164
3D07E639
BD6D4730
3D75FAF8
BD74232E
3E206D5C
BDDCD39F
BD204802
BC8F3E20
BCFEA75B
BD692700
3BC9E18D
BDE2626E
BBB661F0
3CB2468C
3D14BC54
3DA93989
BDB45DDD
3CACE970
BDAFA9AB
BDCF88F9
3D5A7BCA
BDC3335A
BDA75895
BD1392C4
BD0F9D82
BBC7D86B
3DAFE7C0
BBED9889
3E1C137E
BBF6F350
BD71D31F
3D1949EF
3BB5A1EA
3D1B188C
3D9D1516
BC8BC944
3C60EC62
3AD877F6
BDCD66B4
3D9B3F25
BDDE8734
BC6961D1
3D03EC63
3D4C3E03
3C89718C
3D7CBD03
3B9CDC80
BD87BEAA
3DC2C246
BD1FE2B8
3DCA2C45
3DA993FF
BD52925C
3D7B1544
BCB190DC
3DC3831A
BD986A1D
3D0CA8BC
3CA23858
3D0F139C
3D4B1DA0
3D92B5F0
BD898214
3D27C2B2
BDA91619
3D6DE74F
3D3C7E43
3DC71699
3D91F00D
3D795610
3D84A03D
BDEF855E
3D593ADB
3D2D52FE
3C742D9F
3CBF005D
BDC1CACE
BDD6B653
BDB98E82
BCDDF557
3D3210B0
BC524060
3DD4249C
BD0B8210
3C7FA45F
BD9096A3
3D53A294
3C74BFE8
3D191135
3D9F1D1A
3DCF2376
BDDF94AB
BD0934CF
3D364A88
BC613319
BDA426A4
BD6F957D
3D95A56E
BD2D4BD4
3DC1C1AA
3DB988AA
3DAE9D16
BD4D36C5
3CB7F760
BDD09BCA
BBAC1BD0
3D3D3464
BD2349B1
BC54AB78
BC2A7DB8
3DAAAA66
3D9FFF60
BD8CBD06
BDAC776E
BD4F7FF8
BC4B8BB0
3C2B90E0
3B6C0800
BC665E08
3C3F97C8
3CA39628
3D3C0CF8
BC1394A0
3C98A480
3D6FD737
BC7F1C80
3D92AF44
BD823058
BD8148EE
BD9EE3C5
3C02FB48
3DAB5214
BD710ED7
BDB32554
BD141AA2
BD4BC2D4
BD29F21A
3D02BAEC
3D1DBF54
BCB0F370
3DB17642
3CCD23B0
3AF72640
BC6C3950
BD83DC20
3BE52BC0
BDB279AF
BD8A622E
BDBD6895
BD823FBB
3CAF4E60
3D3F6B50
3D8A21AE
BDC3F3A3
3D051A08
BDC53070
BD742EFB
BD872770
3CFC27E0
3CA3FB5C
BD00380E
3D87FF8E
BC8484E0
3B8D3320
3DC54BBE
BBC50330
3D3C7CD4
3D888F08
BDA13FB5
BD47807A
BD909B00
BD9C399C
3D4C28C4
3CB04164
3D0C161C
3D12335C
BA308600
3D8DD464
BD8CE018
3D400FBC
BD0BB810
3DAE08B0
BD548C0C
BC1E15F8
BB66CEA0
BC8521F4
BD75BE60
3D15BE30
BC898574
BDB31744
3DCD4796
3D80E8E2
3D80FF42
BD64EFDF
3CAB04A8
3D291D64
3E81A391
3CB402C8
BE84FCF8
BD9E6F19
BDC6E957
3D6F744A
3CC17FF4
3D2C1A25
3D75C8E8
BD97EE1C
3D8F1A60
BC9C6D19
3E4844EB
3D1CDF5C
3EEA7145
3D28352E
BDC25CD2
BCB358FC
3C03A758
BCDF7358
3D74D9F0
BC287625
3C1687C8
3C58CBF5
3D849070
BD602D05
BDB4C27D
3E219196
3C131663
3DC5F4B8
BD15B6E2
3C04AF06
3D2724F3
BD0B75E4
BD8F0F26
BD80E012
BD8B631A
3D9B1E1A
BDA7E779
BD308A4F
3D85CB54
BDD4A2E3
3D34C7E4
3DAF892E
BC678AC9
BD5B166E
3D2E8298
BCC4D8F5
BC4F946E
3D92CCEE
3CFC7FE8
BD9A4DCD
BCD9B612
BDCF2B3C
BD88DE20
BDC11AF3
BDC16E3E
BD7DDF1D
BD07C44B
3B49B09D
BD92929D
BD6CFAB4
3DB2E7AB
3DCBDF20
3DFCA503
3D65F405
BE45538C
B9A85E48
BD8E4810
BDCA0F81
BD4E8DD1
3D9FFB34
BBB1A670
BC33911E
BDC1E24E
3D8136D6
3D989457
BCB709A0
3CC8D1C0
3C055811
3BCC78B8
3DABB946
BDC8B0F7
3CF89CC0
BD14818F
BD49641D
BD960017
BDAC2090
3D8589AB
3DB9B494
3D3589F8
3E40B385
3D21374D
BD144AEF
BDC97126
BDC1296E
3D4A674D
BD1FE413
BD9E4060
BB1955EB
BD44442A
BB9A736D
BD1CADCF
3D9983E0
3D33FE0C
3D88C393
BDA67B15
3D17A681
BBE1BC70
BCB57D5C
3DD90703
BD4274A8
BC9271A5
BCE67FCC
BA30EB00
3DC14534
3D87DB70
BD97E268
3DC75CE8
BDCAB85A
3D1570AB
BD885DDC
3C8CD0D1
BDAE270E
3BBD6521
BDA54330
BC5C6912
3D3015DA
3C8B99EE
BCDA2A69
3D5F8972
BD16E4C9
3D8FD654
3CE12956
3CC7AAA4
3D520CF1
3D013024
3DB88E65
B9C0E900
BD33A131
3C458746
BDCB456F
3E07A366
BD055E05
BD078CF5
BDC7AEEA
BD9CCF0B
3DA8BAC4
3DB06024
3D5F6E65
3D99D2A2
BCAC02AF
BDB7912E
3DC21D26
BD8BF6CD
3B0A5368
BD7E815C
BDB39B4A
BCC59ED4
BA87DB80
3CAE3344
BDC1E601
3C63ABF8
BD569B8E
3C6028B8
BDAE5DFF
BDC19B8A
3D5EE270
BD4C412F
3CE0DF70
3C191928
BD811C58
BD559B3A
BD10932E
BCD7BDC4
BDC337B7
3CBF7140
3CAFDC8C
3CE8CEB0
BDB0ADBA
3CFBC7D0
BD43B231
3D206118
BD99986C
BC9E34FC
BC7623B0
BD4FF56B
3D8FC800
BD9F1F97
BC27CF90
3DB5E7A8
BD3CC4AA
BD5BAC02
3CDBFFC8
3CF29E2D
BAD9A740
3CE58890
3DC55EE0
BBDC6560
BDAEC81A
BC3F4EE8
3C7B4F20
BC67FCD0
BC0BCBF8
BBFDB1D7
3D79D35C
3CDDF8A3
BD37204D
3C48CA40
3D5AB854
BD8F5695
3D85F282
3D27FE44
BD9EF522
BD551270
3DC0738C
3D43BC6D
BD48B61B
3D8C2FF0
BC2C7C28
3BCF86C0
BCD7B568
3D239FB4
3D0D4112
BD82827A
3DB04C94
BDAA633C
3D2F1048
3C230EB0
3C8B45D1
BCF83150
BC2E8914
3D867036
BDA8D1EB
3C920A78
BD171912
BD3B2522
BD310FBC
3A0BCC37
3D0EF770
BD4DEF3F
3D20D650
3D5EF58C
3DA24088
3BAC2BBB
3DAC8323
BDB207C8
BD9265E0
BDC7CD9D
BD525982
3C4E2558
BD1075AB
3D2AE9EE
BC41B390
BB9684F0
3D8BC93F
3D795208
BDC676A1
BD86B39B
3D18EBE7
BCE26F29
3D5FABE4
BDAE564C
BC45EE0C
3BB1A360
BDAF6570
3D905BFE
BD1DB1F6
BE0CB1CF
3D96E6C4
3DAB3B9A
3DA77760
BD8BE9EA
BD0EFA24
BDCBA0E5
BD72FD89
BDAB0248
3D94A24B
3CEC5700
3B1D0540
BD7FE2E6
BC618F58
BD4808B0
BD5FD93C
BD61A36C
3DB90F8B
BDB4CB23
3D9ADA4C
BDFCF920
BDB01AED
3E04841F
BD529488
BDD08ABF
3D46F80C
3C214A08
3D269191
3D23E2C8
BC30B781
BDAD4301
3D937A66
3CE9CC13
3D0A67E0
3E9878A5
BD57DF36
BC090C7E
3CAA00C0
BDBBEF73
BD4D2D19
BD242054
3D22B56D
3CC03148
3DBCD610
BE48B4E3
BD85378C
3CFCC70A
BCB367F9
3CDFC223
3DB83C4D
3CB37651
BD6428E6
3D5CF597
BD4741A1
BE179456
3C264427
BB054595
3D9D161A
BDDE2139
BD30D570
BD28FB6B
3D71E5B4
BCF8D020
BBAA3F35
3D249057
BD09970E
3E788099
3D7FAA09
BD2E5820
BD4E505C
BD2F7170
3D8217DA
3D9326D2
BDDFA308
BD9C111E
BDAF4FEB
BE30A72E
3DC1B378
3C691672
3DC872CC
BBD56C7E
3D0C94C0
BD3772F2
3DC4E985
BDDBDE3A
3DAE8FBE
3D82A572
3DBD372C
3D4D18C8
3D6A68D8
3D74C0AD
BD0772AF
BDACEB0A
3D266A82
BD9A2816
BDC6CC2F
BDCAF387
BD854328
BD931C98
3C2CB770
3DA5CF66
3AA4CC80
BDAD0324
BD6518D9
BD4DEB64
BD886A2C
BC8723BC
3D69EE0E
BD874D81
3D3B68E0
3D9F0852
BDC0A703
BD7F2FC2
3D45B468
3C3EB598
3D8A9E86
BBC0B420
3D93C00E
BD1EE230
3D309570
3CB96648
BC54B2B8
3D6EC6F0
3CE5A2E0
BD3A39A1
3D233A00
3D3C93F4
BD744AD8
BDCEBF22
BD96368E
BDC4B78C
3D8DF474
3D30E4F0
BD1DF3D2
BBB9D3C0
BD53F364
3D9071A6
BB3771A0
3C340CE0
BD704F93
3D987C82
3D5FE63C
3C38E158
3D04E360
3CDA64E8
3C715938
BD811550
BDA1DD68
BB2B2200
BCE7028C
BC383618
BD9ADDBC
3D44E9F0
BDB57811
3D2C6400
3D410188
3DA023D6
3D566CE4
BD87D71A
3DBA9B62
BCD7BC8C
3DB6B6F6
3C44F500
BD31DA6E
BDC42E32
BDAF4CFD
3CC075D0
3D7C4FB8
3D7AAEB8
BCF04798
BDB546F3
3DA4C2E6
3DA1FA8C
BD193260
BC650350
3DA7D1F2
BCEAA224
3D9098C2
BD107A60
BDA989BD
3DEDDEBF
3D8354DE
BE913CA3
BD44A333
BD10C007
3D73DD5D
BD6B9F49
3DBA392B
BCD9A198
BDD77D0E
3D803FE4
BD50F344
3D77CB64
BDC3E04C
3E2E5E64
BCE3A2D0
BCCFFFF6
3D55FB84
BDC43660
BD0B1722
BDF833E0
3D92C72B
BDCBF39A
BCAC5D0D
BD5DCBE0
3DB1965E
3D7B73E0
3DBBFF0B
3D49DF2F
BDBC2A0B
BD40BD65
BD879C07
BEE9FA5D
BC73DB7D
BEC81F83
3ACE5A59
3D1AA251
3B31807F
BD58497E
3CA6DEBC
BD8C5398
BCD04D23
BC7D98C8
3D9B6761
BC4D6410
BCDDAD1C
BDA2F782
3DA7FEFE
BCD59AFA
3DC45C08
BC27BB40
BD9C30E6
3C9FDC38
BDD6DFCC
BD3EA05F
BDE2277E
BD3FE94C
BA024680
BD87C29E
3E770319
BCB55DCB
3DC4201C
3D880698
BCB74BBC
BDDFB013
3D889D4B
3DC3A623
3CE26904
3D4C330C
BD80A9E5
3D332BF0
3D33333B
BD4F6977
BD208D0F
BDD02D86
3D907BA8
BDC0B767
3D91CB42
3E38686C
BDCAEA13
BD840504
3DC47284
BCF90F68
BC335AA8
BD625086
BD0B9061
BD6DCDF6
3C9B7593
3E647FE9
3DC3E1DE
BCD1F0C9
3DC19F52
BD205065
BD130AFE
BDCD8AF0
3D36E2A3
3ECCDCF9
BD9B20A3
BE9088C7
3CAEE64E
BD0B3E71
BD99F04C
BCAABB31
BC442B0D
BD81A7CC
3C50F4DD
3CBDBF20
3DCFEC66
3D4ADBDA
BD58AE1A
3E13EB30
BDD112D1
BDA7A54D
3D9EA120
BD230D04
3D0DFA58
BE4505F4
BD156BC9
3D503808
BDE4D6BC
3EA1BC2E
BD9CB40C
3D84AAD4
3EC00A80
BD998C33
3D164FCF
3CDCE1BE
BC04327A
BE24F352
3D49392E
3D9B1229
BDB2F396
BD1DB465
BD2E2AC6
3D508E94
3D15C98C
3DAB7B38
BD2CC79B
3DBC429E
3C5C5521
3C7CD833
3CA17154
BE6FE642
3D850C0A
BD134D01
BD9A9852
BC4767C8
BD815310
3D1C86A7
3CEDC7DF
BDC1DA90
BD00266E
BE31C96B
3D9FE134
3DA47080
3DED4F06
3D57E5A3
BC3C318B
BD877E86
3DC04080
BD73D901
3D968C2F
3E456B66
BDE14867
3C3751E2
3D24B924
BDD87F2D
3D2F80DE
3D82018A
BD8696A6
BD9F3B56
BD94AB8E
3ECEA296
3D38C51C
BDF3F66E
BDB0A145
BD15B49C
BDBD6836
3D969F2E
BDC74A1D
BDCA75B6
3DAA5BA9
3DA66DD4
3D8B18A4
BE6E80F5
3DB6F306
3A82DF0C
BCE1DD78
3B9502E4
BB88FCD3
BD0A69E8
BDBF2223
BE7B1276
BD4A6EE2
3EC3FED1
BC43EB44
3C25B26D
3D997A14
3D021004
BD228B54
3C80082C
BDBC7334
3DA9226E
BD952AC8
3E911CBE
BDBA3255
3E2B6C30
3CE7CF21
BCC78755
BD39879C
39B87000
BD8ABCB6
3A4FAE3E
BC0B60AC
3C86BE14
BDA4D824
3E2129EA
BDCB0472
BC8D5053
3DB87298
BC98E0B6
3D0B886F
BCF78C89
3DB9A284
3D00EC0C
3DBB52C2
BD9FA1AE
BD3B21A4
BBB5E220
BA8FA140
BBCA8890
3D66B958
BC09ED00
BD51B11B
BD93A850
3B677CE0
BC982F8C
3D87D600
3D912256
3D0F17F0
BD281DEB
BDC1396E
3DAE0164
3D9B5B04
BCC01A9C
BD9E2B03
BD5025C5
BD3982DD
3D8DCABC
3C927050
3D82B9B8
BDA2D0B2
3CA49E74
BC363400
3CBBC890
3A71D980
3CA79014
3A26FB00
BDA392BE
3DAEA8A4
3BCB9E30
BCBC582C
BAC0B980
3D308464
BD8CF1AA
3D7F925C
3DBBF872
3D59F364
3D6E02AC
3C8D7114
3C71D3C8
3D9A5BC6
3DA2E652
3DA9BCA2
3DABE7D0
BC993D08
3DC7C296
3C13D140
3D910F54
3D1EAB14
BDBD7C96
BD8237A8
3D2CA32C
BD2702FA
3DABDD44
BD125948
3C4224F8
BDB181D3
3D82E768
BD67A74C
3DC3185C
BD8713E5
3DC2F550
BD95EF78
BD05950C
3DB6E236
3CFAD658
BD5D0A40
BD2E0ABD
BD812A57
BDB67C6A
3DCD3EE2
3D9F57EE
BD94F380
BCE58978
BD0F2880
BD6C1A5C
3D891F70
BDB168DF
BC821808
BBCDC930
BAA8CEC0
BCE3BD7C
BD964AA6
BDCF126E
3DC32016
BD3B778E
BDCC7624
3D789388
BDAAEF2A
BC648700
BDC68B1B
3C6D41C0
BDAD42EE
BD77B03C
3D9AAB16
3C7DDDC0
3DCE8506
BD401EBF
BD105E56
3D945576
BDBD6159
3CC8E368
BD1DFF8E
3DC81B3E
BDB633D6
BD63F2FD
3AA4CC80
BDAC91AF
BDA49CBE
3D5B7AB4
3C681620
BDAF2E34
3C3F1278
BB3F4280
BD0A400A
3CC04F08
BD23DBDF
3DC502D8
BD29354A
3C304E50
BDCF333A
BD7A9EF0
BCBB2C68
BDAD9F2F
3C65B289
BD8A7E4A
BD09301D
BC8453D4
BCD31693
3BA449F0
3D7979C3
3D560F78
BD85ED6C
3E009559
3DC4D866
BC7716D1
3D8FB8A7
BDE7AD1E
3DCF7EC8
3D7F2864
BD5A0CEA
BD361A40
BD8034E5
3C45AAB0
BCDE4BF0
3BE4484A
BDCFB9ED
3DB39DA2
BCACC4B0
BD31B9C6
3CACFE38
BDDC4F31
BB93D504
3C9D82BF
BD8C71FE
3D405FB0
BC21DFC6
BD81D725
BB8DA03F
3DA21E58
3D248A5E
3CA24F84
3DBE6919
BD6183A5
BD083B8E
3E4BD8DA
BDC8BCBE
BD13BBD1
BDA61BA6
BDAB61A8
3CF94FE8
3DB63AC0
BD82B5CA
3D4DEBE8
BC982908
3D5129A4
BD5EC73F
BE391C8E
BD89EBD4
B898B608
BC3526B5
3D9C82EE
3C8867EC
3D1B369D
3D829D18
3D7C96CA
BCF61B5E
3D9A77C2
3D268A05
3CF165C5
3D20C8C7
BDB4A550
BDE3C73B
3DCB51B4
3B60875F
3DB78816
BDBFB319
BD18E353
3D473898
3D8440D3
BC7D5707
BDE1A6FA
BDC738DA
3D96C350
3CBEEAB8
3CEB8271
3D0A0656
BD171602
3D37FCD9
BDDB0AF1
3D8E89FA
BDABD0FA
BE078C62
3D9CC59C
BD9AF0F2
BD9F699D
3C6263EB
3D94C35D
3D624218
BDD9FD25
BC8ECE7F
BD18A162
BADEB521
BD16A0DE
BDA67068
3DC4422C
BC493283
BD797410
BD3D7641
3D85D0C2
BD9C2DC9
BD4CB024
3D1B6C51
BBEF015B
BD9B9864
3D100D88
BDC460F6
BD3F70E1
BDC2FFE6
BAC9D580
BDC871E1
BC40CA7D
BB675B80
3C01ACF6
BBE971EB
3B9167D9
BD1585DB
3D0F5957
3D02F730
3D363028
BD8C9021
3DAE0AF8
BD8A8318
3D2EB65C
BCA3E550
3D35F388
BB8253B0
3CA55994
BD151EF2
BD0BA52E
BD1381BE
3D4040C0
BD756ED8
BD0ADE08
3C832504
BD16DD3C
3D0A6678
BD49DF15
BDB4B6A6
BD9AC638
3B904120
BD755FB6
3D987CBA
BB944240
BD5E0757
3D8F8E4E
3D9C6B10
3D73DAE0
BD6CA108
3D797FA0
BD81B4DA
3D2191FC
BD1324DE
BD0B7880
BD1D685A
BDBFD3B1
3D62B0C8
3DA9F10E
BDA06CBC
BD59E7F8
3DAF23A8
3C8B4C98
3DCB52C0
BCAEE930
BCD2BFF4
BD9398FD
BD3E3745
3CE95170
BCFBEEEC
3DA3958C
BD77E1C2
3D2B6580
BD065470
BD99F43A
BD8AF1F6
BD1FEC98
3C9C40BC
3D0E1F60
BCFEC2B0
3C818A94
BD8D9728
BD9BA822
3D958EF2
BD9EB97A
3D9460EE
3D1EC35C
3DAF2850
BCA9A62C
BD8A6EC2
3D82B364
BC87B1C0
BD054DB4
BDA7C9C8
BD2EA8BB
BDBE2228
BB0B95A0
3DA109AE
BCCD8408
3DAC901A
BBF256D0
BDA0DAA4
3D9AA9D8
3D0D5974
BBE7D480
BCB8D2C0
3D56CA2C
BCEA6448
BDBD1169
3DB4EDFE
3DA3CDFE
BC10C810
BDB35AC5
BCE793E0
BDB9CE1C
3D3667DC
3DD2C36B
BD95C5E7
3E909331
3DA4411D
BC895007
BC7B509D
3D920456
3D55EB00
BCA15464
BDCA46EE
3D7FBC54
3D452010
3DE657B5
BDA68CE8
BE79495B
3D19DF4A
3D1E47C9
BDC5FEBB
BCED18AC
3D6BCC20
3D5D0027
3D9BE477
BC1C83F0
3D80145F
BE8F4D33
BD8754D8
BDA8E224
BDDAB488
BDB2BD1D
BD374A44
3D14F29F
3CD69EBB
3DF53C7C
BD5D64CC
BCFBDCF5
3D924EA1
3DB0EE7E
BDC88BDF
BDC30459
3D562119
3DB3A116
3D829A6C
BDC12716
3DC50348
3E0966CC
3C7A5258
BD8E67A1
BD435B4E
BDDA7A42
3CF181C8
BCF66624
3DC0B8E6
3D9FE9DA
BDD16993
BCF61EA4
3D9AA6DD
BD418529
BDB62AAD
BDC6603D
BD97F5E8
3C6D5F07
BD7CB2A9
BDB17C45
BD57720A
3CA66B29
BDE1AAA9
BDCDCDA6
3D12F20C
BC344D53
BDCE75DC
BD96B4D7
3C8468F0
3D294A58
BD9E482D
BDBF0F6A
BD306577
BD7462A5
3DC105EA
BE99B966
BD14D085
3D50E5EE
3DB1048E
BDA346A8
3CB6AF58
3DDBD64F
3D81BCD1
3BFE93C0
BA42E0EA
BE06C023
BD05555C
3D8BB057
3D8A4D13
BDD1A81E
3D75313B
3CF217C9
3CB5AAF7
3D9FD8DA
BD57B59F
3D36E1C3
3D0EF1E0
3D187B86
BDC35C74
3C587BC8
BD9F97A2
3D7BC820
BD5093A6
3D015E0C
BBAC58FA
3DA5F666
3C9399BC
BC428AE3
3DA87FB8
BCBB1DD0
BD857AC1
BB735700
BCF19870
BD2CFA4E
3D510ECC
BD9DC96A
3D59681C
BDD2073D
BD14E638
3D87990E
BD83399D
BD1AA85A
BDA7BEDC
3C58D340
BDA89E22
3D9CD01E
BDA74DED
3DEC42C8
3D4D54D6
3D00526E
BD7D5E0F
BD17ED74
3D8EC7A6
3D425EFC
BDC84D71
3D0A8DF8
BCC6826D
BC44A5C4
BDA45EEB
3C219DB8
BD98DB5B
BB981A9D
BCD03A68
BDC85801
3D49975C
BDA5FD0E
3D44C9EC
BD570E6D
BDCA60FA
3D726850
BDC20D60
3DA65853
3CA21DD5
3D6764EA
3D2B3D8D
BC73BA8F
BDD04E50
BD8BEE1E
3D38BCC4
BDC523BF
3D4744B8
BD260E42
BD661244
BD82DC7C
BB98AA70
BB2372A0
BDD00196
3D280FFC
BCBD5A2C
BD52E759
B9113600
BD363BC9
3D9A9504
3BB85A80
3DAC53BC
3CA33018
3DB2C4A6
BDC76762
BD2CB3BC
BD04312E
3D68ABFC
BD5BAD1F
3CB502BC
BCFA6734
BBEFAB70
38D0F800
3D08A114
BD869702
3D77624A
3DA54272
BD9EDB7A
BD2D6544
3D2935E8
3CF09360
BDCEF704
3CCA32A8
BDC735CE
3D057EE0
BC842B78
3D54F428
3DA16618
BD7A8585
BC472CB0
BDC40058
3C8F8814
BCAA74D8
BDCE3A05
BD772285
3D23DF30
3CA1C210
3D8ED866
3CD7F9E0
BD2C1D32
3DA2B17F
3DB72714
BD1FD540
3D440137
BD915E11
BD9CD222
3DA13306
3DBB5CA6
3AC8B451
3D48A7CC
BDC0A3AE
3DA860D9
3D863744
BD3C2029
3D94E608
3D19502D
3DB2C716
BD2E253A
BD9EFBB0
BD77AAA5
BD01C2EB
BCB685E8
3C04F378
BC203128
3DB1BCBE
3D6DCAC0
3D15C038
3D2D2464
3DBDF397
BD1BD274
BDBD64C5
BD89F0F8
BDC4EB0A
3CAD0CB4
BDC43D36
BDADE698
BD950BDD
3D608214
3D7C15D8
BCDC3050
3E01451C
BCA791F4
BE175D55
BD1CA470
BDB2D646
3C56BE9D
BD88FD47
3DAEE9DE
BD59A256
3D0AD6C6
BD28FAC2
BDBB214E
BC82ED3B
BC94C9F8
BDD24F61
BD6E309C
BACA653E
BCF384B0
3CB7DA64
3C9628C4
BCA18FE3
3D14217D
3D3C7E8C
3D276A20
BDCA8339
3DCBCD5E
BDCC02B3
BC97AA58
BDDC3A2A
3D835B75
BD22DFD2
3D7BE05E
3E8050ED
BDF5E557
BE71C094
3DA241B5
3DB4274C
BDC838A4
BD45BF76
BD3D43E1
BD16049C
3C882B45
BD6D77D9
BCE97C8E
BE0B5E75
BD2CDADA
BD737E32
BD84D701
3D729D9D
3CA83860
3BB77370
BDC8E1B6
BDAF2AD4
BDB1369E
3CE5E468
BA422C68
3ECE2BE5
BDB37BB2
3D14B520
3E1B0017
3D48ADEB
3DC614DB
BDBC7647
3DB8169D
3DA286B1
BDDFE910
3E160084
3D746329
BDB152E2
BC987C77
BDBA109A
3DACCDBD
3D945964
3D85D834
BC26F818
3DAC0754
3E964BA2
3D33C580
BE24B611
BD8FA5C3
BDD81BEF
3D6C422C
3CE41418
3D1AFFEC
3D5B97E4
BDC245BC
BDBCC7E6
BDC74D98
BE6A1FC8
3D166294
BDB2DEF7
BD2DC16B
3DAB0043
BD95B71E
3D12FF27
BD3AED23
BC65126E
3CCB909B
3D0D67B7
BD8012B4
BD2AD2CB
BDB11E6D
BCB84D45
3DC230E1
3DC62836
3D5F8596
3D863744
3D3AA3B4
3D02F7D1
3D50B7E4
3DB89AED
BDC886CA
3DC0B440
BDAA9BB8
BC7C1880
3DBACA1A
3DA309BD
3D192C67
3D22EF4C
BD5B1FE6
3D46D62A
BD4B314A
BD255332
3D884D7D
BDCAAFE7
BDC9F9C9
BDAD4F7B
3CD3FEE8
3D91BF6F
3D9DD6DC
3BD2DBA0
3D6896F0
BDC2C9A8
3C9A26A8
3DCA3380
3D18F834
BD185E72
BD490204
3D4EFCE0
BD06769A
3C85C24F
3DA005C0
3D967570
3DCC6F34
3D18CF20
BD1AF02E
BDCFA2CF
BB964230
3D086D90
3DB1DD50
BD4EA6E8
BBAF06B0
BC0CF8D8
BBFB2A50
3DB31B3C
3D8116EC
BC9CBE6C
3D92450E
BC2850F8
3D9C7AB6
3C244420
3D947B42
3CF0B488
BDA595FE
BD107166
3D873164
BDCB401A
3D063F48
3CE796C8
3D5CF864
BCAF90E0
BD963768
3DCC2F9E
3DC9CC84
3DBD16DE
3DCB78BE
3CCEA6F8
BD024980
3D5F7194
3D403224
3D9AE454
BD3651E8
3D0034BC
BD4F613F
BD8C61DB
3D93F6B4
BD70603D
BD58B2E6
3C4FA8C8
BDC88491
3AD90400
3CDBA72F
3DC3A047
BDF0DFE0
3D324E32
BDB7C46C
BD861566
3B9FB27F
3D9F0573
BD31AB0B
3DCD5032
3CE5BD4C
BDAA72B0
BDCDB8E6
3D330F98
3D45B2E0
BE82CA64
BC80EA6A
BD954FA4
3C7449B8
BC126878
BBEEDC10
3DC9CEB9
3D38702D
3D9C41FC
BD650414
BDEDCB74
3D423184
BCD35CF5
BD94E0A1
BDC0E995
3CFAC826
BD49CD3D
3D39777F
3E09148F
3D897F4D
BE626718
3BA0604A
3D84BE70
3D4E1E4C
BBCA680E
BDB88B0E
3DAC981A
BA0253B1
BDB25D6D
BDACF8F0
3E9A3DE8
BC5543F8
3DF41979
3D5F6967
BD2A8038
3CD90A30
BC97C50C
3DBA318E
3C44B09B
3D94A73D
3CA3F830
BDA706C9
BE4E7958
BD52488A
BD80ABFB
3EB8E7D1
BCCBC6D5
3DA07DA5
3D4E6C81
BDC5A671
BCE3CA2A
3D6051B4
3DFD21A6
3D9FF0E9
BCFD1657
BCD41651
3D249EC1
BD9F221A
3DC0550E
3CCB0D5F
3D76C0E0
3DC23B07
3CD0114F
3D83B128
3BF1A984
BD99D16A
BCDE9179
BD49605F
BCA8D39C
BDCF4F73
BD8AA0C4
3D6FC070
BD386B09
3C78CAF9
3F001FEB
3CC59BF0
3D8460DC
3E55F47A
BCE15FD4
3CC4522F
3D43BCDA
BD6A815D
3EBDCF57
3D975A33
BEE54FAA
3D973CFF
3C880F8C
BC2198DB
3D136BAA
3DA9896E
3D7AC908
BD834359
3DB0EFEE
BDA7AAE2
3ED0D9F9
3D8274D4
3EC3CAC3
BB8B6B41
3D981B41
BCEE80D8
BD9AB48A
3DBDA732
BE4172EF
3DA47F03
3D0262F0
3BB2C918
BD899E77
BBEB3A10
3C25DDBE
BD9DA95B
3DB16B6C
3DAC51F3
3D4235AF
3D3F31B1
3E0B7E76
BD6FB4F0
BE1BECC9
BDE09556
BCD6AC12
3D994C08
BD8B4C8B
3D6991E4
3CC265A0
BDA271AF
3D9677EA
3CAA4E10
BD90CF9E
3D5B3780
3E0466CC
3D225389
3D1BA180
BD1B996C
3D0B6DA4
BDB9432A
BCD31187
3C51ABEA
3CEB44A0
BDAE145F
BE32E6E1
3D412650
3CC276F2
BC62A8F8
BD43E652
3CD62E2E
BDDE7D21
3DC79243
3E356669
BDD7650B
BDEC324D
3D13DC80
3D9395F7
3A36D4FD
3CC2A198
3D8B1C03
BC648A10
3D86C072
3DC6B2F0
3D870B86
BE1AF237
3CCAF798
3E1B9318
BD653955
3C85D08E
3D90E604
BD8B0B6D
BDB3CDE5
3DDF0C51
3D9BE2D4
3D12FE98
BD344E77
3E8D3216
3CF465C8
3D4AAB43
3D944492
3D92AB88
3DBE857E
BCF31BA3
BDB694B2
3E702CA0
BD4BC9C5
BE4FDA9E
BD1CBA9D
3D7F0362
BC36D397
BDBFA82D
BDB2EBD7
BDCDB815
BCD52B9A
BD354A4E
BC63C397
BE09BFE3
BD8903EE
3EC6949A
3D5C5572
BD8F331A
BC864E90
BD64EFEC
3D72FFF0
3D505746
3D57F8E0
3D12B3BC
3D8F48DC
3F2A1D79
3D717938
BD77AA9D
3EF0E9A7
3CD288BC
3D4F5B5A
BD8315CA
3D9E244A
BD4590C3
BDC68989
BCE9FE7C
BDC56636
3CF5F970
3D646E60
3DAD485C
BD0A3CC0
BCAA47F0
3C8DC728
3CCADD10
BC8966E0
BC703330
BBE1DB00
BD3D9F5A
BD3DD615
3DA90460
BD45F8A2
BDB01801
BD0BC0F8
BDCEB01E
BDBD6942
BDBDEFA9
BCA2FD88
3DB3A7C6
3D5D26A0
3AE2F440
BD3E90BA
3C9391E0
3D4032D4
BD35C466
BD85B13A
3DAC1C88
3D533A6C
BDB26C0C
BC626D70
BD6F66CC
BD83954F
BD729E01
BCFBAD98
3D81099A
3DC48CF2
3D554098
BDB02E96
3CA5BD40
BCDD65B8
3C82B040
3D87BC66
3B89AB10
BD762041
3D9916E4
BB3FE9E0
BD21FBBE
BDB522BE
BD5347BF
3AB2A340
BD1EA6F8
BD24006F
3C730E90
BD8B73E6
3C8A515C
BD1C1C24
BC969E64
3DCAF5F8
3D6899E8
BD1640DA
3D58BB38
BD2FDCE2
3D26CF5C
3DBF030C
BB989A50
BD428825
3C4196C8
BDAE8AC4
3D6226CC
BC175760
BB1021E0
3D38A8A0
3D2B5BB4
BD96E90C
3D362550
BD6C0ED4
BD3BAAA3
3AA03CC0
3AF37340
BD54FB66
3D6A3A00
3D5E6A38
BDC08C83
3DA5ECD6
BDB1AA7F
BD40455A
BB07DC40
BDAF9C37
BB337360
BCE0035C
3DBFD5D8
3BC01930
3D9B5028
BD2871B0
BD4C5762
3D6660AC
3D9A69F8
3D197688
3DC5CCCC
BDC50051
BD779720
BD95BB7B
3D6F4828
BD1F47DE
BCD2F704
BC5AE6E8
BC985740
3D1BC058
3DA58660
BD0E4E38
3DB87DC2
3CB32754
3DB70466
BD995346
BD807714
3B9BD6D0
3D0A47D8
BD916447
3CE88500
B8D36C00
3D464844
3D5AA3B3
BD90AD12
BCB7DFBF
BD93CC6B
BDD51FE2
BDE87C66
BD532B3B
3B9751FD
3C76C43D
3DD03BFA
3BFBDEF7
3CE31EF8
3CDA553F
3C3A5A4E
BD587DB3
BDB990C9
BB868AFD
3D32B9D1
BDBE2A73
3D65311C
BD9E8AE0
3D624F7A
BDE49B74
BD5D46F4
3D1273CE
3E46BBF5
BDBFC6B7
BB719179
3C1828B9
BCC90A62
BD9AFB02
BD8DCEEF
3D17AD77
3B0C4C3C
BDF0EB30
3BD17BA2
BDB6A10D
3C823B50
3D38261A
BC8CF972
3D99FAFD
BD8884DA
BD9EBA70
3BC6DB90
BD98FB60
3C3EE1DF
BC9EA648
3D577D9A
BDDE0106
3D681605
3BDE8C10
BDCEAFD7
3D52DD38
3CA967AA
BDCEFFF4
3DBC88EE
3D1BA069
BB4FEEB3
3CFC5C98
BD8E8C31
3D80C364
BDD76A60
BDCC0CE6
BB7AF839
3D856B05
BD10FD2F
3DA2EAA6
3D97FEA0
BDCAEE42
3D84ABC2
BD036B71
BCC32A0A
3D3AF2D9
BD685049
3BA17F59
BDA498B0
BCFF53A6
3C57468E
BD5CE752
BD71F3C3
BDAF1DBE
3C88B920
3D88F2BC
BC21D2C8
BDC5F8E0
3DA91ED9
3BB76A5B
3C5D50D0
BBA9D1B9
BDF49CE8
3D8C65BC
BC5FEB2C
BDBC6C8E
BD4EF401
BD488177
3D547CC5
BC94A058
BDD9F185
3D542EB7
3D2AE118
3C3624E0
3D8C4CBA
3DAAF444
BDD55442
BD8916AC
BDBB3904
3D95FDF3
BDA5762C
3D04925C
3D9FA32E
3DB4A538
BDF69CFC
3D1545B9
BDB9441C
3D857EB6
3D25F5C4
3D898014
BC113812
BB9E8245
BDC41474
3D5E7D7E
BD087A66
BD9FE154
BBC5959F
3DC12873
3D49C95C
BD9C862C
BD7DBF15
3DCB692E
3D756750
BD3121B9
3D0EE480
BDA49252
3D1B0FB0
3D4050E4
3DA1F5B0
BD37FBC9
3CAEDBD0
BD9F179E
BCE7E624
BD324887
BD124208
BC792ED8
3CC82438
BCB85284
BC437268
BD7ABB40
BDC463CB
3CB3CE9C
3D99C912
3DC848EC
BC3EB568
BDA85E9A
BD8DC4B0
3DA2BFF6
3D9517FA
3D3ABA28
3CA41124
3AB815C0
3D271054
3C208F28
3CFE9F50
BD5E59AE
3D88434A
BCA39A80
BDAEF802
3DB00E4C
BB24B720
3A8EF1C0
3D8B7EC8
BD3C1255
BDC4ED86
3CE34FD0
BD5BD443
BD059C9A
3DB7D154
BD2AB9B6
BBCBE7A0
BCCDA964
BCB919B0
BD018CD2
BCCCC520
BD36885B
BD308A56
BDA70B4F
3D17A5A0
3D87F6CA
BD9ECF31
3C6A7FC8
BD9F7BF2
3D101B84
BD0DB8F4
3DA081CC
BD302E5B
3C29F010
3D79BA74
BD87EDE0
BD508AF6
3D381B38
BD00B2F0
3CF8DA60
3D40E220
3D92B69E
3D7E519C
BDACB4F6
3D641420
3D8B7008
BDADB230
BD830383
BD2466E8
3C23D1A0
BCB432FC
BCD756E4
3D763C10
BD663080
3D97AD28
3DA5F1BC
3D92794C
BD79B0A9
3C83EF24
3DAEA5AC
3D337E10
BC6030C8
BD4BEF5B
BD88CBEC
BD35FF71
3D039B14
3D8007F6
3D41287F
BDB4C3F2
BD97D9FF
3C80BE21
3D041F99
3D162C50
3D8440DE
3DC61E0A
3D986E61
BDD4F41F
3D89829E
3E2C2944
BD83D2BA
3BC48761
BC76DBB8
BD9CA34C
3D3D66C4
BD970E5C
BD48E74C
3D29898C
3D886211
BDD498E9
BCA5F014
BD441964
BD97DE78
BC56171A
BDA06F1C
3D463545
3D3ADF3B
BE01710F
BCC9D464
3DD3FB69
3CD0C747
3D032EE6
BB7AA1A2
3D99115A
BDDB9639
BDAD4700
3D2CBCD2
BDC75BB8
B9EF5B9D
BC8A7858
BB28FBA0
BE0255A2
3DA5F163
3D078884
3D8F63FE
BCE50F84
BC6DAC18
BD717028
3CF4A6E0
BD85EA72
BDC78750
BDBDAED6
3C1FCDD8
BD163A76
3C747193
BD83E388
3CCE3295
BDE7E814
3CFDE555
BE1E9E28
3D6FACE1
BE082E71
BDE28126
BDB7B12D
BCBC0FB9
BD8519F0
3D974B31
3DACF500
3C45CC5B
3B640D80
3DC35957
BEA2C248
3DC1461C
BEB50B28
BD2A3B14
BD8AA821
BC8A8C68
BD884C28
BA809A00
3E53D14C
BDA64A9E
BCDFFF04
BDA0F4F5
3D5F48DE
BD2F94A6
BD5F69D6
BE93D547
BC404992
BB10DBE4
BCCC488A
BDA1EE8A
BDB454AA
3D57DDDF
3E105604
BDE54887
BD90BC02
BD050BD9
BD9A8ADC
BD8F164C
BDB64092
BD964EE1
3DB2EEEE
3D04BF3D
3DB02504
BDB55A26
BD888ADB
BDACDF26
BCB6E96A
BD763F7C
BDBEBEBF
BC908FA8
BD4D24DE
BA9F8E34
BD91B36E
3D5CE669
3B50FFD2
BDC25160
BDBD8AE4
BDEC0476
BD5486B3
BDAC3743
BD91C24F
3D34E40C
BD733614
BD9D194A
3D17C029
BCAC1A63
BC99DF37
BD32AA51
3C0505CA
BD54B365
3D9F0094
BD2F67BA
3BEADAF0
BC9E1697
BCADB6CD
3DB5FF2C
BD80B37D
BD7FDCA0
BD4CF15E
3DC4F85C
BD4DD5BB
3D889FCC
3DD089B2
3D49E286
39BD3C00
BD20B54D
3DAC1612
3D024FAC
3B58C361
BDBAA5D2
BD176FD5
BDC96AFF
BD93BFA9
3D83E1FC
3D83730E
BDC3693E
3C15C470
3D3AAA7C
3D8E0758
BD19EEC2
BA9B9740
3D9B44CE
3BF01420
BDC841F2
3DBEDCBE
3C857744
3D81A3BA
3DCB141A
BD84D474
BDBE4AB7
3CF199E0
3D65373C
BBD7F250
3D67D890
3CC5F970
3D1C0794
3CF3EC18
BCE87118
BDB90BB4
3D8A2EFC
BC858568
BD5A4AC3
3D85187A
BDA82527
3CC796D0
3D9997A1
BBB091AE
BD7306DF
BC903795
3CED26F8
3D915206
BDAE54FA
3C7F81A8
BDC9B982
3D99F036
3CAD9124
3CA21874
3D17B45C
BDC8E64B
3D7C8D8C
BDDB3918
BD442B5D
3C83C774
3D6946BC
BC1A2440
BD8895AD
BDC49884
BC07C938
3D586FEC
BDBCEE29
3D8ADF76
BD8A8509
3D515C50
3D9E0782
3BAFD6E0
BD9114ED
3CA0D360
BDB8C6D2
BD9870E4
3D4FABA8
3D8FCB13
3D64410C
3B16A040
BDBC8526
3DC68581
3DA736DD
BCDB022C
BD9D59AB
3D3D4ED8
3DAE7516
3D07E210
3DCAD26C
BCF783D8
BD637F5A
3CCC7CF8
BDB422AB
BBA008F0
3D58B7CC
3CBE3D6B
3D02C33C
3D5DF364
3D2FECCF
3DAD0D7E
BBEDB130
BD3AE13E
BA9D7D51
3C8EC4A4
3CDD0B80
3DC73AD8
BDA0F94E
3D83A72E
3D81A04E
3D81A951
3CBF9C73
BC1D19A1
3D3867A9
BDB2139B
BC9CD2A9
BD6229FB
BD0102A4
BDB8235C
3DBD81B6
BC325A9B
BD43F3A3
BDB99B07
BD68748B
3997ED19
BCE6AB20
3C5FCC08
BD98A634
3CD3D01B
3D9C9E38
BD9C0A34
BB380D62
BE0C1805
3D25A2DC
3D64C803
BE089332
3D47FD80
3D134E22
BCCC40F0
3C7A0596
3DA0F54F
3D858BC9
3D21A3DA
BDDF92F1
BD2D7C30
BDAEFFEC
3CDB9397
BDC32C53
3D9A23E8
3D8385EF
3B91FC10
3CE6C8F5
3E13F9DE
3DCE2FC4
3D4CD7F6
BD35B4A9
BD507CC6
3D9D96E8
BC109170
3DB21474
BD780640
3D465373
BDB04861
3D52425E
3E4C4D25
BD8B7EF2
3D180940
BC6BAC26
BD895B7B
BD304ED9
BD7EEF2E
3D8C1F04
3CD95750
BDD64415
3DCCEE11
BCC4F314
BD5AFB7E
3D1BCFAF
3D166BE7
BD81F791
BCAA1700
3CED6F5E
BD882C2E
3D8D3CF6
BE1AFDB6
3D106798
3D98912A
BDDEBF2E
BDA6A008
3DAB4FA0
3DB36704
BDB82C54
BD6809A3
BDA45DA3
BC371B98
BC3DC746
BE52ECEB
BDBEFBC4
BCB08F06
3D6880DD
3D871718
BC71CB33
BD5A13F5
BDA10611
BDA1CCDA
3DCCCF30
3DAAA5F7
BD870989
3D4C7C38
3CDD5CB1
BCD43E5A
3DB3C909
3D93C8EE
3C6CC13D
3D53E914
3D25C718
3D024E4F
3CE47B38
3DCF2DA4
3C910E84
3D42980C
3D850DCA
3D325470
3CEA87F8
BC39F0A5
BD09592B
BDCCF27A
3D8CCD44
3D390D4C
3DAD2AAA
3DA7404F
BD9C43B4
3DC227B6
3D94BD6C
BD10F47E
BD323FBA
3CDE2DF8
3DA0442E
BDC0899E
3D3A1D3C
BD1D6670
BDCD4EB7
3DB8A8F2
BD08947A
BD987742
BD012E3C
3DA5FB9E
BD6FC1D6
BDBC3ED1
3CF70650
3D1B088C
BC2B6608
3D8C34AE
BDA0E23C
3D93FEFC
3D2F0498
BDB8A74D
3D528B50
BD6B9A12
BDAB5AA3
BC7DCD20
BC5AA3E0
BCD4B41C
BD1CF5BC
3D83CF62
3C859CD4
3BD60BB0
3D99A67C
3CA436C0
3D987E84
3D607780
3D7961A4
3D2DD6D0
3D31CCA8
3D27AF78
BCC4F250
3C6FEAE8
3C7CD6F0
3D817530
3CB402A8
BC904A90
3C917E20
BD3AEAF0
BD576711
3D8C9DF2
3DBA5E28
BD08464C
BDC167A7
BD9690C4
3D274BFC
BD95A1B9
3CF54120
BCCE5894
3D27F870
3C023048
BD8CEFD0
3C826DC4
BC4FCC98
3CBE9D80
BD671B25
3D46A327
3C802B38
3DCCDD33
BD40DF5C
BDB695D2
3D2C93A9
3CE02071
3D92306C
BDA2FDC5
3C09F5C3
BD35F281
BD8C2223
BDC72BED
3D51DAD4
BE6C6257
BDC79335
BB4FF39E
3D561798
BD6378DF
3BD356E0
3CD344CD
BCEA1266
BD6ACB30
BD1A3BCB
BDD33EA5
BDBE2A18
3D925C37
BE5298EC
3CC6CF50
BCA44ABE
BDC13EF9
BD7EC6D5
BC8318F7
BCAEBD44
BEB8DF82
3D3FD019
3D89F923
3D6CB0A7
3B7F9E61
BD1A1AF6
BDB7A370
BCAC0738
3DA9D8BA
3CB64C24
BE1D35E5
3C4AA9F0
BD1E00EF
BDC900A9
BD91D18E
BD76DD6D
3D56C624
BDB6FB23
BD06BFC0
3DAFFFF5
3D391D68
BDCA7D2D
BEA10542
3D44FCB0
3D02C4F8
BE5F5F67
BD991471
3D6D4A34
BCE114ED
3DB8D61A
3E763AE2
BD4D3E38
BE6F6AE5
3D87B20C
3DB87973
3D1DDB83
BD0D4029
BD52E9DC
BD20957C
3DAD758D
BCFFB4D4
3DC2A356
BDE33D02
3DC18D1C
3E344538
BD917B3B
3D715FD9
3DB10924
3C8C1A68
BCBAE898
3E0139E0
BD6203B5
BD7ECE0B
BDBAAF9A
3F33C456
3C7AC590
BDB25E51
3EA2E10D
3D0F687F
3D6E4733
BD2F4571
BDA21304
BE608193
3CFAE14A
BD8DA6D5
BC557D1C
3B2F1A74
BAB1E4C0
BC7E715E
3D7E41FB
BD360B0D
3DB54565
3CC0CE70
BDA06B5B
BDE229BD
BDBAD9A3
BDB22BD3
3D0B5B48
3C09109F
3B740CC0
3D334AD4
3D847444
3C6BF6C3
3D930A5D
3CF0A0F0
BD2485C2
BCC1EC52
3C7A0218
BDA6274E
3DB626CC
3C2FCECE
BD5D6762
BC8AF5B8
3DCA0D40
3E2DBC0B
BDD91D9A
BE799C2B
BD8599A0
BDA2106D
3CE3ADAE
3D88EE37
3D894F14
BD2EC65B
3D9840F6
BCAF27C0
3D8A3095
3EA2355B
BDCDC853
BB8C0C38
BDDCD6D1
3CC23C8B
3DA93FE8
3D800CFC
3BABCD70
3D4DF550
BD243A9E
BDCB6A7F
3D69103A
BD87F422
BC302FE0
3DA1DA26
3DDA5BDD
BD1D47CD
3D85D2FD
BD6C75FD
BDA636DA
3AC5B217
3D912DA9
BDA4F059
BD4081B1
BC3336C6
3D9B31F4
3D0C282F
3CD89B14
BDA3ABC0
3D0736F8
BDA91656
3CEA398C
BCD47939
BD214E5E
3D81BEC2
BD9C0F9F
BDA2D4C0
BD8B8D28
BC1A3860
BD064654
3E64180A
3DA23376
3C60E2E0
3DB290F1
3E20AE87
BC8563FC
BC8DF4B4
3CEE768C
BB393833
3DAFEA9B
3C15A114
BDAC04C1
3CE2E442
BDF0195F
BECBA4F3
BAE03CC1
3DB98DBD
3D9A3C01
BCC44DEA
3C325FB8
3D3C3E94
3D55660C
3D1D290C
BDAC951A
BE6C0B21
BD8BDF3A
3D82963F
3D5E6319
BCAF4B12
BC91B014
BC13D0A0
BD4B0285
3EB93AD1
BD9D19B6
BCBEDAE8
3D80D985
3F0C360F
3D32931C
BD94C826
3E6A5E92
3CF09AC8
3D5FCBE1
BD266B29
BD0F625E
3D8AEE4A
BA2AFC80
39276200
3D250060
BD0CB4C4
BD5A46A1
3BD5A980
BCCC7838
3CFCD430
BDC8BE70
3D92F052
BD876956
BBF82DE0
3DB225CA
BD8C2E33
3D2B4380
3CA40E24
3DC3A04A
BCE067BC
3D108E48
BDC9F7F6
3D4B86F8
3D2D7994
BCF67254
3CB7E62C
3D90EB80
BB6F7840
BD8E6EEA
BD003D50
3DACA54E
BD6273B8
3D7FB8F0
3DB7B7D6
3DB24E9A
3D223534
BD1D6214
3CD39D70
BDB753B4
3DACC21A
BCA95100
3D2039CC
BD7626A2
BC85B6C0
3D91F9CA
3D336B20
BB9BA6B0
3D546D7C
3DA1DCC2
3D383F04
BD997FEE
BDBDB412
3D3A9BF8
3DAE021A
3CF04CD8
BD9CC2D2
BDA2942D
BD812669
BD4A8FDA
BD99E4FF
BD913E2C
3D51DECC
3BAF69B0
3D2FAB54
3DAEAF78
3DBCF150
BD2FE6CF
BD7960C6
BD91050A
BD64344F
BDAA6CCC
BC32A770
3C687400
3D4918E0
3D7DE740
3D2101B0
BDB96EBE
3BAFBD30
3B99F0A0
3CCE8C10
3D06B58C
3D4E5490
3D954D82
BD0EF5BA
3DBB8F48
BDC64B85
BD8A14E8
BDA3844D
3A930BC0
BD48B81F
3CD84F40
BD83469E
3DCA5A48
3D9D786E
3CB1121C
3DB2822A
BA8554C0
3D8876AA
BDAF00B6
BDCD89E0
BD4A30E9
BC08A928
3D8854B4
3D246624
3A191C80
BD5E5DE3
3D6A9B2C
3D92D3F6
BDB45FFF
BCCD83AC
BC620F70
BC7F32A8
3D976B68
3DA83FBE
BD933607
BDC9EFE5
3D71DFD0
BD3069EF
3CAA07CC
3DA542FE
BDCEDE57
BD6EB1D7
3DC3C0FA
3D8430C2
3D2E835C
BDC234CF
3DA3B3D2
3DB8614C
BCB74A94
3D9D085C
BD8B7E29
BCF329F6
BDC80D3F
3D9EEE61
3D0A8AC2
3D0CEA15
3CDA5ABC
BCC9D690
3D6857BA
3CB4AC24
3B0D78D2
BE369DDD
BDAA0DA9
BD352378
BDE299A8
BCF09F08
BD4CE38A
BD77B162
3D95B2BE
3E13E986
BDD66C7A
BD36C0CC
BD3B28C8
3DDD5C2B
BD4CAC87
BC3612C5
3CA512B5
BDA87D51
3DB3ED9F
3D1BEB9B
3D5F2764
BBB15237
BDCA3A22
3D967576
BC7045CE
3D7FFA25
BD96C51F
BD55C0CE
3D1B6E84
3C350B50
B9EA5B4F
3BF30590
BD479005
BC91F5DD
BCE585DC
3DFE7C8F
BDA8EEE3
BDE0C597
3DB2125E
3D9E2184
BD0A20A2
3C36BAC6
3DA616C5
BD71199B
BDD69A57
3E614B08
BD4D401C
BD5C2994
BC0CB332
BD677B33
BDA0CA9D
3B93B31B
BD581D2E
3DD8776B
BD1C419A
3DBC7301
BD511C20
BBB349C1
BDD4E7F6
3DAB0C81
BCF34F3A
3B9D96E0
BDC75442
3DA6424C
BD48C326
BCCAC709
BC90B820
3DF0FBDB
BD87BEBC
3CD9C21E
BD9C65EB
BD68F9E3
BD34A7B2
3E05848C
3DB4148F
BD9873ED
BBF0E026
3DACFB5E
BCF01C5C
3D705B3A
BCB80A47
3D8F8EBE
3D070CB6
BDA1DC0D
3BB25FE4
BE0B2C7E
3C8F6DBA
3D1F706F
BDC28E10
3DA7A620
3D6ED619
3CE0D779
3D8DB440
3D1606E0
BD6F6694
3D2A0044
3DBB2C25
BE07123F
3D6AE170
BC92C45E
BDD5CB09
BD75A668
3D49DDA0
BDCED9C6
BBD136F0
3DE8B2CF
BD9B1CDA
BD913283
BDC20B9D
3CB44E10
3C875278
3AB62C59
3DC6DB7C
BD8B42E8
BDB4EBB2
BD8872A7
BDAC43B5
3DC13077
3D27E43C
BC8B4AC0
BCFA71A8
BD50421E
BD753909
3D97587C
3D25A960
3D7297BC
BDD0036F
BDBB1D16
3BA89830
3D555CD8
3D915302
3DAF7838
3D462B34
BD24B734
BD6434D8
BB59D3E0
BD7D52CE
BD765BB5
3D3BC485
BD3BB074
BCA30E2C
3AD00071
BD410FC4
BDBC3F92
BCB69952
BD7F7D1B
BD2E1829
3D94A896
3BE42050
BCE2F7F0
BD9BE6E4
BB8C26B0
3DBEF2BC
3C8D7E70
3D95F52C
BB896FE0
3CE3C9A0
BDA70441
BDC6EEAE
BD039B2E
3CE527F8
3DC1B53E
3D94C5AC
BDAFFB32
BDB2DDD8
3D98EE6A
3C718390
BBE0D790
BD3E09A6
BD0C87EA
BDCA6B61
BC1240C0
3BC0EB40
BD0CE3CC
3D6B43B4
BD37503F
3D0D7500
3DA7DDD2
BDACFDC2
BDA64CBF
3DAA8F54
BD4CFF5A
BCC9F358
BCCDCDC4
BDAA843B
BCE9387C
3C942800
BD3D6AD1
BD57576D
BCF61E08
3D2D3BFC
3D590F08
3D26D898
BD33CD42
3D0A2490
BD4ABEB3
3D96DD56
3D3C6070
3DB2E29A
3D217F98
BD97F510
3DC0CDA4
BDA6DBED
BC815EC8
3D7202E0
3D34DD90
BD761BEA
3D8359D4
BD93F84D
BDA1E572
3D2E6EF8
BDBA300C
BD794C81
3E8E03B8
3D791006
BE750E25
3CA1EF48
BD26AEE6
3D105903
3DAC7D77
BDD10132
3B530EE0
BC9C1DBC
3D940328
3D92F8BA
3EB526C4
BDA1224D
3E9F9714
BDA7FC0B
BDA8561C
3D781858
3DB047D4
3D531B04
3DD5D35D
BD9FF8C7
3D848A42
BD57EF35
BE29F01B
BABDC740
BDD2B922
BDCACD05
3DADD2C2
BD5EA32F
3DB4814B
BD1045B5
BDE9BB8C
3D7D2973
3D042C99
BAE48298
3D4911ED
3D76976D
BD81B95E
3D0BB692
3CDF8170
BD178532
BC628CB0
3D79A83C
BCA14E2D
3D0823F4
3E38902A
BB38C541
BD4B7417
BDA45B0E
BDBE4E32
3B96C950
3D5A0191
3B2411E7
3D877080
3D95142F
3C5405F2
3DCBE6B4
BDBE4165
3D45B625
3D950985
3D109BC5
BC930398
3D9C951C
3E8BA921
BDBBE338
BE5C2C8A
3CCFC479
3BC95ABE
3D0FB74C
BD276769
BDADB8F8
3DBE4036
BDC1168E
BD9E8373
BDCFEA74
3D82A2E8
3BF03460
BC4357CA
BD034CB0
3C41288C
3BF70920
3D96E17C
BD1972AC
3E22FD41
3D2ED9A7
BD3EA263
3C9B859B
3ED34EFE
3C941CFC
3C97E6A7
3E5AA227
BD60246B
3D9C09FC
BD86D41E
BCA5C5C5
BC748F99
3D91AA38
3D8A36CF
3D6E9950
3D7B10C7
3D43AE2F
BBD9C87C
BB9C207A
BD39338F
BC8B5219
3D34CDF8
BC6A6635
BDC8F3E2
BDCAD3C0
3DDDD621
3CD25027
3C933A28
BD12B966
BD51A1B2
3B0B6640
3DFB134E
BD917F20
BD082640
3D902F79
3CEC1BCF
3CBD1778
3D234CE0
3D814001
3D86645C
3D14EB89
3D53E7F8
BDD3BFF3
3D5B6C05
BCF74180
3DCA36B3
BC0ECF40
3D9CE5BC
BCC79F2B
3D64DF8F
3C9B56B8
3D2A1190
BC7FA39E
3D1A58E8
3D92232E
3DA1094C
BCEBA1E8
3DCFA8EE
3D47CA9C
BDAE2BEB
BDCE0925
3D70C72C
3D4E7A64
BB8CFE83
3D6F97D5
BC9005D4
3D5CD690
BDBF183D
3A247100
BD830224
BDC014DB
3D87279E
3D0CBD5F
BD20BEA9
3DCEB310
BD7E2CA1
3C904B54
3DC3828A
BDC1993E
3D764ADC
3D2CF3C8
BB61CA40
3DC21F64
3CE68AD0
3DB4C2A4
BCB26AF8
BDAC7C61
3D9D11F2
BDA34282
3DA760D6
BB6689A0
3CED06A8
BC9568D4
3C866BD0
3DC353CC
BD7CBB17
3D9932FA
3D73BC48
3DCF7FC4
BDB61A55
BD822C26
BD6F636E
3DA869FC
3D9134D8
3C4CC4D0
BDB56805
3D1AC96A
BD562BCF
3DC2A26A
BC20C5E8
3D36EA3C
BCBD54D4
BC1EC620
3D93CC2C
3DA6AC6E
BDC72A84
BC01B4F8
BC83B5BC
BD1D828E
3CF11401
3A14A400
3D12CEF6
3D554508
3D920A6A
3CA00F88
BCDC7BF4
3B74F8A0
BDF314E3
3DC4AD5A
3B317780
BC9B5A04
3B2A590A
BDC20CEB
3D875B0C
BD8763BF
3C903238
BD0DEA60
3C87B0A0
BC9F3767
BD9A5230
3D827BF2
BCDEA1C1
BD2695ED
BDB21470
BD19148E
3B35E2C0
BD41EE62
BC291678
BD38AEB3
BCA0D268
BD936072
3D9DA67C
3DA68694
3D453EC0
BDA63E47
3BCBB430
3DAC0390
3CE36310
3BB64F90
3C2A1A98
B8BE847C
BD88B122
BD9AEF40
BD993EC0
BD55F8F9
3C27BF38
BCD4C517
BDBA8784
BDB7699C
BD58C82D
BDD39518
BD259DC2
3D41867A
3DA1647A
3D8B70C7
BCDB032D
BDC57697
3D82513B
3D3F89C7
BCEE0E98
3B8577DB
BA4BA880
3C9D8D32
3C98F029
3D227B58
3D16F833
BB5E47DD
3BD603C0
BD9FA16A
3D9FFB4A
BCEBBDF8
3D8DAEC3
BBED242D
BD16869C
BD881568
BC2B1DCA
BD86E2E4
3CADE5EC
3CAF219E
3B69795D
3AE96761
3BAA0D64
BC9FD312
BE1DD017
BCECD235
3C28EB0B
3D8D9086
BDA63062
BD75D9E4
3D608064
3DBF494D
3CD6B3E8
3CC22166
BD22BCCC
BD4C8BB8
BD857408
BD85B5BC
3DB31D29
BAAFCF0A
BC8E016A
BC17CBF0
BC870550
3D3B0C14
3BFFBE2F
3A2667CB
BDA0FE0B
BDBD7FB2
3D2A5766
3D5AA108
BBF08AEA
3DEE0134
BD2B5574
BD243F2C
3D3AF1C3
BB6947EF
3DFB2DDF
BDB41D15
BE88E423
BD9F2628
3CA0E593
BD936E0B
BC4ADB0A
3B60F3DA
BD5A929D
BD6C151E
BD5C6FF6
BDCB5D41
3ECBA9A8
BC4E2088
3E33150C
BDDFBE86
BD93A6BB
3CD91148
BC4F0D38
3CCCEB28
3DA98C74
BC187836
BC431740
BD90758A
BE35E690
BD508E8F
3BFA05D0
BB9A3550
3D18D8C1
3D0CAC1F
3D0FDA9A
3BF1ADD2
3D779DF7
3DAE7851
3DAD300A
3D0705EC
BD8ED534
BB62FD41
BD8FAC08
3D349B00
BD583838
BDA59B2D
3DBB2638
BCD85D08
3D306C85
3D20E304
3D830202
3D1EE680
BD531C3E
3D278A00
BA217E80
BD5DCEB2
3D720CD1
3B9265DF
3D57AE00
3A8B0390
BC1D21F1
3D5B5ED8
3D9C6AD8
3D1080F7
BDB780FA
3D163320
BC46F820
BDCEE276
BD881375
BD7FF4E6
3D2540F0
3DB6242C
BDBED092
BD7DB4B5
BDA64992
BDAA8FDE
3DCA8398
BD76F0CA
3D650D80
BD636652
BD3FB197
BD9D3423
3BD20B60
3CEF0B98
3D133470
3D340038
3D57991C
BD131DE0
BD379DFE
BD563650
BD4678D3
3C39E0B8
BD9FBCD4
3D9C8DFA
3DCDA276
3D80D556
3C5D3CD0
BDB2B51F
BCE5A450
BD4A5AB4
BD2EC2BC
BD03C2EE
BDAC997B
BDBCE306
3CDDB8F8
BDC3DDBF
BA2AD200
BCC04DA4
3D6D6D30
BCB22A04
3DBC226E
3DC7F056
3DCA1124
3DCEDC30
BD15934A
3DC5AAA2
BD67CA27
BD3CBE47
3DA0F36E
BDAAF694
3BCD5470
3DA94EBE
3C9B6C64
BDA83991
BD975686
BCEDC9F4
BABC7880
3DCD7828
BDA5D701
3A5B0B80
3DCB0104
BCAC4ED5
3EDD899B
3D7D00CA
BE3977F1
3CE6284D
BCAA8F2D
3D9427D8
BCFA6933
BD20785A
3B779700
3C158E8F
BDCEE051
3D8F0B03
3E9DAEBB
BD5FA013
3E921895
3CA1426C
3D30565D
3DBCE22E
BD940782
3D28D9A8
3D3D5277
3C95B37D
BDB1436D
3DB89FBB
3D3F617C
BD98162E
3D73E5A6
BD6F009F
BDC0D561
BC644884
BD0F0948
BD7453D1
BDE97406
3CFAC282
BE84C00A
BBDE5104
3D560941
BD9D13AE
BDC6B531
3CBD54AA
BD125C8C
3DC87839
BB2074C0
3CB0289F
BE953445
3CB12B5C
BEE0D33A
BDB213BD
3D06E402
BDAFAB80
3D910EFA
3C97DEF8
BCC2A39E
BCA9F22C
BDB35C6D
BD40CB49
BD782711
3D460168
BDCC7570
BCEFB56D
3D63AA6E
3B4431A0
BD7C934C
BDCF2715
BC96E4E7
BDBC0BF3
BE09F3A4
BD7628EA
3C65EF52
BB4B1E4A
3C693DC6
3DB5507C
BD83E73A
BDA3B79E
BD910352
BD640B0D
BE683F82
BD3BDC98
BDDA1587
3C32E6CC
3C3DE093
BDA3A3EE
BD65126B
3DBE21E6
3E4D4613
BDC773C2
BD701475
BDCBB916
3EAF1A48
BD898CEF
3B540323
3E15B44C
BDA9F08E
BD872446
BDB19E46
BDA3006F
BDC568D4
BDDABD74
3F09E4FE
BDAFBF7E
3D4CE949
BDA08D04
3C271FF2
3D0D4EBB
3D4974B4
3C2DC4C5
3D849966
3BDDBB96
BEA11E7A
3D4D8EAC
3D1F2100
BDBB521E
BD8BB4E8
BCB27F20
3BC0F300
3C392170
BE55515A
BC1A5554
BD6AE62F
BD177122
BB8444D3
BCC25FCC
BD86FB78
3CE92FE6
3CF1DCC8
3BB5954E
BD923124
BD4258F5
3C4A4650
3CC21332
3E3796F6
BD97631A
BD55C40E
3D1783DC
BD4E7C43
BD901FD5
3D55A8AC
3DC01F55
BD258227
3D841774
BBD2BD10
3DA12452
BCE284BA
3DAAE6A1
BD057736
BDC8E0CB
BDB46DEE
3D3B1DD0
BD4A7675
3CEB1431
BB5B9E60
3D7521A0
3DDA3DBC
BD3E7730
3D8F9227
BE2BEA89
BDCF57B1
3C83B458
BAD5F834
BDC25780
3E17BC1A
3D74E14C
3E29D845
3C752CB8
BCFF373B
BD953653
BD91EB16
3CF1E22E
BD82D9BB
BCB5CB9C
BC4B0EA8
BD8F58A0
3E989AC7
3DC0DF74
BE471094
BD2BDF35
BC1C29E9
BDA2D476
BB3959E0
3DA5B29E
BCAA69D6
BDBFAD02
BD5A9079
3DA10F66
BD439F7D
BD6E0E77
BD0AE338
3D67E50E
BBEF29A4
3C366AF0
BC1B0246
BD93D245
BCC0044E
BDB3D051
BCE77CBC
3D7B225B
BDD6252B
3DA360EE
3A9E88B2
BD0ADEA6
3DCB3F84
3A88581B
3B935470
BD03C030
3EB78092
BDA3ABA6
BDB96CF7
BD6C987B
BD7E95AC
BDAEF4DF
BDC007E5
BD96E393
3E8A64D8
3CA0EA5E
BAE166C0
BDCFBAE2
3E3D52DF
BDC00C08
BD5EF13D
3EA966B2
BDB5E6FA
BC238715
3CA28357
3D2586E4
3CECEAD8
3DA12356
BC457960
3D6243A0
BCCCFAB4
3D255B30
BDAC71C7
BDA50D30
BDCBF1F2
BCC3CC94
BCCCAA14
3CBA1EC4
3D1382BC
3D5DB830
BC781DF0
BDB4F5ED
3D2ECBF8
3D8F78A6
3D680BB8
BCBFEE10
BB7FAB20
BDC2F60D
BCE816A0
BD2BB9D6
3D07495C
3D87A692
3D93B048
3DB9EFFE
3D90DC6C
3B83BF40
3C285420
BDB09102
BC132F48
BD847260
3DA94566
BDB92A32
3DBF7FC8
3D7C2A10
BCD1E380
BB036040
BC2A8148
BD9918F2
3D409B44
BD5E8BF2
BD91DD01
BD03D93A
3DA19DDC
BDAD1929
BD9B5271
3D53D7E4
BC3CB3D0
3D39F968
3D4C3A6C
BDABE1CE
BCC11B18
3DB13C8A
BDA76A5A
BD5B10D1
3D607A84
3D7AFC6C
BC57FD90
3DC190FC
BC9D6B44
3DCC1FA8
3D4CD4A4
BCF6F254
3D63E82C
3CE024F8
BDB35D1E
BD4FE91E
BD4E5ECD
3D9DCF32
3D8AB280
BDB1FD3B
3D79F184
BD3F9AF5
3CA8A634
3D52F384
3B8B3A20
BC6E0F38
BD82F5B2
3D50E13C
3DAE6B16
3D296B68
BBD3C520
3D94E5B6
3D491AB8
BD8617F8
3C8D04FC
3CBD1A08
3DC95940
BCCCB188
BD24438A
3D9FD9F8
3D8381FA
BCC4952C
BD91EC5E
3D192FEC
3CD28C10
BD4B4A5F
3D52A354
3D5E28EC
3D92177C
BCF32B88
BDAC034C
3DA6A2A4
3D81A0D8
3D8C6CF2
3DB24D56
BDA1578E
3D817C68
3CB2B3E4
BC87945C
BDB73EE2
BD7C631D
BD2DF977
3C2932A0
3DB07426
3CBC2EC8
3D5BAD40
BB8FCB50
BD4E5CFD
BD861C1A
3D8A2F40
3AE0A880
3CC42258
3CBA814C
3DA4FF49
3D8F7D13
BC6D6D65
3D345DDE
BD486F6B
BC007F97
3D96A58D
3C5DF09F
BCC52025
BDB76079
BCD886A4
3D17A694
BD3BDC84
BCAB0E11
BD59B079
BD8D4C94
3CBD00D0
3D6391FC
3D469D78
3D4D4FFC
BDCC5AFB
B9B6BB44
3D1FC551
3D3B173C
BCD12BD6
3E04A705
BC385228
BC572448
3DD07CA0
BCFC0602
BDC8FD1F
BD3B61AD
3C0DAA33
3D9F1D9A
3C4602CB
BC835BF2
3CAAAB98
3C146DD4
3BA0649D
BC2DF18E
3C6E4F71
3CA101EC
BDDD1BC0
BDA512E4
BDCFB0A8
3D8AB765
BC5C8FD0
3D31048B
3D0851F2
3ADE7116
3D86B71C
BD55BA62
BD9972DD
BD66F4AC
BB24F8A5
BC949860
BD79D0AE
3CB89525
BC017490
BD9EB66C
BBD1A800
BD64389B
BD28CDAC
3DB34BE1
BDA1C7C4
3C96F7B1
BD030DBC
3D47623E
BD0EC862
BCE82D98
3D911D86
3D7CDC04
BDC7FA2C
3DA5F9DC
3D39AE8F
BDB58525
BD1752EB
3D93A9C1
BD2F1E9D
BDE2521A
BD8E1610
BBD773A6
3C1D5BD0
BD767827
BD86BCE3
3DA62A45
3DB56051
3D076E68
3C8E5F7C
3E1F0AE7
3D8B147E
3D27433E
3D7D6F2C
BDA5042E
3DC8C96D
BCF6AB3B
3D1C9ECD
3D784E5C
3B3748D6
3D715D56
3CF27B3A
BD374E18
BD025448
3D686A8B
3B3D7995
3D4A7E54
3DA1FA8F
3D4671F4
3D4AE0BE
3D0892B7
3D9464A0
BD59C183
BD9C9C2C
BC714790
3DC562B4
3D5F4AD4
BD829528
BDC614C2
BD9F6E03
3D46FFCC
3D8846CC
BD8287E2
3D1B1EC4
BB69888F
3D6CC48A
BDE3E040
BC7C10A1
BDE8A15C
BB3E2A00
BC5AB902
3D8A9650
39900C00
BCC87870
3D77FC74
BD53596E
3DCEE3A0
BDAD2C83
3DCD859C
BD357814
3C29B078
BDAB7F2D
3D70C594
BCE25224
3DC937D4
3D93A350
BDC9EFB4
3DBB3DCC
BC483F58
BC5C0448
BD48CA09
3D47491C
3D2621E8
BCC0D8B4
BD30EE0D
BBB5AC40
3D331844
BD6C44C5
BD61A5F0
3D8ADE9E
3CF54C58
3D772AFC
3DBF1284
3C853824
3D5DF450
3DA2690A
3D96622C
3D95444C
BD0A427E
BD9DE8DD
3C150548
3D76AEC0
BD1E328A
3D5A7C04
3C70EEC8
BDAEA2FE
3D664A30
BDCCF229
3DA0E21A
3D6C80A8
3D6953A0
BD549FE6
3DAD21C2
3DAA125A
BDCB3D9D
3D63435C
BD8E9206
BD394BED
BCA2A264
BD52D923
3D6BA64C
3CACC888
BDA65892
BD863A60
3D956020
BD3554CB
BD00B85A
3C80B218
3DAB1FC0
BD9FA217
BD0A857E
3D1FDE68
3D78BEA0
BDC011CF
BDB11814
3DBB016A
BDC1A42D
3DB0755E
BD15A93C
BD857C73
3D59C6F8
3DA44EEE
BB0D6A40
3DAFB7F4
BDB540F4
3DBF990E
BC4C3290
3C9D0654
3D2231BC
BC812210
BC5601E8
BCD806B0
BDAC61AA
3DBC9A8E
BD9EAAB7
BD38A8F2
3E4D89E8
3AF004D8
3D5C62FA
3C1F43A1
3D411FEC
3D65DD2B
3BE61F4B
BD858C4D
3C9F89FC
3D62A781
BC437090
BD1A4A79
3EFA33C0
3D71E6CC
BED575B7
BDE531BD
3D8F16D1
3D475738
3C975070
3CE0F708
BD9BE5B7
BDAC9063
BD9BAE94
3C3A199E
3CE5D089
BD915B1B
3DA6BAF5
BD57AE06
3D4C94FC
BD8E7BAC
BD98C40E
3DC6495B
3D5594B0
3D21CB0A
BDB8E974
3D3AD51B
3C012BC6
3D002471
BCD59656
3DA35318
BD4CA2E2
3D383A4E
3D415C48
3DAB1D65
BDA34C56
3D064D04
BCC170C3
BCB2B412
BD1ADF3F
BC54DA20
BDBAD427
BD1B2CDC
3D9F95B8
BDDED656
BDC6A35F
3D870DEC
3DA70513
BCBD17FC
BD29C6FC
3C70C951
BD60E265
BDBCF63D
3D88848D
BCD3BD9A
3E6FE62D
BD1E2FD5
BDB413B9
BD98901B
BDD8A926
3D3F9DB8
3D880B3A
3D6B7B38
3D983342
3D23FA68
BCC45E6C
3D7B6BB8
BEABFD74
BDB9283B
3D08E4BA
3AD0EBC0
BD96FDCE
BCFA16B8
3D6F9330
BCD39B08
BCDC3A8F
BD8387B0
3D9F2516
BD446B9E
3EEE3C2E
BC6EA300
3BEC3C34
3CDD13D3
3DA16D5E
3D738276
BDE73284
BD014911
BD11FDF9
BCB2CF17
BDBC842F
3D3FDDFA
BD5B8A43
BD04A48C
3D894638
3C107A48
BDB58E16
BD4C4545
3CF5EA48
BD32D166
BDB24423
3DC5A888
BDE6160E
BDC7A7D7
BD8EDD97
BDC984AB
3D78846C
BDC59C6F
3CFA7ECF
BD81FA55
BCF563E0
BD73651E
3DB019A0
3D2C13AC
3D14C305
3CFDDA9B
3D9F269E
3D66D654
3D60E674
3C33923E
3DB3F6B2
BC883D93
3D59D066
BDA81FDF
BD96B448
BDE183B0
3D85F2AD
3DAB3A20
BD421842
3D99C0E7
BD786F52
BDA671B6
BDBDDD60
3DAF7C10
3CB4B1FD
BD60BE6E
BDCB3F59
BD5177FA
3D94F8D0
3CF60EA0
3DC38C6A
BDD11E84
3DC09354
BC5C4CA1
3DEDFC85
BD527671
BDCD0799
3DD5F518
BC618E1A
BC1DE9B9
3D077072
BDC99D8F
3D937F70
3D090448
3CC8ED30
BCB6FCF8
3D74E8D4
3C84175C
BD6E7D1A
3B996E90
BDB4AB41
3CB5711C
BDC06F25
BD18AF0C
BD2E9F85
3DB9F526
BA270800
BDA025E7
BCD6BCF0
BDA806F4
BD7B20D3
BDC0F7F9
BDC81440
3DB7084A
3DAFC5C8
BD0811F0
3C225D00
3CEA9738
BDA3F972
3D3CE1E0
BDCE4BCB
BD891DC4
BC3F1330
3D289016
BDF0071C
BBB31DA0
3DF41B1D
BDCD61C0
3D806EFE
BD930E8A
3CC54770
BBE02D50
BCD47B84
BD3094FA
BD434FD4
3D8208FA
BDE99DCA
3BA342A0
3D9EDEE0
3DAFA8C8
BD3D9581
3B25B780
3D4BC100
BA743F80
3C414FE6
BDC24200
3D8D1936
3DAB2FBE
3CD032B7
3D2ACE90
BDC70F5D
3DA2228E
3BF4C020
3CC3EAE0
3C2D21E0
3D6CD51C
BD5E3820
3C29E470
3D04A2E0
BDB43967
3C8D47F0
BC52CD7C
BC82EA70
3B423420
BDBBE759
3C9A2238
3D7C1F44
3C848978
3D774710
3DA70C82
BD937EA5
BD72F8B6
3D35E6AC
BD8498E7
3A9AB780
3BB50820
3D7E2064
BD71B91B
BD4A4A94
3BD2D780
BD937EEE
BD8DF623
3B770EA0
3D777EAE
BC84E0A0
3DCC97CC
BDCCFA1B
BC74B76A
3DB7539A
BD5E19DC
3D210688
BDDE1CB3
BD99643F
3C1E64C1
3B21393D
BD755E97
3C417930
3C99161F
3DCE1B4A
BDACDA1F
3D4FD130
3D8E98EC
3D1F7A04
BCF1E38E
BC2ACAF1
BDCD81C3
BDAAAB66
3D802CE4
BDD06FE3
3DB378AC
BD63ACF9
3C8B5F82
3E161E3B
3D6871A8
3D67F610
BD859542
BDDE859E
3D96A4D8
BBDC5AB0
BD800D42
3E0C783F
BDB45908
3CFE0327
BDC855CC
BCBA08EE
3DA6215A
BD82110F
BC0C62FA
BDBAC2FB
3DB6A5A1
3C1C92C0
3DA6F704
BDDBC6C3
3C0CC828
BE3DC634
BDA91C29
BDEB1A1E
3D5CEA34
3DCFF6CE
3D925FDC
BD554AAA
BCAC22E7
3C143768
3CBA6F9B
3D1DDD3E
3CF51AF0
B7477127
BDBD8BF8
BDB4FF2D
BD47404D
BD88908C
BDBA24F0
3DC051C3
3D09DF8B
BD2DEDBC
BCA75C4E
3D5F6B35
3DA8455C
3D04D21B
3D7C8F3B
BD24DA9E
BDD7737F
BD94F7A2
3DADFC1F
3E9F33CD
BD42B60C
BE8361F0
BD3ABDE2
BDD369C6
BD9DEDFA
BD64C2F7
3D9FBA4E
BD419C0C
3D369674
3D926BB4
3C4062EF
3D5AD0A7
3DA2B510
3D714856
BE37A9E5
3D1DF3EC
3B9CFE93
BDA70E59
3D6BDFA7
3D10D6A1
3DB7E9F4
BDA4DDB2
3DAE9B04
BDB42B2B
3DC0CB5C
BDC5C0E9
BC29BECE
BD72FBCD
BCDA6D92
BDD0EB87
BD66023D
3D52D828
BC9B024C
BD8A6945
3D27B674
3CC9E6D8
BD2693A1
3D0E5DD0
3D426164
BD903739
3CB5ABCB
3D8AFC24
BDBA90D2
3C1050E7
BDAC3510
BD182C89
BBA861E9
BD19A868
3DCF8114
BDA62900
3D144FC8
BCFB8C54
BD7C24AD
3D29407A
BCF461B4
BC34B458
BD7A4BE6
BD8DF396
BDC52C6C
3C5A4BC8
BD24FF97
3D7F920C
BCC2161C
3D88716E
3D479DD0
BDC15CA8
3BBDE670
3D83A78E
BB154620
BDAA21DB
3D8C5650
3D4A378C
BC55DF80
BCA45A94
BD5538B0
BDA03979
BD3B24AE
3B3BA000
BDB238AF
3D35BE74
BD72909C
3D6D495C
BCDF7398
BD9FEDD5
BC188D58
3D395AC0
3D11DC60
3DA2E7E8
3C2ABBF8
BD1674CC
3D1520DC
3D4199FC
3CD24278
3D3682F4
3CD0C680
BD8D136B
3D33465C
BB3730C0
3DC4F8EE
BD9EA5E8
3DCFB5F6
BD95DEAA
BDA885F6
BD99F2C0
BD9A83E1
3D8321F6
3D849F2A
BCBD9A48
BDCBA2A8
BDB466CF
3DA01D6C
BD40560A
BDBFB6BE
3D0308E0
BD1AF6B3
3E09C995
3D30BD90
3CD15FE3
BCCA7A43
3A896BB5
BD885DE9
3DBD57EE
3BCA1920
BA9EE940
BDC6DC43
BC657AA0
BA9461EB
3DAA0044
BD6AB1B3
BE9763DA
3D90361E
3D9EB81C
3CC879F8
3D7D2A64
BDA837E8
3D50BD61
3D9566AC
BD0B40A6
3DA9EEFF
3E4109A9
3DBEDE48
3DB2A2AA
3D713E10
BD9DF73B
3B135622
BDB471D2
BDCC61ED
BE00D824
BD08C699
BD2CD4F3
BCD08B9C
3D6FA70A
BCB8E3FC
3CF73C79
BD23067E
3D60DAFC
3C9CD155
3D644DE8
BDAFEF9C
BD09B5E7
3D2DD93C
3E35C6D3
BDD229F2
BD8EAFE7
3DA4D3C8
3BF7DA20
BDB5CDCD
BD03CEB0
BDC8A5A2
3C9BC4FC
BCF8B83B
BD8D47CA
3D351174
BBABAC95
BE8B264F
3D51806A
BD4881E7
BD3FD81D
BDB5388A
BE306571
BD9C8C27
BE16555A
BD9A4B80
3D35500A
3D6950C3
BCF26F41
3CB6B890
BDAB0BA8
3B92D8F7
3D0DB9B8
3D828663
BE6CB636
391D4E00
BE25EE1F
BDF0C9C3
3D278CEA
3D8878EC
3D8D5CE4
3D32ACC0
3E08C4C5
BDDF21FC
BDA8142C
3D9CDAF5
3EA0816A
BD8804EA
BCC99B06
3E332283
3D43C2F8
BD9EC988
BD5128FD
3CEBBC17
3EB9E4FB
3DAECC8D
BED98BD7
3D0C2F65
3D9B10D8
BDAF0CFC
BCA1F27E
3C97A16B
BC3B0CC8
3D9856AD
BD495C43
3D8B3BBC
3EC2792C
BD776320
3E06BFAD
3C597090
3C254890
3D0CB978
BD9FD212
BDA41D90
BE390693
3D3D44E7
BD8DF9B2
3D514F30
3E5DAFC8
BB308920
BC6927BA
BE1FC130
BDA7ED45
BC68FD19
3D8CEEEB
3D0E2CD6
BDCC2444
BDB3CD97
3C9BFBE4
3BD35A60
BDB97F0A
BCA74286
3D5F8405
3D08CB61
BD2CEBA4
BD32118B
BD4718F5
3D06B646
BE9BBBD2
BDABD608
3DCAEC9D
3D4C5D38
3B2B147D
BDC8B5FA
3CE3ADE0
3BA1B120
BDCDC36D
3D2A2033
3D927212
BD95442F
3E450BC1
BD99CD96
BD80A453
BDDA5359
BDD66398
BDD58938
3D954AF8
3DA64B25
BCF156D7
3D1AA8A0
3E6C9A43
3D89A4B4
BDDB5B36
BD0834D5
3D9E17C3
3D919088
BC5BE420
BD43003A
BD98537C
3D9BEC97
BD96F600
3CBBD6B4
3E261DDD
BD9762F8
BC5084FD
3D2745F4
3DBA33A2
3D8D27B0
3E22F3AE
3A509403
BD1BC852
BD8F8247
BDDB2F0E
BDB75192
BD066716
3E04F487
3D2DF598
BDB414D0
3D636B06
BC9E8A9E
BE8458A2
BDDC0B33
BE938807
3D98C7B1
3D1AAAD9
3A49EB8E
3D35CC9E
BCB6F0EF
3D972710
3C9E31E9
BD9911C4
BD81B71B
BE95B19A
3C8B0C98
3E3C1CE5
3C8E3E63
3D494081
3C4F9DC0
3CF41940
3DD059D2
3EE051AC
3DA7F18B
3C86C56C
BD4154E1
3E8FD047
BDC00E81
BD9919F8
3E46B8F4
3D1E3CE0
BC75BED1
BC8749A6
3D88F004
3D39C814
3D54E828
3DA024B0
BAE679C0
BD87FC4E
3D90A0B0
BBD012D0
BCC9381C
BC92AD68
3D9316C8
3DC8306A
BCA291A8
3D918076
3C8C5628
3DC73D1E
BD937E08
3D8D9640
BDC1C093
3B44CCC0
BDCD52A5
3CC83B80
3B9778A0
3DBFCE72
3DB61E68
BB2C6C40
3D5A22D4
BD9870C6
3DC4F69E
3DB35032
3D131B20
3D532140
3D6522E8
3CBA4D18
3A9DA500
BCC2F504
3D9D7F6E
BD44AD98
3CCB70B0
BC6C7830
3D79B57C
BDB5D51C
BD8F0428
3D92D9BC
BDB7B409
3C69CFA0
BC8A5A4C
3C91676C
BCE1E374
BC17B5B0
BD7BFA93
3D737DCC
BDB67BD7
BD2E7494
3D812060
BCD79C74
BDCD45D6
BD7D71FC
BD8E9625
BCF7F1D4
3D67C8D4
BDB87681
3D24C2E8
3C5FAFA8
BD26D3F4
3D323294
3C8EBEC4
BD9CB6EB
3D9D1202
BD73DDC4
BDC09F93
3BB8E0D0
3C28D6C8
BD2E3A9B
3D4B4FA0
BDB1E740
3D51B734
BCE45B2C
3DCFE604
BCD463D8
3D54FB44
BDA70028
BD8DC600
BDAA21E2
3D8D0CB2
BDA46792
BC9F91E4
3D25611C
BD87DB87
3DA99248
3DB1BFD8
BDBBEDD8
BD1E097C
3CDCC2A0
BBCC5570
3D663574
BD3E5DAC
BD261A19
BD8E4B45
3D33D770
BD9B78AD
3D9AC244
BDB4C50D
BBEF5620
BD846E1D
3B80DD50
3C7ABC78
BCB534B0
3D3A5EC0
BD440875
3CCC3618
BD55DFA9
3D7AD150
BD97D147
BDA0A7B6
3A981340
BD8E2B63
BD26AC05
BD04F77E
BD534D83
3CEB44B8
3C97836C
3C21BC20
3D00BF64
BD33F92B
BCCB099C
BB34EF00
BDC48AB4
3DB046A5
BAA46A13
3D90F70D
BD8A6D6F
BDE0E1D2
BDB5DC85
BD98F739
3D91005D
3CC1BAC7
3C95279C
3D615790
BD9ED7EB
3DC237D7
BC21AB31
BC7B25E8
BD9C003D
3D9E1589
3D7A5B41
BD5BC134
BD2A4916
BD71EA4C
3C84974D
3D8CEDD3
3CB244A8
BCA1B0A8
3E11D8D8
BD96559B
BDD8F9A4
3D9E18F9
BDAB0BD2
3DA5A489
BDE6C767
3D91DD58
BD58F9FD
BD3DCDEE
BCFD9E2D
BCBA47B4
BD4C82F9
3D210EDC
3ADBAE04
3C34CE88
BD45415B
3D21E6F0
3D822154
3DAFB2EB
BE1B0727
BC9B5A94
BDFFCE4C
BDEEE85F
BD7F0177
3D89F0D0
BB593BA0
3CA78D78
3E135B73
3CCBC574
BDC80866
BCBC460C
3D3B2AFF
BC47BF28
3D3C1B95
BA04CFBB
BD5B399E
3DA7C03E
BD634CA7
BD148A13
BC06EA95
3D9A8A10
BD54DA73
BD594533
3CE84288
BD5E8652
BD03A047
3C828F91
3B4CFD80
3C7F4CE0
BCE4A480
3D541054
3D9AD50C
BDB86245
3D4CDCCC
3D220568
3D8F5C60
3DC1AD28
BD7E9EF7
BDA325B4
3D8668E4
BD2AD6B9
3CF8AB58
BD6E9B44
3CDD575C
3C8F6A14
BDDCDC39
3D80A0A0
3D70953E
BDC446F9
BDDAE37A
BCC80204
3D5B6AA1
BDD58F18
3D865464
BB743177
BD893ABB
BDD9172C
BD95DCBB
3D7E6A9C
BD18A2A6
3D55673B
BDA09DCA
3DB94A05
3DC75429
3D955302
BD66E879
BDB5FE43
BD5A7A54
BD45B863
BD9DDA8C
3D5C4130
3D9BF64B
3DB69B39
3D2F2974
3C995018
BBE6FC16
3DBEEAB8
BD5C35CB
3CFA8B67
3D1B2F78
BD965EFC
3C2504F7
3AF57240
3D3D4623
3D005794
BDA01D34
BD1767A8
BD051B02
3CD28201
3CAF34DC
3DCA0701
BD405396
BABEF610
3CE8EDA8
3DB2059A
3D872BEF
3DCE2B8E
3CC69D70
BD82AA7A
3C9BBF94
3DA5F5CE
3DADC3EC
3D872E26
BD5B271D
BD57B060
BD3E064F
3DB1CE1A
BCA703E4
BC28A200
BD36E09A
3AF51600
BDAA99BE
3DC1F9D4
3D5C425C
3DA7B54A
3D057384
3D8A36A0
3DA9404A
BBB49080
BD510D79
3D8EEB12
3D9BCA4A
BD544086
BD9DBA2E
BD63CE38
3C2EA500
BDCECE3A
BB0291C0
BD8827A4
3CD1F148
3D4CECB8
3C5862E8
3D9454AE
BC9CB064
3D606188
BDCF41E4
3D932610
3DCB3F7E
3DCFE62E
3DAE6C6A
BD68071C
3DD0007E
3D827920
3D07F2A0
3DBAE870
BD05EE5A
3D4FA4E4
3B80AC50
3DAE1618
3D071AB0
3C263370
3C8EAE98
3C667CF0
BDBDBC6D
BD98C079
3C370BE0
BD904092
3DADF062
BCC57D1C
3BC52130
3D6F9BF8
3D81D586
3CB08464
BDCC7A5A
BDB86C70
3D52083C
3DBA9ED6
BDB59827
BD1B6E7C
BCBBB940
BDBAC88B
BD27AC0B
3DA64B34
BC677E90
BBEEA9D0
3CD52F28
3B9C37D0
3D849E78
3D86D417
BE2E186F
BD6E378A
3E9FD95E
BDA10643
3CAB7443
BD0BEF3C
3D71AEB3
3D399A9A
3D97D4CC
BD8A06F4
BD9A6155
BDCF0062
3C9518C8
BD8BBB5E
39A0E5B1
BD7E6496
BCD8F8D1
BD136E5A
3D863EE0
3CD80790
BE00F8CE
BDC9FCDB
3C7A1758
BD9977B5
BDB3D530
3D40C0F4
3DBBB3E8
BD88997D
BCF57807
3DC337D0
399B1531
BDC4C340
3D56C39A
BDA8A686
3DF92229
BCF698B2
3DB7C162
3D915709
3DA13C2D
BDBB53E6
BD692A7F
3D2B09B5
3D29B61C
BDCDA041
3DCEC28C
BB8B7FC0
3CA15AEF
BD0A9211
BCBCC55E
BD023CB8
3B9DEE40
3DBE5B88
BD63C312
BD81857C
BDB7CF81
BD4A23DE
BC647369
3D9F2448
BDDF583B
3DE20312
BD0BEC63
3D5F1DE4
3D9A9C5A
3D073EEE
BE31F66B
3C5AB012
3D9FABC2
BDDA62D0
3D04B25D
3D95A2B4
BB82918A
BD45D534
BDB88F26
3DBB0B2B
BD0C1110
3DB818C4
BEEFA631
3CCE3158
3A550A32
BC9AD6C4
BDB882B3
3D40E34C
3D285DFC
BDAE1A99
BDD1230B
3D264A21
3D0DBEEC
3D773BC1
3ED7A24A
3BA0A900
3D8061A2
3E020174
3D0857CD
3D94CDEE
3D80B16D
3DA23ABB
BC0E0AB5
BCE4F501
3DD92F03
3C23E97F
BDD8329F
3D492113
3C7E27F9
BCDA7CED
BDC8AD54
3CF23DC1
BD76D485
BDD27D68
BD634014
BD5C457A
3D4C8FCE
3C14EEC8
3AF39816
3BFED300
3C1D1630
BD916E34
3DB5D3D6
BCCEBA88
BD98DF17
3DA4244B
BD5A529F
BC288748
3D1A563A
3DF1AEE2
BDD82763
3D88D02B
3DA1BF93
3B58C4C7
BB7C33DD
BD505BE2
3C460414
BD665A27
3CE6D09A
3C0139B2
3D5889DD
BD35DEED
3C6CBC58
3D4E5BB8
3D9CE224
3D953CD3
BD88CEF0
BD93B937
3D014B04
BD5B7F93
BD49A8C5
3D0BD95C
BDC2C752
BD85A51F
3D30983D
3DA2F6F4
3D24B5CC
BD115D8E
3DF3D5F7
3C96A990
3D8CE942
3BE777AE
BD28FC7D
BA249330
3D08BAEF
3D1D1DE0
3D2ECC00
BCC65204
3DA4F950
BDC3D65F
3D30FAB0
BDB54B8E
3C6DD0A8
3D96AEE0
3DC78818
3D87BC8A
BD5AA037
BCC06918
3D57C420
BCB1C9B8
3DAEAFB6
3B770000
BD426839
3D79FA4C
3CE00C18
BDC53C8C
3DCF8254
3D773CE0
3D8B88DC
BC3A6C38
BD89F8C4
3DAA03AE
BDC50181
BD931D67
BDC27C24
BD4C592B
BCC589D0
3D7B950B
3D2F2B43
BBFEB9F0
3D7565D2
3D532574
3DC12C64
3D98DAFE
3BAA3730
3C926994
BDA59932
BD22A52B
BD93734A
BD340029
BC8FC95F
BD2261C2
3D74BB86
BD749BD4
BDC48C8A
3CA8C8A4
3C2BACC0
3CE37100
3CC02500
3D8DD08B
3BA24550
BC2E7C18
BDE0FA94
3DBC5712
3CB802CC
3D61C65F
3D980EC2
BCCE598C
3CEF6290
3C8C2FAF
3DAF3AE8
3D8A74F2
BD441D04
3D516CD4
3CD395A0
BDC2CAAA
BD36E5B8
BD056428
BD43DD29
BD7925C8
BDC73E50
BDCBB78A
3C85FB45
BDA4B180
3DA38FF6
BD50E564
BD9B4B66
BBBD1C90
3DBEB2C0
BD1B6EB0
3C316C0D
BCC8EB01
BDB6C17C
3D6C86D1
3AB79E4C
3BF1E0E0
3DC4B540
3D1AB3CA
3CA07E50
3D9190C4
BC3E7F50
BC0DB2B8
3D827C49
BD37A883
3C23CCFA
3DA64B7B
3DB488A4
3DA53C3F
BD9FD553
BD8FE25D
BBA17CA0
BDCDF690
BB21A5A0
BDCD485F
3DA65F6C
BD67A76D
BDD6EB02
3B51A30B
3D278660
BD8BB87C
3D1341E0
BCF80140
BD397C6C
BDA95087
3D7E7994
BD3BD4AA
3D8983E1
3CA66A18
BC867D0F
3D9275FB
BB199C4E
BD532865
BD0A8BEC
3D630D0F
3E90E334
3D98C172
BEA5AB02
BDB6C15F
BD2041BE
3CAB9DCE
BD7C2082
3C916987
3D8A5A04
3DAC15F5
3D868104
BD6241CB
3EA0829C
3DB4D2FE
BE80267C
3DA0E6D4
3C87EBE8
3D9B3122
BD86B3C0
3DC331F0
3DBF498C
3C916E92
3CEDFE40
3D01B88E
3E109C99
BD6F3284
BCC5B390
3D53B832
3C8261CE
BD8BDBFB
394D6583
BC147FFB
BE0B82BA
BE00E95F
3E212CE3
3D350128
3D8AC277
BCD79166
3DB9803D
BD474E2E
BDB76946
3D84C529
3ABB4CC0
390ACE9A
3E0A0DAA
3DAB978C
3D9F94FB
3C6BA348
38D47AA3
3D83DBE2
BDB7DE26
3CABF234
BD620EB5
BD47B59C
BDAA122D
3CF088D7
BD0A7DB5
3CC96FB8
BD2483D7
BE3C4AE2
3D959D94
3DC96693
BD93EBCB
3DC1936B
BDAB7F4D
BD22F7F9
BD9ABAEC
BD09F18E
BD59D1B1
3D1968E8
BDBD9F24
BD883246
BCF49524
3DA6F65D
3CD54A90
BD925B69
BDBA63D4
3D6F5018
3D8398C1
3D827A88
3C434138
BDB0C656
BDAA5DE2
BDBE678C
3CE9E82D
BDA6811D
BC774C48
BD9B4706
3D56D2AD
3C96C2E0
BCF1DE98
3D2F0E45
BD94DA2A
3DB24144
BD9E5BE6
3DC202D4
3A8780C0
3D8D0C36
BDC9D4C9
BD574219
BD52F146
BCBDFC40
3CEA4420
BD9C26A7
BD1C9550
3DBE637A
BDB88ACD
3D7772B8
3CAD2C0C
BD82102F
3CC982F0
3D167A8C
3D6C6004
3D4777C0
BDA4DED0
BD857EA2
BDC59BC5
3BA3E520
BB720160
3B32A9C0
BC618E97
3D6D2B88
3DA95DDC
3B56072B
3D24EF7C
3D92FBF8
BD42CFF2
BD5BDA84
3C5D08C0
BD84FC4C
BC86B350
3CA48AE8
3D208358
BDA9967A
3D4D822C
BD2F6819
BCE011F4
BB6FFA60
BD5BA642
3C256B48
BD6F7289
BBFF5780
BD73E5F5
BBBD6360
3CE6A420
3D9D4B34
BCDF6FAC
BC580AF0
3D9F9C86
BDAA6875
3D8A12E4
BD259A16
BA4E6D80
BC60C6D0
BDCDA585
3C76AE30
BD8D059A
BCCCD3D4
BD18BD34
BD4E7E0F
3B99BE3F
BBB5A916
3EAD39C7
3C87A4DB
3C8E57C3
3D7B9345
BDD6F789
3D638C3A
BCD5D954
3D06100F
3DB12348
BD4A62BF
BE2F333C
3DB27478
BDB5BBC3
BD8FC88B
3CCCB25C
BCF8E688
BCFEB130
3CACA0A0
BDE53325
BD0B366B
BD24F259
3D6375D7
3E0619A5
3DC572CE
3DAA0464
3E242CEB
BD4A6EF5
BD497029
3CA3382E
3C791F7A
BE89C5CC
BD950040
BE631939
BD0045C6
BD1DDA42
BB59140C
BC34F0F1
BD9A471F
3DB9BE6A
3D3F182C
3DBCE0AA
BDC30988
BE8494B3
3DCF1BF0
3E15D5D9
BDB60F5D
BD9E2A70
3DAAB5CE
3B73B140
3D2E1654
BDE36776
3D89814C
3D43B4B8
3BA55394
3EE872DA
BC9AAE68
BC3C8775
BDB48F08
3D80A1C0
3D4DE9DC
BDC92887
BD392E08
3E28E38E
BDF3A6AD
BE7BA4D4
3BB65C50
BC3E1A77
BDADFE42
3DA3588C
3C141072
BDC7406E
BDB45E5D
3D09D170
BA97FF4E
BE8BAB89
BD520B9C
BE930F34
BD5F25AD
3D75EFBD
BDAA42B5
BC0E9888
BD96A136
3E860F3A
3D45665D
BDCF7D57
BDD185C0
3E935C89
3CEA2EA8
BBD103C9
3D294743
BDD4B294
3C1B2992
3C47EFB2
3DA22C73
3E8A4EDE
BD0A69C9
3E093A20
BD43AADD
3D8E17FC
BD780C50
BD3D5F7D
3D8017A1
3B335040
BDD4735A
BD793F18
BD099B1C
3F1504B7
BC3E9CE8
3E1391B8
3D77059E
BC54846B
3DC31D3E
3DCC5C04
3D962CD2
3E8A1FBD
3D27CDB1
3DA71C50
3C8CF1B8
3DD447EE
3D9BAEDC
BD962BCE
3DDE38AC
BCE43380
3C6750F0
BDB37A9B
BCCC06E4
3C267EF5
BD38748C
3E103115
3D0661AA
3CFE173F
3CD81AAC
BD104A0B
3CBD207A
BDB0BF04
3D9CA1D4
3DC2FDF0
3BF49814
3DEB696E
3D168194
3D86116E
3C170E30
BD5147FB
BDB1AD58
3D4A02C0
3D436E60
BCBA3A06
3D9C55D2
3CF2BD00
3D3E3BD3
3E7B51D5
BD521AE5
3D40332D
3C2C21AC
BDBB63C5
BD10AB41
BD277EC7
BC3311E9
BE35339B
3D0AEB4E
BB1F814F
3D306EC4
3D1C9B7D
3DAAE5C5
BDA0C37D
BC7A1C8E
3D2CC79C
BD5A3616
3D894648
BD7E7CB6
BDD7B6AB
BA82F980
3CB86C1C
3D806FF7
3CC386A9
3D90E680
3DC7D8F6
BD6AAAB5
3DEC9142
3DACD247
BDBEF722
3DC02AC8
BE35965C
3C4B7D30
3DB1DC49
BDE8A4BC
3D8F74F9
3D3AD0F6
3D132825
BDC4DC94
BEAEFFE3
BC279A6D
BEDD4B3E
BDD37159
BD8BC1A5
3937A3C3
BCF31118
BDDEC249
3D7660D4
BD24E3E1
3CFADFD8
BDD377CB
BE639867
3DC90062
3D82E3C7
BDC59743
BDC0C2D9
BD805410
BD91B092
3DCC47B4
3EBE5F59
BDDBA162
3D14B914
BCBD49A7
BE10C75B
BDD002A2
3D30587A
BD7E25F0
3DAD2444
3C7AAED7
BD97D060
BC6669C0
3DB868A2
3DC0056C
BD2ECC5A
3D6C8FFC
BDA0F40E
BDA35914
3C9CFF98
BD04A406
3CC1A580
3C5688A0
3C92F448
BD9A8E78
3DC23EAC
3D09A4DC
BD828292
3D85543A
BC301AC0
3D9ED0AC
3DA81A7C
BD912F8A
BDB72C52
3D0728C0
3B9370A0
3D5C190C
3DA804E0
BDA0F92F
3DA78AD6
3B57DD40
3DB67AC4
3D7D0684
3C3A9ED8
3D8BE060
BD133778
BD44FBEE
BD97BA8E
BD21BA66
3D172BEC
3DC54EFE
BCE31A3C
3D54D948
BC8CFA60
3CD5EFA0
BD8C2770
3D42FE74
3B5BC6C0
BD53F104
3C0D9138
BB284180
BD0814A4
BD9DF6BB
BDBD4DFF
BDC056EB
3DC82A9A
BD1EF34E
BD63E9DA
BD27FEDE
BAD0B840
3C511070
3CE89B08
3D5CFD38
3CCB6078
3D58B638
3B74EA00
BD70EFDD
3D05FDC4
BC4EEB70
3D259E58
BD0012A6
3C835FF4
BCB7F928
3D80588A
BBE194F0
3D3A8F64
BC9C7904
3C74E940
3B629100
3D5060E8
BD44B2E0
3D176E5C
BBD1C7D0
3C79AA38
BB79D8A0
BCB16C60
3D4F27B0
BCCC00A8
BD6D5D22
3D0C7000
BD955CDB
BCA62AB4
BCCC465C
3D0686C8
BD50DF10
3DABA454
BD9AECF7
3C77A5E8
BCFDF634
BB8BA1A0
BCFA4FD4
3DC00CB2
BD8469B6
BD812406
3CBED490
BD96094A
BC2B0DF0
3BC4AC40
BDB3B032
BDA2158A
3D8DC008
3CDC7200
BAA97540
BDA18DB9
3D90CF28
3CE7E268
BDCF8F82
BCBD35CC
BBF0D3D0
BD504977
3DB7B526
3C9FFC24
BDC8BF47
3CA73024
BD5DEC45
3D9FC282
3D235C84
BDCC3198
3C5CF908
3DA5BD6A
BDB37D6D
BD76D019
BDC8720F
3D27338B
3D7B0380
BD6656AF
BC37E639
3DA08BDA
BD0D027A
3C290C60
3D61456E
BDCC4E77
BDD07641
BDAE5E92
3CA6A1F8
BDDF619F
BCF21317
BD5E33E9
BD840A14
BDBC4DDC
BDBF820B
3E243EDF
BAFFDC8C
3D74E538
BD3B5DDA
3D86D6F7
3D004034
3D9BC610
3D97A587
3D13C286
3D905B41
BD451660
3D95B39A
BD9FC850
BC66E5F8
3CDDF083
BC975108
BA18C628
BC10F775
3D861273
BDD158A0
BDCD8365
3D931B44
BD9C336C
BD70BC6F
BE4DB42C
BD03F9EA
3D637DA6
3D9613D1
BAE3496D
3DBD16A6
BD0B3616
3D21E418
3E2CD315
BD0924A8
BC956DA0
3D872C03
BD00B512
BD892F52
3D808101
3C886730
3DA864C6
BC60D343
3DB4F42C
3D6751CD
BE13C7E6
BCAA838B
BD612C74
3D722D74
BD4773C4
BDAC378C
BDAA05E6
3D947EB7
BDA40BB3
BD388EF7
3C5908A8
BD307878
BE0BC6EA
3CB474B8
3DE6E2FC
BDBB0738
BD6D77D2
BDA17153
BDA2FE7C
BD60FADB
3E1C4B20
3AA9E414
BCFEEA64
BCBC41FA
BD310BFB
3C665ED8
BD897C5E
3C84D3D1
3D3C9358
3D9F5614
BDC80C3E
BD011D8F
BDC1DFF1
BDC63740
3DE7BEE4
BD8ABCD5
3D364315
BC8127C9
BD71015F
BD0BA3F6
BD8CC8BC
BCED0526
BD44CECA
3DB1F052
3D9E5DF7
3C3A9B10
3CC03C5E
3D05C243
3D918028
3DBC3906
3DC7841C
BD7F6314
3C2B3086
BD05A4B4
3C9D5624
BBBE0BF0
3DC90EEA
BDA2C844
3D52688C
BDAD4DB2
BDA9FD88
BC91829A
BD8DCB54
3D5F4AEF
BD8E9F88
3DC844AE
BDAF6B5C
BCEFE4D8
BDA0554C
3D9C1DED
3DC408B7
3D78D2EC
3D2EBEC8
3D99F88C
BDBDC4EC
3D83DD46
3D418DB9
3C9424E4
BC543258
3D755AA8
3CB14358
BDCCF7CC
3D9D697E
BD5B13FA
BDCA7DC4
3D5A2333
3C2B4958
3D7915DE
3D38811E
BD99C1A5
BBD2A1B0
3CFC43F8
BD69C2CC
BA771280
3CAEC050
BDA82099
3D4AD860
BC8F30E0
BCD69EB8
3D2C5BA8
BCC6E070
BC87B3D8
3D2953E8
BD0E32F8
BCF1710C
3CDA02B8
BD4A8486
3C2F31A8
BC91E6F0
BC871BEC
BD26CD0A
BCE58818
BDC59EF2
BD8F549E
BDCA1962
BCAFFA68
BCB7CFD4
BB645840
3D55F7A4
3D1DEE70
3D9D95B8
3DC2D8E0
3D4C18B8
3DA24D86
BC08A660
BDAB43EE
BDB4D938
BD46A2D9
BD1011D8
BD79F47B
BD19889E
BCBD3A48
3B2F4C40
BCA8FADC
3D149EF0
BB8A06F0
3DBE84BA
3DB79A68
3DA01B82
BD611EA1
BDA8B4C4
BD5B231C
BC1BDFA0
3CCE8020
3D6C86FC
BDB73DE0
BCBB650C
BD4E1DF7
BD83F80E
3D93045C
BBF84000
3DA6FD1C
3D98D0A2
3DAB5650
3D0E3DF8
3D1CB2E4
BC592830
BDA1582A
3D21C608
3D0B64FB
BE081F22
3D0996BD
BDBEC25C
BD1CC709
3D60E1D6
BC47A431
3D93EB5B
BD8FD8AB
3D931D84
BB7796BD
BCBA9620
BDB4B936
3D26584E
3D685B34
3EB57CA1
BCF16C0D
BBF0684D
BD8D256C
3DB76FA8
BBC21A20
3D132B45
BDA2E5B5
3CF09F50
BCD0C17E
BD96C177
BD2454EB
3D1178B5
BE0F290C
3CAB7B5B
BDA80607
BD8D2E13
BD4D9EB2
3C6545A4
BD6B0F66
BD9EDDD3
BD68FD57
BDA66A4D
BD9CF4C7
BDD91FAC
3D63246B
BD803934
BD3FFFAA
BD398C88
3D9D001C
BD763AF4
BC729638
3D81844F
3D24EC2B
BDE132D6
BD4AC7C8
BDBD17FE
BD4CF4E4
3D03DEC4
BC232E86
BAC7A640
3D0C68E4
3DE0E844
BD595B26
BC97F249
3DA8775D
3D9C93A0
BD151332
BDB17CD6
BD775D69
3DA306EA
3C908CBD
3EBDA16B
BD172D8E
3C208042
3DAF7690
3CE6AB04
3D7A3BCF
3B2A5980
3DBFC809
BDB406B8
BBB290E5
BEE51DEA
BC615E78
BE59B7C1
BD611BD2
3D82F424
3D3AC408
3D8BF6BE
BD684931
3DA3E6D6
3D95F41E
BD612832
BC1E5253
3E8F4FE9
3C8F3084
3BBB35B2
BBDCFC2F
BCAC3D77
3CCABBB5
3CE9E55E
3C5E77C6
BDA86107
3D7163BF
3C270886
3D8FEF60
BD80FCBB
3BB25FEE
3D952EA4
BC62FE75
3D4283D0
BD0F8FBF
BDCA18E3
BDC03162
BD0784B8
BD0BACF0
BCF7AE48
BD8277CE
3D0EA3C3
BAB0B380
BD1C32E6
BCAF2E60
3E02BDD7
3D7EDC2E
3DCED8AC
3D52B643
3DEA85F5
3D75A254
3CC4AC54
3D8C6EED
BD867235
3DB2B99F
BD328C29
BDCB095B
3C0534C9
BDBA63C5
BCA46912
BD69D76B
3CB0164D
3C94F047
BC50FD0F
BCCD33C4
3D536B58
BCC119AE
BD341697
3DAA6A12
BDE6C960
BD1EE322
3DEDE390
3D1EDABB
BDD43283
3D8807EC
3A0DA180
BDBF06EB
3CC9E14D
3D782A37
3DBB6508
3CAF238D
3D1051A6
BD4D5035
BD95F07E
3DA12AD2
BDC55E2C
BD7AAAF1
3D96A0FC
3DC3750A
BDC2FF1F
3DBEAE5E
3D31CB58
3D870ABC
BD0B7860
BD8829E3
3D8E3F16
BB141FC0
BC53E7A0
3D86C752
BD4F8193
BD86F9E8
3DABE804
3D76BAE8
BCF65E3C
3C50B668
BB4C3FA0
3C92B498
BBAC01B0
3C6E2690
BC402128
BD1558BC
3DA4B162
BDC5583B
3D4FB700
3D7F1754
3CAEFFBC
BDCB485B
BDA71444
3D8A088E
BDB0E884
3D7C3CF6
BD7E0D8F
3DA7C52E
3C92E8AB
BC51D810
3CC08020
3AD45E80
BC90A024
BDBAED3F
BCE484E8
3D53FA60
BD776AA7
3DB40C5C
3D1D889B
BD951A2C
3DA142BD
3B66EC00
3DC18CCE
BDB9BE8E
BD258EF6
BDD050AC
3D3D3010
3D82BE3F
3DA20C9C
3C556E38
BD8782D5
3DCD127C
3D141414
3D24A649
BD637468
BDB53783
3D839912
BD8F62C1
3DAB13B5
BDA844C1
3D474419
BCF91578
3C489FB0
3D2D85A1
BCB3C360
BD93BF7B
BDC91925
3D0A35C8
3C03ECC0
3D3C1C0C
3C6B1865
BA4E3F80
BDCAD743
BD405B0A
3D51CAE8
BC930A20
BDB39DD0
BD97BAAC
BD9A35B8
BDC2DE2B
BCD6BB18
BD8B545A
3B888654
3D4A0F70
BC585318
3CA959E1
3DB53F88
BDBB34BA
3D857116
3D481970
3CB31544
BDACAC59
3DDBEBFB
3D476498
3CC8F920
BD52CF20
BD95D73F
BD613706
3CFE6DD0
3D8C297D
BD09A0CC
3D7C77AF
BC3BE1AC
3CCF8000
3E1341AA
BD71927C
BB479823
3BB88DF0
BD36765E
3D52602C
3DC0C84F
3DB5C2E5
BDCD6F3C
3D33270D
3C38BF3C
BD079116
3DB0360A
3CCB0101
3D631721
BDB3F552
3CDE08B0
BC5EB794
3DF02E17
BCA603DA
BD257C67
3D1AD824
3D95E47A
BC258A6B
BDA8206F
BDA18517
BDD0C275
38A6C217
3D40D70C
BDACFC5C
3ED3F166
BC275840
3C4413F7
BD8038CC
BDC2FD66
BD651829
BD697E7E
BDA4D501
3DB33957
3D923D70
3CB8321C
3DC5BAC7
3E3151AA
BD9DF758
3DB8C376
BB9B8584
3D3BBA34
3C5F4575
BDA57A05
3D68D731
BCDDA076
3BC41D49
BD081BB8
BDCE8D92
3CD0AD67
BDAF459E
BD052118
3D9F1838
3D2DE878
BD75B0AF
BD472F2F
3AFA383A
BD44E221
BCBDE668
3E28DD81
3D339401
3D814A67
BDB27E98
3DC906BC
3D9721E6
3D85D71B
BD22D1EC
BDCC0566
BD6E9BFC
BD0429C7
BDA4A9A4
BDD4464A
BE603D74
BDB7A863
3D1CBB31
BB981116
BD8A9091
BCD641A2
3D38ADAB
BB9702FF
3CEFB2E0
BC981964
BAC38593
BD81B4C6
3CE1A3E0
3D8932B6
3D4FDBDF
3D92E8D8
3D34E090
BDC52078
BD050078
3D98F130
3CD958C8
BD90FD15
3CE6DF80
BBE83400
BD6DED45
3CC895C3
3DA07F54
BD11BBB2
BCA0D722
BCBF2BFC
3D8115C2
3C9D97FD
BCE7C249
3D943709
BD26CCCF
3D8731C0
3C0F1768
3CAD107C
3DC78998
3DA2CD58
3D2AD058
BC1A9A58
BCB1EE4C
3D63BBCC
3D64349C
3DA1CEEE
3CFC0040
3D3AE230
BD17380C
3DC226D8
3D90AA6C
BD1A605A
3C960064
3C672EA0
3D20A764
BD98D7EC
BD48F33E
3DCA7C60
BDB1B592
BD367263
3BC6D530
3B5A6260
BDBBF357
3D5A87AC
3CDB69E0
BD35E48C
BCD06180
BD3CC4E3
BCD71094
BD28AAF1
BD19896E
BD9F470D
3D456808
BDC3563F
3C7289A8
BCB488E0
3D0739D4
BD526D7D
BDA3DD7E
BCD39E80
BCF0DAC4
3D5DB168
3D117B80
3D782844
3D939124
BD1B4A0C
BDCB712E
3D9AE294
BD1834A0
BD803716
3DCEE140
BCB8FD00
BC8644EC
BD8A90A2
BD56AE28
BD5DB67B
3CB93580
3D132A9C
3DA9AB94
3DB6BA26
3D966147
3C15A92C
3D319736
3E79FF28
BD6517F3
3D4E7C44
BD207D1C
3D87CCA7
BD86448B
3D4BA8A0
BD24BF7B
3DB9AE88
3DB1017D
BE95E876
3D915764
3E75AF34
3D2B7862
BDA41D80
BDB57CB6
3DB1F460
3D574FF4
BDC7856C
3C5EFD98
3D5A9454
3C42BB40
3E161DCE
BC903308
BD45826A
BE0FB254
3AC6AF51
BDC9D202
3D8A4BD7
BC586108
BD7CC86D
BD622133
3E5325CC
BCC0FC38
BCBC1856
BDF1D91A
BD82AB4A
3B0F6CF7
BD61D98E
BCF3974C
B933A200
BDB4D8F1
BEA7C339
3D7F6058
BE70E8F9
3D9898AE
3CE37D88
3D8E9206
BDCBD68A
BD9BDBB0
3E6D0C5D
3D8DD39D
BD8529D2
3CF30BE9
3EF825FC
BC833F0C
3D3DBF66
3DB2256E
3D6CEDF3
3CE4D680
BD0740A5
BD6B9AE8
3E017C74
3C3FDEE8
BEBA7425
BDD3F000
BDC723B2
BDD898FD
BA6B1BDD
BDB09F97
BD9B8D41
BDC19432
BD75CED5
BD97DD30
BDE00AE0
BCFAABF0
BE49B30E
3C8FB3A0
3B05CB6A
BDA9B0E0
BD694C88
3D8AB7A8
3E4FF1FD
3C413FE7
BCEDE688
3C6E90A0
3DA3A862
3DB8E2B6
BD103B1B
BD849888
BDC6391A
3D9093D5
BB5E4E6A

