FE8E
FCB3
13D4
EE0D
F5D4
EE4E
168E
17BC
EF3A
0E9F
0FF9
E838
0C54
1687
EC81
E80E
EAB8
04CB
FFC9
0E50
EED4
F1A3
0896
03F7
DD12
FBAB
124A
1779
0DE2
0701
E909
EFB9
EB3F
19C3
E3E9
135D
EDA3
EC91
D7E5
0BD8
190A
FD35
1263
15DD
EE2B
FA80
F9E4
00ED
0390
0333
FF17
FEB7
0818
FAEF
CFE4
F81B
BE7F
F520
E537
0C10
E6E0
EF51
0454
0382
F80B
197D
C5BD
EB3C
FA4C
F758
FF21
0CCA
1601
EFE1
0161
EEBB
C540
E093
E3CA
16ED
1954
FA6E
F09F
1409
FBE5
1887
E412
DE07
E61E
1290
E19B
F493
0268
09C6
F4BA
F612
029E
0F39
2933
0BA5
EB81
EA28
0493
1808
F3F2
014E
FB32
FB9C
016A
2170
FCCC
1324
198A
F2B3
133F
078F
F8AD
EFC8
0E1C
24B8
BBD2
FF9E
F188
1221
EC1B
113D
FBB7
F20F
EC81
140A
F91F
0E9A
FCF1
0104
1B19
11D9
0434
1963
F6EB
0C46
F393
F9A1
E7E8
005C
0690
FF6C
F6C2
04BF
F324
12DA
004C
F7C7
D422
F188
E42D
E7B0
0C72
0839
F04A
E9D7
FFF2
0670
FD1F
0FFB
15FE
FDE9
0909
14B8
FC9F
085B
1439
16EB
E39B
D443
0EF0
1B84
19F4
F634
083C
F33D
F1AC
006B
066F
DDAB
D209
01D0
E2FB
161A
EF1E
F640
0297
09E1
0012
0444
FFB6
F69D
F648
E96C
0500
E805
E78D
FD85
E7E6
F0D3
219C
1360
1869
EC05
EF17
15A6
F070
1700
ED65
EF33
2D12
E489
0227
0178
F710
0FA1
0D7D
FC34
F8AC
0150
2470
0DEE
E77C
E7B6
F6F0
0905
F659
15D2
F5B0
0354
F795
E940
E564
E50F
14D3
0CDD
238F
0018
FF39
F498
0AA5
080B
3451
3BA4
3BF6
E8EB
19EC
1869
18AC
0B2D
0859
E95B
F7BC
073D
DB5D
1341
197E
F3D5
FCA3
1372
0241
F97E
173D
0BD2
E88C
040B
066C
F782
20EE
2496
E903
18E4
FB6D
1366
1EE3
F5B6
153F
F203
229B
0BA3
FE44
12F6
F58C
FEED

