065C
1560
0B51
05B5
095D
EB0E
0CE5
008C
0385
EA3F
1787
16E9
E5CF
071D
F5D0
F8BC
0417
FFBE
F63A
FF28
FBFD
1391
E9B1
DED9
EE2A
ED3A
D7E1
F514
040E
F51C
0578
F17C
12B1
EB2E
BBBE
EF65
18A7
ED90
EDD1
0F35
05FA
1072
0187
F33B
D288
D2EE
0608
EED6
03F6
1349
F917
FF80
F7B5
F91C
E9B0
D67D
2EF1
E866
FECB
0EC2
FCE4
1796
00E6
0EC2
F11B
E654
D9EA
0A6B
E946
F146
DE92
FD2C
E6BB
140F
E7B0
0681
DC23
E49D
F16F
F9A5
F6D6
0AD2
F813
EE6D
00C5
022F
DA33
0349
2BCE
FAD8
1634
0F89
0EA9
FEC5
10CD
0A04
07F7
F085
FD98
06F6
F5A4
F50C
0698
0B8C
F8D4
0B62
E7C9
1644
D433
F63F
0D03
0681
065B
09E1
EDBE
F550
094E
F2C0
326F
CE0E
28E1
0B7B
E4C4
F86E
EAF5
F981
EBDE
EC92
0DE3
FD9E
FDF9
09C6
0E54
074E
2B7D
12C8
0FB4
09CC
1960
1775
ECEA
EAAE
FC85
045B
1018
FD00
1812
FE98
FFCF
F9E0
161C
4C9D
3D20
E8E9
4763
1354
F0D2
1114
EE1B
163B
094C
F75A
1F60
FC9A
F33B
FDC3
E5C5
1145
EFF3
EC91
F3FD
EBB2
2C74
0385
FC19
0BE5
0160
E147
FE6E
03BF
0EAE
ED18
DE97
1DFC
1B5D
F624
3F50
F55E
18AD
0A7E
1645
EAB5
103F
0A87
E33A
F3D3
FB7E
F5C6
3710
E6F9
F76F
E9F3
1356
1789
E8EC
EBA9
0FFD
FAF7
13F3
FF57
EDA2
0F06
1619
F2C5
4BDF
C51A
14CA
F8E6
FBC4
FDA0
FB0C
F4F6
F30F
1874
E331
F441
1147
EA61
F9DA
152F
0EEA
0352
1791
E704
0306
E713
1CAE
079B
FF9E
1E0C
059D
F77A
F5F2
FD13
FB76
172C
2F19
57A7
38F8
ED0D
4EB4
EB84
F8DE
FF6B
E6A8
0CBD
D62B
18C2
1562
F1B5
03BE
1818
E85E
1684
F29F
0EF7
ED5E
F846
4C4B
005D
F4B1
F438
ECBC
0766
1764
FC66
FFE0
ED5B
DE4C
3EE2
D806
0775
2751
F01F
1144
10E9
0F39
1A04

