3DE95DF6
3E33D248
BD3E33F1
BEA595AA
BE005A2B
3D925EFC
3BDC5BC0
BE09A6C2
BE4DA0F3
BDED1C81
BD64FE49
3DB8B1CC
BD017B95
BDFC314D
BDDDAC15
3DA60574
3E23BB66
3E70C3D7
3E2A5A15
3D9F8026
3C3DDD80
BD7FBFA4
3CB97408
3E4B10E1
3D3A7BEE
3E0764BC
BE1175E4
BDB266CC
BD80CD2E
3E7B0DA4
3E87E09F
BE1BD4BF
BE493993
3DEE245B
BE30EE39
BE638A1B
3CABD2F0
BDAD2B46
3D8AE93E
BD85F1A4
BDA67B43
3E2BA394
3E249101
3E16C8AB
3D80AA79
3CDCBF48
BD50A6F4
3DA0ECDA
3E5D7F56
3E9DAB83
3E4A79B6
3C3B7805
3D573E5C
3D31C547
3D54A9E6
3E156AF7
BD6F85DA
3E0D7E1F
3DC6EA3D
3DDAF959
3DDADFF6
3E78FAD9
3DD76CBF
BE804F84
BD886FCA
3E482E58
3E1E2CE8
3E1EA8A1
3D54C1DC
3D6C97CC
BD3CB00A
3DCA5170
3E2759D2
3E0A26BC
3E044019
BDDC580E
BE005BFD
BD2A686C
BE00144F
3E105A85
BD7EDA88
3E69C6C2
3E4788EC
3D9A9C2F
BD8D8C65
BD96EB9A
BE0CB30A
BE17F567
BE8D02F7
3DF5BCFA
BDB1E225
BD734094
BDEFB282
3DEBCE06
3D748FB3
BC6CBDF1
3E446787
BDAC9845
BE7BFF2A
BE243713
3C903AD0
BBC80A00
3C552B70
BC07E090
3D8AD8E1
3E29374A
3DE70ED1
3B0B28C2
3D88CAC0
BD266222
3D449760
BE48A5F0
3C6ABCC2
3E11703E
3DE4B764
BCE02CC7
BD8DB8E2
BDB47B97
BE0A42F8
3DEBB148
BCEBDE0E
BE5C0243
BD87E2FE
BE182DF4
3D69F094
BDA3F048
3E3A1273
BE18D71B
3E04FD31
BDC3C92B
3D651446
3E2398FA
BDFBDD71
3CC0F5E8
3DBD22D8
BC064760
3E7609E6
3E22B973
BD172789
BBD80998
BDB1543F
3D310A5C
3CC01D58
3DC84AF2
3D8944AA
3E319F1B
BD9257EB
3D959BAC
BDDB5B86
BDDA22AA
3D879024
3DBE19AD
3D9C2EC4
3D282337
3D5640B3
3DCE47A7
3DE83ABE
3D98CF68
BDCADC02
3D7EC51B
BE826D90
BCF060D6
3E4373D9
3E3B73C6
3CD013B8
BC0D3DE0
BD2F8602
BDBD9038
3E23CF02
BD8BAD96
3D561B80
3BEBE3E7
3DBCACEE
BD05DB54
BE053C90
3E2EA31A
3A6F3ACA
3B3C405B
3D4AF443
3D7A49F4
BCECE8DC
3D090A07
BD3BB187
3D135574
BE787694
BD8023D4
3D687C12
BE195527
BDDD1C9E
3E2EC963
BE5090C1
3D8ED0DA
3E1AC36C
3D5A4503
BDE7039E
3DACEFD8
BD21F2C4
BDAA4B24
BDC0CA75
3D067FD0
3E4AF2B7
3D524846
BDC53B79
3E1F1E09
BD0F642E
3D7E6890
BE0D818F
BEA09D42
BD58A92E
BE307630
3D40EB55
BCE412FE
BDC06CDD
3DEFF3CA
BD412C1C
BDA796AF
3E46C00F
BE96A184
3D959702
BD9C6A13
BE0A0F0C
BEC54A53
BE35C368
3E72E646
3DCC20E8
BEB25995
3AD3AF8E
3C6DDA9B
3DC91398
3C726360
BD507D8E
BDC0E5ED
3E011EC6
BD203309
3DF41B3B
3E198D2C
BC4F409F
BDAA2639
BB443180
BDB1039E
3DDC78D7
BEB00A2B
3E08C2DA
BA6041BE
3D373128
BD88E993
3DA12805
3DD1071F
3E845791
BC9E328B
BDF6134C
BD133451
3C3D1FA0
BD9908C3
BE13D782
3DDA1CAF
BE3C9056
BD89F481
3D319602
3E0C5910
BDADA49A
BE0F4828
BD703A88
BDB12B82
BDAD5E2E
BD9592A3
BD23BFE0
3D649D08
BC78323B
3D79BE00
3B9D7F60
3DBDE292
3DFC6708
BEC9B9E0
3D71084A
3DECDCAF
BD80CE1B
3D00CE00
3CC9D8A9
BDC95593
3E76CA52
3E094390
BD95A6E1
3D09DF38
BC97FB6C
BE5769C9
BDA1B5C0
3DEF27ED

