EFBD
EDBB
1A37
07AB
E881
FC69
0F1F
E688
F3B2
FBAB
18AA
086B
F8D6
1381
132C
F4E6
F140
0ED6
EE66
1296
F34F
0427
2C89
F9C7
3679
02F7
147A
0B77
F2D4
F40E
0659
EB1D
F1D6
FFDE
EAB0
EFCE
0030
1760
F1D8
EF1E
00DA
FC90
128C
F9B8
CE2A
DDAF
13C2
19FC
0CF1
1C1B
F80D
146E
E5AB
EA72
0DBD
25CB
15E7
FF65
16F8
ECC7
1131
EE8D
0505
1797
1257
FA93
DB50
E6F0
E9C1
EC80
D7A7
F140
EA27
EA5C
13B6
EF1A
D8AC
DD24
FE99
0383
FB08
04E7
EE7F
0161
0617
E7AF
D28C
080B
2B9C
1691
F0D3
023A
F2EB
FD1B
E88C
1295
150B
EB3A
FA8E
F8C9
0224
17F0
056E
E894
124A
16F5
FA8A
1441
18FB
0ED1
F782
E6FF
06E9
E813
1482
062D
FDC1
F0B9
2639
00DD
065D
15F1
F202
F918
F522
0795
0F0A
05AB
FE73
1428
2F6B
0F79
F5AB
139C
0048
0718
FDB2
0885
F4FE
0685
FEA0
2C97
FFBA
E969
E7A6
FD3C
0905
0875
E863
0086
2CDD
26FA
01FE
E790
25FC
0900
0F2F
11D6
0870
EA12
EC9B
03DC
1A97
0C63
143B
0C2C
1A1D
F4EB
E6B0
02A2
189F
FC7E
0E07
1E68
FCA1
FAAC
091D
E3EC
0B9B
0420
166F
16FC
FACA
20F7
02B8
ECFE
0053
FC41
FF06
F525
F902
E508
182F
F7D1
CDF2
E75D
EB6B
1322
1377
F83D
123B
F687
FFFB
0A27
DAAA
078B
E76F
1CE6
F66F
EF67
FCCF
0C18
F9F1
EE54
1CC3
D123
1421
0783
E155
0E4A
EFD1
19D8
E640
128A
03C4
192D
EFA6
EF81
F620
131D
13EB
0749
08CC
F915
0391
191D
0024
079C
0EF0
EA35
1784
0710
0F1C
078F
EB67
F7E4
1A5F
DF35
0EFE
E36D
F739
F140
F9A3
174C
0CEA
F62C
11D5
FA00
13D2
0680
F614
E711
08C0
F6D5
EEC7
F0A2
FDEB
F251
0EC0
EF2E
EAF7
F2DE
EA96
0BD4
0020
ECD9
EDDB
FDF8
1015
155C
0FE2
10AA
170C
F399
0017
F678
189E
F980

