1D079
1F79F
1F825
1E83C
015C2
00A9D
02601
015CC
00C97
01781
1FA81
1EA8D
043E8
04BA8
1F723
1EAD5
00F3E
1F33C
007B7
1FBC3
01186
016AA
00D72
1CE5D
1D1CF
00779
1E99B
0048E
00236
1FFBF
00762
008AD
1EFF2
1F75A
1F3A0
0069D
0047B
0033B
1F711
00772
1F4F5
1E8A1
1E593
00EAA
01226
1EA09
013C7
01486
00EA6
1EAF9
1E4CD
0139C
00B32
00912
0186B
003D6
00974
001E1
00A73
1FF4B
0122A
1F0B0
1EEB2
1F5C8
01527
1FFD1
1E69D
005C6
1FD96
1F942
00CA3
1FD75
1F476
00EBC
00306
1EE94
1E81E
1FE2B
1F7DD
1E6D1
1F599
0097A
014CC
00299
1EE3A
1F81C
1F5CB
00E3A
1E79D
00C20
1EA16
1E9C4
1E619
1F4B8
0115C
1E89F
001E8
0059B
1F750
011D3
00E9E
01210
00400
1F7DC
1F3D8
1F7F6
008D0
00E98
1FC64
1EEAB
1F48A
004B6
01C00
1FB27
0041B
013FB
0155D
0163F
00E91
009B2
00E02
1E4AE
01825
1EABB
1E76A
1FD0E
013CC
1FA88
01105
1F6BF
1EB10
1F071
005D5
1F43D
1FB63
00BD5
013CA
1EE38
018A0
016DC
1E75D
0170C
1F15E
1F06E
1EC4F
1EF81
01507
1FF78
01773
1F430
1E613
1EAE3
1FB22
1E781
1F429
01553
00A97
1ED97
011C8
00DD6
000AB
1F780
1D721
00FED
1EF30
1F43F
1FA8C
1F912
1F94D
1E814
1EB6C
00988
1E326
0179D
1F337
00477
1EC91
010B1
1F01C
01391
014B0
01050
01F6D
1D36B
01493
0077B
1E494
1F0BC
1E9F7
008AC
00FC0
1E445
1EFF7
1F8B6
01365
01A17
1FE01
000A2
00563
1E8EE
1F26B
00677
00E0C
0030C
00D0C
1E9DA
1F05E
00312
0050D
1EC31
1E878
1ED03
00BF2
012EF
002F9
1F2A5
1FCC9
1E60C
1EC46
00BA3
01912
00F28
0049C
1E979
1E7EB
0077D
002AF
1EF1B
1F636
1EDDA
01533
01197
018C4
1FD41
1F88E
1F49A
1F0F1
1EE71
017F7
1EC1F
00E3F
1FC7E
00F9A
01529
018C1
1F8F0
012D9
1FA77
006E5
00572
1E7A1
1ECA3
00B39
012F8
1EC1F
0152F
1F029
002C9
010B1
1E96F
1F060
1F228
00027
00AD9
1F383
1F744
00E05
014B9
1E292
0081D
1ED14
1FA17
01A56
006CF
1EB96
1E6CA
1F761
1E949
01200
1FCAA
1E77F
1F66C
1F59E
1F989
015A7
001D5
1F1E9
013BB
005DA
01997
1F01A
1FFB6
1EF8A
1F842
015F8
00E9E
0019A
1F15E
013C6
011DF
01633
1ED3B
1F292
1E862
010B6
00703
009C9
0148A
1F341
1F63C
1F3D9
1E949
01444
1E5F5
01527
1ED65
1E9A6
1F323
1EBE3
1F23D
0001F
1FB3D
0130D
1FBCB
016E7
1FF6B
1EE2C
01135
1F810
015D8
00ECE
00767
1F78D
1EFAD
1F2E0
01062
0012E
00833
1F4E4
00233
0068C
01682
1F98E
008FC
1FB55
1EBC6
01126
1EEAC
00433
00524
1F40F
00EB5
005BB
1EC93
1EFE1
1EF27
1F59A
00A45
1EAEF
01687
00420
1E8B5
011AC
00F46
1F4B8
1F3F0
00922
00B7D
1FC9D
007B7
1FE75
1EA68
009B4
0055A
1EB45
01814
00CAA
008EA
011E0
00125
010CF
1EFB7
1F37C
1EC61
1F22B
1FED3
01870
01153
1FEFF
019ED
01602
002DA
00465
00B6B
00FE6
1E8E2
1F7C7
1ED1A
1FD30
018BE
006D8
00483
1EF87
1EFCD
1F8CA
1F485
01569
1F048
0018E
1ED93
01525
013F7
016BA
1E754
1F479
00656
013EC
00EFC
1DD0E
1F77B
00BAC
1F591
1E891
002C8
0179F
1ED94
01384
1F1AE
1E51E
00FD0
1E51E
011BD
1FC56
1F1C9
1FD20
00694
00A99
1FA2D
002BB
1F238
00020
00BB3
02049
1E958
0067A
00141
018CB
010FE
0157F
1E984
01581
1F5CD
1FFAF
0020A
1F5E0
1FB7D
1F5C8
00C6A
00DD5
0143B
0035F
004C0
1F469
1EA65
00048
01001
1EAF7
1F5E1
1E887
002F8
01338
001E9
00A7E
1E6DE
0019D
1EB73
008D9
0199F
010E2
1EF40
1FF32
1F2FB
00605
1EA94
0119E
1F2AD
1FA3E
1E94C
1EEEB
1E965
1EEA2
00A9F
1E83D
1ED66
0100B
1F380
1F8ED
011E8
1E802
1F6CB
1FE02
01893
1FDB0
00AF8
01B9D
000F8
1F4D1
1F821
010A8
01505
1F0B7
1EE05
1E676
1F3C7
1F236
004D4
1EBBA
1E828
1F00B
1F8DD
004E3
1EF5E
1EA02
1F5CD
0056D
1EF65
00DA4
1E608
0191C
013B6
1FAA5
1FB63
003F6
1E5EF
1F50B
1E69D
1EFD9
1F0B1
00E80
1FFB5
00A62
00530
1E7B2
0119E
0148D
1EB98
0040F
017C8
1E63F
1FAEC
1E7BE
005D6
00471
1F0F5
0168B
1FB08
1E274
1FD12
00FAA
011E9
1F407
0194F
1FDFD
1F864
0010A
004B7
00AD1
1EBF3
016EB
1F529
1FBC1
1EFEC
017AC
1E5BC
1EECF
1FE20
1B4F2
00757
082C2
012C5
1FA93
0074E
030A0
1F4D0
009F1
1EE9E
1E88A
1F34F
07AA2
006A6
01343
00A1C
1DE6D
1CBB6
00F66
00B76
002AC
1EA41
002E1
07AAC
1B37D
01738
05E4A
1FA05
1EE14
1E5B2
1E661
00E58
0035F
1F432
04EAA
01464
1FEEA
0081C
008B3
0095D
008A2
006B4
003EE
013F3
02C2A
1E316
001CE
1F6D6
1F39A
1D640
009FF
005DE
1F04C
1FEA7
1FABA
0408C
1F478
0140A
02E19
1F21E
008B9
00137
1E725
016E9
01435
00C85
1EEDF
01438
1EC87
0165F
1EDE8
1E6FF
1F594
0168A
1F1AB
01803
1ED61
00001
00B65
1FE7B
01624
003DB
0152A
0017D
1E905
1FA0A
0017C
004A7
02096
00844
007FB
0094E
1E9EC
1ECE4
1FC14
1FBA7
1F1C4
0030A
1D8DC
1F26A
1E62D
0067C
00B7C
1FED2
1FF63
1F049
1FDCE
1EA25
00724
1E539
001B6
1E763
1ED48
1F079
1F756
1EDDD
005FC
1F48C
01CF7
012CE
00E82
00181
01B1E
0034C
003CC
01694
0151A
012FA
1FEA5
007C3
00301
009C8
1FC34
1FC55
1FDA0
1FEF5
1F255
0077D
1EAFA
1FC61
01758
1E7AE
1F9BB
1F3EE
0004A
1EF80
00926
1FD44
00ADC
1F791
1F3AD
1EADD
1ED94
00899
1ECA5
00E85
00C15
00764
001A8
1EE52
01292
1FDEF
00A13
016B4
01918
0001A
1F11A
1F9C9
010C8
01802
01797
00CBA
1EA0C
0133E
1F755
1F09E
1E860
1EB56
1ECCF
01279
1EC05
1F2B0
1ECB5
013A7
1FAE9
1E820
1FAC4
01529
0183E
01452
0068C
01564
00AAA
1F0B5
1F4B8
1F13E
1FAD1
008DC
014D8
01848
005C4
1E7F7
1F580
00C17
1F818
0046D
1FC8C
00554
1F8A6
1F8A4
0182E
00B40
017DA
00836
1E9CA
00A57
1ED8F
00BC3
1FFEC
1F234
1E6B7
1F1F1
1F633
1F7CE
1D4E5
1E814
1BA3A
003E5
015A6
01362
0106E
1F354
1F90D
1EAC4
1E8DC
00D41
1EA54
01D26
00507
00407
1F51B
1EAB5
1E83D
0144E
014F8
1F56C
02398
1CE6D
02538
00929
1FDCE
00B48
1FE3B
01317
00459
1F2A6
1FE49
1ED86
014FA
1FDFF
01767
012A3
1E7C8
1EBE4
1F107
00B28
00644
00E3D
1F250
009FD
1FB95
00D07
00B53
001CB
1EF49
1F0B1
1FBBD
01676
1EE51
01475
00B02
1F29B
1F982
0124D
1FC87
1F502
1EF31
1F617
01147
1F6C7
1EC0D
00F52
01A19
1EB14
1F0CD
1F6E0
1FDE8
1EA7C
019F2
003BF
00A6C
00B0B
1EFE8
1F471
1ECDB
1F5BB
1F71C
01075
1E5FD
1FC51
1E87F
1FFE2
1FF5B
0164B
01A0A
1ED43
00235
000EA
1F142
1E8E3
1DA40
00886
1E4A0
00F34
1F6C4
1F369
05B3C
1E9F3
1F91E
0034C
1EAC3
00C99
05E1F
066B8
1E9D9
004F6
1E596
1C4E3
1FE01
1F8E2
0158C
1ED1B
000EB
1E590
1A8DC
00654
1B801
1E91B
1F427
1E9FC
1ED29
00477
01A10
00F77
00E17
0089A
1EFD2
00CEB
00C04
1E5DB
1EAA4
00977
01396
1EDF9
1E2F6
1D39D
1FBB7
00DC2
1EBA0
01473
01446
00BFF
1F322
0187D
1FEF9
00533
0095C
1FA05
0247F
005CD
00C52
1E645
1E689
00DFE
1BA3C
001EE
1E872
1E8A9
00802
00E46
04308
00537
1F414
1FC87
1F824
1E5A7
0160A
05776
1FEFA
1F8C7
1F274
0030E
0177A
0116D
00A77
1E5E6
00C65
1D6DD
1DA39
1FE4F
1D381
01098
1ED8D
1E5F0
00349
1E723
1F99A
1F562
00D57
01823
01745
1F3D8
01732
01568
0185A
011E2
00078
1FFB5
03D30
027E0
1F46A
1F4C9
1F8CD
00E43
007B0
1FAC7
1EDD8
00206
1FC7D
02CF1
1CBEB
1FBFB
1FF91
1E6A4
1F5DB
1FCD5
1F53C
0097B
1DED6
01555
1B74D
00106
00611
1FD0F
036B3
00E66
1F544
1F79C
0020A
1EB3B
05314
05A7F
00578
0056E
1F76C
1E097
01100
1F973
000BB
00A6A
1E70A
1B0EB
1D8E5
1F4C9
1A508
1F05D
011F9
1FFB8
1FD9E
00406
00E4E
1E489
1E688
00E49
00775
000DE
1F634
00C12
1F3CC
00F45
1EEA0
1F75F
1E815
1ECA8
01333
005C4
1F279
01227
1F282
010C5
1E708
00F9C
1FF3A
00910
1F61D
0036D
1ED92
0059A
1F69F
1F8E2
1EAEF
00C55
00AE2
1F346
0066B
1F6C0
0116B
1FE64
1EF2C
007D2
000C8
004E7
1F098
1F484
1FFCB
00746
0066C
1F5FD
01560
1E9C8
1F7C6
014BE
0173E
00835
00E8F
1FC99
0006D
1ED98
1FA9A
012EC
00AA9
0031B
00EA7
019CE
003EF
1EE2A
01191
0102D
1EBDB
1F9E5
010D6
00F40
1E798
1FF3B
01368
1F102
0010F
1E9D5
00208
1F2AD
0197E
1EA68
1ECE7
00F02
1ED3F
1FDE0
00925
1F47A
0202C
1E532
00DD2
1E7DA
1F70F
01678
014B7
1E908
1E8BD
1FBF9
1E888
010E9
1F46C
1EF2C
1E9F4
1F033
1F51C
1F2DB
01062
00ECE
1EFDB
1F065
00923
1FB05
1EF7C
1F7A1
01038
1F8A1
1ED15
1F728
1FD5F
1F6D0
1F654
000E0
00562
00ED4
01017
1F525
00D52
0188B
1FD6B
00994
1DF10
1F281
015F8
1EC45
1E7DD
1EBEF
011AE
1F167
01845
00062
0091E
1FC95
1FCE5
00A2C
1E80E
01219
1EF57
00EEA
002A7
00A32
1E9FE
1E2C9
00186
1F849
1EAD1
1F9BF
0004C
00F7F
0027E
1F7C3
1E7D8
010CB
0125E
1F2D7
1F72C
01165
1F343
1F895
00DA2
00D42
00F31
1EFB2
01970
00C3A
00D52
00486
017DE
008B3
0050D
1EB62
1E765
00310
00F40
001C7
1FD14
017E3
00CCC
1EF33
00467
1E82F
1FE60
1FF7D
1FD80
01329
1F1B9
1F8C8
1FE8B
01308
0062B
1E95C
00F04
1FD3E
1EFB4
1F4BB
1EA1F
1FCD1
00D4D
1F03D
1F034
000E8
008EC
1F918
1FD53
01791
1F1B6
1FDFF
1E75B
00992
00C42
1EEC4
1F8B5
00AD3
013B7
1E6D0
01309
1EA5D
00643
0079C
00618
010E5
007C4
1E703
1FADB
012FD
0154A
1EAE8
014AE
0140F
1ED97
1EAA9
00E36
1F54E
00C20
1F7C2
00208
0167A
00959
1EAA4
1F13F
1F5F9
00640
00FD1
0180D
1F87F
1F03F
013EB
00375
1EDAE
01808
01125
1EAA2
01995
00C5C
1F746
1F45A
01581
0155D
1E9B2
0160D
1F50E
015BB
1F5FE
01748
00D6D
01604
1FC78
1F573
1FF5E
01016
00A8D
01959
01459
1EE0B
002D6
00107
016A8
1EB23
01891
00AE1
0021D
00196
0090B
1F35B
1E86A
1F948
002E7
01540
00BA1
1EEBD
01970
00D17
1F552
018B1
1E671
1ECFE
1F734
1FE8D
006EC
1F9AA
00CEE
010AC
1F27A
1F4F8
1E9CF
00BD9
00CFC
00110
1F2D1
1EE02
1ECC6
0022F
1F4B4
1F609
00268
1F897
00ED3
0100F
1FF17
01379
1E8AB
015E9
1E8EE
1E92C
0100D
1E80F
0087F
00CA1
014C0
1E8F9
0148E
0182D
1F74A
0154A
1E58C
00014
000B1
1EA57
00AA0
00299
1E71E
1EC5B
1FB0E
1F4DA
01A1A
1FE4B
0170E
00517
01528
00DA5
0022D
1F6EA
1FA98
00836
1E865
1ED50
019CC
01515
00A8C
1EF98
0005C
01190
0094C
00917
1FEFC
0091A
1EFCC
019E6
1EAAF
1F6E4
1F86B
01016
01456
1F89B
1F353
1ECA3
0134A
1D192
1FF01
1ED50
0103A
1FF9E
1F942
004AB
1E704
01826
01151
1E63A
01A55
007A1
1E580
1F176
011F1
00CBA
1F7BC
00D52
00370
01869
1DB06
018DB
000D0
01731
1EFA4
1E821
01855
00D1D
1E90C
1FC5E
0068A
007E3
1F544
1FE7B
1F891
1EA2D
1EE9B
1E88A
01807
1FD46
1FAAF
01916
00685
1FADF
0045E
1EA54
0056D
1FFED
1E8B6
014D0
00052
1F75B
1F863
009F6
1ED4F
00DCF
1E7E6
1FC77
1EB34
01732
00811
016DA
010A3
0088B
1EE2A
0142B
1F501
1E0A7
00A3F
1FE8A
1FF10
1E75B
1F6DA
1DD04
1FF3B
1ECC3
1F544
0025A
01472
1E507
1EA1B
1E259
1F5A7
1F9A1
011F3
02420
1E6CC
00823
00259
1F43A
00A1D
1FF3C
004D9
009B9
00302
00E0A
1F252
1F4F1
1F5EE
1EA4E
018AF
1E684
01483
00A52
01927
00861
1F4EB
1F504
1E7DA
1FA1E
00F75
1F305
008D8
1FB57
1FB3A
1EA15
00B17
1F3B1
1F5E2
1FAA8
1EEB7
00285
00C42
00F9F
0049D
01F14
01489
00141
00E19
1E793
1EE2D
01294
1EEEB
0050F
1FFCF
1F99A
1F378
1ED50
1E595
1E733
00856
0006F
1FDCB
00C66
009B1
1E53E
1E59E
1EC05
1E377
01E1E
00ADF
00EBF
1E498
01A08
00B67
007DB
013BF
1AFB7
01802
05F6D
00E3B
1FB34
1E6C7
07A69
00CE2
1E9E6
0124A
1F3D1
00FC8
03A46
00BF4
003B1
0068B
1DF8C
1BE26
1FBA6
1EE3E
1F0C5
1FC14
06447
07503
014E9
1F3E8
04DEE
00DC1
0138D
1EAF9
1FA36
004F6
1FAED
1EB27
1EE71
1E4DC
013A4
00DFB
03A23
0129C
1F20C
1EA52
1EE6B
00166
1E68F
1E549
00EFB
1FCCE
00EA5
0006F
1F668
009FC
1E777
00F0A
05731
009ED
02E61
1EACE
00B71
1FFF1
00690
01295
01763
1E6CE
01354
1FA36
1EEEF
004D5
00391
1F9CC
1E72E
00BBC
1EDCF
014B9
1E839
0005B
1E251
1DCA2
007F0
1F33A
01C55
01A65
002AD
1F9F8
1F466
01112
016E3
01449
01B9C
002D6
01C51
1F501
1F2F9
1E6EF
1F0A0
1EE10
1F428
012AD
1E19F
1EC9D
01110
000E4
00EA0
00F2A
00D28
1EBC3
0060D
1F91C
1ED10
00A80
1F008
0125B
1EDC3
00FD2
1FF3B
1EBB9
1FB2B
1F111
1E971
00D5E
1FE0B
1F21D
1F58C
1F841
1E6F8
1E9E5
1E63A
00B0E
00355
0137F
0199C
1E956
00BCC
00C62
1EC6E
1EA21
1EAA3
1FA04
1F029
1FC40
006B4
1E60F
005FF
001DC
1F814
002C2
019A7
01705
1F861
1FDB2
1ED07
1F1A1
00E04
1E7E1
1FFB2
013E7
0159D
0037D
0165E
1F206
00BB8
1E783
0080C
00625
1EC75
1F1DD
1FA9C
00F3C
0194D
00D90
00860
00B3D
0036B
006E2
1F3ED
1EDC6
00D4C
014A2
00EDF
1F08F
00943
1FDCC
0108E
1F10A
003AE
1E8DE
1FC9F
00071
1EDE9
0036A
1ED93
015E9
1EDEC
00A5C
011DB
1EDE5
1E66D
1FABA
01257
00766
002B0
00639
00718
01352
1FA49
1ED3F
1FEA3
012F4
009A1
1F6D9
01008
00AB3
0071F
01282
0089B
1F8AF
00F1F
0060E
00629
1F06B
00AD9
1FF37
00F8F
01678
1F257
00636
1B655
017CB
01495
1F592
0090C
00436
1F4C4
1EDFE
1E4BF
1FE06
03A04
013E6
00981
1EBE7
00497
1EDF0
1F21C
1ED4B
010C2
00150
1DD1C
1D051
1FB2B
1F2D2
1C26C
009DF
1EF45
00F4A
1F6E4
1E641
1FC48
010BD
1FF7E
1F36D
1F68E
000FC
1E604
1F39D
1EF21
00AE7
01801
00C5C
015B7
01472
1FB9B
1E89A
00D95
1F752
1F775
01221
0138A
01491
00CFC
1EB21
00A25
01789
1EA0D
00526
1FEB1
1EA98
1FA7A
01672
00142
1F4EA
1EF1A
1EB80
00506
00D9D
1FFDA
01658
00A44
00DC9
000F9
005DF
1F042
01402
1E84E
014BE
1F4E0
1EC1E
1FEAF
009BB
0022B
1F361
1FCBE
1EDA4
1FA4D
00224
1FB2D
1F1A0
1FE47
012FA
00203
1EEFA
1C947
1F8DB
1C70B
1FA42
1F27C
00153
04573
1EB6C
1EE34
00065
1F85F
003B9
053DF
06917
1F730
1FBE1
1EFD6
1C3F8
00E1A
1F619
00F37
1E88D
1DCA2
1A9A7
1AE9A
01195
19E39
00C24
0190B
1EE23
1FEB7
013AE
1ED06
1FAE2
0116A
1F670
00CFD
1E758
00A5C
1E6CE
1EB79
1ED9B
00BB7
1F87E
1E0CD
1DC02
012FC
00F78
01660
00433
1F0AB
1E7EB
1F597
016C5
001A3
1F041
02086
1FA97
02086
00C19
1E629
00C15
009D6
007D3
1DF77
01190
00565
1FC79
1FD9C
01803
038C0
01523
00153
00B85
008D0
1E647
07E52
047AF
1EDD0
003D3
1F6AB
1DAAE
0096D
1EAE1
01878
00118
1CC64
1E2A8
1BC22
1F087
1A405
1F5BE
1F1E7
0072E
0126F
1F671
1EE6A
1F5A7
1C9A1
1F43F
1FC64
1F33E
01FF4
1EA79
1F959
1E8C7
00E39
1EEB9
02B8F
04E77
1ED4D
1F571
1F625
1F26C
00F95
01587
1FB77
00B78
01EB1
1DB21
1F675
1EE9F
1FD48
1FAE3
00152
1E8D1
001EA
1E96E
1C515
00A4F
19CE6
1F221
1F5FA
015DD
02D23
0052A
1E899
00B1C
00110
0018D
0256B
03BF5
000DB
0104D
0061B
1FDA3
1F2CD
1E5B3
1F4D3
1EFFD
1D697
1F187
1F558
1EF05
1D9C6
1FA36
014B6
01657
015AB
00CF4
01B28
0064E
1E7B2
1FBB0
1FAB7
1F8AC
00705
0092F
00A55
1E865
1FE64
1EBE4
1FDBA
00407
1EF4D
1F793
0042F
00AA0
0145D
01136
00472
1FDC7
015F2
00517
1F3D3
1E62F
1F610
00EE6
0077D
1F052
0028E
00130
1EA8D
1F8E6
1FFBA
00417
1EBAF
1EB6F
00D2F
01802
0004C
1E938
01049
1EE30
1FCBE
1F5C4
00263
1FFE9
00D74
00680
1FD30
1ED5C
1F6D7
1F608
00634
1EB1D
1EA77
0196B
1FDA1
0105B
005A5
1F10E
1F3CD
0037D
003CC
1F5F2
0067B
1EE0D
1EC6F
01227
00FA3
1FDB1
1FEF8
1F684
1F3C1
00D43
1F3E5
00A80
00D11
1FD27
01400
007A5
00A77
1ED3B
01793
00887
1F501
1FD6C
0112A
00EAB
1F343
016F6
1F6AB
00E22
00398
00751
1F64C
1FA52
00554
00958
012D3
00921
1FC4F
1FD9A
1F7CE
0043E
1F219
1F812
00ED7
00A13
1F10E
00B0B
00677
014EC
1EEF7
018F4
01459
001D7
00EF9
1E7CC
1FA0A
1ED80
01935
005E9
0104D
1F396
1E969
0076C
1E9BB
1EB9E
015F6
1FE61
1EDED
1F909
005AA
0041B
1FEBD
007AE
00510
01498
00B12
019CB
1EAA2
1FE6F
1F6A1
1FB83
1E5F1
0163C
1F740
00CD1
1D4EA
0168F
00EE4
1FEA4
013FA
1F424
00DC0
005B9
1E88C
011DD
1F804
00D4A
009E2
1E8BF
0056D
1E677
010FA
1F7B8
1F433
1FB0F
01807
0026F
00DB6
00C2E
1FC8D
0026B
1F75D
1FC66
1ECA3
0049F
00C36
1E60C
1FA84
00A83
00558
00500
1EAC9
1FAEB
00B6D
0148F
01819
1FF51
00D45
1F1AB
00314
00325
006CA
1FE2A
1F368
1F3EC
1FA0F
1F023
1F265
0011D
004E6
1F5A5
00949
010D3
009C1
1E867
1EED4
1F62D
1EE66
00E25
0045A
1E959
012A3
01041
1EC54
1FF15
1FB70
1F526
00C49
011C3
1F6A9
1ED67
00169
010FE
1EC49
00675
01799
01317
013AE
1EC6A
1EFD6
00328
00EC4
1F10E
003AC
002FF
1F076
00793
1F42D
1F02D
1F54D
00A63
1F7E1
019FA
1E7B2
1E620
01758
1EC7A
01989
1E8FF
016A7
1E9AA
1F91A
01071
002E8
00BE0
1E5E3
00FA3
0116F
1EBB8
00852
00C01
1FDD6
1F3CD
00D97
1F75B
1EE1F
00529
1EC5B
00C6A
1F2C3
01386
1F169
01513
00DE2
015BA
1E83D
01261
00E16
1FE4E
1F14C
00F66
1F0A3
1E808
011E9
1F100
1F501
004CB
00E9F
1F75D
00C74
1F54F
1F550
1F410
1F63C
00CEF
1EC49
0178E
012DE
00E17
00C4A
00201
1EB25
0191F
1F41C
017B4
1F8B4
014FE
1EC16
00EFC
1F38E
015C6
1F631
015C0
1F254
019FE
1FC22
1FB87
004EB
01612
017BE
1FD5D
1ED10
0003A
005F9
00D58
1E663
005DB
1F078
009AD
00A73
00B47
010C3
007FE
00334
00ECE
1F92D
1F53E
1FFC5
017D2
0161E
1EA14
1F39C
0059F
1F178
00E33
1EFAC
1F8DE
1F893
1FC52
0077A
007B1
01831
1F81E
014EE
018D4
1F2A9
1FB0C
1E9A3
1F460
013EC
1EB12
010B7
00193
01851
004A0
00909
00C85
1FB37
1F416
1FF98
1F870
1EB6E
00870
0033B
014B1
1ECE9
1F5CB
016C8
1EBF0
01836
1FB84
1FA58
1F08F
1E782
1F628
00A14
1E8D3
0067C
010C1
1EF0B
1FE2F
1F5E2
00BF7
00279
1FC21
1FF3E
011D1
00C4E
1FE34
00CB3
1FF22
1E394
1FF6E
01352
1E89B
0159F
1FD1F
1EA9E
1F9C5
00993
00C50
1FED2
1F912
1EDBB
0059F
01607
00B6A
00C4C
010A8
001F4
1E9EE
1E6ED
1FD87
1EC15
013F7
1ED11
0115F
006FA
1FC47
1F91D
00E13
1EDBA
00B17
003C0
1FA28
1EAC1
00B30
01116
1E791
0132F
00EE3
1E5FC
00CAF
01F90
00261
009A8
00975
0005D
1FC97
1F12A
1FE74
1F7A7
1F4C9
002BE
1F1C4
1FE51
1D85A
013A4
1FC00
0059B
1F78D
007DA
1FD18
012CC
00372
1FE87
008DC
01530
00F87
1FEBC
1EF28
1F02B
00A57
00D8E
1E7AB
1F324
1FBFF
00493
00F87
1F8F4
1F483
1FB4E
1F6EB
1F774
00459
00BC9
00676
1FBD1
00DEA
0173C
1F2B3
0172B
014A7
00010
1FBCE
00DE6
1E792
1F7CE
1FDEB
0108B
0146D
1E64D
014B4
1EC80
007E5
006A0
1FFF7
007AD
000C7
00EE5
1F956
1FFD3
1F077
1E508
00EE9
01568
1F575
0074F
016EC
1E247
1E27B
1E786
00120
1EEDC
0058E
1ED8C
00044
00E03
00A28
1E4D9
00C3C
01D32
1E3E0
00F64
0115D
1EBD2
1F8AD
1FB84
1FB18
1D8CF
000B2
01779
1E803
003F6
01840
07E5E
01876
0172A
1FE71
00551
0060C
1E61E
03C07
1EF93
033A4
02AE4
1DD43
00D97
0016E
1FDFC
1F40F
07596
1DA36
01D84
01189
028FA
010C3
00F5A
013F9
01793
1E460
1DCA9
00398
1AD78
1EB20
1EEBC
1FE59
01AB3
0194D
004A4
1E7A4
00013
0142C
1BB70
0191A
1ECCE
00786
1F84E
1FEAA
1E8B3
00054
00937
1FD9C
040CE
1BF4C
02722
1E4AF
1DA44
00196
00F3D
1F482
1F451
1F38B
01E31
00E6A
00E24
1F3EC
1E7E3
1FA57
1EE6D
1E691
1EC6B
1F993
1E6F1
1F215
1ECDE
1E734
00525
016F9
00A94
01618
1F7F9
1EFB6
1FF20
1F5BC
1F6BB
016CC
013CE
00D8D
1F7E5
1E4A7
01014
1F202
1E5C4
1F5A8
00C15
1E379
012E3
00BD6
1E768
00B81
1DF2B
1E6A9
01698
0187C
00306
1FA8D
01442
00D22
1E851
1F23B
0076F
01274
0160D
1FAF7
015A9
1FCBE
1E7D3
019DB
0173E
012DD
01A5D
016E4
00BEF
1FD56
00EA6
1F58E
1FB65
016B7
0118E
0174B
0095F
017DB
1F4A8
00372
010AC
1FA3C
1E69B
003B0
00E09
01589
0089C
1F221
001D4
016C3
1FE31
1EE29
1F145
1FCB8
00DB7
01164
013FA
01190
1FAC5
001F4
008E8
00FC5
011AA
1FE0A
00571
005BA
1EE78
00543
01373
1F50A
1E986
1F87B
00F57
1F060
000D5
00D7F
0111F
001B1
015CB
1EA0B
1FB0A
01594
001D8
0112B
0031D
1EA4F
00931
00643
00208
0169C
1FC1C
1E778
1FDDE
00FC2
1F16D
1ECE3
1E816
0120D
010BE
1EEEA
007CA
1F319
0133B
1E75D
00A0C
009E4
01114
00E65
1F9D1
00C88
1FEC0
1ED48
1F2BF
006F8
1EF5C
1EE6C
1EF78
00E97
000A5
1E66E
012E5
1E760
1F9F0
1F6FB
1FF5B
00EAA
00DF8
00B42
1F717
1FD5D
0057C
1E68B
1F282
00EC5
1E710
1FB16
009A0
0022B
1ED25
01081
04925
03101
1F18D
1F637
1F840
1F230
014AC
0077E
0135E
00358
1BED8
031C5
00990
1F0A3
0057F
01010
010A4
0077B
1EE50
1F7D7
1FA83
0070F
01293
1EAF9
013C6
1F582
000CF
006F9
1FFA5
1E608
1F51C
1FD07
1F8F8
1FD73
00EFC
1FA79
1E801
1F19B
013C4
1FBCB
1F6AB
1F15E
007C8
1FB8A
1FAEF
1F8C9
004EE
019E1
00AA7
1E772
00C51
1E87B
1F7FD
1EDC2
01908
00CA3
016B0
017B2
1F69E
1FE04
1F3BE
0136A
1F028
0011D
00D4E
01783
00C01
011D4
00832
00876
1EECA
00A76
01602
0100F
01431
1F7A6
1F539
00D6F
00454
1E789
1F009
1EFF6
1F94E
1EC9F
1DCFC
00BDA
1A7CC
1F2C6
1ED62
0049A
04069
00A0E
0047F
00E46
1E652
002C3
04302
050E9
1F6C8
1E206
1E618
1C3CF
1F9F9
015D9
1F613
00EC5
1B5D1
1B65F
1CA3B
00CED
1C007
01620
1FFE0
1FBBF
1FA82
1FE44
00C34
014F1
00EDE
1F5F6
00EBE
0119C
003E5
0125B
1F9FB
0014B
013FE
1F737
1F677
1FB04
00D95
01442
0128D
0033E
1E4F6
00F03
00C3B
1FDDF
1F767
001F7
1F666
1ECC0
1FFFD
1F730
1E868
1E7C6
1E614
1F55E
1CFD1
001D7
01560
009D9
008A6
1F094
03387
1F984
00402
00FE8
1FF40
1FC56
056AC
057CD
1ECB9
1F2C9
1DF57
1F85B
1FD5F
00A6D
010E4
008A5
1F358
015E8
1C66E
00E96
01644
1FB86
00A33
1ECE5
00325
1FDFD
1DE15
1EF02
1C9B2
0069D
007B7
00154
02012
1F9B5
1EE86
1FD4F
0019B
1FE0A
029C3
01FC2
00771
00F7A
01293
1F415
016D5
00331
00B65
1FE7A
1D92D
1CCD4
007D1
1F3DE
1CF50
01715
00DFF
014FD
1F6F6
1F188
1EA74
00506
041F6
1EE97
1F518
1F62B
01D9A
002C2
1FB55
0045F
1E5D3
1EC73
0359C
04817
1F646
1F87E
1E1B1
1F7F0
1FEE5
005A3
1EB7F
1FD5A
02921
03709
1ABAB
1FB8B
1FC19
00053
0160B
1F4EE
1EB72
1EBB2
01015
004A6
1EAEE
1F28C
010B1
1EB39
1F23B
1F960
1FD76
1E66E
1F8CA
1EB8A
00EDA
01D4E
008BD
1FFCE
01050
00921
00498
1F730
1EBA5
1FF11
00309
0182B
00E8D
1F9C2
00F25
00D70
1FA47
00234
1F4BD
1EE3C
1FF5F
1FE3F
008E7
015EB
1F0F1
1FFB1
1EB12
00752
00BDE
00789
1EA39
0199D
00E43
012B1
1F8EC
019D3
1F043
000F2
1FCE0
0170F
1EFF0
1FD2C
1E94B
016C2
1FAB7
01247
1FD14
00A8F
1E983
006FD
1F212
01159
0100E
1E828
1F04F
1FF83
003AC
1E96F
1F8FF
1FF40
01410
1F3E9
1FFD3
1FC10
1EFB1
1EC52
00B94
1E873
01B80
1EC8D
1F639
0086E
0066F
0040D
014A7
1F118
1F430
1E8C3
1F617
0030F
019A5
00047
00735
00825
1FFD8
017D5
0058C
00E5F
00422
0132B
1FF27
00619
1FCDE
00AC8
1F05C
0032B
1FB80
1F11C
1FF21
010E4
1F97E
1FAB0
00E1B
011F3
1ED3B
000A9
00076
0183A
014B7
010F6
1F695
0122E
1FB52
1FE2B
1F314
00E31
1F0CF
1F2C2
1FD42
1E6CA
1F8F0
1F1BE
007DA
1FC16
004B3
1F46A
1FACE
0094C
01233
01DAD
000F5
1FD3C
012A6
1FBBB
0170D
1F905
01139
1F7B3
00F30
1E014
1D990
1EDE8
1E557
1EBCA
012CA
1EA50
017BC
1FA7B
00F2E
00504
00EDE
01682
1FD79
1F7C1
008EA
006A4
1EE8B
014FA
1F06F
016C2
01633
0010B
1EF01
0071F
00174
1EA33
1FBA5
011EF
01450
1E95C
1E8D1
1F017
00F7F
1F8FB
1F213
003A8
007BE
0012B
1EB5E
1EA2A
1F7EB
01644
1F398
00B32
00B56
00128
1ED7B
1EB62
1F603
0142D
004FC
1FA64
1F6E1
1FCF0
1F6D7
00D2A
0153B
015A8
00CF4
1FE5D
1F766
00B68
1FB81
1E71C
01756
1F8BB
1EAFB
00B92
1FAC7
1F7C0
0139E
1F373
1FC21
00030
000BD
1E4B7
1EF30
1F842
1ECEB
1FC54
1FE18
1F83F
1E94C
1EE58
1E97D
1E7F0
00749
1E9E1
00E54
000D8
1F569
1E7A1
1E8A9
0011D
00287
00BC8
00FDD
00D63
1F283
1FF6F
000C6
0087A
003C0
1F3CD
01A04
1F5DF
1EE64
017A6
00292
01341
00B2E
1EC2D
01786
00DC1
008DF
1F10E
005DC
1FB0E
0184E
1F967
1EF1F
1F9D3
1F403
1F538
003AD
0086C
1F2FE
1E604
00AB9
1EC51
01680
0055A
1ECEA
004B9
013C0
0126D
1F515
1EA50
1E94D
00B16
00D6C
001F0
1FFF2
01160
1EE71
1F272
0002E
1F3DE
00740
1FEE6
1EA0E
1F058
00248
00453
01335
00093
1FCA1
007D9
00170
00A19
1FE96
01990
1FD85
00804
1FFAE
1E9D2
005E7
1F275
1F8C3
1E91D
003C9
000DD
01356
002D3
00A6D
00632
00FC7
1FD86
1FBD4
00F67
1F0E7
014F6
1EE9B
1F2E5
1EA20
1FD62
00CCB
0124A
1F46E
003DB
1FC82
005C3
1F8BF
001E5
1FAC0
1FE37
008B0
1FCA0
01020
01133
016E7
1FF16
1E624
017FA
1F742
01005
1F283
1EAA5
006CC
00EB5
1F3FD
00B25
1F497
1EBD7
000FD
1E912
00EA8
010C6
1F698
1F82A
1FA9C
01532
003B6
1FE02
008C8
1F8AB
00513
00613
1FCDE
1F3D5
1E836
1E83E
1F6CA
1F7EF
00269
1FA0B
014A5
1E7D2
0296D
1FFFF
1F9A9
01566
00AE9
1E663
1FB87
1FC78
01789
1F39B
01CD7
1F232
01748
1EF49
017FD
0008E
01614
1EFC7
1FEA1
1F316
1F2F4
1F7EC
013CB
0155B
013FC
1E7BC
1F867
1E943
01251
1F315
012E1
00725
0030E
01805
000A4
1F023
1FAF1
1EDBF
1F66C
0067A
00485
009FE
00446
015FE
1EDE8
012B4
01428
01793
1F4FD
1F9BD
0096C
1EB31
00936
00CCE
1F624
1F3D4
1FCEC
1FD8B
011E4
1E666
1D186
1F330
1FC86
00AAE
01434
00137
1ED1A
007D5
0107C
001BD
001F3
1F92C
1F338
00559
008E3
1F58F
00269
0045F
00F62
009A8
01052
1E0F1
02316
012D9
00A22
1F787
1F156
1F42E
00A01
00D3C
0092A
1FCC1
00AB5
1EBAB
00872
1FEB0
0148B
1EC94
1F062
1ED77
1F2A2
1F8DD
1EED7
1E9A1
00EC2
00319
00C05
00311
0111A
001BE
0001C
0037F
0145B
014A8
00F45
1EDC0
1F527
1FBCF
003C3
1F370
0055C
1EE74
1F3AF
002B1
1F40B
1E825
000FE
1EAC8
1F9DE
0155B
01257
01558
01614
1E946
1E6A4
0085C
013BE
1FFD7
01B87
1FFDA
012C9
1F951
1F1CE
1E86E
0001A
1E354
000B2
1FC49
007B1
0131F
1E690
012CB
1F9FD
1E993
1CAFA
1ED8F
01F92
1EBA4
007DB
00240
1EF21
1E765
00933
00E8F
1E624
1F842
012C4
19F0E
1E441
0218D
1F35D
1C42B
0080C
005AA
1F7C8
01124
1F1F0
09623
053F4
015CC
08092
1F9A7
005EB
00520
1ECB6
00C27
1E531
00E16
00785
1F0DA
00FA6
1F02A
1F98A
00908
1FAA8
008EC
1F04A
1E643
00587
1E504
0108F
01B89
1FEC8
1D0E6
01606
1F27E
1F66A
00AB2
01C1B
05AB2
01D46
003EF
0609F
015DF
006D2
1F1BB
00E63
00CFA
01427
000E5
1FD8C
1F69F
00BB4
00020
00A6F
1EA65
010C8
1F567
1E763
1EC7F
011C5
1FF65
00B23
01ACC
1F6A4
1F42B
003B9
1FC4D
1EC15
1EC14
1FB79
1DD8B
01A2D
002A5
00D37
1F397
1E94D
017D9
1F803
1ED2B
00FFB
01491
00CEF
014DC
1F6B2
1F137
022BF
0096E
1EE45
0177F
00C66
000D8
0048B
008A6
00566
1F72E
1F13D
1F0EA
1EA16
1E5BF
1E595
1EE40
00D3D
0096D
01186
1E48C
1EDDF
0024E
1EBD0
01445
00EF9
1ED55
01691
1E780
0196E
00BD4
1F1F5
01493
017BA
1EB0D
1F6E6
1FECD
006B7
0005B
1FE81
00A7F
1EA5F
0141F
00575
1F2CE
0080E
00210
1FA53
1E6AC
1F986
1ECB3
0125A
0042F
1E85D
0056F
1F170
0077F
1ED21
1F3BE
001C6
1E998
1ED02
1ECDE
00F23
1E5EE
008A5
015F2
002AE
015D6
1EF3E
01776
1F96D
00A0B
1E987
1F2C0
1E743
1F7AD
1FBB6
1E771
0116A
00B5B
1FA68
01479
1F3E5
00909
00787
1E604
1F781
1EAED
1E975
1F8D6
014C1
0193A
013D9
1FC9D
1E706
01785
1EE7E
0166D
1FD2A
1E94D
1FCD8
1EDE8
00657
00C71
0187A
00CC1
1EA83
1F4C1
1FA70
01620
1EEC0
00566
1FD6C
019B2
00A22
0174D
1FAC3
1E999
005BD
00B40
1E6C2
1EF7C
00317
1F35F
02378
0036D
00E14
009F4
02031
008FF
0030D
1EA7E
1FC86
00241
01E60
03FEF
00B17
00F5E
00FE8
1FE46
1EF52
00E11
00643
00701
02E7B
1C706
1DBB6
1F321
1CA31
1E50A
1EC12
0115F
1FED5
1F3D2
00DA1
0060B
00382
00E21
005BB
1F528
012CD
1F753
00D9B
1F499
00A0D
1FAB9
1F1A4
01749
0072F
1EACD
1F2AD
007FE
016D0
00E8E
00604
00D65
1FEFA
00CA1
1F41B
013AA
003FF
004BB
0048E
01537
1E67C
1EE52
00CA9
0033B
1FE97
1F836
00815
019EE
0016E
1F7DA
001CE
00E90
1EF8D
1EBCE
1FDF4
1E660
018D9
1EAF7
01065
1EFD0
0067B
01162
000E7
1E644
1FCB2
00683
1F823
002B8
00424
1F8F1
00F5F
01459
1EBD8
1E743
1C533
00836
06935
0076A
1F1C5
0075D
043EC
1ED71
1E99B
016DA
1F4A7
01203
060C8
0524E
00066
1F815
1DC1D
1D643
1FDF0
008FE
014C5
1E858
04857
06053
189BD
1E5F1
1F0C2
1FD1D
1F433
0017C
00337
0033F
1FEEA
1FE6A
1FD95
01556
1E789
1F5CB
1FA5F
1FC46
012CB
01053
01439
1FEBB
011E4
015E9
1E6C1
1E78D
1FFB7
1F246
01158
1FC9F
016EB
1EBC3
1FAA1
1F8DD
00ED7
1F46E
01181
00E0E
00600
00D2F
1F351
1EB08
1C4CE
1F942
052B1
004EE
00C1D
01787
038F8
01117
1F300
00881
00968
1ECFF
04541
032A6
1E8F0
000FC
1E64F
1E798
1F5D0
1EEC0
1F2A8
01732
03A2C
005F4
1B838
1FFF8
1CF60
00E0F
011BF
1EE28
00AFB
1F84E
1D29E
003DD
04918
00F7E
1E64E
00735
01590
01730
00135
01682
1FC29
0126E
046F3
031FD
01585
1F502
1F6CB
1D438
1FC2E
013C1
1FDB3
011E8
03252
05345
1BCA5
1FA6E
0343D
00AE6
002A3
01927
1FC94
1F3DD
1E8BA
014CC
06647
1F77D
01808
1E6A1
051F7
008CE
1F0B5
00342
00D90
1F2E2
045FE
0354B
01586
1DC43
01A6B
1ED6B
1F25A
1ED45
1EA42
015AF
03294
04241
18AAC
00F98
1F681
1F452
01870
00099
1FAC3
1EF65
1EF90
0105E
0041A
1F936
00033
1F36A
00D0E
002F2
00A89
1ECB2
1FCE6
016AC
00E32
01466
1E7B7
1F0D7
00EA5
1F782
0047D
00747
1EC2A
1EA98
1F85D
1EB88
019BD
1FC98
00B5C
1FBC7
00C0B
1FA14
00AFF
00E42
1ED6F
005DA
1EDDC
01153
1FAEA
0168B
007A8
012A9
010E1
0154F
1EDF0
00068
1F40E
017C2
1F4A9
1E9AF
1FFFA
01963
1F683
1E681
1F44D
1EE48
1FD72
1F778
00236
1F1A7
0033C
00F61
01168
017DE
00E25
00659
1FD36
000FF
1E7EA
00C38
00327
01029
1EF34
0001C
1F6F1
1FC27
00F2D
1F502
00ADD
1ECDB
00575
00661
012BA
00700
1EC19
1F626
1F43C
1FB94
00C59
1E3EE
003CC
00213
005A2
1FEAB
1E966
1ED16
1FCE3
0071E
01537
00018
1F6CA
00F20
00706
1E68C
01445
1E682
1E83F
012B2
1F60B
1F28F
0057D
1F3F6
0164C
00175
00B7B
1F8F8
01485
1F721
018CF
00DB4
010B7
1FBAD
00737
00076
1ED16
1FBB0
00B8B
1F3C9
00D13
1F8C4
00AC8
00593
1FD44
000DC
1F546
1F9CA
1EA15
00308
1FB12
006A5
0042A
010D0
03740
1F295
1FCAC
00C7B
0031A
00520
1F9DC
1FD56
012F7
01553
1F729
00914
1D6ED
00B40
1D409
1F7F6
0072F
1FCB7
010C1
1F50D
0185F
1EDDA
1F856
00E17
017D9
1FCCE
1E936
1FAC6
1F403
012FD
01156
1EC97
00360
1E97B
0143F
1F780
1F418
1EE54
1F15C
1F781
1FB28
00FDE
01614
1F652
1FC68
1EA65
00925
00CD9
1FA51
1F448
1E87D
1F1CC
01071
1F5F8
1F164
1F382
1FA69
0100F
1EC3C
1ECBA
015EF
1EAEB
1F255
01825
1E5EF
01682
0058C
1FBA9
00826
00D9C
1F349
1EBA0
0034E
0188A
1EF56
1E6A0
004CD
1F64B
1E879
1ED63
01879
1F3CB
01832
1F38C
1F100
0063E
00E62
00BFC
00366
00F1B
00C3D
1FADA
00CC4
1ECD3
00B05
1E56F
00CA4
1FD73
1FB19
00E0E
1ECB2
1F868
1F5A6
1FC02
01157
1F869
1F37B
002AA
1F14E
0097E
1EC49
1F1FA
1FE3A
005B2
01840
1FACA
1F788
1F239
00E0B
1FE8A
1FB1B
1F0E6
1EDFB
1F59D
1E6E0
1FCC5
00C0E
1F04B
1F22D
1F704
1F35F
01877
1EEC4
1E84F
00F28
1F48B
00DA7
00CE0
01587
01585
00826
00406
00813
007AF
1FE44
1E8D3
00978
012D5
002E7
1E629
1ED4A
004B3
011B7
00B06
1EB02
1EEBA
009FA
00B8F
00422
1FFBC
00838
010F5
00BC1
01742
0002D
00F47
1EC7A
1FC93
1EF1A
1E879
0066B
00A32
1F797
1ECCC
1F138
00C44
011AF
1F5E7
017C2
00707
01438
1F0FD
1FBBE
0187B
1EB07
1ED5D
010A7
018B3
1F77D
1F106
0196E
1E9E9
1E8B8
003A5
01095
01019
1FB4E
008F4
00B1A
0056D
0030F
1F868
1FE56
1F64C
00668
00E03
1FD24
00208
1F4D0
0153E
00251
01435
1F93F
006C3
1EBDA
1FDB9
1E665
1F9EC
0033E
0064B
1FB02
1F7F6
1EB6E
1FA85
0111D
1EF17
1EFA3
0174C
0025A
00B8C
1F550
1FFA0
01145
0059B
00259
1F7B2
006E7
1EDBD
001A7
1F6B7
1FCF5
1F6DC
1F007
1F484
00E81
00549
00AC1
010CB
002DE
1FBA7
00824
018EA
009B9
012DC
009BF
00906
026A3
000D3
1FFFB
1E516
1F504
1EAD6
1FAF8
1F61E
00A3A
005BB
00FDE
1ED05
1FAC5
01749
1F197
0023C
00B22
1E7B6
1F617
011F2
1F224
00D24
1F3F6
001AC
0114B
1F096
00FC8
1FBC9
1F2E0
009D6
1F96C
01818
1E7C4
0044F
1F993
01804
1FDB8
1F254
1F813
1F4D8
010D6
1FDC9
002D8
1E657
00ABB
1EA84
006C7
1EA83
00728
1F1D9
01060
1ED1C
01B55
1F63F
1D018
1E5A8
00EC0
1FC28
1F425
1FB94
1F137
00A28
00C48
1EE6E
1FE51
0082C
010E5
009BC
00EF5
1EF18
1F2EC
1EC47
00470
1E951
1F0D1
1EEFC
01762
1FC0A
00CE2
1F1BB
00445
013F6
00BF1
00117
1FAF8
00CDD
01327
1E999
01522
1FB6B
0075D
01366
1F512
0064E
1FD7F
016B7
0047B
1E741
1ECD7
016D8
1F15B
1EDD6
00B50
00A93
00F2B
0071C
1FA90
1F992
1F3D8
0112F
000BD
00A58
00944
00C2A
1FEBB
0076E
01860
1EE50
1EA86
1F8F4
1F88F
1EA92
00756
00456
1F73D
1FEB6
1F60A
1EC2F
1FA6B
011DE
1F37C
1FE03
1F60C
015E5
1EB72
00B50
1FB7D
1FB97
1FBCE
1F44A
01062
1F1C0
00584
01851
1E770
1E8B6
1F28F
010EC
1DE15
01121
02163
0148E
1EF51
1FB00
05AE3
1F81D
1F4BA
1EA34
0179A
00415
1A058
1A9F3
1FFDB
02150
0115F
1C06B
00CAA
00C20
1F35B
1F73E
06127
06AC3
07563
00238
05771
00146
004E9
018A3
1E80F
0040A
1F5A8
00CA3
001E5
1F051
013B4
1F144
03F38
1EC2A
1FDC9
001FA
00D49
01745
1D863
00354
0078D
01580
02276
1F97F
00086
1FCE5
003D8
003CF
05913
1FBA7
03D36
00016
032DB
01459
00F94
01431
01441
00996
00C5C
1F731
1E86A
1FBC4
1F236
0063B
1F7AC
001D9
1FE8B
1EFBD
008B4
1EE8F
1EF55
00241
01530
1FC83
0104B
01C91
1FC96
1F339
00AFF
1FB23
1FB7B
00284
1F831
1FD2D
1EB63
1FE25
01560
1EE72
00D25
1F7F0
1EF6C
00825
1ED11
00DD3
1E8DE
1F2D9
01A0C
001B4
0133C
011C8
1F2B0
014EB
0157D
01390
1F4F0
1F7C8
01A1B
019BC
1F2CC
1FC5A
014CB
000D0
1F3B5
1E9A3
00BD2
1E671
1E811
1FF66
003F9
1EE58
1E817
00C3F
1F26D
00388
018F4
1F44E
1FAD0
1EE1D
1FCAA
016F5
015A6
1EAF5
01404
00A8E
1EE1E
1E94C
1F5A0
005FC
1F946
0067B
01274
1EB88
1F3C8
01114
1F919
00C6A
00D51
1E827
1FD56
019F2
01007
00CD9
01469
1EA5E
1ED35
1F6B6
1F751
1F6AC
1EC76
1E6B4
01035
1F7D0
1E721
1F944
1EEA3
004A2
1EBFC
018CB
1FF3E
01648
1FE44
1F83C
1E9B5
1F6FC
1F5B8
00A86
01723
00784
1E61B
00474
1F1D2
1E968
009AB
00266
1E9A6
015E5
1F2FE
018CC
01788
1E7FE
1F9BE
1F612
1F4EC
019CB
00857
1F2EC
01536
1F124
1EC17
013F1
007F7
1FF4A
00A2B
004E3
00458
1FA1B
1FB7C
007DB
003AD
1FDAF
1E9BE
1FBB7
01393
01002
1F8E7
0119A
1F2D2
1F453
1E345
01577
037F7
1F64C
00D83
00853
000A3
00400
017D2
1FF1D
002C8
00ACA
05779
02A78
1F19B
1ED2B
1EA0F
1FF64
01462
01554
1F9B6
009D8
1EA56
03813
1A184
00432
1DEFA
00D2C
1FE13
00618
1EDB1
00CF4
01988
1FA46
00403
1EEF0
1F413
00B2C
0198F
01130
00645
1FB16
1E9E0
1F187
00928
1E7F4
1FA06
1F2F7
1EC8F
1EC79
00336
01113
1F3AA
1F79F
00A90
1EDAF
0177B
0023D
008CA
1EB80
1EAD5
1F37D
00679
1FED3
01503
01380
006F0
00DB3
1F987
00A6A
0113E
01398
1F0E7
1F6A6
00485
0136F
01116
1F747
1FCE8
1FC35
00513
00E0C
01051
01806
00AF6
00897
019DC
1E68B
0074E
00556
1F14F
0145E
003FE
1F3BA
00F9A
1FC5D
1EBB3
1EE45
06FF6
1F665
00C5A
00D45
05FEB
00973
1F9F6
1EBA9
1ED89
1FE58
05240
032AD
1F70C
1DD25
1F35B
1C53B
00012
1EA17
012B5
1EBC1
04FF8
03744
17E53
003CD
1F9C7
1FC3C
1F73F
1EA3E
01499
00D76
1EAAA
00C74
1E18B
1E67D
1E9B0
1FDCC
1E2BC
00B16
1FEFA
1F937
1EAE2
00725
1FF68
0093D
0048A
1F167
1EA9A
1E95B
1E464
00B2D
0124C
1F86C
1DD2C
1F9BD
00328
0111D
1E698
1FA34
00986
1FF1C
01348
1F00D
1BDC3
1FFB1
07BAA
00429
0199B
1FFD7
02DBC
00736
001DE
1FB32
00C4D
014AC
04ED0
03426
1EAEC
1D6F5
010C3
1CC04
1EA1F
000B0
1F2C8
1FFBB
02994
06BA5
185DF
1F175
01078
003DF
010AE
00043
006C1
01114
1E96B
0159C
03EC8
1EF25
1F873
00B23
03F79
1EF2B
1FBE4
1E55B
00DAD
00C54
029B0
03721
1F607
1F7D6
011B5
1E109
015F8
1EDDB
1FE0F
1FEF5
049B4
004BA
1E908
00467
1F4F1
003C6
1F837
1FD16
00DA9
1F7CB
1D7BA
00C0D
03C5F
1FA47
1F71F
1FA6B
06DAA
1F8F2
1FFAF
1F3EF
1F967
00272
048BB
02902
00449
1EC35
1F35A
00747
1F83E
00A17
1E516
1EBF1
02AEC
014ED
1C685
1EBCA
1DCA2
1FDFC
1FEFA
1EABB
1F284
1F25E
1F4FA
009A9
006E5
1FE56
1F897
00F39
003AC
1FCC4
00276
1FC18
00B39
01938
00092
1EAF5
1F139
008CE
1FAB7
1ED5B
1E9E9
007E6
00837
1E522
1E352
1F785
1FD96
00278
1F28B
1E891
00A03
00A13
1F41D
000CF
1E91B
016F5
1F2BC
001F1
1FA99
00E0E
1FE38
01675
1F9B6
1F1F6
1EFD0
1F939
01872
001CC
008A0
01937
1ECB9
1EEE5
00F29
002F2
1FFDF
016C0
00895
1FE6F
015C2
1FCEF
01938
1F530
1F633
1EB44
1E850
0077B
01AFC
1FB06
00A39
01085
1F6B9
1F294
00852
1EF5F
1F981
002E6
00E74
00365
00067
1F159
1E8ED
01104
1FC35
1EAB6
1FF42
1E87C
1F645
0187D
1F681
01BA4
015EC
1F884
0084F
1FF52
1EDC8
0096D
0069B
1E645
1E764
1F653
1F018
00E0E
00156
1E9E1
01729
00706
00A34
1FD09
1E69D
1F914
1E7D0
1FC45
1F40D
1FF98
0166F
1F86E
01093
00F42
00BAE
1FB60
00601
01610
1F8AC
007A0
1FAD6
01953
00428
014B6
1F49D
1F113
002DE
013F2
01BAB
005B7
1F616
1F526
01921
01561
1FE3E
0147D
0143C
1F79C
01999
00EAD
1FC89
0158F
1E7DD
011A6
00DC7
1F857
01739
00E9A
015F8
01239
1DE99
0063E
02D96
1ECB8
002BD
01885
00E95
1F1B9
1F3D9
1EF73
0056C
1ED3A
1E70F
019C2
1FEF9
0055B
00D54
1FD5B
1FE7A
002E2
00DDC
007AD
1EBBA
015A5
00AA9
1E734
01401
1FC78
1F41C
01515
1E736
1FAC4
009FB
00B0B
000C0
1E739
00013
1F004
1FA4F
010F3
1F6D1
00F1B
1FCDA
1EAAC
1F40D
00EEB
1F28E
003B9
1F483
1E68B
1E667
01098
01521
00906
00A2A
1F984
1EA4A
0147F
00864
00C30
00CA7
1F60F
1E754
1F4BE
01600
00A22
1EDE6
01881
1FB3C
1FF9D
010D4
1EDEB
1E95F
00343
1F38A
1F1B1
00FF3
1ECEF
1F217
004B3
0020B
01366
1F7C9
1F61C
00227
00411
1F6E3
01330
009B9
01337
010BF
00D01
01170
1ECA4
00157
1FFA4
00CBC
1FF37
00768
1F182
1F990
00E43
1F9C0
01571
00EA6
01960
1FE00
1F97D
1F153
017B0
01885
1F62D
1F79F
1F37A
006C8
01829
1FC31
1F6ED
1F630
000FF
0178A
00AB3
1EA9B
016C6
1FDC6
00596
1E64B
1FA3F
00AF5
1F170
0132D
00B0E
1EAF1
01999
1E8FA
1F942
1F8D3
00F17
0116C
00A63
1FD14
1EB18
00B39
1F081
0065E
1EA5A
1FBAE
1FE77
1EA02
1E6B7
00D67
00D5F
00CC3
00977
00BBC
000FB
1FD93
01998
1FD05
1F55A
01754
1F5BA
1EFDD
1F60C
1F4A2
1ED4C
00D09
1EB1C
00AE9
00AE6
01A97
00835
1FEBA
1EFE5
002E0
00632
1F897
00BAF
1FFAB
009D5
1E9F8
00D03
01202
1E743
0125B
0014D
1F94C
01619
1E62B
1FD5D
1E8BF
1FA67
1F727
1EE8F
1FED1
1FB9F
1F351
1F2F0
0061D
01468
1E72E
1EC67
002EF
1FF67
018ED
013D0
1E76E
1FC4D
00E60
1F466
1FC6D
1FF5D
1F888
1E88C
00589
00161
1EE5F
1FA0E
1F743
1E9C1
019D7
00380
0164C
015D4
1F478
1F6B5
1F787
1E733
1F6B9
1E91D
1F8F3
1E872
01C8D
00384
1F027
1F9D6
1EDDD
1EA68
1F812
1FDA2
0096E
017A0
1EEC6
0129E
000BF
019EF
001B7
009B7
00F96
1F63C
00667
01300
014E6
1E4AA
1D9E6
00869
00229
01797
1E375
1F570
1F50B
0074F
0129D
1FA34
005FB
0058A
1F2F4
00ABC
1E6CE
1E8E2
1FB85
00142
00F1B
1EE81
1F2F9
1FA23
014AB
014B6
1F915
01908
0108F
1F621
00093
002D6
00B39
1FD11
00CBF
007C6
00258
00091
1E618
017BB
1F1C3
00358
003D2
01005
01E90
1E906
00494
01867
007E4
1E4A2
00972
014D0
1FC73
1ED47
00940
1EFAA
1FB36
1E882
1E4F0
1F8C5
1FE6B
1F022
1F968
00071
00131
017D5
1DBEA
011F5
1F638
0053F
1FD82
0014A
1FDB2
1FF6A
1F084
1F9E2
00BCC
00ACD
005C2
0084D
1F010
1F05D
01649
1FB82
1FC25
001AA
007F3
1F683
00940
000B4
00B17
00064
1FBB8
00487
1E65A
1F0C2
1EDEF
1F6C1
1EA93
1E606
00366
1F3D6
1ED14
1F702
0150A
0046D
1F836
1E81E
0129E
0119F
00408
010ED
1FECA
1F107
1E048
1F9FA
1E823
1EE5A
1ECAB
1EA2A
00F0D
00A20
1FE1B
00F07
01AD7
1F45F
1F07A
1FF6B
00707
1F346
001DA
1F3A2
1FD88
1FFDC
00CE5
1EF1B
1EA78
1EDCA
00293
1F4EA
00BDC
0000E
1E355
008F7
0102C
1E5A5
058F3
014A8
1EB09
1FA16
016CF
00FBB
19849
00972
1E6B1
01D8A
038EC
1F78B
1EA22
01263
1E674
1FB7A
06C59
1A31C
053D2
1F07E
008D4
0089C
1E9AF
1F712
1FBF2
1FD31
01BB3
0157E
1DDA2
1F582
1EE30
1EDB8
01C93
1F213
1ECFF
012E9
01047
1F6A6
1E8E4
01E69
01103
00640
01093
01F54
1EABC
00B3E
1F8D7
0138F
046CA
1971A
0223F
1F9BA
19E80
011DC
00344
01900
00E17
1EA57
01BA9
1FE50
1F374
1EE0A
1EB0A
1FC0F
1E83C
1EB12
1EAD1
1F706
1EBE7
1FFB9
01192
1F2DA
1FD93
00A67
01A43
00AE1
1FDC2
013B6
0113B
00158
1E402
01415
1E558
0123A
1E693
004AA
010F9
012A3
00B4D
1EAED
1F6CC
1F9BF
1EA95
1EF95
1F6EE
1EB0A
1F3CA
1F084
00972
1F308
1F1B4
00752
01CC8
1FC31
1FA7B
0076D
1EA4B
01612
01287
011BF
00F8F
0013F
1E496
00553
001CA
0099B
01174
1F85C
016F1
00E22
1E52E
1F391
014BF
1F3F5
00E84
1ECCF
1FECA
00D26
1E8A4
0065F
1E9B4
017E8
1F3B5
1EA94
015A7
01231
1F9C7
00B69
1E735
1FCD1
00E85
00CF4
00494
00446
00B43
1E721
008B1
00EC2
1EDDA
016A7
01A12
1FCE9
1FEFC
1EB14
1EAF1
1F886
00826
1E693
00428
00BE8
1EFFC
006E5
01934
00E2A
00A47
1F8FE
00E3D
1F45E
00E49
1F8C3
1FA23
1F489
01116
00268
01316
01A0C
018CD
1E655
016A2
1F7C4
1F6A5
1F418
0024E
1F70C
1E685
1E7B8
1F422
1EAFA
00A75
1EDF7
00F5B
01422
000EA
0051F
010B0
00749
00979
006AA
1F6FA
0052C
010C6
1E8BF
015BF
0097F
1F9D5
0157E
00713
1EA11
1EF40
1FBB5
018C5
019B4
01913
001E4
01785
01728
1EE30
1E928
1F281
1F61E
0278A
0058E
1F938
0162F
00D46
1E81E
1EDC0
1F926
1FF25
1E673
0409E
01140
1ED1A
00B4F
1FD96
1F894
1E89A
1EDD7
1F0AF
1F6CD
1FA40
02E79
1E6F1
1E983
02C2B
0135B
0071C
1EF19
0104E
012CF
00A66
00A61
006AC
1FE20
01918
00812
1F1BB
003A8
1E88B
00DCF
01013
1F186
0127B
014DF
01098
1FAC4
1EB7B
00D0E
1E9C4
1F843
1EF3F
1E77F
013B1
01563
00A24
1F637
1F0B8
1F77F
1E9FA
0170B
00873
0071B
0162C
1E754
00D64
011FF
0054A
01414
012A8
1EADE
1E987
00979
00FE0
012D4
1FB60
1FC16
1F501
1E8E7
00F59
1F7BE
1FAB4
01504
0027F
01352
00277
1EE04
0061B
1E77C
0131B
1E917
00490
01836
1F4D6
1EE3A
1EB27
1E869
04366
1F6C8
0028E
0027B
077D2
01082
1F87C
01217
00586
1FDF5
04860
04CC0
00CBC
1FD6A
00710
1C4D9
00B29
000E4
00036
012D4
0673F
01F75
1B3ED
01093
1FFA1
0058C
019B9
1F55B
1F400
0173E
0152B
1FE78
1FB49
1F06F
006B9
1EFE2
0001C
01709
00327
00B13
0048E
0004E
1F5F4
1EA59
1FAB1
013AD
1EDB3
1FF5D
1F41E
0160C
00F55
00248
1F4FA
016C1
1FCC4
1E387
02023
1F672
1F7CC
1F5C3
1FEFF
1E987
1D890
012D7
055CB
00B79
016C4
016E6
05D0E
003D0
00378
1E76B
1F3B3
1FA05
044C0
04711
011A5
025B4
1D71D
1C565
1E889
1F150
017E7
1F01C
03EA6
04A80
1AEF3
1F069
05948
1E4F5
00B64
1F882
1FAD5
00145
0015E
00D3B
006F7
1F139
1FCD9
1EAD2
03649
1FEC6
1E494
1E6CF
1EE9E
1FA58
0401E
01E72
1E6DF
1F5BA
01367
1F6F0
1FC73
1ECFE
1F5FA
012D2
0544C
1E20F
1CF6D
01207
1CEA9
1F111
1ED5B
00F16
0025D
00CEB
1C261
1FB33
04C6B
1EAAA
01419
1F561
0037E
1F91A
1E886
012D5
1F7F7
00910
03137
1FE9C
00E47
1D37C
1F7F4
1D562
00EE5
1E9CA
1F75B
1EA72
02EC1
04312
0257F
00D8B
02373
1FCD8
1F14C
1F217
00FD0
0040C
01910
00D37
00C80
1F720
1F90A
1FB1D
003DF
0163E
00877
00B26
1F5CD
1F7E1
1EC63
01652
0025B
1F87F
1EF36
1F45E
1FCC6
012F9
00B24
00307
01B06
01A7C
1E5E9
00CA0
01739
0155F
000DA
1F655
002E3
1FBA4
1F136
1FEAF
0074A
1F7E0
00311
00738
1ECD1
1F2B7
1FBA3
01224
1EA5D
00A0A
1E79A
00F30
1EA95
1F2E0
1E652
1F7DE
1ED4D
1FBDA
012AE
00BC0
00506
1FA3F
00821
1F533
00840
01A13
01598
1E6CF
011F7
01606
1F4B0
1E7EF
01C81
1E5AA
000B3
1F2F5
01802
1FCCA
003D5
01342
0049C
00D43
1F7C2
01584
00B04
00616
01E11
1E70A
1F180
1FD08
1FDFD
1F3F1
1F5C4
1F141
00AAF
1F688
1FC96
1EDC9
1F349
00C2F
1E5BB
004FE
01621
011E0
00109
1E91A
1F8CE
017C9
011DF
0160A
1FD7F
00790
017CE
002F3
0064D
1EEFA
1FDC9
1F134
012E5
00B37
1F229
1FFC4
1FF90
1F0C0
006EE
1F237
1E907
1ECCA
1FEFC
1FD9B
00C0D
010A8
1EE69
1FD86
1D822
1F1C8
021F8
1E940
1F836
1E4DF
01965
1EAE0
1EE2C
1F568
1F545
1EFC8
00175
1F9E1
1FE02
1F803
010F0
1ED04
1E604
1EA22
1EF3C
1ECFE
021B1
1FB44
1F0FA
00C37
006CF
1E759
00E74
1E876
1ED2B
007E3
01776
009B2
1F957
00E52
014F5
00642
1F1CF
01212
1F90B
0083F
1FABD
012F1
00B9D
1F88F
1ED1B
00AEB
01480
1F9DC
00316
1FBCD
006D7
1E97F
1F5F9
1FB46
1E9CD
1EE72
0122A
1EA52
1FF54
0158B
000B9
1F6B8
00DE3
002B7
010BB
01912
1E87B
00B15
1F55A
01517
00CE2
017FF
1E9C9
00018
010F3
1F522
1EE03
1F37A
0122D
1F766
1F9BF
009FE
00075
1FED0
1F2C1
019D7
1F344
01777
1FFA6
1F377
005FF
1EEF8
00F78
1FBFA
005AE
00299
1F19C
1F3B4
1F4F0
00115
1F3DF
1ED4C
1EE08
00A8D
1F206
0178B
00A67
005D8
1FD98
1F46B
01AB6
1FE82
1FEBB
003BA
1F997
01353
00C10
1F605
01442
1FD89
1FEEB
1F2A2
1EA83
01239
1FF61
1E959
01393
007A3
00221
0028B
00BAF
00D96
00C6F
1F6C4
00BC5
1F214
1FFB1
1E736
01066
00BFE
1FDA0
1FB83
00CA3
004F9
1F0E2
00236
00459
00A0C
00AAA
1EE18
1FECA
1ED88
1FFE9
01075
0117E
00A6A
1E636
1FBE3
00760
1E62A
00EDC
00A44
1EE2F
00DA1
1ED3E
01771
1E8EA
00274
00EC2
01062
1FAC3
01171
1ED4C
1F0DE
008FE
01455
00945
1FC89
1F0EA
00C74
1F543
1E65F
1F8AD
1F8E4
1FBCE
00047
1E786
1F154
1F0F0
016FA
018DE
1FD9E
1E708
1F2D0
01033
1FE87
0172C
00B7E
1F84F
00EDE
1EB19
1E9E6
1FFA7
1EA19
1F25C
1F21B
1EC45
1F7E6
1F0DE
000BB
1F21E
1F39F
1F3B5
018A1
1E743
1E99B
1F694
00525
1E8F9
00E0F
1EAC7
1EEB0
1FF8D
01353
00613
0133F
1ED7E
00321
0064D
006D6
1EB42
012EA
1F313
1EE5B
01777
1E8C5
00129
1F77D
1E82D
1E8C8
0082F
1F46A
1FCEC
1F222
1FBEB
1EB0C
1F0A9
00F32
1EFA3
1F7D3
1FA9B
1EE56
1F88A
1F007
1E2AC
1FCFA
02527
1EFE4
1ECAE
0149D
015D8
007A8
012F1
00EE9
01819
1E7E4
023A4
01032
0038B
1E5A5
013DD
1E843
00193
00422
1FCD1
00AB3
00664
1FBE8
1E7DA
1EB32
00339
0122A
01755
1F4A2
1F6CE
1E7C6
00789
1F74B
1E6FE
0028E
01589
00194
1F0D3
006D8
00474
1E9CE
012FB
00700
1FA9A
1F997
1F0EB
1E5FE
1FE4A
0189A
012A4
1ECCD
1F30D
00504
1F07C
013AC
1E9A3
017D3
013A8
1EBB0
002CE
00986
1EAF8
019DC
00017
00ADC
01AE8
0030B
1F88C
017C9
1F8FF
1F1A0
1FCCE
1EC40
1F67D
00C24
01B25
0169D
1F1BF
01851
00F24
1E7A5
1F59D
1ED1A
00B16
010DE
01676
1E3AD
1D28D
1ECC0
1E753
010F7
1F90A
1F2F4
1F264
00F71
1E70E
1FCC7
1E635
0194E
019E9
0125D
00E3E
005A8
0086E
1F623
1F9F3
1F5DD
1F384
1E8EB
01381
006D3
1F9FD
01958
010D4
008AE
008B6
1FE4B
1E750
00E4D
014AE
1FD00
1EE80
1FD10
1F54B
0199D
1E93D
00E88
001C4
1E9BE
0122B
002C2
1FC48
1F32C
017AE
00252
1F724
1F055
1EC7C
00D1B
01BEE
01FA5
1E67D
01271
00B6A
1E29F
1ED46
003B4
1E6A1
1E883
02087
0163D
1E5C8
1F431
1EA9E
01124
007FB
1F84E
1FC3B
1E680
036B3
016AB
19EE6
00653
00CCE
0042A
012F5
1FE23
1EF56
1E70D
019E0
1F67E
1BE08
1A6DD
1FEAE
05CC6
1E4D0
05560
1ED75
00789
00103
1E7A3
1EB1D
053B4
07416
1EDE4
067B4
1FC85
1F817
01123
1E756
015C2
1E4F1
0127E
001E9
01563
1EA21
00345
034C3
1ED70
1E775
016EB
1EB6A
1F9ED
1DC42
1D759
009BB
01C8C
1E2DD
1F889
1FC52
1ED99
001E8
1E650
1FA70
02386
03BAD
1F05B
0325D
008F6
01227
1F36E
1FF3F
01346
00C3F
1F119
00E6F
1F14D
1E9EA
00CB4
00246
003AD
1FED5
003C3
1F2F9
012B1
1EE0A
0105D
1F709
00333
01A26
00CD5
00AB4
1EE3C
1F7C8
018B0
024BE
008C8
1E0FA
1F3E5
006C7
1EFED
0037A
1ED56
014DB
009C8
013F2
1F455
00AD8
1EB0F
1F0DE
00FD6
01BB4
1EF4C
01369
003D1
013F1
1FF04
016E6
1FDFC
00150
00D32
01F68
01179
1F5F7
0045A
1F6DB
1F765
01F79
015BA
1E9C4
0074A
1EA1B
1E5D8
1E95D
1FAAF
1FB6C
012BB
00A52
0015A
1F7E6
012F7
00EB0
1EB3C
01412
1F653
1EE8B
0198B
1E842
003F2
1EF33
0037B
0138A
014FA
007B9
1E937
1F76A
1ED2A
017A9
00A99
1FE94
019F6
00C0C
1F358
1FA6C
001BD
1EA1D
1F4CE
00B3E
001CD
1E920
1F4D7
1E632
013E7
1FD7C
00D73
017CF
015DE
00273
1E6D3
01892
1FDE7
002A2
1FBD3
0178B
00940
00A31
010EE
000FE
00E16
1EB54
000F8
1F9CF
1EB7A
003C8
1F75C
1F799
00ADA
1F772
1E639
1F66B
0147F
00B7A
01757
0087E
00128
003D6
1FA72
1FA80
1EDBD
00B01
1ED2E
00238
01435
1E627
00A4C
00222
0104D
016BB
1F3DC
1E834
1FFE6
1FB7C
000D9
0040A
00FA8
008D8
012CF
00937
1FCE9
00B95
00488
1FCB1
00BCE
1E9A8
1EE64
008E4
00C20
1EB47
1E9E3
016B2
00D9E
0185E
007AE
1E567
00B1F
01478
0145D
1FA57
1CF9C
01859
1E9D4
01166
1EB03
1EFAA
1FC82
01F60
01ABE
1D75A
0075B
004B6
003C7
1E76C
1EBE7
0052B
014E3
1F9FC
00188
1E9D2
1F3B8
00A2D
1ED7B
01754
004C6
01894
1E859
0014D
01592
1F313
007DD
01844
00269
000B8
1F10F
003F7
1F824
1FB64
00BEB
1E7D1
1E7DF
01332
002D0
00593
01445
1E654
002C6
1EA24
00D1C
0114A
1ECAB
1F2DB
00AAB
1FDEA
003AD
1F7B9
1F3C9
013C7
1F21A
00ED9
1F29A
1E7ED
1FEAB
00253
1E5ED
0156D
1E98A
1F298
0025A
00970
1F066
00AF8
0106B
1ED1D
012A2
00F83
1F5A1
0167B
1EBE9
01935
006C9
1B3C4
00575
061E8
00507
1E866
1F6D1
1F233
008FE
1F50C
0100B
1FF21
1E574
04660
017C4
00FE6
1B79D
1C904
1D295
002B3
01368
0054F
005A0
04FFB
05C3E
036FB
0089E
05303
01618
1F1DC
01941
00981
1EA9E
00DF9
1FD93
1FC45
1FA42
01048
1E95B
00AA0
1F6C9
00FE5
00DF8
1E5D0
1F276
1ED34
01DE7
00D6B
009EB
0104D
01703
01119
013BD
0067B
1EBF3
1FD96
001AE
1E272
1F13E
1DFB0
00932
1E694
0020D
1F788
015EC
1E04E
01317
0372F
1E6C2
1EB49
1ECFF
1FF23
1EF05
1FFF7
1F302
00182
000EF
05186
03BF1
1F5C7
1DA1C
1FA9A
1F02C
0032C
00CFC
006A4
00E71
02458
0253E
026C2
1F945
00FA0
0100C
1F473
0082F
1F0D7
00EF0
1D7FC
01040
026C4
0169C
00E4B
1E4D2
01FD0
0035A
1F1DC
1FDD4
1E560
1FB47
1FCE7
1E464
00563
1E01C
0063E
1FE96
1FC71
01182
0071F
1FEF9
01908
03106
01802
00886
015B2
0020D
1E691
1EBFB
008F1
1EA75
1C792
1F3D3
0498A
1E82C
1FC86
0119B
01064
007D4
01186
1EA28
1F9BF
00EAF
0148C
1F1D3
1F0E2
1F3EC
1D981
1B437
0075C
01812
1FA5B
1FF69
04F1F
054DF
010E2
013B9
05132
1F6D3
1EC64
0147E
1FEBD
1EB10
008FE
0055A
01379
1E89D
1FB4C
00478
1FE44
00C55
1EC01
1EC69
1EB29
1FC6E
00E1B
1FE7E
00406
1E640
1F8A8
1FF0F
00BB5
011E9
1FA69
00340
01131
000A4
00852
1EE7B
1FE38
1EA80
1F8E3
1E807
0176A
0009D
1ED09
1FCA4
00202
1FB18
1F802
00CAA
0163A
005D9
1FC18
1E8C1
011BB
1F08B
1EE4C
00CBD
011CC
1FBBF
0099F
00A38
1EAD5
1EBC8
008B8
1F534
012CE
1FE90
00C83
01015
1F6BE
1EA22
01483
0026C
1E906
1E807
1F7AE
1F56F
00B0A
1F5C8
1F38E
1FC5C
01679
0003B
1FCF3
1F8F2
0172C
012E7
01D65
00979
0151F
1FA97
00733
0114D
016DF
1EB2B
1E8FD
1F602
01D8D
1EC1D
1D9BC
1E8A7
1E597
1F806
1E785
0103E
00E30
00290
008CA
1FEF4
01247
1F449
0179A
1F8DB
1FBB8
1F987
0179C
1ED8C
1FC0A
1F927
00D7E
00268
00CE4
00EDA
1E550
00530
1EA3A
1EEE0
1EA28
1FD3D
1FA74
1E752
012C6
1F90B
014BB
1ED76
005BC
00EB5
1F354
002E8
1EB5A
1E97A
003C1
0009A
1E763
1E60C
1DB93
00FCF
016EC
1F15B
00916
01405
00751
010DA
013F8
1EF5F
0114E
1F307
00C06
010DC
0187E
01491
00DAB
01078
1F0DF
1F90C
02C2C
1EB48
1EF7F
000DF
1FA95
0099A
00569
1E7AA
00C34
00519
00549
014E2
1EB72
017F3
00322
1FAE0
004DF
1FF69
1F143
1FD46
1F39C
00FA6
013A2
00910
009E0
01953
1EE43
1F0ED
0078D
1FC91
1E8EF
1F3DC
1EAC2
00E62
1F84E
00E9A
1ECEB
1EE55
00C6C
1E7B6
0175A
1FDA7
1FF91
1EB10
1FAA4
0042D
00762
1F665
0026D
0002E
00971
1F6F1
1FD02
1FFB3
00DAC
00978
1E6D6
0152E
0004E
1FF22
00DF9
00972
01622
0067F
003FD
000BD
1EFA4
1F843
1E972
1F0E4
1F4FD
019CE
00501
1ECFC
0092A
00144
01331
0063F
1E7DE
1F8F5
1FD9B
0067B
1FE94
1F806
1F6E5
1E574
1F6A6
013D8
0057B
0032A
1E7E2
1FD69
1F60B
1F2A7
00E15
00500
1F57A
0008A
1F190
1F0C6
1F2F2
1F0E9
00FB2
00AD0
01526
1F2D0
001BE
0000A
1F161
0067D
1F54B
1E7FC
010F1
00F16
1F316
00119
1EA95
1E9A2
00235
1EFF5
00F6D
01756
1E87F
1EFD0
00CAB
017AA
1EB25
00EFE
0146F
1F0FD
1F048
1EDA8
00916
1FAF0
00818
1FD03
1FF94
0164A
019B8
008A3
1F75C
0042B
1F9DF
1EE8F
00E5A
00B0D
1E9AB
1F0CF
1F944
00ADD
1ED40
1FFE3
1E65D
01638
01361
1E5ED
1F5B5
1F528
00468
1F0E1
1FE7E
01821
01435
1FFE9
01419
004C0
008C2
00374
00943
01101
0019E
1FA72
0052C
1F5AE
1EC89
00A01
1F41B
1F3DD
01AEC
1F52B
1FB43
01761
00F26
1E64C
0099F
0125B
007B8
00F76
00769
004A6
1FF39
1FAF3
1FC77
1F491
1F719
1E628
1FA93
1FC27
00A33
015F3
1F80B
017AB
1E9F5
00295
1EA5C
01454
1F742
002A1
00458
00A31
001F9
1E847
1EE6E
1EB1A
1F23B
1E8D0
019F1
01320
00B7D
008EB
00B7B
00953
0112D
1FF59
017BA
0086A
1E79C
018A1
01346
1F509
00718
1F1E0
0151F
016AA
010AD
1FA8F
014A6
1FC8C
1ED33
1ED17
1F835
1F618
1FC3D
012B0
1EAFC
1EA91
1E9B0
00916
00298
0107C
01702
1F48A
1FDF9
00426
1DE31
1E48B
00B0A
00058
1FCAD
1F2D4
1FC00
00175
1FCA7
1EC01
1E78D
00E85
1F6C1
1EDC0
1E6B7
0050E
1F3D0
1F986
0157C
1F6F7
00AF6
0141A
1FAB4
1FBFD
00CC3
1FBBF
018F0
01906
1ED11
001CA
1F99B
01460
1FE75
1EDB8
01977
00F55
1F35E
00B4D
012C8
01912
1F56E
007D7
016AC
1E5AA
0092B
1EB9D
00ECF
01122
1EB54
013F1
009A8
1EF49
01E5A
01DCA
1E49B
008BE
00202
018DA
00A81
1FCFF
012B7
001FA
1ED7F
00189
1F186
1F2B6
1D9F8
013BA
1FE3D
1FBDF
0186F
1FA39
0192A
1F564
1E9C6
1FBB8
1EE78
1FAF2
007DF
0136C
1F8AC
0093C
1F93D
00998
01137
1F4A2
1F34D
01921
1FC0A
1F078
1F5AA
1F21A
0013A
1F3C3
00C9A
1E69A
1FBCE
0033E
1F729
002B2
1EE43
012F3
0042D
1F4E6
1FB60
1F831
01D82
1FB9D
0091B
0014A
01F10
00256
1F94B
00AE8
1EA3E
1F552
016CD
1F60F
1F45E
010B5
1FC66
00F6C
1FF1E
003F1
0057F
00660
005DE
1ED49
1D6F0
00150
1E415
1EBBF
00BE9
1F0A0
1F26B
1EF56
03C4B
00FC1
1C438
1E5B4
1EDE4
1E477
047D4
01775
1F7EC
1E5A3
1E5E4
014CA
1A1D8
1BBF5
00E36
04B89
03C6E
0496B
1EAAE
1F834
1FA54
00910
01DEC
01D72
06F10
00D3A
034FC
1EE92
1E804
1EA73
0107D
00573
00CD3
015A1
007DF
00DF3
1FF4C
1F7BB
03BE1
1EA8A
1F17A
1EC57
00A20
1E75D
1F8C7
1EC52
00A35
1DF87
02E19
01270
01582
014A3
0040C
015CC
01B31
00984
01DC1
1FC25
1E367
1FEC2
017CC
00790
009BB
1FF38
1FA7D
1E5E1
0173C
0095F
005DF
1FAC1
1F6B2
1F7FF
00A96
1F64A
0174A
00BF9
01137
01AE4
0043E
1E446
0051E
012A8
00DB1
001D7
1E55C
1F002
016D0
00270
00073
1F677
1DC33
1F7EB
0040F
009D8
1E6E6
0018B
00154
009C8
00709
1F605
1E844
009AD
007ED
1F8AD
1EBD2
1E7F5
00EDC
1F4DD
00D54
01330
1ECA3
1F6A1
1F94B
1E546
1E96F
1F3C4
011F6
00F3C
00F7E
1F7BA
1D41B
00F46
00042
00BB8
01317
015C2
1ED02
1E31F
1F8EF
1F869
1EA56
1F27A
005C4
01422
004BD
1F1D0
1EEC9
0130D
010B4
015D8
015F3
1F80E
1FDAB
1F674
0098B
1ECF3
01456
1FC70
1FCC6
1EC03
1F9F8
01A16
1E7A4
1F7D4
01667
00CAF
0044A
1F505
0178D
00C52
0003C
1FE54
01775
0002F
0026C
1F2CB
1FE3A
1ED3D
00F57
01843
01690
1E88A
1FC53
00FA5
1E6CF
1F43F
00395
01582
0030A
1ECDC
007DC
0155D
0017E
1FFC3
1FA21
1EFBC
1E64B
0013C
1EC31
01413
1F225
018FA
1EABE
0001D
01291
1E5EA
1F652
0056D
1EF92
01931
1E80F
00032
1EB32
1F4A5
00714
00B15
1F146
008A8
1FEC8
01785
1FE06
1F92A
1E926
1EE23
1FAED
015D5
1F426
1EB1E
1ECFB
1E8ED
010D7
1EF66
1EE05
1E6DC
1C8C4
1E78D
01A95
00B3B
01875
000F3
1E454
009FD
1E9CE
0014C
0138E
1F44B
0160E
00A25
1E6E1
1E832
1ED1A
1F6A1
00D70
1FEFF
1E9CA
00BDD
1F07B
01C36
1D3FF
011F2
04643
1F57F
013D0
01281
000EB
0043E
01666
1F284
1F163
1FAB2
1FB87
1FD6A
0194E
004D8
00673
1EEF2
013C6
1EFE3
004BF
00DA6
1F029
1F674
004BF
01273
015BE
1EAE7
1F708
012EB
012C9
01171
1F5C3
019D6
1F6A6
01387
1F558
005F8
0090C
1EC3F
00494
0028E
1EE99
1FF66
001D1
01315
1FC63
1F696
1FF27
00403
1F6FB
00E4B
1E6CD
1F8FB
1F346
1FE65
00CA5
01611
00FE5
00898
1FEC2
011B5
00C0D
1F775
1FC01
1F633
003FE
006CA
1FA18
007CF
00A24
01190
1D2B1
002E2
04506
1FD18
003FC
1F8BB
01172
1FA11
1E6E0
1E626
01782
00DC5
00016
1FC68
1F17C
1F381
1E307
1A0CD
00642
1FD47
1FD2C
00CC8
05C10
042D2
03A14
1E8F7
069E2
002DB
0068E
1EA18
1FC61
1E2F8
00B8C
00F20
1E60C
1EF6B
1F4ED
1F318
1F8CE
01427
00031
00542
1EC9C
1E6D4
01495
1FE23
0130B
01263
01220
1FD44
00646
001D8
1F737
0124C
1ED43
0089D
1E579
001B5
1F82B
01040
1E7B4
1FD1C
1F0C7
016FC
1A8A5
1F3FA
02FAE
1E706
0198A
008B7
1C7D7
1F693
01849
1ECA7
1EAE3
018D9
04B26
1ED75
1F2D4
1E1F5
1D750
1A7F5
00470
1E965
1EA52
0017E
00415
062F6
01C40
00DB4
05F2B
00305
00708
1F929
011CC
1EC29
1E6BB
1E8E8
045B6
1FA46
1E65F
015E1
03673
00464
1EDF5
0058A
0108A
00AAD
1F642
1F691
00A53
1D55E
1FACD
1E221
0069B
0180E
1F0FC
00169
04FF5
01990
02EA7
00E65
02F93
1F341
1F17E
007BB
00F78
00AA0
1E706
1EF3D
03B29
0061A
00B24
0100C
02840
1EA9F
1F058
1FC7C
1FD2D
0008F
1F4F9
00802
00A01
00E8A
00FBE
1C233
00235
1F531
0148A
1FB4A
03E94
00B2D
01C0A
1EEC0
01FC5
01842
1F0E2
1F4A1
1E6C8
1FE43
012EE
1E8F8
0181A
1E63E
018AB
00838
1F508
1FDA0
1F319
01580
1E87C
0056D
0071D
00583
1FC05
00072
00D98
0181F
1F278
00F8A
1E6EE
00369
1F81E
0115C
1F059
00B47
1F3CE
1E95E
1E9CA
01109
01103
00253
1FB11
1FAA7
1F4FC
1E8DB
015B0
1ECD5
00665
1FA65
008C0
1F3CA
01088
004E2
1E7D4
0152F
1F0D4
0189D
00E32
0179C
015AB
1FDE2
01395
1FA88
1F513
1F00A
00F7E
00209
006FE
01A00
1EEA6
1FE28
00CC9
1E743
00C1E
1E688
00E30
1F6D8
1F839
0085F
01285
00AB4
0039B
1E8EC
000E3
1EA2C
1F77A
1ECF6
00685
1FC3A
009A9
1FE65
1F253
1E6E6
1F813
1EEF3
1E159
0148B
1FE8A
1F28D
1F961
005DA
00566
00DEB
1E598
0070B
01843
1FA06
01419
017C2
1FB69
014AD
00BE0
01744
1FB71
1E990
1EAFC
1EC29
00D0F
00136
01453
1E83C
1E581
00F80
010A5
012D3
1FB71
1F167
0162F
01380
017C0
0024E
1E847
1E776
1FFF4
1EB45
00417
0132E
1F3EB
00730
0166E
000ED
1F31D
009CE
01994
1EB2D
1F79C
1FB6C
1F660
1E5AF
00042
1EB92
00133
1EA79
1FF79
1F0B8
1EE15
1EBFA
1ECEE
00A26
00EF6
032B7
00FFF
1F941
03553
1F165
0002F
1F6CE
1E776
1F954
1F2D6
1E94C
1FDB3
009F1
006F9
1F1EB
015C1
1F560
01025
1E9B6
1E980
1E811
1FE19
1F71E
00D37
00E22
00454
00487
01650
00AA9
00F3D
017F8
00FEA
1EE13
000EF
006D6
1EB1F
00577
00D11
00D07
00A22
1E8C8
00DD1
1F701
01162
00E82
00757
00D25
00867
1FD83
1F0A5
1FB97
00D0D
1F434
00B9E
00C3E
0195C
00BC6
0174D
0095E
01496
1E93F
1F6AC
1F0AD
0014C
1F82E
1E73E
0083C
1ED84
1EAAA
1FA66
1ED44
0147E
1F5A0
1FF33
0046A
1E3C6
1E7EE
1FA85
005CC
00217
1E829
1FE23
0130D
00CF5
1FC5F
00C89
1F492
1ECDA
1F9BB
016C9
00A7D
00F05
1E92A
00886
01600
1E7E9
1FB7A
00C51
004FE
1F56D
0061A
1E637
1FAA4
00109
015D1
1F57C
00B55
1F9D1
1F899
00641
1EA91
01666
00DCB
1F9F9
1E656
00BCF
0057C
1E80E
1F20C
1FD72
008B0
1EDF1
00698
1EED8
1EC97
1FBF3
1E6E1
1F9CF
1E94A
01327
006DE
1F9EF
1E6D8
1F8FC
019B0
006EE
002F1
0048B
1FCD4
01135
0052E
1F2DA
1F13D
000A7
00F51
00DB1
1F4B8
01726
1FA59
00657
1EEB8
00496
00E37
1EA97
1EBC0
1F4D0
1F5FD
0064B
00376
01653
1ED11
0169E
01618
1F7A6
004A7
1EDFC
1EA5B
00D5B
1F7D7
1F129
1FF15
1F7D3
002EE
1F895
00DD7
00A20
015A3
00400
00CE8
1E8FF
00E64
1F0DA
1F3CA
1F063
1F5BC
00548
1EBF8
1F7F7
1F1B9
0069F
017FB
1E81A
00A52
1FF9D
1FE48
1F610
1F2F3
00181
00E64
0149E
1E775
008D2
00ACE
1FA7D
0041D
00E1A
00400
011DE
1FB90
1FE9C
1F83C
008F7
1F737
1E97A
0187C
0033C
1EC5A
003F5
011C5
1E742
00BBD
1E8CA
01902
01163
01471
00ACD
1EDF5
003A4
1E6E5
012E2
1ECEE
1F0EE
01566
1F73E
1E7C9
1F96B
008C7
1F32D
00B70
01204
1FA72
1FBA4
1FB61
009ED
00C0F
01D56
0100D
1FF35
1F7AD
00A27
1E4EC
1F6C9
1F940
1EB49
1F289
0040C
1FB85
1EA6E
00435
01EEE
1E6C3
1ED6A
001E4
1E781
000F3
1E684
00694
01277
01447
0155E
1F666
1E601
1FD56
011AE
00E77
00AED
1E7B0
1F44F
00136
1E838
1E8BF
01661
1EE3C
00D39
1F4C2
0195F
1FE82
1F4C0
00D0B
1F96A
0051B
1F765
01603
00F35
017AD
1F954
1F556
1F67F
01612
1FB31
1F065
1E6B3
1FA91
1EBA7
1F8B7
01227
00D87
1EB60
1FA19
01E09
1FE53
1ED4A
01544
1E64E
019A8
1EF90
1E6F1
1F311
1F0C3
1E25B
01727
1EE38
1E503
1FA53
1FF2C
1FE22
00AC3
1FEA5
00C11
1F2AF
1E9C1
1FDFB
00ED6
1E784
00416
0059D
018B2
1EBD7
016A4
000CB
1F155
00DE7
00CA9
1F04E
00E58
1F573
015AF
00E33
0084A
0150A
000DE
0003B
1F3E1
1F0AD
1EA12
1F6BC
1E6D1
1F7F2
01951
1FE46
1FFF4
1FF11
1EF96
1FD0C
1FDEC
00688
0143B
1E9A2
01710
1ECD5
007AE
1EDAD
00EB9
1FCC8
0030F
00AEE
018B1
00689
004CE
1F2D2
1FB79
1E946
00BE1
1FF40
01887
1DCA4
011A1
00C35
003E6
00516
1F264
1E8A5
0115B
07155
1EA2C
1CC0C
006B9
1ECE5
1F417
0554F
006D4
00E20
0132A
00E09
00D3D
1B358
1EADC
1F63E
003B8
032FB
06C1E
015EC
1F166
01523
00AB3
02081
1881E
062A4
1F84F
19403
1F0FB
007DB
1F806
00EDF
1F32A
02339
1F871
1FEAE
00A16
00A63
1F52D
01175
1FFBD
1FF84
011D7
01776
00FDD
1FDE0
01869
1F142
1C4C4
02479
01A79
1E827
1E67E
00C34
1E507
02A12
1D24E
1E6FE
1F31D
1B643
1FEB9
018B4
00880
1F193
00786
1F3F9
1FCD1
015F2
00D06
0194F
0111D
0097C
1E795
01767
001C7
1F0A7
0138A
020AB
009CD
1EE69
00920
001BD
1F3E5
1E9A0
00BFC
1F280
1EBF9
1F84D
1EC21
1FD23
00E79
001F8
01414
00331
1E794
0159B
01553
1EA26
1F17B
1FD59
00414
1F6A7
00A41
1E3F1
1F57A
01477
0172D
014AF
1F215
1F517
0045F
002A2
00995
1F350
0090B
1EE5B
1FDB6
00E9E
1F9F6
1EC81
02391
1DD6E
009B2
00A3F
010AA
00E4C
012B3
001BB
1FE6A
01054
1FAA1
0106E
1E5F8
1F87B
00B69
0120A
00A59
1ED1F
1FA83
00B55
1FAA2
1EA97
1F7CE
013FA
1E691
00ED9
1FEFF
00F89
01244
1FB5A
1E95B
01743
1F2B4
01695
014A6
00762
1E8BB
1F8E3
010E2
1FBAC
01674
1EB61
006A3
1FE25
0129E
01284
00F26
1F126
017EC
1EB2F
1E7D9
1F576
00FF4
00E49
008EC
1EFA3
006A3
000A3
00E29
012D9
1FA5C
015FF
1E9B8
018F2
1FF7E
0040C
00050
1FB21
1FE46
01297
00E37
1E80A
1F819
1FDFC
01216
012A4
0147B
0141F
1FD7D
1F87D
1EC11
1E9EE
1F9F8
01422
00343
01024
1FDF1
0075A
1E8E7
007D2
01777
1FA3D
00F4C
1FF25
1FFD4
0004F
1E6DC
00D54
1F46B
00907
00700
00703
1F2F1
000E1
01304
1F0B1
00080
00FD2
00B1D
014B7
009CF
00BD0
1F6FA
01537
1FC61
1E5F4
0055B
002E2
1ECCD
1F1D6
022C0
1D98D
1DEE7
1EC41
003EC
00DE6
0017C
043A5
04E86
1FC5E
010D9
05469
01624
1E8E7
1FA6E
00679
008B4
1F7EA
008E4
1EC38
1F288
005F3
1F0F4
1E7AF
00179
00D4E
1F878
0140A
00835
1F6EA
1EC76
0183A
1E6B7
014B6
1FC37
1EB2B
0151F
001E2
1EC4A
008BC
0037D
1F0DE
016D5
011A9
004F0
1FBB6
00964
1F66D
1EF52
005CC
00711
1FACA
000C0
0026A
1EBD0
1E973
1F8BE
00592
00B5E
1E7EE
1F0ED
1F36C
1FC2E
1F7D8
1EDA5
1F509
1F284
008C9
00153
1FF8B
1F9D2
00DC6
00893
01519
007A7
0040B
01809
00FB3
00AC1
1F5AB
01472
1BE19
1E8E2
0461F
0150F
00926
0152C
03C42
1EFFC
00EED
01368
1F083
00BB2
02870
04297
005C5
1F25A
1E72F
1A0E6
1F27C
1FA4D
1EE45
00CFC
0810E
0507C
02F2B
1F023
04D7C
1ED4B
006F9
1EF24
1E6BF
00C20
00EE1
00CD9
1FA73
1EA26
00B4E
1EA65
1E9C7
010E2
001B5
1FDAF
1F1F2
00D27
013E0
1F9C6
00383
00FB6
00ED0
1F631
1E902
1EDDD
1FECD
1E61E
1EF0D
02777
1E73E
1FC91
01D45
1E4E5
01617
1F694
1F429
00B75
1CF33
01350
056DA
1EE91
00583
1F6B9
03177
1ED6A
009C5
001C9
1F9B8
1F043
00163
1D98B
007A8
00736
1DA9E
1A870
1E51A
1F684
01301
1ECCA
062EB
07043
0438C
1F082
06A0E
00843
1E7E7
1FBF8
1FAC1
011ED
1DB7E
1E404
02D4E
00B20
01544
1F1F9
026E3
1EEC1
1EE03
002F0
00F14
00C10
00BEB
0370C
1F74E
1F956
1FE02
1DF76
1FE4E
1EFB0
1EC90
1ECBA
03472
0029B
0089E
015E5
01FA7
1FC9E
1E5F6
00713
01653
0168D

