1F5C3
00719
03344
1F5DF
00BB0
016B3
015C9
1F057
00B44
003DF
1E84F
1FA88
01A15
01779
0062D
00B14
1FE62
1FDA1
1E84C
1FD7B
00009
01489
03610
00BF5
00DFF
00F65
0305A
01424
1F827
1E774
00D8F
017E9
1EF6C
0118C
024AE
01089
0026D
1EB31
017E2
1E81E
1F77D
017E9
1E66F
1EEB2
00BD9
1FE54
00BB8
0199B
1F67D
01EC6
00A9C
0093A
1E6B7
1F45E
01C57
0281C
0288B
00C27
0275D
1FB2B
1EEE7
1FEE7
01295
01822
009B5
1EC99
01764
00988
1F045
1F552
00A8F
010C0
1F66E
1EC8A
007AA
00F49
1F9FE
1E58D
1ECE3
1F500
1EAB4
00340
1F0A3
0079B
1EAAA
006FF
004B1
00977
04786
1F36D
00850
0176B
1E88F
1F53A
00489
0081B
002F4
0066E
01B46
00186
1F37F
00960
019AA
1F1FC
1F37F
00DFB
1EEBA
1ED95
033A2
02256
1EBD0
00A28
0078E
00E56
00BEC
00F4E
01309
00AB2
1FF3C
005CE
02060
1F722
00F54
01AAB
1F62A
00A69
00FC2
1F11C
1FD0B
1FD18
0197A
1EB47
1FB45
1EA0C
02766
01478
1FCC8
00202
00B4B
0080F
03139
028E7
1FED6
1F7FD
00ADC
1E3CB
1F4C0
1EE9A
1F2D7
01391
00957
014D4
00B88
1F9F2
1F179
00B4C
0121F
010A2
1FFE6
1F710
01700
1F72B
048F1
00C8F
0146A
1E6D3
019AD
00A79
1FE11
00101
000DB
1EEC3
0328F
0352B
0008B
1F3A2
1FE82
1FA43
1EC39
1F944
1F81E
01237
01AAB
0337C
00631
0023C
02083
1EF0C
1FEE4
1E8E1
1E79F
1EDDF
0173F
1E7E1
1EF20
1F4B0
01140
1EDA9
1F10A
1F24C
1E8BE
00B78
1E5F2
1EA83
1F1F8
000D6
011D4
00CC1
1EFB7
0052A
1FE9D
006A6
00AE9
1F451
00E3F
0120A
1E990
00A51
009C7
00E47
1E83C
1E7AE
1F4F8
0198F
1ED60
1F020
00990
1ECE1
002C7
00A24
0101E
00047
002C8
1F9CE
0092C
01715
1EFE5
013AC
1F192
1EDD4
00156
1EFC5
001B5
00460
00149
00C63
0054D
0054F
015D1
00DB5
01400
1EBF7
1FFDF
1F219
0072C
00137
018C6
1FF16
1FD07
01383
1E8C7
1F145
00ECF
007B2
1EC19
01258
008F1
1FA6C
00E66
00796
00CAE
1FDFB
1FB8F
009A2
1F9FE
00868
1FA6B
1FF79
1EF01
0074E
1F8AB
1F579
00623
00F02
018E9
1FE72
00574
1E8EF

