3D1EF1BC
3D8298AE
BCE7AF81
3C0F3E0F
00000000
00000000
00000000
00000000
BE24D7A3
BE04B8FE
BD57915E
BD2CD411
BBC09FEA
00000000
00000000
3C58A09B
BE049300
BD9E26A8
BD5E27CF
BD67C66F
00000000
BC417CBC
BBBCF321
BDA95DC9
BD7F423D
3D3A3AFC
BCC2026A
BCB09053
00000000
BC7B1A3D
3D879557
3BD30E89

