6FBD
6DBB
1A37
07AB
6881
7C69
0F1F
6688
73B2
7BAB
18AA
086B
78D6
1381
132C
74E6
7140
0ED6
6E66
1296
734F
0427
2C89
79C7
3679
02F7
147A
0B77
72D4
740E
0659
6B1D
71D6
7FDE
6AB0
6FCE
0030
1760
71D8
6F1E
00DA
7C90
128C
79B8
4E2A
5DAF
13C2
19FC
0CF1
1C1B
780D
146E
65AB
6A72
0DBD
25CB
15E7
7F65
16F8
6CC7
1131
6E8D
0505
1797
1257
7A93
5B50
66F0
69C1
6C80
57A7
7140
6A27
6A5C
13B6
6F1A
58AC
5D24
7E99
0383
7B08
04E7
6E7F
0161
0617
67AF
528C
080B
2B9C
1691
70D3
023A
72EB
7D1B
688C
1295
150B
6B3A
7A8E
78C9
0224
17F0
056E
6894
124A
16F5
7A8A
1441
18FB
0ED1
7782
66FF
06E9
6813
1482
062D
7DC1
70B9
2639
00DD
065D
15F1
7202
7918
7522
0795
0F0A
05AB
7E73
1428
2F6B
0F79
75AB
139C
0048
0718
7DB2
0885
74FE
0685
7EA0
2C97
7FBA
6969
67A6
7D3C
0905
0875
6863
0086
2CDD
26FA
01FE
6790
25FC
0900
0F2F
11D6
0870
6A12
6C9B
03DC
1A97
0C63
143B
0C2C
1A1D
74EB
66B0
02A2
189F
7C7E
0E07
1E68
7CA1
7AAC
091D
63EC
0B9B
0420
166F
16FC
7ACA
20F7
02B8
6CFE
0053
7C41
7F06
7525
7902
6508
182F
77D1
4DF2
675D
6B6B
1322
1377
783D
123B
7687
7FFB
0A27
5AAA
078B
676F
1CE6
766F
6F67
7CCF
0C18
79F1
6E54
1CC3
5123
1421
0783
6155
0E4A
6FD1
19D8
6640
128A
03C4
192D
6FA6
6F81
7620
131D
13EB
0749
08CC
7915
0391
191D
0024
079C
0EF0
6A35
1784
0710
0F1C
078F
6B67
77E4
1A5F
5F35
0EFE
636D
7739
7140
79A3
174C
0CEA
762C
11D5
7A00
13D2
0680
7614
6711
08C0
76D5
6EC7
70A2
7DEB
7251
0EC0
6F2E
6AF7
72DE
6A96
0BD4
0020
6CD9
6DDB
7DF8
1015
155C
0FE2
10AA
170C
7399
0017
7678
189E
7980

