2A8D
0EAA
2E94
0E98
16DC
0988
030C
349A
14B9
11DF
0767
0F46
28E2
31AE
143B
0A9F
35CD
3B08
334F
13F3
1803
2A25
3C61
0CBA
0C17
0D41
0E3D
03BF
0C99
2DF9
25A7
3FB5
2B3B
375F
3484
3102
0ECE
0062
2FB2
34BB
2AE8
29B2
1970
28EE
2865
1151
3AAF
36DA
1927
3378
0FC8
0166
005B
391C
3C40
0B3D
1352
3E06
0C5C
05DF
03B9
387E
2647
2EB9
018D
2BE4
2E30
0D43
3812
1498
026F
011D
0328
33CD
0CEF
05DB
3460
3E2F
3D87
31C4
0676
16EC
060C
142C
3215
3A8D
03B0
0D7F
0E65
1081
3D07
011D
02C3
3737
3C56
3E0A
2C73
2B8A
199D
3C10
032B
094C
16C2
3A64
2E58
310E
33DE
0F67
0B25
2663
2DBF
01BD
38DD
2946
3842
2643
2C7F
00D8
005B
1776
2DE8
0241
3AB9
2BCE
1203
3EBB
2CFF
126E
32E2
16AC
0068
3502
328F
10D0
2C97
1825
256F
304B
3FBC
29E9
3A85
0906
1818
2E6E
16B7
2C2F
0415
1745
2E8F
14EB
0A8E
04A2
3124
0ACA
3187
136F
3E58
0725
14AC
0C54
0272
1938
3939
0365
3914
379C
02E2
1098
361C
1829
3E77
09D5
3F5D
129E
3A23
2FAA
3683
2A2A
0FBB
36A6
3FB9
0752
2A94
38FE
06AA
2673
3186
12D4
3DF5
004E
3A05
3A58
0910
37E1
0A0A
0D43
02F3
2FC8
12F1
0018
178B
2736
1062
29E6
2E5B
27E4
0700
0C24
35DD
0D1B
367E
39ED
12B1
3F04
03F2
3DE7
1435
0B1F
1592
329A
2574
3276
00EF
3B47
0EAF
3C6E
308B
12E7
3927
1405
3F69
002E
067B
0F16
0B0D
33DD
0A31
3618
36F7
2F49
0998
3552
14CA
275D
0BF9
34DD
15D8
288A
34A5
344B
2FE3
0E4B
0DC5
26D4
18D9
0AAD
008F
056D
04E2
2A2C
2C29
25AF
2811
3434
3C5F
057C
3A59
0E64
3737
0C0F
27B0
3A19
3155
0EB9
0D3D
0FDD
138A
3215
3AA2
0FF4
0343
055B
0835
30ED
0BB2
0D27
3043
0C10

