BF15671B
3E50B218
3F2870F5
3DA30460
3EAFFF4B
3ECE5C84
BF31F1FD
3E4766FA
3E42224A
3ED56998
BE0FE994
3EEBF0EE
BE6ABA6C
3B772509
3EF808B2
3EE782F9
BEC4371A
BEB6C593
3E66AC4D
3DF6D243
BF307AC3
BF41CD56
BE6B5E87
3E9B106E
3EA21353
BF3AC516
3DE8EAFF
BDB143C7
BF1BF6B5
BEDF12E8
3EB9EB15
3DAA5301
3D9B71A8
3D97B9BD
BF3A930C
BECADD9C
BED6F802
BF0C43C3
3F042A77
3EC56608
BF30C1AA
BF1519C0
3F3A8296
3F176963
3E6F47C3
3F16C99A
BEADB829
BF4220DA
3E922242
BF469D86
3D5FEF67
3F111304
3DFF6098
BF18E835
3EA2290F
3D0E9E70
3D32003F
BE91C0D0
BEEC01AA
3E92BCA6
3F25AC45
3F22A4D6
BF41470F
BF0B1F6A

