1F01D
1F024
000CE
1EB00
1F91B
1F2E2
00311
1EE6F
1F63C
1EEDC
00084
1F638
1FB7F
1FF57
0021F
001D9
00866
0034C
1FDF4
004EA
00B5C
01052
1F3D2
1F7A2
1FE88
1FFA2
00567
1FC39
1EE3E
1EF4A
1FDE7
014C7
1F2E1
00C10
1F64A
00AA0
00C33
00950
007A7
1F041
1F2B6
1F063
01381
0000D
008D5
00FEC
00A45
1F032
1F8EA
1EBC3
1FF70
005FB
00DC4
01073
00D2D
1F8E3
00F17
1F743
1F89F
1FACE
00AB4
1F405
1F3CE
00F84
00C7A
1EA0A
1EC14
00957
1ED3D
1FF30
005C6
008F5
1EC1A
002D4
00901
00A78
1FCA2
004F8
00346
1F2B8
1E9C9
1EC17
1F24A
0123C
1FEA6
00A28
1EEE3
1F0FF
01429
1F917
1ED01
1EF6C
00604
011BC
004F2
01298
1F57E
1EA61
1EA55
00586
1EC61
010CF
00E77
1F3F8
1E74F
00C59
1EB9C
00716
1F0A2
1FCBB
006F1
012A4
1EC88
00442
017DC
0047F
000A2
004B7
1F257
1F321
005A5
01037
1E761
1EA95
1ED8D
1FC26
00DA0
00487
1F7CA
1E8EC
003A1
1ED70
1ECAF
1EE3A
1F07F
1EDD3
004A7
009C8
1FF97
0069F
010F2
009E0
02D5F
01662
1F73E
013E3
1F7AF
00A2E
1EFFA
1F912
02346
1FD55
1F471
1FAFF
002D9
1E688
1F852
007F9
1EA66
005D3
00258
1F9D8
1F83D
1EDEB
000BE
01297
1F4F7
1EB0D
01EA2
01634
00B58
00C62
1F6EF
1F6D6
1F325
1EE18
1FBF5
00787
1F8A6
1EC82
01562
1E851
01102
007CC
1EB38
01495
1F7BB
1E748
003A3
1F15A
004C1
018B3
0098A
00F9D
1F2C1
00555
00733
00B52
1F015
1F6B7
1F8F4
008A1
00A0E
01770
1FF4C
0057E
0095D
1FF62
1EF25
1F57B
01278
01137
013D6
1F4EB
005FF
011EC
1F898
1F724
1F4C4
1F1D5
1E906
0108A
00A69
1F757
1ED93
1EADF
010FC
018D4
00234
1F626
00C06
00BB6
002A1
1FC7A
0139E
010E8
1F96B
1F30B
00DEA
1F361
1F621
1F6B7
1F8CF
002F5
1EB2B
1F51D
0032A
00119
1F6D2
00F15
00ACF
01679
000AB
1F4FC
1E897
1FFD1
0001D
00819
0059F
1F6CE
1FCC3
1FD7D
1F4B6
1FDDB
004E5
1FDED
00DDE
1EDFF
005FC
004A4
00F01
0066A
1F9D2
1F141
01520
1EE30
01331
012EC
006E4
009AA
01095
1EE56
1EEED
00BBD
00B91
1F319
1EF23
1F3F4
009E3
1FDAF
00305
00883
009C0
1FC85
1F678
003D0
00256
1FA6F
010FC
011D9
008BD
1FF90
0133A
0116B
00233
00442
1F40D
1F63E
00D08
1FDE7
1EF22
01189
0043C
00C33
1EE16
01086
00DEA
0117E
1FC9B
01087
1F64B
1EBB6
00785
010C0
1FC6F
00793
1FCAF
1FA6B
1F682
1FFAD
007A0
00669
0142D
1F772
00148
1EBA8
00023
1FB9F
00263
00BB8
00234
1ED1A
1F783
1F718
1F912
0065B
00B3D
1FC5E
00182
1F926
005A4
1FE7E
00BB0
008FF
1F993
1EEB4
1ECCE
00A30
00F97
1F162
1F99A
1F137
1EBBA
1FE1F
1F8F3
1F2CA
002DC
1F361
010EB
007D1
008AD
1FF20
00187
1F9DF
01283
00228
00944
00499
00476
1F283
01230
1EDBD
1FC74
1FBCF
0015A
00680
011AC
01218
1FA9B
1F670
1F302
1FFD9
1FED7
0058B
010CD
1F15C
01438
006DA
1F994
00E09
00D2B
1F49A
1ECED
1FEF6
00A51
00383
00472
1EB95
010A1
1FF53
1FB34
1F25A
000A4
0078C
00A97
1EDC3
01548
1FA0E
1F698
004C6
0111C
1F53B
00534
1F5FD
014AE
1F470
00358
1F2E7
1F2C1
1F02D
00DA8
1F3A1
1FDC8
00D5E
00B42
1FC42
1FA29
1FBC1
1F62E
1ED79
00FDA
1EA9A
1F48A
010A2
1F102
1F61E
00742
1EEA1
00E9D
1F001
0153C
1F7C7
00F75
1F6F2
0094B
1EE2F
1F3A3
1F025
1F4DB
00C63
1FAC1
1F8D1
1F92F
00823
1F828
002B2
1F7AD
003FF
001DE
1FABA
0164D
1EF78
014C8
01C5C
0063F
1FFDA
0022F
1EA58
00E87
1EC9F
00159
1EE5E
1FB83
008C3
1EB3A
1F63B
1FBDA
00406
00DB3
1F803
1F6B6
00F29
1F303
0115F
1FDA2
00613
00F20
1F02E
018E1
1F71C
1F2E8
1FB8E
00401
1F461
01257
1F25A
00E3B
1FAD3
00543
007D0
003B9
00038
00EAC
00A75
1EB87
00B97
1F3F1
1EC8B
1F34F
0103A
1F3CE
1F598
1F1EA
000D7
0014F
1EB69
00BCC
1F6C4
1FE54
00BE4
01403
00020
002C5
0048B
1F720
004CC
010A5
1F9F8
1FC60
00AC5
1F057
1F3B4
1FF3F
00200
1FEEF
01286
00A4F
0116E
1FBBF
00D4D
1F18E
00F64
00D44
1FDE6
00863
1EB19
1FA36
1F72B
1FA26
1F426
00BD9
1EFFE
1F5D2
013BC
0112B
1F690
00247
0120A
1FCE0
00FD8
1FBE4
1FF7D
004FB
1F269
1ED62
1F2B9
00464
1F6AE
0144F
1F862
1FECA
00491
01D02
1FB8D
1F9FD
1F886
0088D
00618
1F241
007A7
023F5
00AB0
1F83A
1F80E
1FBE9
1F761
1FA95
1FEE4
00689
013D9
0186F
1F635
007FE
1E881
1FA5F
00090
01111
1FABE
0164D
00C55
1EA00
1F5DC
1E984
0127A
00AD8
1F5B1
00AA2
1FFE2
01146
1ED11
00199
00095
00E9D
00697
00562
1F2DB
0114C
1F77E
1EB06
1EE9F
01113
0125D
01176
00A81
1FEBD
0142A
0107D
01B95
0046A
1EBBD
1EBC3
1F3B3
1EB58
1FFF8
0061C
00584
1EE95
01039
1EDD2
1FD42
1FBCC
0034D
013CF
00FB1
1F593
00B19
1F1A8
00088
1EDAA
01112
1F9D6
1FD8F
0111F
1FDFC
013E6
009E3
00817
1F8B5
1FF8C
1EC5D
1F9B1
1FBDD
1EE58
1FDD6
01405
00F62
00FAF
00D9B
1EDAA
1FE25
1F835
1F110
1F01C
1EFF8
00557
1F670
1EAF7
1FD1B
1F552
1FC81
1EBA0
00624
00E89
00808
1F357
00B97
1FDBE
007BB
012A3
00E16
1F059
00F26
00519
1EF9A
010A9
1EBBC
0085E
1F4FB
009A3
00A4F
002F1
1F05A
1EEC8
1F272
01020
1EF49
00DAA
1EA4C
00227
1F5F5
1EFCF
1F044
1F02A
1FEAD
00212
1ED1C
1FE6B
010EB
01264
00EA3
005B8
013CD
1F3EE
00D45
00DA9
1F056
00B77
001F5
1F85A
1EAC5
1F6C6
00236
00676
1F4EB
0025C
0052A
00615
00698
006F2
00E32
0020D
1ED2A
0013F
00FBE
00763
017E3
1E9CE
008B0
00790
00391
002A4
004FA
00E82
00E12
00C6B
009A1
0118C
00AF0
00DEC
1F8AA
01133
1EF96
011F3
012C5
012FC
00DD4
00E14
1FD8D
0071F
1F7B8
0094B
00D73
0150B
0093E
004FD
1F375
1F027
1F86D
00E99
012CF
01CF6
00E37
00F47
1FFA8
1ECCE
1F88B
002C6
008C2
00C27
1F898
1F502
00930
00862
00882
0007C
1F3E8
0027F
00E6E
1EE8A
1EFE3
1F8FF
00AED
1E9C1
0098F
00E62
00FD7
1EE81
1FF7E
1ED22
01036
1ED3B
00782
0072A
1ED10
01552
1F972
00A82
016B7
00AD6
1FECA
1EA12
1F6B4
1FF07
1F041
00AFA
1F7BF
003D3
1F2BA
005C3
00645
00855
00943
1ED30
005B2
00C03
00B81
005DE
1F172
1F5EB
000D6
1F8D9
1EE16
1F9B6
1F7FF
1F6E3
00E07
007DF
1FE3D
00931
1E966
008BE
00AA6
00911
1E872
0081E
1F36F
1F2D7
00138
00A8B
00EDD
1FED1
1F4B3
00A4C
00B35
1FE91
1FEAD
1EE3E
00F0D
00376
1EBA6
0114C
1FBE6
1F712
00154
1F92C
1F5C0
01997
00B3A
00506
00DC7
1F88E
008EB
002B4
1E9DD
011DB
01031
0105D
1F674
00359
1FBAB
1FAE5
1F5BA
1EC0D
013A5
0044F
1F7E8
00E17
00886
1FACC
00CBE
015D2
00AE8
00E9D
1ED6C
00A5E
1EE56
00283
1FE31
1EE13
1FDB0
00A70
1F5B1
1F9EE
00764
01519
1FF5D
0077E
1F188
00943
00327
00A65
00CD7
1F3ED
0046D
0069B
0128B
1F233
1EBFE
1EE83
1EB46
0153B
1F994
1F8AC
00D46
00B72
0107C
1FC82
00A5A
1F820
00F75
1FA8D
1F5F4
1FB53
00272
1FAC9
1ED5B
00523
1F6FB
00D42
1EACE
1F799
00704
00638
1FF6F
1FAE0
1EDE7
01151
1EDE0
01351
1EBE2
1F2E7
1F1FE
1EC55
1F672
00D4A
001CE
1F5AA
1F199
1E893
0013E
00648
00E02
0034B
00E4B
005D8
01064
00EB0
1F223
1F335
011B1
01042
1E42F
00C95
00CAE
01034
00BBA
00717
0013F
1F70E
1FD82
1FC03
00409
1E8E5
00F4D
00DC0
1EFC1
00413
1F74C
1F6EB
1FCAB
1FD4A
00F1F
1E9F8
00D40
00623
01225
00DA5
1F436
1FB16
1F5F1
1E9A3
00AEA
1F523
01ADE
00E6F
1FA51
00743
1EBC2
01408
1FBD6
1FE02
00556
0054D
00687
1F052
1F29A
1F6BD
003EB
0082E
1F61E
1EF4E
1ED59
1F988
014FB
1EB6B
000C2
00870
1EBD3
00E11
1FA37
00F5A
1FBF9
1EC5A
00C19
002FE
01304
1F561
00884
1F357
00367
1F0EE
00B8B
004D6
00261
1F884
1F98D
1FF8A
1F5B1
009C7
1EFA4
002BE
1F576
001BA
011AC
00CEA
1FA3D
0073E
1F0C8
1F601
1EBA5
1F40F
00E06
1F454
1F62D
1EB9F
00129
0059B
1F0F6
00067
00E12
1EF6E
1F38A
1EFB6
00F7D
1EEA3
1F137
1F707
005BF
003E8
008DE
1FF8B
1FD19
01158
1FD74
00537
0030C
001BB
0100E
1EF61
1EC8D
009A7
009BC
1FD5D
1F166
1F9C5
1EB01
00F9A
009C0
00891
1EC36
1FE70
1F877
013AC
1F8FF
1F650
0134A
1F9AC
1F6F9
00533
0070F
00D39
006C6
00E63
00057
01529
1F57E
1F045
1EBE2
1F70A
1ED22
0063F
1F32E
01540
00695
00C2C
00EE7
00A76
1FAC0
1FC9E
002DE
1F5E6
1F944
0134D
1F145
00BA4
012CA
00B38
00F18
00233
1EAF0
1ED98
1F232
1F56C
00620
1FF04
1F128
01431
0136E
007BB
1FD1B
01363
1FF79
1F3B4
1F7E4
00122
00755
1EEC8
1F4A4
1FC3D
007CC
1EBE4
1FE9E
00BF9
00FD2
1FFF0
001CE
1F473
1F014
0148B
1F099
1F45B
1EC41
00380
00552
00C57
1F286
0035D
01442
00286
01340
1F539
1FFDF
1FE4C
01295
1FF52
1EECD
00B71
1F508
004D4
1EB96
007FE
1F976
00731
00BE6
1EF3B
1F7D0
01C29
1FBEF
1FA83
00481
1E904
0031C
1F87E
1F980
1EC05
00B21
0101F
019CA
1F7D9
1FDE6
0036C
009C2
1F478
1E7F4
1E76B
1EFB9
001ED
00CF1
1FDDF
1F66B
017C9
00172
1FF6A
1F369
1F1CA
1F03C
1FE91
1F370
1F753
00542
1F6C7
1E8C2
1FAA6
1FFEF
007C5
00341
1F9E7
00D90
1FB13
1F4FC
1EBBC
00A97
00D68
00408
1F0CB
1F443
00349
1FF6C
000A1
0083F
1F339
1F76B
1F129
016B8
1ECF6
1FFB0
1FF7C
001C7
00AA0
1F83F
013C5
1F61E
1E985
012BE
0016D
1EE65
0057E
1F112
1F42C
1E800
1FF78
1EAA3
1FAA8
0084E
00907
1F0B7
1F928
1F23C
1E857
00820
1FFB9
1F1F8
00446
0015D
01003
01097
0122D
1FF69
1F044
00976
0088F
1EF37
005C3
1FDCA
011A9
00852
009F3
00848
021AF
1FCB3
1FB21
1F118
00938
00208
00B03
00A30
00323
00DEC
1FAC8
00134
013BE
1FB87
1F67F
1FC92
0109D
011AD
1FBE4
00190
01213
00418
1F927
00662
00410
1F775
1EBE0
0125E
00921
1EECD
00A7F
01024
1F3E5
1FF80
014F4
00AE5
1F3A7
00049
1F9AD
1FBDA
01101
0063D
00406
1EC08
00F3E
00B9E
005AD
1FDCD
1ED49
003A1
008E0
00229
00137
1F331
012C3
0098B
1EEA1
1EACC
1FA0F
1F267
1F2A6
1F1E5
010D4
014BD
000D4
1FDCF
1F91D
01421
1F28B
00549
1F6DD
1F7D3
00548
1FA1D
1EB23
0117F
00298
0137F
1F8ED
01233
00C85
1EF7E
1F9A2
1F4C4
013EA
0102E
00384
00FB8
004E5
1EF78
1F6FE
00E5B
1F531
1ED59
1EEFD
00084
00C51
005CF
0165B
1EA8D
1F057
0164C
1F932
1F6DA
015D7
1FA70
1F687
00767
00473
0053C
1EDDB
00306
01C9E
01077
018B7
00E55
1FDAC
00DEC
00160
0072F
1F745
1F81D
0130E
1EE8B
1EF3D
01443
1F2BE
1FF8A
00E6D
1FF8B
00DBD
007B0
1FC65
1FCFC
1F25A
1F193
1EF6A
00218
1EA76
0111F
019B7
1FC92
1F23F
1EB98
00DAA
1F38B
0014D
1F557
00F9A
1F824
1F17A
007CC
1F65F
015B5
016E6
00D1C
1EDA8
1F1BD
00372
006D0
006E9
1F267
1FD6A
00BBB
003D4
1FD8B
1F759
1FC4B
0123A
00178
014CE
1F3E9
00EF0
010C6
01068
1ECCD
00BC3
1ECA8
01920
017B4
1E94E
1FA8A
1FA20
00B08
1F1F6
01387
01618
0132C
1F3DF
00048
1F206
1ECB5
008C8
008AC
004DB
1FAF5
1F5E5
1EA4B
1F32F
1EB94
1F032
1F4BA
00DCF
1F902
0115C
0070B
00E4D
1EF91
00F25
1FF2F
1F0E4
0128F
00CB6
1ED82
1FAB9
1F00D
1F4E3
1FF33
1FFF5
00049
00AF3
1EB9F
1ED79
0118E
00877
1EF5B
1F9A1
00288
1ED5D
00CFE
00A62
007A8
1FC55
1FFDB
1FF72
00BE8
00401
1EC70
0001E
1F3B2
1F641
01072
1F968
00779
1FAFB
1F71A
00EC9
1FB23
00780
01453
00D5C
1EDBF
004CD
1F292
00DC6
1F889
1F4AE
1EF1B
1FF05
00B6A
1F363
1F255
00B7A
00E22
00729
1F49E
1EB4E
00EC4
0063E
00AAF
1F008
003ED
1FE15
00E64
1F256
001D7
008D3
1FBAA
1F87A
1FA0F
00DAA
1EF65
1F92E
1FC81
0059B
1FA36
1FBC5
007C4
1F8C4
00961
00C46
00383
1F860
01948
0098F
1F595
00AB3
1F1A6
1FC86
1F59F
004BF
00646
1EFF9
008B1
021FE
1FD0A
0137B
019A0
009DB
1EF26
1FBA0
1F05B
00600
1F718
01943
1F9F7
0074B
1F4D8
00D05
1FFDE
01841
0063B
0172A
1EACE
1EA39
1EE3B
1FBC0
1F707
1F29A
1FF3B
1F435
0075B
008AD
1F85F
004E4
1F1C6
1ED3A
1FA87
00616
1F209
1FA91
00FD8
1F1E4
1FCBD
1E8D0
010C6
00F0E
0081A
1F0D0
1F045
1FF43
00D13
1F4C5
1F10D
1E9FF
005B8
00592
1F50E
00093
01112
1FF17
1FE0A
1F5C9
006F2
00068
1F9D8
1F52E
1F45F
1EF55
00E1F
1F1F9
1F31E
1EC04
1F11F
1F1A7
1FE63
00732
00F58
1FC6B
1FB44
013BE
1F490
004C8
00564
002A3
0083E
1F397
1F093
1F06E
1F276
1FE1F
1FEEA
00C6E
1F565
003FE
00769
1F598
1FC23
1F957
1F6EB
002C5
1F828
1F20C
00BFF
1FA68
00A93
00259
00325
011A7
1EACB
1F767
00827
017EF
1F8F2
1F952
01152
1F321
003BE
1F186
1ECA3
1EE35
00718
00985
1FC25
1F7F1
1F5DD
0033B
1EFE3
0100B
1EBDB
1F8B2
1FC50
1FF5C
00A82
02598
00AC2
1EA20
1F92A
1F707
01021
1FFDB
00F1B
1F7D4
0115F
1F8B9
1F0E5
1EC1C
1F7F3
00767
00F64
1FBF6
006A4
1FC4C
008C2
1FB21
00803
1F741
1FCA8
1FFFF
0035A
1FDEC
1EF9B
1EAFC
1EE77
1EC4E
1F334
1F627
1F540
1F34C
1F8E8
1EFCF
1FDDD
007EC
1ED85
1FFAB
1FEDD
00D14
00EC2
1FE87
008C6
000F9
1FF4D
00B66
1FCD1
0066B
0110B
1EFA6
00BAD
00860
004B5
00D4A
1FC25
1EE3F
00F29
1FB2F
1F057
0034E
00720
00292
0053E
003F0
00A6F
1F907
003D7
1EFC0
1FB36
1F0B9
00B79
1ECBA
00452
1F430
1EEC4
1F379
01027
1ECF3
1FAF1
00C23
1F282
1ED95
011F4
1ED5E
00804
1FBB2
0069C
1F94D
1EF0F
1F6C1
00ACC
00349
0145E
1FB58
00EC7
1F973
00894
1F384
1EE52
1EA12
1F745
00A4C
00DE2
00B8B
00F65
1F212
1EFD2
1F3B9
01483
1FE46
1F25F
1F848
1FAD9
1EEEA
1F432
01851
1F36D
00978
0064C
1EC4F
1EABA
0112A
0022C
00DEF
1E961
0007E
00A55
013C2
00FA4
1F091
00B8F
00F92
0145C
1FEB1
00324
1F4A4
000B4
00A20
001BA
01293
1FD66
1F65F
1EEFD
1F3B9
1FEF6
0027B
00282
1F163
1EC90
1FC18
00680
1F297
1FF3F
1FB54
00B39
00517
00281
1F9D5
00CCB
1FDF5
1F02E
1EF20
004AE
001AE
00E4C
00D24
01083
005C9
1F95E
1F53A
1ECC6
00419
1F964
00670
1FAEA
010C7
1F694
00882
00C3B
00482
1F2E5
009DE
1ECA6
1FE74
1F276
00374
0151E
1EDFB
00AE6
1FF6D
1F49A
00F19
00B74
0145A
005DA
1F9FF
1FE5D
1F880
1F8C2
00587
00ABC
00F1E
00B9E
008C1
1EEB5
1F2F8
005F7
1F527
1FCB5
01130
1EE93
009D3
1FC83
01545
1F1E0
1F2FB
1F0C8
1EC4F
1EB73
1EB75
00F7E
1EF90
0017E
0057A
0027D
00E34
00D32
01114
00976
01D03
00B8C
0048D
0098A
00F08
1F900
1F3B6
00EB1
1E6E7
1FA2B
1FB21
1FFE5
1EAF7
1F74A
1FEA7
00781
1FF9B
1EF89
00B66
00BC6
1EF49
1E764
1F934
1EDAB
1EFF6
01A05
00A9A
001E9
1FA6F
1FFD4
1F8BF
1EFE5
00892
1F82C
1ECE6
1F35A
013EC
1EA8E
00AC6
0051C
1ED18
1F3B5
00F0E
0093D
1F138
00540
1F611
00489
0031E
1F912
01A67
1E863
00C5D
1F18E
00AC9
1FF8E
1FA8C
005BF
1F6CD
1F148
1EED9
1EB7E
1FDB9
1FFE4
00A25
01010
008CB
01511
00870
1EB1A
00AD8
1FB5A
1F741
1FC80
1F3B4
1FFF8
1F76F
1F089
0042F
1FBA5
1FCA4
1ECEC
1EC57
1EE98
005B0
1F0E5
1FE7B
1FBB9
00637
003D9
1EDAA
1EC36
00473
00CE0
0080A
00C06
00012
1F22C
0061B
005B8
1FA6A
1FC4C
00DEB
01165
011F6
1F30D
00EBE
1F2C3
00440
00EE9
006B7
01273
01345
1F5EC
00F03
00E21
1FEBC
1F2E5
0129F
00F08
00F79
1EBBC
1F297
1F467
00C0C
1FDE5
1F728
1EECF
010E9
1EF96
00FBC
00D77
01095
00ECA
007EF
0121C
00C8B
00E8C
1F782
1F028
013EA
01168
015F4
01378
005AC
1F920
1F2E4
0025E
00545
00E78
006CA
1EDFD
1FA91
1FF74
1F672
1FFC1
1F61F
005F1
00D18
1EDFC
01232
1EA9A
1F360
1F9B1
1EF72
1EC9A
01159
1F3FB
1F5E6
0121C
00780
1ED8A
00830
1F237
00FD0
0024A
011D5
1F627
1F1F6
00C10
1F761
00730
00811
1FA7B
1EE4F
00C1C
1FE3D
0040F
1F3E6
1F56E
1EA8D
1F825
1F8A7
1FEC9
1F071
00C14
1FE69
1EC97
00766
01071
019E6
001C8
0106B
00572
1ECAC
00CF8
00CD3
00826
1FE9A
01262
00451
1FE8A
0067B
000F6
005D1
003FC
1F7AC
00C2B
1F6D7
1EF1D
00F13
0023C
1F1E0
1DFDB
0080A
00885
1FB2C
1F854
1F4DA
00DC8
1F3D8
1FFAF
1FBA0
1F11F
1F125
011F8
0029F
0031B
1FF62
00E7F
0137A
1FF0E
1E72A
00402
00BD3
00BD7
00DB4
1F638
1F565
1FABA
1E6F5
00EBA
0085D
1EFAE
00E56
01E6A
1EC13
00784
1F437
0003F
0039D
00231
015D8
0059F
01060
01188
1F32B
1FA8F
0115C
0061E
1F527
0139D
01452
0016A
0102A
1F5F7
00C39
015D2
014E2
00CAF
1F4F8
1E861
1FD84
0121C
1F4CC
1EBEF
1F686
1E38A
00C21
00196
00336
1EFF0
1FF63
01389
00798
1ED64
003F7
001E8
01149
01103
1F8BC
1EA47
00B48
1FD2D
00E51
0076B
1E96D
01189
00E1E
007BA
002BA
1FAB6
1F928
1F5FA
00ED4
00220
004B3
1EFFE
1F00A
00347
1FA56
1F10C
010E6
00B98
1FA44
00498
1FEE4
01101
1F457
1F6F3
001CC
0130D
1EFF9
01425
1F0AE
1F369
1F2B8
1ECDD
00CB5
0046D
01486
00A04
1FF07
00F8D
004B9
00164
1F2EE
1FC9C
00626
1FEF9
011EC
1ED90
1EE20
00A58
1F1F1
1F8A5
1F31E
1FA5E
1F52F
01117
1EC69
00FBD
1F392
003EB
1ECE2
00BFD
00DC6
1ED2E
1EF86
1F0D1
00634
1FA0D
00B24
1EF65
00982
1F595
00B39
1F957
1F986
00320
001AA
00F65
1F9AF
013E4
00441
010E0
001D5
1EB27
1ECE5
1EE55
1FE95
1F1F7
1F0B8
1EFAE
1FD6C
005D7
1FC13
1EAB5
1F95B
1EC2E
1ED90
1EB17
00D9A
1FAD3
1FD9B
012BD
00A4B
1FD51
1EDD2
1F06F
01054
1ECAF
00314
002BA
000C9
1EBE7
1F02E
1FFB2
00D8E
1F789
00555
1F63B
00605
1F750
1EE22
00D9E
00DE5
011F6
1EC20
1F1A6
1FD92
1F264
1EAFD
1FCE0
00B3F
1EBF2
1EB55
0108C
0061E
0097E
1F832
1F680
1F18A
1EAAF
006EF
00851
1F325
1EF98
00FC2
1FF77
1F7A2
00C08
1F2F7
1FB27
1F1BA
1F509
1EDF8
1EA16
1F7E5
1F6B9
1EE49
1F386
00D21
013C1
1F623
1EDD8
1F0DD
00DAF
1EF59
1F02C
01049
01439
1FC07
00717
1F75D
01462
1F8E8
00DE3
00185
1EE07
00ADE
00F41
1FC83
1F661
000DE
1FAF3
0055C
1F8E4
1ECC2
00646
006A1
004C7
1EE2D
1F039
1FFEE
01463
1FA84
00274
1F2A2
00D84
1F3B2
1F5CA
1FDAB
1EACB
00F6D
1F265
1FCFD
011C1
00A04
004AB
00603
006E4
00B26
0078B
0045B
00278
002CD
1EA4D
000C8
1FD39
0060F
00096
1ED73
1F20F
0083D
1FDED
0082B
1EF43
1F22E
1FB30
0107F
1FF4C
1FB6C
1FE38
0017E
1F605
020C3
00867
1F37B
00DB4
1F5BC
01128
00CE2
1FF2C
1FB93
008DC
1FFA1
1F816
1FBF9
00CAD
1FC03
00118
1EDB7
1F1F8
0047B
1EE60
1F004
1FC9E
1F0E4
1EC8E
1EF82
0050A
011B0
003B2
1E983
1FCE8
1EDF4
1FE92
1EFED
017BF
006BA
00B04
008FA
1E72E
00E03
1F06F
1F9BD
00148
1EDBB
1F998
004E7
00314
00BAC
0152A
1EE78
00A43
00825
003B7
010CA
1F79B
0149D
1ED3D
1EE68
006CA
013C2
1F853
1F723
1EFD2
00921
00D85
0073A
1ED4A
1FAA4
1F58C
1ED1F
1F05D
1FD55
013B0
00E2E
00D69
01496
00327
1ECD4
00CF9
1FD6F
1ED68
1FC47
1F9FB
010C9
1ECB0
00848
1FDF5
1FE95
01416
1EAE0
0062F
01170
1ECE0
1EE43
002AB
1F2BA
1F3E0
01062
1F700
1ECEF
01240
009AF
004DE
1FE30
1EB8F
002DA
1F5C0
00C10
002EC
1FB09
1F832
009C4
00335
1F0B5
1E7E5
1EE99
01329
1F97A
0048A
00CF8
010AE
0034F
00CE3
1EC39
1FE4C
1F4AC
02290
00146
01ADB
01B9E
1F400
1FF80
1E6A4
00B0E
014FD
1FDE4
009DC
00DDC
00739
003EB
028F3
1FB19
1FE58
1EFA2
1E990
1F4A3
00ACE
0048D
0022D
1E86C
1F4A8
0157F
1E352
01354
1FD7D
1E8B5
02410
000DB
1F751
00020
1F979
002EB
1FDC4
1F1DD
00DC9
0012C
1F83A
012E3
00A82
1FF73
1F0E6
0089A
1FDB4
1FB1E
0004A
1ED16
0049F
00E71
1F23E
0002E
01679
0130D
1F1AC
1F4C3
00F8B
1EC70
00208
1FCE1
1FD33
00574
0054F
1FE33
004EC
1F7DF
1FBFA
006C2
1FA77
1FA54
1FE71
1F780
008CE
0103E
011D5
013C3
1EEC5
1F5C7
00633
1F6EC
00C1E
1F815
1FFFF
009F7
00374
01127
1F879
0032B
002C3
00032
0059E
1FCEB
005A4
1F466
1EC50
1F3B2
1F354
1FBC1
003D6
1F75D
1ECBC
1EA15
01213
1EF36
005E7
003B2
1F5DD
00D74
010B6
1FA31
01335
1F419
0119C
1FE89
000C1
1FFE8
1F00A
1F9B7
0061D
016BB
1EF29
1EEE7
007AC
00E80
01116
1EDD9
1FEDA
1F1BB
1F3B2
00810
00225
00F63
00CBE
00FC6
013E9
1FA90
1FEB3
0033C
1FE08
1F57B
1FD3A
1F460
00CB1
00682
1F39F
00045
014AE
00BCD
1FACD
1FFF3
1FD6D
1ED9F
0188B
009B8
1FD14
00F89
1F5AA
00FD9
010CC
1EEEF
01274
1ED4C
01824
1F6D4
009FF
0050B
0076C
1FD79
0000F
1FC58
1FE0C
0012F
1ED47
1F384
1E940
1FB89
1EAD5
1FDDC
01213
00A68
1FE47
1F00A
1EF47
1FDB7
00D44
1EEC0
1F789
00F09
1FB05
1F611
006D4
1E746
1F1B6
01E5C
0166B
000F8
1F47A
0027A
1FFA1
1F6BE
00A06
1FB16
002F9
1ECB8
00F51
1FC23
1FEA0
1EFD2
1F92B
00AD0
1FCDA
00AFF
00AF1
009E9
1F392
0067E
0126C
1E938
00A0E
01537
1F756
01421
1FC59
1EFEE
00A01
1F4D0
1EDA5
00512
1F5A8
0098E
0086C
00F29
1FD80
00F06
00C0E
0081C
0098A
1ED8C
00E6B
0180B
00681
01319
1FBA4
1EAC2
1F35C
00AA8
015FD
00BAE
1F608
1FD69
0102A
1FCC4
008E5
1F3FE
0032A
1F986
0131C
1FEB2
1E996
014E5
001AF
1F9B7
012D5
00799
1EE10
1F231
011A7
1EDAF
012A0
1F33B
009DB
1F589
1FE05
0017C
00174
1FE20
1EE60
00476
1F1AB
1FBC9
0122D
1E725
00F8F
1F20B
00751
009B9
1FDC8
1F3FC
01408
00851
00748
1F5BD
013E5
1F735
1EEDB
00175
1F32C
1F86E
1FD33
00E4E
009AB
00AEF
1F748
011B0
00047
1EC17
001A9
1EB40
00260
00084
1F8C9
000D0
1FE8D
00A01
01248
1F0DC
011B9
1EC88
00174
00CBC
0019B
0107E
1EDBE
1EEE8
00449
00A33
004A3
1F999
00FF2
00E75
1FF7A
1ED7C
1FE4A
1FD79
1F2AD
1FD52
00F96
00D73
007AC
1FAB8
000E1
003DE
1F3D7
006DD
1F1EB
1EB62
1F8EB
1F705
0079B
1EA85
1EB0C
1F29D
0034E
011F3
1FC8A
1F425
007F0
01134
014B3
008A4
1F0E8
00E7E
1F328
018AA
1F7FD
1F580
00E71
1FA44
1F4BB
1EEEB
1EF29
00223
01185
1FED0
01A13
1F01B
1F1B8
0162B
1F06C
1F94C
1FDD5
01453
000F1
1EA0B
1EED0
002B5
1FA54
00600
0100A
1EA29
01039
1F7F5
1FC8D
015D5
1EEB5
1F7CD
001DE
1F7BC
1F63D
1FC7B
1F5F2
1FB18
00CCA
1EAE4
1FA42
00004
1F1B0
003CF
0119C
00BBD
1F83A
1EEEE
00EA1
012D6
1EBBE
1F21C
1EE04
1EDE6
1EEA7
1FC5B
1F433
1FC40
1EAEB
00F32
1D964
0005E
00D90
014D3
1EDE7
00F6D
004CC
01189
1ECE2
1FA4C
00C75
1F35D
1F70A
1EC22
012C4
1EFF6
00A5E
1F760
1FF14
00F0C
00263
1FE87
1ED23
004C3
1EC83
1FDED
1F7EF
1F601
1EB49
00820
1F4BF
1F903
1F92F
1FF32
01298
012D0
01175
1FBFC
1F120
00003
0000E
1F5C4
1F612
1F48F
1F219
0154B
00841
0142A
013BD
1F0AE
1EB30
00D8E
00D92
00B46
1F738
005E8
00C43
00374
1F371
00EA2
00ED1
1F129
1F29A
00646
01408
1FAF1
1F05C
1F57F
1F84E
00B2C
003FA
1F529
1FFCA
002A8
1FF4D
003AD
1EEC0
01205
1FE88
00377
1FE93
1FC42
1FFA4
1FC1F
0104D
00B79
1F353
007DC
008E9
1EF94
00939
004F1
00802
00BC9
1F722
1FF69
1EF9D
1F375
1FAE7
002B7
011D9
1F3E8
1F00C
00A6F
010F7
00B14
1F5DC
1FC18
1FBDB
011DA
00E1B
1F9D2
009D2
1FF07
00302
1ECA2
1FBB1
00B47
012A9
0146E
1F3B8
1F65E
1EDB5
0006E
014F3
000BE
009F5
1ED8D
010B6
1FB26
1F69C
00B3E
000E5
010DB
009F2
00E0A
1EC7D
00118
0136C
1FA5E
0004C
1F6E0
1EEE9
0052A
1EBF4
1FC1F
1F92B
1FBDC
1EDAB
00C87
1F098
1FAEC
1F6FC
0028A
1F8C6
1EBAA
00507
1EE2A
1F050
007B2
00D45
01393
1FB6B
1F98A
00319
00736
1F8D4
1FEDE
010D7
1F951
1F264
0027B
0059C
010C3
1EED2
003E7
1EB7F
00F44
01260
1EAF3
1FBD1
01330
0076F
1F83D
1F344
1F004
00EFA
1FDB9
0015B
00E0B
1F0AE
00B83
00EB5
01546
00921
1FFC7
00BC5
1FE46
1F310
1EE12
1FE73
008DB
005D1
1EB5C
1FE43
1EAB2
00F56
01BBD
011C4
1FDE7
1F9A5
003A7
1EA83
1FDDD
1F386
0094A
1FC99
000BB
01BD7
1E948
1E9E2
00730
1F8F9
0097F
0154B
00A7A
1F8A8
0040F
1F542
00EDC
1EE2E
008A7
00A44
1F01D
1FF0F
1F5BC
00B2A
1EAE5
1FDD2
1FD1D
00A94
1F317
00408
0159B
01018
1F8DA
0084B
0014D
00215
1F3C3
0083F
00369
010A2
00D9C
00617
1F5DB
00B7A
00CC0
1ED5E
013D2
1EB0D
1F80C
1F591
01415
0151D
1F650
00D5C
00439
01081
00BCC
01C73
0084A
00047
001CE
008A0
006D3
00BFA
1EC16
01175
0115E
01C6E
1F483
000E0
1F490
00053
1F206
1FACA
0006A
1F74C
002BB
1FCE1
00CAD
1F228
002ED
00380
007D3
1E9E7
010C8
1EE85
00D88
1F1D8
0022B
1EC03
1E879
1F816
1EA51
01228
1F7B1
006A4
00AEA
00EC0
00A03
1FF76
1F60D
0054A
1EC32
01B82
00740
1FAE4
00B89
1FFD5
1F1A0
01476
1FF25
1F3F2
1EACF
1F8B6
1FEB4
1EAF9
1F9CC
1EE53
1EB2D
00787
00514
00941
1F02F
00625
013A3
005AC
1F6F4
00417
1EC07
00241
1F98C
01060
01374
00DF5
1EFE1
1F9FA
1EDD4
1EBC8
1F775
1F51F
1F683
003FB
00995
01199
1F7AC
1EF61
1FFF4
1EB1B
1EDFE
1F193
1EE58
010A7
1FE26
1EC32
1FFEC
00A50
005C2
00AA3
008AA
1F95A
01039
1FF23
008A3
00604
1FF91
009EB
0077B
01262
1F5DC
1EFEA
001BC
1EF3D
00B5A
010CB
0113E
1F924
1EFF4
1F520
1F550
00B15
006C6
1F787
1FE54
01825
1F496
1F576
01BE9
00EE2
009BF
001EE
1F77F
1FDFB
007D5
1EF82
00816
1FB8A
00C35
009FD
1FD31
1F314
1E8B3
004F8
1F8EE
1F18F
006DE
00E0B
00673
01596
1F9E6
1F3A9
1F9FB
1F35D
1FB28
1EE64
1F679
1FE70
1F8E1
00B24
1EA93
00E2F
1E9EA
1F246
009B9
1EE9E
00988
1FF0F
1EFB4
1F550
1EF82
1F6EF
1FA9E
00A59
007A7
1F883
1E91C
00C43
002C1
009A5
1F645
001A2
00255
00F58
00921
0136E
1EE84
00D1D
1EB72
0096D
1EAC9
00991
1FA43
007EE
1F85E
1F021
00A6F
1F7C1
1EF2F
00FF4
1F4CB
00D3A
01899
01902
00624
1FA03
00BF9
004FC
1EF46
0119D
1F225
1EB2A
1EDE7
1F1E9
0071F
1EC76
1F86E
006EE
1F702
0152C
1F7A9
1F1E1
1EF82
1FAF4
015F5
0046E
000E0
1F557
1FC7D
1F4A0
00E57
1EFD1
007BB
013DD
00669
0008F
1FD45
00740
1EA0C
00997
1E799
0158A
1EF4B
1ED31
1F11D
004B4
00FFF
01329
00BC8
008FC
1EF1A
00595
1F07F
0124F
1EAD1
003CB
1FE1D
1EA8F
0134E
011FE
00AC4
010D8
1FDCD
1F658
0072E
1EF9F
1F035
004E8
1F392
00CF2
1FE64
1EBD8
003FE
0079B
00F97
01054
01018
007F8
00F18
0120A
007B8
1EAD0
1F44A
0024D
1F7AF
0139A
00024
1FF42
00C49
00C3E
1FE7B
1EE2E
013D8
0012E
00B35
1F90A
1FD92
1EC55
1F4A6
00870
00584
1F631
1F6B5
0097E
0093F
1EAEF
1FD63
1FCF3
0161A
0032A
1EB3B
1EC48
01821
1F3A7
0088F
0074F
1EB1E
00262
00451
1F753
00141
00101
01493
00E73
010CA
1FAE7
01038
1F881
017E6
0107C
1F777
1F3EB
00B66
1EC74
1F167
001A4
1FFB5
1FB53
01998
1FDE7
00516
003AB
00AC9
0114E
00F8A
00A76
00BE9
1F406
1F71C
1FE17
0033B
1EE6E
00B18
00D74
0010C
002D9
1FAB1
0027F
01207
1FA75
005B8
1F2E1
1F7A3
1E637
0022B
001FA
1F455
1FA48
1F39E
00E1B
1FAD9
014EF
1F4FB
00634
1ED5B
00DD4
1FFEE
1ECFC
1F59D
1FC86
00A7E
1EF88
00BF1
1EBC7
00B52
1FAFE
00DFC
00960
1F762
1F993
01377
1FF9E
00A2F
1F096
1FB8A
004DB
1FDD9
1FED5
0056F
1F86F
1FE4A
1F967
01504
008D4
01443
1EE66
1F36B
00D0E
1EC35
1FCF9
1FCE2
1FB9B
1F7D4
1EC08
00B19
1F76A
1F622
01049
1EDC0
01519
1F5F4
0092A
007CB
012DA
1FF75
00C38
1EBE7
00F1E
003D0
01089
004D9
000CB
1EF25
1EA85
00CEB
002D1
1F233
1ED12
007BF
0145B
018A8
1FF81
016ED
001D5
00F8C
00A8B
0133B
1FE56
01DC3
1FAC9
01538
1ECFF
1FBAC
00F7A
1F5EE
0041F
1F340
00931
0007F
1F465
1EA24
00A86
1F326
00427
00B9B
01288
1F52B
1EC4B
1FF3F
014B5
1F320
008C6
1EDE1
1EA26
1E720
00DC0
0141A
00D31
00B38
0152A
1F312
008F5
002BA
1EBFD
0052E
0086E
00B6A
001EB
00354
1FBF9
1F216
1F751
00C42
00CAF
011EE
00FA4
00AD0
1F06E
000FE
1ECCF
1FE65
01352
1ECE3
1F68A
00C67
00CD3
1F353
1F58E
1F3D3
0129F
1F018
1FADE
1F513
010FD
00CA5
00D30
1F832
1FD0D
1FA95
1F369
00F19
1FA98
1F159
000EE
00379
00B44
01251
1F58C
01280
009F2
01334
1EAD1
1EAB1
1FC98
00485
00F9D
00FDB
011E5
00C8C
00377
1FF46
1F260
1FFDF
00E30
1FEA3
006B3
1F614
1EB67
1FED8
00F23
00378
003FD
004A9
1F6DE
001FB
1FFDA
000EE
1EB63
1F9F1
00A7B
00B3C
1F14B
1FE17
1ED34
1EE10
1FFAD
005C7
1ED71
0048B
1F174
00A8A
009D0
1F71F
1FBEB
1ECD5
0095D
1F457
1FD29
1E7DD
00CCB
1FF01
00EF9
0049C
00BA6
00D02
1ED8F
1FF7A
0138F
00F01
0021E
00AAA
1EFEA
1F4B6
1F61A
00121
1EBE3
00E64
1E888
01189
1EAD3
1F470
0024E
00835
0080C
00B43
007E5
00DDE
0029F
0119B
00A65
006F4
011AF
1FDBA
0082B
00C8C
1EFD6
1F74E
00226
1FC4A
000EF
1FE3A
1F2A2
1F859
1EAD3
00AFC
01280
00AE0
01500
1F174
1F335
1FA51
01138
007FF
1EB8C
1ED2E
1F3A7
1F35D
1F7F3
00714
0112A
011B8
1F74E
1FF34
00154
1F718
000BB
00062
1F11D
1F1A6
00E54
1ED62
003D2
0007D
0103B
1F495
1EED7
1FE22
011DD
00DBB
013E5
00365
005B7
00BBF
01128
1F873
1EBEB
0127E
1FB7A
00730
01139
014A0
1F9F2
1F865
0073B
00A2E
005DF
01200
1F586
00E6F
002B7
01407
00FBB
007A1
0094F
1FB16
00572
1EC34
00A87
00152
00F16
1FA05
1ECD6
002A3
1FE33
1F8CC
1F42F
01482
01013
0118C
1EC82
1FAE0
00239
1EBDB
00F73
00DB2
1EEFF
1F24E
00B7A
00C16
1FC49
01511
00B53
1FB21
013CC
1FB01
015A8
00ACE
1EDA0
1FFA1
1F52D
1FCA9
00F53
00DFD
01078
1EC85
0036A
1FEEA
1FD89
1ECFA
0081D
00946
00F83
1FC83
00BE7
1F577
1FE4A
00A79
1F19D
1FD0B
00559
1F83E
003A5
1EE3E
010BB
00E19
00ECB
1F2BD
1FEC9
1FEDF
1F442
00022
1F774
1ED2A
0123C
00698
00EDB
1FB3E
010A1
1F9D2
1FD8F
1F2E0
01360
1EAAA
1F34E
0074E
1FB1D
003D7
1F2B4
010BD
00DC4
00044
1F4C2
1F3D3
1ED30
00CC5
1EBC4
00174
1F3A6
002DE
0056B
1FCCA
1F022
0011B
1F200
1FE96
1F285
01301
1FA62
00868
00475
1FBFD
01312
1F31C
1F888
1F55D
1FF04
00FC3
00664
1FB22
1EE17
1F0A1
1F67A
1FE71
012A8
1F89B
1F5C4
1FC17
1F175
1FD7E
0050D
1EAC8
00A2E
1F124
1ED4D
1EE5B
01492
1F30B
1FA47
008BA
1E90F
00A47
011BC
01312
00957
1F365
1FA20
00BD1
1FE47
1FEA2
1F953
1F3D9
1FEA5
01192
1EB9C
1F12D
00558
00BE2
008F2
1F95B
1E8D2
006EA
007F2
013E9
00FCD
1FE99
1E943
01215
1EE58
1FC5E
01873
015ED
1F291
0074B
1F435
1FAB7
0062B
1FCFC
1FB3E
00B3E
00B9D
1F14C
00932
1FA5D
00B40
01219
1F3E6
00537
0010F
01662
1F83A
1F247
1F962
002AE
1F822
1FD19
1F814
028D2
1FAE1
1F038
1F437
00443
1F887
005FF
1E907
00F37
1F338
0060B
00F7A
00ED9
0055E
0089B
1FE00
1EAE6
1EC6A
1F89A
1FD74
012C5
1F0D1
1F641
1F740
00371
1F3D8
0126E
00E58
012CB
0191B
1F453
1F283
1EC2B
1FF40
1FFB9
00268
1F5EF
1DE47
1FF78
00438
01357
1FB85
005CA
0040C
00F37
00BAD
00CB2
00BC9
00D9A
1FFEE
00EA1
00EB4
1E9DB
1EDA0
1F855
007AC
1F628
01819
006C3
1EDDD
01BD1
00485
1EB0D
00835
1F319
1F681
00F29
1ECA2
00A72
01B0F
1F012
1F77B
1FF89
01018
0123D
1FFE6
1FBF3
01026
006D7
00162
1EB4C
007C8
00A10
00567
1F14F
1F0CC
01EC6
005E1
0101A
0073F
1F6D5
018EF
1F30B
1FAE6
1F372
00474
1FD9E
01087
1F605
00351
00C27
1E10A
00F2D
00DBB
0074C
01C34
1E8C2
00085
1F232
1F4D0
1F129
1FB5C
1F6CB
00962
00783
1F651
1FC00
00499
00CBE
00774
00BD9
01A03
1EFE6
1FEF8
1F3BE
010F8
00736
1E50C
01066
00448
1F28E
1F65B
00C2E
1FB3E
1F667
007C6
1EB58
1EF50
1F8DB
00443
011CE
1EC2F
008F0
0076C
1EE76
1F412
00863
1F622
0041A
1FE6B
1F05E
006D7
1FAE6
0028E
1EBC9
1FF81
1F043
1F957
1F9B6
1F9DC
1EEE5
01294
1F7FA
0083C
1EB48
1F658
0058B
1F0BE
00435
01147
1FC2E
0034A
1EDDA
00C41
00EE1
1F573
1FB9D
1FFFD
1FCCF
01293
1EB73
1ED5A
00C1E
1F4BA
004D2
00D99
1F7C2
1EBBE
00337
1F593
01091
011DC
1F1A2
00490
1EAFA
00192
00A1A
1F82B
01264
0045D
1F604
1F814
1EE0A
1FF43
1F2A0
1FB9C
012AE
1F45F
1FC7C
001D6
1F14D
1ED66
1EE3B
1F188
00F57
1F8A4
1FB43
1EE8C
00834
004D0
0145F
1FF92
013E4
1F7AC
00CBE
0144E
00E8D
1FCE1
008AC
000CD
0107A
1F08E
1FB19
1ED93
006C2
00FF8
1EE84
00ADB
007F9
1EC02
014AB
1EAEC
00FE4
0007D
01460
00A96
1EF8A
011B5
1F6FC
1F528
014CE
0002A
1FB76
00C8C
1F54B
0147D
01365
01494
1F1B1
1F2DD
00AF8
002C8
1EF36
00BC1
1FE19
1EFC5
1ED86
00AC1
0027F
1FB4D
1F263
1FF6E
1F1C6
1F56A
00B10
1EFC8
1FE35
1ECE0
1F576
00B6E
011E5
0012E
00117
01473
00E34
00A8E
1F146
1F89F
1F056
1F81F
1F3F7
1ECB0
00694
010C1
00D9A
1F24F
0032A
003B7
01360
0047C
010A8
1F8AC
00E46
00086
00DCA
1FFC7
1EBE2
1EE0C
00BED
01250
00456
1ED9A
1EEEF
1EFFE
1FDAB
1F143
1EE63
1F734
1FFB9
00387
00306
1F88E
0063F
00264
1F26B
001ED
00FEC
1EE8C
00382
1EE36
1F71C
1F002
00D20
00C1D
1F2B0
1FE65
00A48
1FDDA
1F9B3
008F5
00448
1F9F4
1FBA2
1F277
00187
1ED86
00ABE
1E79D
0071B
00E3B
0265E
1FDAC
1F2D5
0026F
00674
1FA2D
00C2F
00A88
013FD
01001
1F8A5
00CF3
00C82
00634
1FCC2
00B87
00A28
1F5E1
1E9B5
00F21
1FE54
1F8B9
1F4FA
1EA14
00F10
009C6
00487
0077B
1F43B
1FC40
00D88
1F612
00546
1FC60
005E3
1EAF6
1E9E0
1EBEE
1F9FD
1F36B
1ED16
01251
0098F
1F427
1FCF9
1F146
1F7C7
1FE55
00C1A
1EACF
00A5D
1FDCB
1F69F
1FD4D
1FF9B
1F31E
1EB98
1FD79
00AB3
1F111
1F575
1F6E5
1F7AD
00E5B
1F55C
1FA35
0121B
0141D
1FAC3
1F012
001B5
1F919
1FBDE
00DC7
1FBC4
1F07F
0109E
1FB15
014C0
1F92F
1FBFF
012D7
1F10A
004B4
1F9CB
1F4CA
0031A
1F7B5
0096F
1ED3F
005A8
00513
1F12C
00528
1F0BB
1F4D5
1FDC3
0064E
00850
014FE
1ED09
005FB
1F293
1FE07
1E9AF
1EF3A
0209D
1F8A8
010D6
00A6B
001BF
012E0
010C6
1FAAC
1F486
01EC4
1EA6D
004EF
02DE4
1EF47
017CA
1FD4E
00677
009CF
1F4C6
015AF
031FE
004E8
0169B
01733
1FE15
0068F
002DB
00C6D
1EBDE
1F5B9
014AD
1ECCD
1E849
00BC6
1F8A6
01970
1F16D
004F7
1EDD1
0058E
0010B
1EF3E
1FC49
1F61E
0028C
1EC08
1EE83
1F7A9
1E92C
00645
00F4E
1FC2D
1E74C
00066
1F677
1F9B1
1F548
00EA2
1EEDB
00763
1F803
0115B
1F9BA
1F68D
1FE74
00744
00451
00725
1F01A
00B52
1FB06
003CB
1F9F6
0115B
1EACD
1F181
1EF62
1ECA6
1FFA1
1F7C1
00015
1F38E
1EB54
1EFD3
00A14
011F5
01657
1F06D
1EE1D
1FE51
008B2
1F015
00AA4
1F74A
1FAD2
1FF33
1F704
015F9
003C2
00E19
01405
1EF47
1ED29
00A96
1F96D
1FA2E
006D8
1F918
002CF
012C0
1F0A4
1F4DF
1ED5B
1F2BA
0016E
0137D
011CA
1F089
1EB7B
1FA3B
000AA
0137F
00FA2
014CB
1FA00
01182
1EFC2
1F83B
00602
1F2C6
00945
01502
1F8FD
1F47F
0165C
008C8
1F6C4
1F963
0059B
1F936
005F4
1F03C
1FA54
00A77
1F07A
1FF63
1FD24
1F2AE
1FB63
00163
1FD81
1F913
003CF
008D2
1FEE7
001DD
003B5
0077D
1EC0C
1F3F9
006B7
1E995
0133B
1F7A5
015F0
01532
006B0
00811
1EAD1
01251
1F60E
1FB11
00792
1FA03
1F2A2
1FB9F
01764
1F1CD
0051C
0105E
009EE
1F324
1EF6B
0147F
010C8
1F343
012EC
00BCF
1EF1E
1FD7F
010D3
1F947
005DF
1EEDB
01174
1FD0B
1EF48
1F1A3
00B35
00D14
007F9
00A57
000AB
00509
00B95
1ED14
1F9E0
00D08
1EB09
00257
1EAB7
1F940
1F333
00B87
1FD4E
0053A
1E855
1EF7A
008C5
00254
1EB11
01859
00A75
00C16
003A0
00718
1EA03
00902
002EB
0039F
1EB96
00683
1F819
1ECF6
001A3
000F7
1F613
00DE3
1F8FC
00670
010DC
00CDE
00AC8
1F78E
1F51F
0085C
008B7
00F16
001D7
0003D
1F749
1EF84
1EE18
1F577
00D7E
009A6
01A17
1FB56
1ECC6
1F8C8
1F471
1ED2B
00940
00F4D
0078C
1F9F9
007B9
011A3
1F6FC
01075
003A3
1EDC5
00647
1EF47
1FEF1
1F82D
1F229
00CC0
1F3DB
00398
00692
001F5
00A5F
0038C
011D9
0064B
016EA
00BF5
1FFAC
0094B
005A9
1FCD0
1F2AD
00A7F
00AA0
003AA
1F365
1F4DE
1F2B5
00535
1F4E0
01220
1EF6D
1EAFD
1EC3F
1F8A2
00DEE
1F544
00589
1F572
1EC80
00462
00DC9
1F283
1FE6E
1ED7A
002DD
1FE80
1F6E6
1FCBF
1EF68
1F9E1
1FA63
008D6
01364
00C59
00526
00733
1EC6B
00F1B
1F00F
1EFB7
1F042
1F6FD
000BB
0115C
1FD99
1EF34
1F708
1F207
1FCCB
1F010
1EE7D
00468
00E67
1F4F8
00522
00566
1FA2B
1F4C7
01424
1FCA8
1EC59
00117
1F110
00018
1F8FD
1FACB
1F389
1EBFA
1F35B
1EE9C
00262
00873
00B56
1F2CE
00712
1F6BA
0111A
00715
1FC9C
1FAFF
010EB
1FDEA
0028F
1EAD3
1FE9E
1F592
1FC5D
1F5B9
003CC
0135F
1FEB1
009AA
1F275
007E8
1F1F9
1F3BA
1F5D3
1F8E5
1FA63
00AB6
1F86E
0095D
00950
1EC5A
1FD97
1F1F7
0124A
1F521
000CC
005F2
1ECF7
1F954
1FD4B
005FA
022BA
1FAF3
1ED6D
0129D
1FCFE
1FA85
1F862
00643
01A7E
1FDE4
0055B
1E7A6
1EA44
001A5
0079A
1E8B7
00B04
00D4E
1F8BE
1F241
007F1
004BB
011AD
1EB60
1FFF1
1EF28
01AE0
1FAEC
1F96C
1ED8E
00676
003E1
00683
011CB
0029A
00CB4
00702
001DB
00217
1FBE0
003A4
1FE79
01569
1FFD5
00BD7
1FD54
1FE13
1F558
00ADA
1F869
012E6
0138F
000FE
00C7A
00D34
1EEAD
00EBE
008F9
1FDAD
1EFF1
00029
1F84E
1EDF4
0064D
1FD21
1F7B7
0055F
010D7
1EAB5
1F30F
009BA
1F13F
004FE
00FAD
1EB4A
1EEFC
1F8BF
1F414
00948
1F048
1FA4A
00B63
1FB3C
00B0C
00FBE
1EB72
1F179
1F1DE
00F3E
1F091
1F0BC
1F1CC
01025
1F533
1F053
00CF1
00688
1F158
1FA81
1EDE1
1EF3A
00EC6
00C41
00DF1
015F7
00ECD
1F259
005AC
009F8
1FD65
009AC
1F94C
011B4
1FD73
00671
01344
1F3CF
1FF93
1FC17
1FD32
003B9
1EB78
00BF2
0084A
01230
00358
1EF2A
1F65E
1F511
014B3
1F556
1F639
1F4A9
1F3C2
1FCE5
00053
1F0F4
00561
1F220
1FFC4
1FA45
008F5
00430
1F885
1F62B
1EBD4
011B7
1F52D
004C9
1FE47
00901
00892
008DE
00DCA
0019A
1EA04
1EFFF
1EF07
1F5BA
1F812
00633
015B7
1F2E3
00428
00116
1F856
00BF6
00F8F
1EE87
1ECD5
1FF2C
1FC3C
1F012
1F58F
1FAA5
1EE55
1F708
1F87F
1EB56
0023A
1FBB6
00638
1FA1B
1FF40
01136
1F8EE
1F802
00EF6
00CBB
1EDF1
1F8B5
0058C
1FFE3
0090D
0133A
00092
1F83A
00F79
1F706
00EB9
1EF75
1EDB4
01060
1EF04
00043
001C7
1ED90
0030E
00336
1F58E
1EEF1
1F2FB
013FD
1F4AE
0012B
1FA83
0020C
1F40A
00D98
00ADB
00A70
1FF51
0097C
1EE1B
1EC4E
1FD7F
1FF9E
00152
1F9BE
00AA8
1F1C3
00AD3
01E22
00916
1F9E9
1ED9E
1FC9F
01017
1F150
0098A
00362
00030
00B27
01644
1EEB4
1FDE2
00945
1EC0A
1F8D8
1FD60
00F39
00E95
1FA9F
012D1
1F9DC
00C73
003DE
1F762
1EB37
1F812
1FA5C
00FC8
1FA6D
0068F
1F9F4
1F244
1ECBC
00F63
1EEB2
1FA50
1FCF8
1FEE5
1F915
1FF79
00B8A
00E96
1E83F
1F0A9
1FAD6
1FD48
1F751
00EA6
00E8B
1F20D
1F431
1F320
0095B
1ECD2
1F3C3
1F538
1EF39
010A2
1FE5A
1F114
005E1
1FB70
1F6AD
1FAF5
1F848
1FAA8
002B7
00EEC
00B6A
1FEE8
0067B
1F882
1F0A3
012B8
1ED54
011C4
01019
01281
1EB9C
0014F
00F67
0010C
1F673
1EF49
1EDFF
1F77B
0083C
0109A
1EF20
00E01
1F575
1F393
1F1B8
00ACA
00990
1ECB1
00CFD
1FC1E
1F370
1FECA
1F49B
1F2BE
1F149
00321
001B7
00639
004BF
1FF25
00E27
008DA
0125E
006EF
1F836
1FEC8
1F0D0
0079E
0062C
1FC97
1FCB6
00721
1EFF9
1F36C
1E862
009C4
1FB37
006F4
01446
0109A
1FC48
1EEDA
00A3B
1F09F
1EBCA
1EB25
0093A
00641
1EBEE
006FB
00587
00C2E
1F464
1ED09
1F67F
1EBBE
1FE99
1FC65
1FE0B
00875
00BD5
1F372
011D4
1FF26
1F7E8
1FCD9
1F658
00101
1EB11
003A4
1F931
00D60
003C9
1ED25
00A5C
000D4
1FD70
004EA
1FF83
0103A
001E0
1FB0D
1F90C
00836
1FA9C
1EBBA
1F7EF
00ABE
0071B
1EB97
1FBF8
1FFC4
1FF69
1F477
1FA2D
1F90A
01307
0074C
00EEA
00C3E
1F6B3
0111D
00F65
1FDF3
001EA
1EBA6
1FFBC
0009F
011B3
00505
004D6
1F128
1EC71
0159D
002E4
01756
00F21
1FF5C
00EA2
1FE63
00904
1FE1E
1FA69
1F6E5
0018A
1F45E
01B7F
01505
1F152
00D01
1F083
1EACD
1F7B3
1F327
00C9C
0027C
010A7
1FD80
002DE
1F555
1ED6B
00911
1FC3C
00354
008D5
00E65
1FFE9
00F35
1FF72
002A1
1F5A9
1EE43
1EFAA
1F0F7
00E54
00328
1EF3D
000B0
0006E
1FE65
1F7EA
1FDF1
1F875
00B4C
1F1DC
1EBBC
01FE4
0048B
1F275
1F44D
1FFAB
1F69F
1EE29
1F793
00010
1FAC8
1F054
00C9C
1FA22
1F4EE
009B3
1FA7A
1EEBE
1FD78
1F86D
1EC89
00A4D
1FAB3
1F4A1
1E9F5
01669
01DB1
1FA56
1F80D
1F278
1EC82
00412
015D4
0008C
1EF5F
1FF7F
1F586
0006E
0094F
00E8B
1FA3E
00716
00F48
1F71E
1EA38
00B96
1F37C
002EF
1FCEA
01157
00D6C
0085A
1FAC0
1FCD4
00FEE
1FD6C
1EF6A
1EEE7
00779
1EECB
0068C
1F3DC
1F58E
003EA
000B4
01288
00E4C
00DE0
007A8
1EFF2
00628
1EEFD
0085D
1ECC6
1F56F
004FD
012D6
1EDA2
013E1
00707
0057D
003A4
1EB24
1F410
1F295
1FDDE
1FD52
00159
00E54
1FDDA
1FA10
01187
00EAE
1F666
1F13A
00781
0141F
002D5
1F1F5
00852
1FBD3
003AD
00F07
1EAF1
1F34D
1F418
0080A
1F7F8
1F875
1F614
00E86
013D0
1FF8B
1F2FD
1FA17
00407
1F01F
1F9FF
1F7D2
00D51
01256
1F1F1
001DA
1EADB
1FE6E
1F074
003E2
1FEA4
1F41D
01334
00B43
017C1
1F23A
01106
1F02A
008C9
005D4
1F6AB
1FAB0
1F8FD
00E6B
00FFA
01185
1FD45
1E92A
02478
01503
00C5B
1F2A0
1F3C8
0101C
1F0BE
00F88
02B16
00E8E
1F553
005CC
003A3
1EDE8
1EFF9
00B44
00D2C
1EEF9
1F48A
0168F
002E1
018D7
01052
1FA1F
1EED0
0142B
00EAB
1EA31
00E6B
1ED94
01405
1F830
1E957
005C6
1F358
00B35
1F81A
1F0B4
1FE27
1F34F
0068C
1F4ED
00F3C
00FDE
1FF82
1EC0B
00CCB
1E161
1EE43
00A80
1F8B1
013D9
0096F
1F2ED
00D96
1E99D
1F5B2
00B3C
1F87A
1FB7A
1FD70
00C75
004A3
0021F
01138
1FC1A
1EAE8
0108F
1F324
1FD5D
01058
0066B
006A6
1EBA4
011FE
00B36
1F098
0055D
1F2DB
1F5EE
00191
1F386
1FD02
1FACD
00149
1EF19
00EE8
00099
006B8
1ED9C
01248
00E20
01500
1F860
1F89C
00064
00FB2
1EFD7
00270
0049A
1EDFA
1FF50
1EF13
1EBAC
01501
1F126
1F7C1
1FF20
1F11F
00F23
1FBF2
1F335
014B4
010D3
009FE
1F7C7
1F8C3
0091C
01BC6
014CE
00856
0079A
00C08
01974
1FFAE
00368
1FB49
002B4
1F756
1F4AA
003D8
01063
00052
0010C
01F0C
0148D
01383
0091D
1F540
003B9
01211
001FE
1F229
00A48
00E4A
1F0C8
00317
00593
1FFE6
020C2
1F018
1FC9D
00CC4
1F92C
00F53
1FBA4
00CB3
005A1
1E9B8
00C13
1F698
1FCC3
1FA69
009DE
0101E
00E18
00291
1FE25
004E0
1EDBC
008BE
1FF8E
1F150
1FD0B
00D13
006DE
1F5FA
00591
000D3
1FD87
1FD52
008D8
1F059
1F6B0
00268
1EFCA
00BFB
1EC4B
005CA
0029D
1F42B
1F75E
0126E
00EE1
011EB
0028E
1F79F
1FE3D
1F5B0
0084D
00E06
00F6C
1F8B2
1EE7E
00677
0096D
1F2C7
0107F
1EFC4
1ECBA
1EC95
1F8BE
00B15
00E7C
002D6
0129E
1F75B
1ED72
004A9
1F09B
0096F
1F82A
0021A
00444
1F26C
00220
1F91C
1F780
1FE63
1F61D
00828
003FD
1F86E
1F8F9
00311
1F299
1EFCA
014FC
1EBF5
1F736
00D0B
1F00D
1EDB1
00986
1EC3A
1EF86
004AA
1FB28
1EA92
1F1F2
1F3EA
1EC05
1F521
1F8CA
00440
00CAC
1F5BB
01377
1F015
1EF9F
1FCFD
00256
00D46
1F7E2
1FE8E
0119A
1F2D2
1FA6E
0058D
00172
1F5DD
1FDA0
1F0D4
00745
00385
1EC12
1F69D
1FDF3
01961
1F4C5
1FEE8
1EC5C
1ED3F
1EFAA
1F236
0032C
1F12F
00AD3
1F078
1F1FF
00612
1F030
1EE02
1F8B8
0041A
1EC94
1FF13
1F67B
1F238
1FEDD
00A4C
011AE
1FEE6
00EAC
00165
1F1D6
006C5
00C9B
1FF23
1EFCB
1F19D
0143D
1EAC7
1F596
1F318
1FE06
01015
1EE27
1FBDF
00A71
00DC3
01023
00E79
1F976
1F0F7
1F33C
011C5
1F10D
1F1A4
01533
0052E
1F627
1F531
00E0D
002C1
00321
1FAF6
00FF4
00664
1F6E9
1F8EE
009F8
1FD4F
1F9F7
1F4ED
009C2
00BFC
1FE06
00401
00C7B
1FAA2
0119C
00332
1F9D6
0125B
1FFF4
1FDE8
1F288
1EAE8
1FB74
0147A
00433
01077
0135C
1F5E0
006B0
1F6B2
003B5
1F6CF
1F635
00F85
1F8A9
1EDE9
00968
00973
01253
1FC08
002F7
1F4AB
00E28
1EAC2
00A40
01330
01167
1FE41
0158C
00785
0054C
1FA9A
1ECA0
00576
006FA
0089E
1FFD5
1F0DD
1F655
00084
1FADB
0023A
00A24
006F5
1FA18
1FB5A
1F41F
005B2
1F0CA
00EF3
1FB36
1FCD4
1FFC4
00D71
01252
0093D
1FA08
01219
1ED28
1FC62
0059F
00835
010E2
1FA2E
002C9
00AF4
1F931
1F099
1F72B
00FB5
01042
00B48
1F3E9
1EDF1
1F5CA
1F7D1
00B2B
0043B
00514
1F670
00548
013C7
00B8F
01343
014C4
005FE
1FEB1
1FAA9
1F07D
0089B
1ECC5
1EDA1
1F586
1F38D
1F108
1FE80
0012E
0105E
01139
1F623
1EC93
1EDD8
01517
1FD2E
00E1E
0097F
00DA1
1F509
007FC
0121B
00B3B
00EE2
0050B
1F5D4
013A1
1FCAC
00DB0
1FDC6
1EAB5
000A7
1F666
00328
1F389
1F0CC
1F806
1F19D
1EEBD
0091C
0099B
012E5
00103
1F7E9
00149
00194
1FD5D
00270
000EC
1F1EE
1F532
01002
1F4A9
0034A
00B0A
00D56
00A2E
00CFB
0094F
1F55D
0074C
00DD0
00758
1FBA8
1FD98
00415
008CE
010F0
013E3
1F975
012BC
1F5B5
1F330
00AC8
00BAA
0068B
00A02
00704
1FFE0
00769
00BCF
0006D
1FD34
1FB18
1FB32
1FC50
00730
006BF
1EFDE
1F71B
1E948
1F337
00CB9
0003F
1EAC1
1FE49
1F49D
1FB87
1ECAF
1EC64
1F993
1F5FD
1E861
00809
1FFBD
0107A
01195
00F02
013DF
00FE1
1F56B
002FD
1FC03
1F92F
1E99F
1FA6B
011C5
00020
00DE6
00904
1F2E8
1F64E
00F93
008FE
1EBC9
00557
1EC79
1EBC9
00654
001E5
1EF30
1ECCD
1FAC0
1FAD5
002A8
011A8
1F061
00FD5
017D1
1EEED
01BDB
1F4DC
1EB2A
00E21
01168
002B2
1FDF3
00078
1F75E
1FEFC
1EC2B
1ECFD
01139
00C53
1F6ED
005F7
00A9F
00F16
1ED16
00C9F
00A22
1FC01
1FE54
1F62B
1FE91
1F3C0
002EF
1F4F0
1F1E0
1F77D
01339
001CC
00BEC
0025F
1F4E2
009BC
002F5
00ADF
0266B
1FD62
1F3CB
1FAFD
1FBC3
1ECE3
004F1
1F28A
1EB2E
013F0
1F370
009DA
01891
1F37E
01290
1F607
00A13
1FBBE
00C41
00260
00A22
00CA0
00B93
01659
0072F
001B8
1FC9F
00743
1ECCF
00EFE
00205
00101
0021B
00A12
1FD77
1EEC4
01051
1FA63
019A1
1E6CB
0068B
01376
00A3C
01501
1ED73
1F0B1
00509
1E29A
1FD46
00817
009A9
1FE47
005FA
00896
00557
1F8CA
00379
00062
1F0FF
1F67D
005AA
007D5
1EE80
00D88
00966
006A1
1F52B
00EF0
1FD20
01436
00640
1F7D9
0133E
0027C
006BC
1F84E
00242
1F838
1F2EA
01273
1FA32
1FD6F
003A6
1F84E
1F82C
0091C
1EEF2
01294
1F03E
1F54B
005A8
1EB97
1EC15
0004D
0097D
1F1BF
007CF
00F5D
1F3E0
0000A
1F5AC
00478
1FDAC
1FB64
012EF
1F8DB
1FAC5
00E44
00B42
003B9
1F98D
1FCA3
1EC1F
1FBBB
004EB
1F73A
00264
1FF4F
0005C
1F2AA
1F93B
1FFDC
1FDE4
00514
1EF47
00358
00A6B
00F63
1F5D7
1F705
1FACE
1EF81
1FECF
007E0
0014F
00CB0
000C1
00704
1F19D
1FC05
0058E
00286
00DEC
01148
0119B
0025B
1F692
003C0
0050E
00C3D
014C6
005B6
00C4A
1EB7B
003BB
1F18F
1EC55
1EFED
1F9F2
1FBDF
1FC89
1F457
012D0
1F2DC
1F29B
00955
1EB3D
014B4
1FE48
0076E
1EE8B
1F25B
1FDB5
1F1F6
1F835
1FA2B
001F7
1EB8D
1F537
1F2FE
0117D
1F1AE
1FAA4
00D1A
00CE3
008F2
1FE80
1FC8E
1FAFF
01018
00D36
1FD22
0095E
1EC9A
00AE8
1F010
00E4E
010BE
014BC
1F77F
1FC6A
1F19D
1F8C7
00C89
1F97B
011B7
1F2D7
1F880
1F3AA
1F07B
1FB90
1F646
00F18
1F06D
1EE52
00810
00A74
1F1CF
1EEFA
0140D
013CE
01216
00A8E
010A2
1F461
1FB8B
1FC2C
1ED97
0105B
1FAFA
01287
1FDD4
1F422
00922
1F497
1F1AE
0002B
1F398
1F8E6
00608
1F43D
1F646
1F8D1
014C9
01503
1F3CC
1FB26
0138B
1F335
010AD
1EC5A
1EDA9
00DC8
1EEE6
1FD9C
1F746
1ED17
021A5
1EE12
1EF2A
00152
1F8FC
010C9
1F379
1F13C
00F7F
1F96D
01060
1F336
00264
0034E
1F61F
1ED0A
012E1
00B4D
1F588
00899
1F69F
1F454
1F2E8
00A35
1FE89
00000
1EB93
00B15
1FFCF
1FDE6
1EF7D
00BB7
01213
1F0A0
1FA82
1F25D
1F0C6
1FC84
1FE2A
00AAC
1EBBF
016BC
00C19
1F6A1
00878
1F8B9
00B47
1FCFE
1F2FF
010EA
016D9
1F519
1EFAC
1FEB1
018A1
0039D
1F0D8
01402
1F674
1F97E
1FB6A
1EC88
00BF7
1FD8F
1F6E9
1F10E
1F27F
1F6D9
1FED5
1F577
014FD
010BB
002F4
00283
002FD
00E09
1FE14
1F964
003C3
1EB93
00D28
1ED90
1FCD2
00800
1EC28
1F9CB
1FDC0
0141B
014BC
01326
0016E
1F6B2
1FF12
00A60
1FBAB
00119
1F1BD
1ED28
1FA17
1F895
01379
004D7
0119D
00479
00920
0059E
00F40
1F144
1F789
00A58
1EB71
009DF
1FA7D
1EFE8
007A5
1EBB5
01224
00DF8
1FD67
00B84
1F010
1FD32
1F278
00920
0069F
1FC94
1EB93
00515
0020E
1F8AA
1F6D4
1F59E
00737
00040
1F6CB
1F197
010FF
1EB92
00969
1FF66
1F2E8
00573
01C4D
1FFF5
009D1
00913
1EC3B
00FF3
1F151
1F958
01382
02239
01A8A
01425
1EDA5
1F1C7
1FECB
00E54
1FC96
007BF
02257
1EAFC
1E9DF
00CB7
1E632
1F4B7
1ED30
00E8F
1FE3F
005E7
003D2
01133
01109
1F5E6
1EBED
1F4D5
1F5DD
1F51F
003A6
00034
0001E
00596
00E8B
01205
0091C
0039C
1F4A1
01586
1EB7C
00A4A
00491
00366
01471
1FE33
003F5
1F6ED
00355
1EF93
00356
1F222
1F47A
00BCE
00760
1ED80
1F79C
1ECB8
00421
0099B
1F4DC
00437
1F9D9
00B99
00050
1FAE3
01012
01277
00671
00FAE
1FD21
1FFA2
1F72D
0032F
0106D
1ED34
1ECB3
1FF62
1F052
1FF91
1F7D0
1ED54
1F0DF
01397
00099
00976
0007F
00AE5
0031E
00412
1FABA
1FDFA
1F8D8
00D45
1F3B4
1F571
1F775
00C09
0007A
00D6C
011E6
0163F
01264
1EF8A
1EA79
1F8E1
1EC2D
1FB54
0010E
00A49
1FD73
1FE39
1ED3F
01277
1EF4E
0068D
00B88
0014C
1F775
00DAC
1EFD5
01276
010CD
1F6AC
01601
1F3F2
1F0E8
1EBD4
00142
1FF47
015B1
1EDE9
1E959
1EDB1
001B1
00C75
01185
1EAC2
1F770
00FD7
007AF
00D7C
1F610
1F1A4
00150
1FA72
1FB07
1EF4F
1F9BC
01538
008C2
00CD9
000CA
00AB4
006A9
1FAC8
1F2E8
00F26
1F0FB
1F8C5
1EC16
1FDFA
00161
1F62A
1F99F
1F491
1FFFC
1F396
00D68
0060B
1FE5C
1FDFF
00DBD
1F86B
1EC0C
1FE0F
00B04
01062
00287
1FF2B
002DB
1FAA5
1F93B
01648
1F49A
00475
00761
00134
1F1A3
00DDB
1FFDD
1EDFD
00F9B
0028F
0057A
00C7C
1FF5A
1FD0F
1F017
1FF69
1F866
007A3
00FEF
00596
011A7
00119
1E89E
00E2B
1F517
014EB
00ECF
1FBF9
1FDB1
00CA9
1F3C0
0068E
1F49A
001DE
0133B
1FCD4
1F53F
1ED21
0038C
00E0D
00FB1
1F88F
1F1BB
00134
1EBF9
1FF63
00565
1FE16
1FEC6
1F27D
00894
00CEC
0032A
1F039
0066A
1F5E6
0038A
1F319
005AB
00057
006E3
0057C
1EE80
017D4
00269
007D5
1FC00
1ECCE
01422
00023
01319
00AAF
0141C
00F6A
0009C
003F8
002F5
1E675
1F7B7
0067F
1EA6C
1F554
1F3BE
00D5D
0066D
1EF2B
1F099
002A8
1F0BE
007C8
1E8C3
00168
1F7EF
1F171
00465
0095B
002A5
1EC32
00220
1FAB0
1F876
1FC75
1E458
0210B
1F86D
011AC
1D61C
1EABA
00BF0
1E2E5
1FB14
01B50
008A1
1E5AB
00AA0
1EE84
005E6
1EE2A
1FCB3
011AA
1FA31
00AAE
1F769
1F12B
1FBA5
002B2
1FBFB
00A88
1FBA0
1F6E5
0009F
1F446
014F7
1EE6C
0104E
00B96
0035F
0064F
1EFA8
017F0
1EC91
1EBA6
1F083
1FF89
00359
000FB
1FD84
1FD88
1F1EF
00F04
1FF4C
01710
1EE2E
018E7
1E894
0127A
1F612
1F4D9
010AF
00AA7
00789
00D52
1FDD5
006A1
00AEC
1EC1F
013B4
01911
1FE03
1FC62
003EF
0033A
1F177
001BF
001B5
00A47
1F81B
00BAC
1F49B
00A6B
001ED
1FB5D
1EE4C
00340
00474
1FE43
1FDD9
00BFD
1F4FE
1FC72
00489
013C8
1FBF1
1FCE5
1FD4B
004E4
0191C
00D49
1F20E
1F7C9
1FA7F
1FF72
02012
1E81C
1FFAD
01021
1F410
1ED6D
00C0F
00A2C
1F541
1FF5B
028CD
00201
1F909
1EC45
006B4
00ABB
1F7B5
00A93
1F7FA
00434
1EF3B
1ED9D
004F0
00C61
0079D
00D9B
1EBE1
01499
00903
1F7B5
00B54
1F59B
1FB57
1E965
00597
0044A
00B25
1F128
1EC21
1F745
1FA4C
00E87
1FFED
01144
1EC19
1F3A0
007CE
0142C
00795
1FE15
1F766
1F743
012BD
00471
1F5F5
1F1D2
1F4A1
1ED3F
1EB55
1F080
1EDB6
1F0D8
00E31
1F370
1EFC0
1EE8A
1F669
1EEA0
013C8
01535
1EE8C
1ECE2
002B1
00FEF
1F916
0084F
1F875
1FC3A
008E4
004E9
00F7A
01124
1F1ED
1FFDB
1EE82
1F6E5
01026
005EE
1F249
0134F
1FF87
000F4
00992
1F23B
1F76C
1F71B
00EAF
1F828
0048D
00BF0
00E15
1EFC0
01180
01328
1EE21
1EE0A
01308
004A7
0113C
00772
0096F
01290
00E0F
1F607
01666
00BD5
1FDA7
1F709
1F4FD
005E0
00CDD
1EB02
01253
01434
1EBCB
1F3A2
000CD
1FD07
00A10
006DC
01128
1F154
1F882
1F0A7
00D43
0000A
1F6BD
1F9DD
1FBDD
1F71A
00B67
00C15
0069E
0016E
00E32
00739
00C3F
010D9
0026F
1F0D4
1F848
1EAE6
00F7D
00F3C
001D8
1EC69
00F08
01388
1F409
014D3
00EAB
1F532
01322
1EEE8
004F7
1EBAD
00C2C
00BC0
01076
014F9
0038E
1FF32
011F4
1F03E
00E59
01393
009CA
1F44D
1F178
1F7A9
00FEA
01176
00F1D
00979
1F5E7
1EF37
00C73
1EDD6
1F757
1FE54
1EBE8
008C5
00092
00BE8
1F8D2
1F792
1FB6B
00AD3
00D34
1FED4
1F9E1
1FACD
00A0E
1FEAE
1F948
00336
1EEE9
1F467
00CFF
1F80A
012C2
00E9D
0079F
0018D
00CA1
1FEA0
01283
1FFB8
1FD1C
00640
002F9
0121D
00A19
1F74D
0144C
1FEFE
000D0
1F3E0
1FEFD
002A2
0128F
00E87
1FF70
007D7
0129B
00235
00140
1EFBC
01119
1FB84
00564
0116E
1FF2B
00BE0
000ED
01479
1FB9A
00B6F
01D6E
0008E
009E1
1FCA5
0112F
1EF08
1F85B
00393
1FB65
00947
01559
007BA
1F923
006A2
008A6
00CD7
00D84
1FE32
1FDEF
1FE6F
002CC
000EF
1F3F3
01168
004CF
00EED
00342
1FD38
1F51B
1FE37
004B2
1FA9F
00FF7
1EC58
1EC16
0066C
006A5
1ED67
1F6CC
1FCFA
1F613
00BE3
00604
1F1FA
1FF6B
1FBD4
1FF12
1FAB3
1ECA4
1E625
01A6A
1FE5D
00141
00736
1EF06
012D8
00AD3
1F9CD
1FDEC
1EEB6
003AD
01018
1F8A3
01257
1FFCD
0097C
1EE1F
1FFBD
00E3E
1FEC1
006C6
00DA4
001C7
1F3FA
1FB66
015F1
003B5
1F28B
1EBBF
0113B
00796
1F175
1F253
1EFDE
1F0D0
0076A
1FE68
00536
1F369
0048F
1FDAD
01967
00BA2
1F961
00F4B
012D7
1EF1C
1FE8E
1E9D4
1EC9F
016EA
1FA38
1F8A4
00F4B
1FB78
1ED5C
1FD72
00380
01127
018BF
00BA2
00981
1EDFA
1F589
1FF6A
1FA8C
1F451
003F2
1FC59
1F8B9
0070D
1EEAF
01470
00AB7
0099F
011B9
0086E
1F96C
1F6C9
0066B
0143C
00B59
012F2
1F6EC
1F9D0
007C5
007CA
00C4A
1F8D7
00A31
001E6
1F2DF
00CEA
1FFCD
1F28F
1EE2C
00564
1EEC4
1F7CC
1F314
00FBC
01031
00ABE
1F6AD
1F9BB
00F2E
1FA58
1ECE5
1EDF5
00894
002CA
0081A
00400
1F418
1ED05
005E2
006FE
00E70
00549
014CB
014CB
1F7AD
00DB9
00B6E
1F06C
00896
1F089
0149F
1FDB1
1EA56
00447
1F34B
00208
004D0
014EE
1FED9
1F9EB
1EED0
00017
00C13
1ECF4
1FF9F
1FF3B
00526
1FE34
1FF6B
1ED47
1FBA1
00C49
01417
005E2
1EF72
1FE31
01588
1EB82
1F30D
00A23
0072C
1F3BC
1F238
005BD
1F228
1FA77
0040A
1F659
009A5
014FD
00EF0
1FDC3
1F5D8
1FC36
0065E
00D78
1F91A
01480
1F0AE
01416
00D83
00C3D
1FD7F
00FD1
1F80D
00946
00014
1FDE2
1F34C
00A16
0077B
1FE52
00C80
1FB39
00A9E
01A72
00AA0
1FA88
00975
1F496
01206
00FA0
1F9AC
0157E
00EE0
00357
00F36
00AEE
1F6EE
01D9C
1FD77
00593
1EFAA
1F3DD
1F55E
00039
1ED7A
1F1AC
003D7
004E6
007F4
000C1
1E4A9
008A4
1F929
1EE4D
1EDE1
1EC2C
00E9A
00DDE
1EEB0
1EA15
1EE19
00C01
1EFE4
00D31
00CE9
00FA8
1F2CF
00956
1F40F
01113
1F19B
00BE0
1EDC4
1FDB6
00C06
1F985
00021
00652
00E59
00DC9
0132F
1F465
1EFDE
1ED07
1E95C
00222
00749
01077
01142
1F21F
1FF27
1EEDD
011D4
1F1D8
1F33A
1EF5F
1FD1A
009F1
1F2A4
1EE9C
1FC37
00B8A
0141F
00390
007F3
000B4
1F716
013A5
0045A
01441
00445
1F222
003A8
1FB00
00DFD
1EB83
1F42D
1F91C
00D79
1ECBB
1FE2D
002F7
1FC74
001C3
1F8B4
1ED8B
00E5D
00C67
00B2B
00F4F
1F57B
0043C
1FC49
1F41E
1F328
1EE2A
1F937
0100D
1F2D5
014D9
012D6
1FD0F
1FEFB
1F2C9
1FCCE
00C62
1FC4E
001F5
0015A
1FD28
00D2D
1E3F1
00FC8
01995
000E0
1F959
1F6A5
02698
0059E
1F4AE
1F90C
00991
016E4
002A3
024EE
0008B
00644
01BF1
00302
1F913
0120A
0145E
014FC
1E874
00EBC
0160D
1DE1A
1F8FA
1F064
001E8
1FAB0
1F9AE
02716
1FD97
004DE
1F5AA
029B8
00900
1F718
1EE00
1F617
1EA9F
009EE
002CB
012FB
002B7
00AF4
00E85
00541
1FD7B
005D0
1EA63
0148F
1F181
00052
1D923
00CD1
00D06
1DEC6
1F8A9
00A20
00CDF
1F602
1F391
1CA46
00806
00837
00CB4
1FC35
01203
00E69
00C0B
010AB
003D9
00ABD
1FF97
1FB55
0064F
1FA5C
008B0
000CC
1F782
1F2BA
01296
1F604
005E9
1FCCE
1EF91
1F3F0
01024
01186
01130
1F7AE
00B3E
1F01D
1F963
1FABE
00997
002BB
014F6
0080D
00BB0
00E83
00F98
1FC31
1F41A
00A07
01284
012DF
1F2C7
1F9D4
00FEA
00F57
1F12C
1F50A
01227
01324
005CD
1ECC2
1F640
1F3F2
1F4C3
1FD73
1F229
0031E
0011B
1FD0D
1EE9D
011DF
00EB8
006B8
1FE63
0001A
00598
00122
00E5B
1F3FB
01AD2
0027A
1FCD3
1F68D
1EB0C
017D4
00490
00281
01122
00B2D
1FE76
1F514
1F11C
00951
02AC1
015A8
1EF22
016CF
1F581
0003F
1FF93
1EC0E
1F6FD
00059
01C9C
1F0F7
007BF
1FA2D
01133
011F5
1EB4C
0042B
000E3
1E80E
1FFE4
00F8A
1F59B
00788
00C5A
002EC
00EB0
00293
1F52A
1F2C4
00159
1E721
00B19
1EF61
1FE2D
1F1A2
1FBFB
1F6B1
1F773
1FAF5
1FF92
02C5F
00C47
1F1C4
00465
00F49
00DBF
1F02A
00F44
1F7C0
1FD23
1FFC3
1F7EA
1F6F9
0105B
00C43
1F8CD
0019D
1FC08
01633
1EB6B
1EEAB
01218
1F43B
1F57D
00653
1F219
006BA
1ED06
0081E
1EF38
1FBB0
1FBD3
1F792
01291
1FB1A
1ED2F
00903
00CC7
004CA
1EBFF
1F635
00E9B
1FABA
1F2E8
1EB08
1FA62
0093D
1FF01
00C18
1F4CF
00930
01204
1EEDB
016CB
1F209
1F9F2
00F2B
00F1B
00A4C
1F8E9
00BF7
000A6
1FF12
006BB
1F384
0118F
1F362
005C6
01026
00395
1F051
1E46A
00508
00B4F
1ED29
01228
00079
008CE
1FAA5
00381
00234
1F530
1FADD
00D2C
01250
1F361
1F26D
1F504
1FE34
00BB9
1F53E
006D2
1F695
00732
1ECE1
1FD25
1F0F0
00861
1F184
1F14C
00068
0042E
1F1A4
1EFF5
00F65
0188C
1F9E5
1EBDA
001BA
1EC9C
1FC58
0072D
01340
1F4EC
1F2F4
1F453
00296
1EECA
006AD
0126E
00949
1F094
1F6AD
1FABC
00B40
00B8C
00247
01424
007C9
004AC
002BE
1EBDC
1F7B6
1FBA3
1FBF7
001EA
002F1
1FE26
1F6CA
004CC
01060
0087E
1EEC2
1F509
00AF4
00969
00892
01195
1FA84
00DAB
0056C
1EAC3
1FF17
1F30B
1ECBA
1F83A
001D3
01264
1F2A4
00695
004AE
009E1
01144
1F63B
1F102
00EE4
1F77F
00868
0048F
00B63
1F724
1F1FC
00D54
1F6E7
1F361
002EC
1EBE2
1F174
00AF1
00E72
1FF94
1EC08
1F817
1FA0C
006D1
1FB98
00AA2
00340
1FF88
00BE2
00565
007EF
00170
1FC43
1F559
0054B
1EFAE
1FE87
00BCB
010B4
1F847
1EB8D
01445
00C34
00FD8
1F33E
1EA60
00EBD
1F89F
1F686
013D6
000F8
00475
00041
1FF24
000FD
1EAF2
00CAE
00FF4
1EC00
1F915
00901
01208
00D54
1F3D7
1F72D
1F2C2
01551
1FAEC
00905
00301
0014E
1ECB0
1F426
1FF9B
00ABF
00A44
1FF87
1FD3F
1F59F
012ED
1FEEC
00C6A
1EDDA
1F04B
00354
001D1
1EEF8
1EAD7
1F0DF
1F0F4
01678
1F53B
1F85A
00A89
1F1FC
017D7
002AF
1FA64
00E4D
1F35A
01395
1EEA1
013EF
005F4
00E89
1F48E
1EDA2
00E73
014A6
0104D
1FC38
014D8
00EFC
1EDFB
00DD3
1FA51
1FA96
1F402
00B03
1F040
1FE29
1EB90
0126B
00C18
1EF63
001BF
1FECC
1FBAC
000A9
1EDAB
1EEFD
00EF0
1EAF2
000A6
1F239
1F7F1
1EF5C
1F3DD
1FB4C
1F116
00B82
01369
00016
1F690
1ECEC
1ED6A
1F6CB
008D4
00207
1F254
1ECF7
1F7CA
00DC9
00BC4
1F784
1F9B7
0030E
004F1
1F583
00BE9
019AB
010F1
1FF5A
013F3
00E07
1FB16
1FCD9
0078F
0068F
1ED49
0095C
1F711
1F4A3
000E9
1F682
0005E
1F76C
00D87
1F335
1E8ED
00872
000A8
1E771
0065E
1FF06
00385
0138B
1F813
00786
1E93A
1F577
016C6
0180F
00C34
00388
1EEBD
00D12
1F3CB
006DA
1F126
00226
00CEF
1FF1A
1FF34
0108B
00C0D
1ECDD
1EF9A
1F943
1F4B5
003A0
00382
0057B
00924
00E2A
00DFE
0029D
1F3ED
00A0A
1F02A
1F610
1EE05
0058F
1DA97
00AB5
1EFA6
1ED51
0058C
1F839
1F919
1F3C0
00557
011FB
00858
00185
01659
012D3
012C0
0172D
1F956
1F9B0
00036
1F42F
0000D
1F387
1EF72
00AC1
011D7
1F005
1FD87
1EDB3
1F69A
1F6DC
1FC1F
0138D
1DC71
0125C
1F28C
1F782
01ADE
1EF0B
01B16
0056B
1EB7B
1EFA8
1FD9E
1F90F
1EC7D
1F337
1F3EE
0052B
00D40
1EF3D
00994
000EC
0047F
00EBA
00E44
1FD87
00165
1F95B
00F59
1F49F
1F30E
00842
01431
1FD7B
00ED0
1EC57
0094D
1F968
00840
0050E
01376
00A59
007CD
00A9E
1FD7B
1F792
00A5F
012A5
012EF
019D6
1F9A0
1FB4B
012D9
1ECB6
005F8
1EEB0
018F2
01E2A
01041
1F348
1F86F
00AC4
005D1
1F1AB
1F33A
00413
1D22F
1FB1C
1F249
0042E
001AD
007AC
0075A
1FBBB
013AE
02A76
1F5A3
1F950
1F2D2
00E43
005F6
1EB05
004C4
00512
1FB9F
00D30
1FB78
0074C
0074F
1F9BE
00724
1EE11
1F1C8
1FA19
01677
1E990
1F414
1EFC2
03034
1F661
00D46
1EEDB
003B7
1FB0B
1ECB6
1F6FC
00C80
1EEAF
1ECBB
1F3BB
1EA1B
1FA42
1ECF6
1FA60
1F335
01192
00DC9
0021D
0034F
014AC
00DE3
00825
0041B
1EF33
00497
1FDBF
1F9CB
1FC47
00FC1
1FD5F
1FB2B
1F8AB
00722
00752
1EBA6
1F670
1F953
014DE
00017
01000
1FEC6
00B4C
1EE64
00568
00946
0021E
00917
1F82C
01111
1FC94
1F1AB
1F423
1FB02
00FF4
00CD0
1F45F
1FCBE
00560
01172
00950
00898
010A2
0065C
1FF0F
00DCE
00605
1EF11
1EC83
1FAE6
00FC8
1EC6B
1ED1F
1F1CA
1F6D5
1EBD0
01072
009CE
01311
1FEAE
1FFBC
0033A
00085
1FB8D
1FA70
01087
00E92
1F745
0058A
00B80
1F5A5
1EDF5
00EA2
1F248
1FDA2
1F3F3
004CD
1F21A
1F81D
01380
1ED0C
1EB52
1FF22
00057
1EEDB
1F030
1FBDD
00762
009C9
1EF83
006A0
00153
012D8
1FA81
01093
00E67
1ED18
1F612
1ED22
1F827
00D5E
1EB39
00721
00E3C
1EB45
1F100
004A8
1EB3B
1F4AF
0124C
009A5
1F901
00F1D
1F829
013E0
0104D
007FE
005DA
1F214
00FD0
00FE3
005BE
1EAFE
00CA5
1EC70
00DB0
1F91D
1F7E8
1FD49
00B11
1F616
00FEC
005CC
1F223
00B53
00576
00930
1F917
1F2B7
1F456
1F21A
1FB91
010E8
1EBC1
1EF13
01030
1EC49
1F6C6
1F9A4
1FE16
1EE4F
1F02D
003FF
1FBCA
1F516
005E3
0070E
00339
1FF29
012CB
00AE8
1FFCF
008CD
0132F
1FF5F
1FB7B
1EBF4
1F3F2
012FF
1F53E
1FA2F
00C9A
02376
1F660
00580
0036F
1FD37
00892
0082B
1F9C8
001D5
00A44
1FE79
0162B
1EA1C
00560
1FD08
1FBFF
00E17
00A31
1EC88
1F9A7
0003C
1F617
1F6ED
00202
000FF
1FF6A
00E25
1F453
1EF1F
1F372
01174
01619
1FD7C
1F71F
1F285
00439
1E77E
1EC72
01C66
00FBC
1F36A
1F06F
1FAF2
0056C
005B6
1EF74
00967
002F5
01065
1F796
0072C
1F0FD
1EA33
1F710
1FED5
1F691
1F7C7
1FCD7
1F5AB
1E812
1F7DD
004D8
1F39A
1EC97
1FFB7
1FC5A
1F8B5
1F2F3
1ECD4
1F246
1F39A
0038E
006C4
1F143
1F74A
1F8E6
010F0
00BCA
00591
1FB3C
00FF4
1EE73
001B3
1EE9D
1F9B0
00496
1F3EB
1EF5E
00876
1EDF1
1FDB1
1EFBA
00139
0091E
1FC76
008BE
014FC
00E9E
1F7E4
01520
1F61B
1F5D2
00C97
1EFD7
1F87F
00006
00C42
1FE84
00918
0060A
0118D
1FA92
010DC
00849
1F2E0
1F507
1F690
0031B
00D1E
00308
1FD34
1EC29
00EE0
1EFC6
00C25
1F222
00444
1EC94
001B9
00D38
1EC76
00066
00B9D
1FD03
015D1
1F2DE
01111
1E5FC
1FF1A
01AEE
005BB
1F616
02A11
1F69A
0052D
1FD4F
001F1
00D01
00F24
003F2
1FE8B
1FE78
00523
001A0
00A23
1F05D
1FD15
1F11F
008C1
01B4D
1FA90
005D2
1F591
0064D
1F370
003EA
1F3A3
1F425
1FF2F
1FC8C
1FA6B
00163
0144E
1FACC
1F73A
1EC13
0076B
1F78B
00B88
00BA6
0073F
00DE1
00B8B
0057B
000F9
00995
1FEDD
00628
1F2ED
1E215
00762
00836
1F22F
00DA9
1F7DD
1F5FA
1F5B6
1F129
0035A
1FB79
011E5
009B2
1F97A
011E5
00659
1F806
01518
1ED48
01416
1F4FA
1F866
00CEC
011A6
0039C
1F84F
00C86
1ED78
1F4CA
002DC
00395
00B08
0003A
1F9B3
1F48D
00724
1FDC2
1ED51
1F10B
1F045
00500
1FE48
1EEE3
00BFF
1EF80
00609
0018D
0140C
00975
1FEA3
002A2
1F2D9
1FDF8
0054C
1FA78
00EE4
1FB62
001AF
1F92B
00224
1F226
1FA05
1EF62
1F316
00DD7
1EC03
1ED0A
00C23
00422
0035D
1F8A7
1EE47
00A45
1F867
00B06
1FD57
1EF1D
1F9C6
00E7C
1ECF4
00F98
1FB31
00E60
016D3
008B8
01102
00FAB
1F288
1F87C
00E8F
00A2A
1F865
1EFB2
00542
1F54A
1EC5A
1F34E
1F152
012E3
01242
1EB81
1FD5E
1F129
1ECC5
00769
00036
01271
1F42E
1FC91
00C39
1FE97
1FD19
1FBF4
1ECC9
1F851
00117
1ED6C
003D6
00730
00FF9
1F413
1EAA7
1F1BD
00566
01018
00F33
1EAC8
1FE74
1EF8D
00433
0136F
013D3
01026
00AF4
1FD00
1EC5E
002D7
007D4
0003C
0000B
010D4
1EEAF
1FDFF
0103C
00821
0162D
00503
00F26
00029
007A9
1F75F
1F832
009A5
0076D
00A3C
01DFC
018D8
00F9F
1F9B5
00C0B
004D6
00FCA
1FBB8
1FDC0
000B0
1EE31
005DD
00422
01046
1F50A
1EB9A
0122D
1F5C1
1F5E3
1FD12
1FA46
1E99D
00570
003CE
00F09
00C27
014CB
1F081
1F8E8
1F7F3
00794
1F66E
1F274
015F6
010A3
1EA6D
00F5A
1FBC7
1FA2F
00D94
0060F
1F512
1EDFD
001F6
00277
0050C
00416
1EFD7
0114C
1EC3F
1FA0E
1F1C6
00CF7
0149C
1F0F7
1F1E3
1F726
1EDAE
1F81B
009A5
005B3
1F7CA
0219B
00821
1E64D
1F011
00CFA
00123
00F31
00C53
1FB5B
1EFFF
00FF5
1FD8B
1F132
00FD5
1F82B
00392
1F495
1F52F
1FFC0
00B91
1FA09
1F7DE
1F127
1FF82
1FDDB
1F06D
1F3C0
0048B
000AD
1FD01
0081B
1F5E5
1F2C6
00B05
1F8C3
0102B
1F630
0172B
1F4D9
009A6
1F363
0094E
1F1A7
1FB9F
00D46
00CA2
1EBF7
00E48
00AE4
00922
1FA93
1F805
00D92
1F10D
1F2E1
1FFD4
1F827
01267
012F3
00A8A
1FA96
1F31F
1F458
1ED8E
0001C
00D58
1FB22
1FFA8
1F3A1
1FBCB
1EF38
1F61E
1F187
1F827
00801
1FF18
0118D
1F0B1
1FE86
1F3E3
1FC53
1FE13
00226
00AB6
1F12D
1FA05
00014
1F218
0082D
00779
1F455
00DBA
01101
005C0
1EB76
1FEFD
1F09E
00E5E
00491
00F15
0095D
00572
001C5
1FF81
012B8
006F8
01346
0135E
00CC5
1F536
0064C
002CA
01176
1F225
006CD
00780
00964
1EF4D
01218
0118D
0009E
1F581
1FA21
1F6C7
1FC82
1F38E
1FCE3
1ECDB
011B4
1FC9C
01B94
003CD
1F1EA
1EC35
00131
00108
01162
004D1
01853
00DAA
1F5DC
1F9BC
00649
00EA8
00C90
1FFE5
1F152
1EE6F
1F566
00185
1F42D
00DE0
1F48C
00C7D
1F3EF
1F3D8
1F3C0
0046B
00647
009AD
1F40B
1FAED
1EEBB
017C2
01B4B
00EEA
00F0B
1F2D7
00B83
1FC56
000F1
1F45A
0083D
01499
0088A
1FE4F
1EE1A
00645
00770
00BCE
00091
1EBD0
1EFB6
003C1
0088E
1F141
004DA
1FD52
1F691
1EFE8
003FA
01025
0126D
1F3DC
00A9D
1FF95
1F1CA
1F3AF
00C1D
1F70F
00182
1EF4B
1FF36
1F74C
011FA
1FFDE
1FA1F
0090B
011CE
00024
1F8A5
01345
1EB0C
00B61
002F1
1FEB7
00398
00ADC
1FCEC
0027B
012D0
0092E
005EE
1FAE8
1EACD
013D2
1F889
00B13
0027A
1FEE4
1F5AD
1EC36
0123C
1F9E0
00E68
1F3B8
1EB83
01554
1EDB4
00FF5
1F4B4
0120F
1ED09
013B6
1FD6B
00B9C
00BCA
0063F
1EF76
00D2C
00345
004EE
1EEBD
1FD2D
1F1EA
0138A
00C58
00CB6
00383
1ED80
0004D
00BE5
00338
1FE13
00DD2
00D52
0085F
00AFA
1FEF3
004E8
00FB5
000DE
1F4CE
0150D
1F7E8
1EF9D
01523
1EE05
1F6BB
1EF9D
006E6
01411
1FA2E
0012D
00885
1EFD7
001F1
1FFEE
1F1AD
01429
00B49
00DED
1FA55
1FBE9
1FC6E
002D5
1F275
0143C
1F6CE
00035
005C1
011EF
00C1F
1FCD5
1FEF8
1F66F
1ECCE
1FDAC
0090E
006E1
0088B
014F8
1F90A
1EF03
007AB
00C03
1FA3C
0131B
1FB01
1FE85
1F248
1EE53
1F528
007BA
00D42
1FB32
006A6
1F45D
00E38
1F592
1F613
00F9B
0107F
1F904
0076C
00F5C
00219
01427
1FB77
1F5AC
00DCB
00F98
1F384
1F2EB
00E38
00BC4
1FA35
00F3F
004F8
00547
1EC33
01017
00212
002F1
00D04
1FEF7
1F383
1FE6A
002B1
1F09E
009D1
1F9DA
00600
0058E
1F212
1EB55
1E860
1ED3C
01192
1FE73
1EE69
1EF0E
1FD72
0017B
1FF0A
1ED45
1FA6B
004C4
00D2C
00B4E
1FD71
00768
006E5
1FA78
005A7
003F9
0117C
1FC2A
1F59E
1F897
1F42D
1F717
1F2BA
00EC2
01202
1EDB4
00111
1FE2D
1F079
1EE81
1F643
1F426
1ECC0
001D3
00819
1EB04
1FA88
00B30
0013D
1EC27
1F356
00283
0168F
00F56
1F206
1EAD9
00088
1FF79
1F0C2
0026C
1F7AB
01220
1F9DE
00FB5
1F2AA
1EAAF
004B0
01429
1FFCC
1EC11
010EB
00F0F
00AA7
1FC8E
00597
1EA96
1F859
1F6C0
1F963
00CCF
0166C
1F4C7
1F89C
003DC
00AAE
1EF3E
1FEEF
007EE
1F6B7
0096B
0009E
00FF4
0099B
1EC45
1ECF7
00212
0115F
00D3D
003F2
1F3B6
00648
00BAE
1F5D2
013B0
00703
1ECD5
1E71F
01BDA
1FC27
00FCC
000B1
1FEA8
1F7E9
1E72B
00910
1FF18
1F7CF
1EF17
1FBC7
1E75D
01095
1F798
01083
012A0
00C0F
0071C
1E93F
004D4
00CB5
000B3
0136F
00BC0
014F7
1F70A
00EBE
1FD31
012B0
006BA
007B5
00F1F
1FEC9
1ED93
1F04E
01440
1F341
1F6B6
1FC2E
1F21C
1FE18
1F9B0
006E1
1EE7D
1FF96
1F441
00646
00F95
00381
014D9
1EB69
1F27E
00837
0144E
0132D
1F93C
1FB0C
1FD55
008CC
1EFD5
1EBD7
014E6
1F5EE
1FE6F
1F990
1F016
1EF76
00730
1F03E
1EFF9
1F898
1F40F
0134D
00C80
1F540
0074B
00B1E
0049C
01026
00E59
011CC
005E8
01417
1EB24
1F333
1FCCA
00459
00CD1
0131B
1F720
1F382
1F95A
1F2EB
006F7
00D7F
1EB4B
1F2EC
1FBCC
00D07
0061C
0268B
00500
00D5F
009F4
1F22B
00550
1F73A
1F2C7
014E5
1F781
00ACD
010C0
0031F
1F905
008D4
1F529
1F28D
00181
01697
1EC84
1FD46
1FA2A
1FABB
0025F
00A03
002CB
1FAF4
1F8CC
1FFC6
0107B
1FE0E
1F333
016EC
00838
0082A
1F8B5
1FE6F
00EEC
1FCE3
00F2D
1F868
00CE3
1F3B5
1FBD1
1F967
006FD
1F2E4
1F771
1F9D4
01089
00077
004C3
005B5
0086E
00028
00EFB
1F5DB
000C6
1F405
1F22A
0052B
1EBBB
009BA
0008E
00182
1F471
0034E
1F58E
1EFA6
1F8A5
00F4E
00502
0039C
00AE3
01320
00DBC
1EF9C
006F1
1F6E3
00D75
00ECB
1E7EA
1EE27
1F92C
00450
00564
1E6DC
1E841
00660
1F1B3
1F824
0101A
1F986
1F0D5
1F585
1EF33
00E65
0067C
005A0
1F519
00FF5
1EBE0
1EFB6
1F0CB
1FE88
00810
1EF4D
008E2
00370
1EFCD
1F1CC
00C6C
1FF48
01212
001A0
010E6
01474
1FC49
01039
1FD92
01386
1FEA0
01194
00F7B
013F5
01096
1F406
00022
1F31B
1F26C
00D18
1F973
00809
00B3C
1F68B
00046
009E3
1F1FA
1F4E0
01462
00F28
1EC05
0039B
1ED2C
1F055
1FEF5
1FFB6
1EE45
1EC83
0070B
1F455
00BE1
1F11F
007B4
00F63
1ED38
1F78D
00B2C
1FEE2
1F705
007DD
1FFCB
1F183
004F5
00961
0104C
00A86
1F8DC
1F718
010BA
1ECEA
1F62D
1FB7F
0041C
00360
00B34
1F1BC
010DE
012E4
1FC10
0120C
010E4
00EF3
1ED59
00828
00739
1F003
1FB3B
00F31
01BA6
1F92E
1F9FE
00836
1E847
00E5A
1F583
1FA5F
00E05
01473
1FCFF
1FD6A
00D47
0144E
1FBD3
1F99A
1FC14
1F77E
1EEDA
0101B
1ED18
01DAF
00118
1EBCB
01246
00742
00369
1EA81
0053C
1EDD4
00266
1F32C
00AAB
00607
1F388
1EE1A
000FE
004C9
1FEF0
00FBF
1F447
00501
011B1
1E08A
00719
1F566
0032F
012B3
00FD2
1F2F7
1F87C
1EE64
1F844
01171
00101
1F0FA
1FC2B
00A0D
1EFAD
002FB
00FB9
00E28
1FF93
1FA16
011A9
1EF4D
009D0
1F857
001F5
0096D
013A3
1FE09
1FD48
00721
00671
1FB81
00176
004F7
00ED1
1F30F
1F7BC
1F410
1FEDA
0043E
00B0A
1FF0C
1F336
1F855
1FEFA
0073C
004FE
1EB0F
1ED16
0125B
1F020
1FD6C
1F116
007B5
1FEDF
1EBD3
1F3D6
1FDA6
1F138
1F2F9
1F97D
00984
1F816
00B45
00D8F
013C2
1FDCB
1F982
00C90
1F87C
1FE65
1F73F
00371
1F8EC
011A3
1EDC0
1F303
0082F
002A3
1FE68
1EC12
00406
01049
1F29F
1F7E3
0087D
1F2F6
00089
1F138
00D98
00771
0033B
1F124
011CD
010ED
012CF
0126F
00A62
0027F
00FD6
0043C
00ED6
1EE7E
005A4
0088C
01067
01276
1F21C
010F5
0003B
1EC48
00132
00E3C
1F71D
00FBC
1FC9D
007D0
1EC07
1F1CA
0156C
00E21
00689
00463
00C81
1F9B6
001B9
00A16
1F465
01058
0009F
00CDB
1FE3E
00641
00AA1
002A3
1F015
1FC19
000F9
1FFA1
010C0
1FD1F
0136B
00418
0032C
1FDF0
00CBE
1F15D
1EDDE
015DF
1F2F7
00453
006CE
1FFC5
1F318
00D2F
1FCBE
01115
00BE9
00059
1FD54
00533
00059
1F5A4
1EF72
00365
00F3F
1F619
010F9
00602
00EF1
007AB
1F726
004B5
00AA3
1F9FB
00B50
1F691
009E6
004D2
1EBFF
00412
00F6A
0072F
010EB
00DC5
01304
001CE
010C6
1F13C
00A19
1ED6E
000CE
00FB1
0056A
1FCA6
1FB31
1F65F
1F44E
013A9
00C03
1EE6F
010BF
00C6D
1EA01
1FBFC
1FA19
1EBFA
1F5AA
1F7C1
1FBF2
1F6BE
009D7
01474
003D2
1EFEA
00FDA
1EB0A
1EE63
1F7C0
1FBB0
1F8EF
0073E
1EE36
1FC24
00D35
00270
012A0
1FFD5
0074C
01201
1FBA4
1EC3B
1EAF2
00A47
0153D
1FB40
00A5C
1F0FC
1E826
1F240
00D63
00D51
00744
1F496
1FF72
1F39B
003DB
005E1
1F831
001F9
00E04
1FA13
1EA15
013C6
1F6ED
0127C
0086C
003FB
1F66C
00CDA
00E8B
1FC6C
00FA4
008A2
1F309
00665
1F9A4
01325
1F7F7
000EA
0032E
00628
1F204
1FD3B
0152D
1F623
1F7DE
004FB
1EF24
1EA88
1F07D
1FA43
1F7A1
1EADC
006D2
003BA
01265
1FF16
1F88E
1F677
00956
01238
0064E
0140A
013AA
1F7C2
1F03A
006AA
00818
0125A
1FAF1
002A0
1F1B7
003B2
00E70
0168D
1EC04
001BD
001F5
000E9
008B4
1FD41
1F460
009A1
01444
0072B
1F68A
1EF80
00A1A
1F768
1F857
1F135
010BD
011B4
00F71
00F74
00350
1F8BD
1F2E5
00ABA
1F6B8
00FEE
1F90B
1FBD7
1FCA8
003D6
1ED9D
008E9
005C0
01131
1EEC1
1F40F
1FBBB
0014D
1F99A
00CC8
1F499
00132
01202
1EFFC
0094C
00672
000CE
00721
1E7F9
1F4C9
1EE3F
00ECC
003A4
1F13D
003C5
1EF3A
1FC40
0020B
00F84
1F003
00F82
1EAAD
1F3BB
1F21E
0141B
0108A
1FE04
1F149
1ED2E
00657
1FA72
1FB98
00260
1FBCA
1FA11
00058
01545
00598
1F62B
01360
00641
004F6
1F26F
1FE05
00484
00DAB
1FDA4
01536
00099
1FB2F
1FE98
1F590
0082B
1ED96
1FF47
00E17
1F27D
1EC2B
1FFC0
0045D
1EF08
1FD3C
00BAD
002B7
00A1A
00F67
1EEF4
1F3C7
1EBCC
1FDFA
00382
1F50B
010D7
001CD
1FC38
1F967
00D17
00CBE
0029B
1ED44
00510
1ED73
00BB7
00991
01475
002F3
00B14
1F4BC
1F7F6
1F71B
00CFD
00405
1FBE4
009AD
00755
1FD54
1EB1E
1EAAB
1F51D
1F6D0
1F4CA
1F3BC
00DB8
013CA
1F9E4
1F517
1EB3B
003F4
1EE15
1EBC3
01135
1FE3B
1FD9D
017B7
1F211
1F6C3
1F0DF
01465
01209
00994
1FA4F
1F2C2
01146
00F84
00B9E
1F4BE
1E5B3
1FE62
1FB33
1F55A
00F04
1EAF2
1EF7E
1F288
004FC
012F7
1F3DA
1FEF9
1EBDD
1F781
00E5A
1E947
1F525
0119D
00EA0
1FA61
1F616
00D6F
00AE5
001A7
1FA3E
1FECC
1EFAD
00FC2
00BB0
00020
007D8
1F72F
00D19
01047
1FCA8
1EB24
01173
1FC84
1F6C3
009FC
00525
010EB
1F8FD
1FE33
015CD
00B2E
003DF
1F309
00DB3
1E9E5
1F9E1
1FC31
01263
1FF01
1F9E0
02338
00155
01213
1EA16
00337
1FA1F
1EED6
01316
003BC
1EDE6
1FCF9
0130B
00C1A
1F5FE
1F555
0218A
013B0
013EA
1DDFF
1FFE4
0102D
1E839
01327
1ECB5
1F8A3
1E6BB
1F9BB
00796
1FFA5
024A7
1E718
01312
1FE60
1F667
000E1
011D3
1ED6F
0025A
00F2F
1EEAB
1F889
00560
1FC58
00C0E
1F7E8
01E47
1F6ED
1EF8E
1EDD9
00F80
1FBA3
1F7A8
1F851
01475
005AA
00339
1F23C
03562
1F057
1EDBE
00046
1F5C2
011C1
00635
1F010
1FE40
01177
1FD97
00531
1EB77
0015A
010DE
0048E
01392
1F912
00080
01031
1FC74
00FCB
1F04F
1E378
1F53B
0131D
1F255
00F95
1F668
1F5B9
1EE82
01256
001D2
00F60
00B4D
00E00
1FF19
1EA75
0060C
007D1
00204
00850
00D06
1F511
1F81F
1F525
1F164
01351
1F99E
1F4AE
003F7
1F560
1FC08
01166
00923
0177E
00812
007DF
1F27F
1FEBB
1FF8B
006B1
1EC54
010DD
1ED27
1EBC8
01533
1EFBC
010FA
00EC3
1F8BE
00645
1EA46
1FE54
000A5
01362
1F6E3
1EFD0
00773
1F843
1F5F7
1EF72
1FAD2
00840
008B0
00C46
008EF
00F52
00C94
00512
01297
1ED71
00C9B
1EADF
1FC90
1F12C
1ED51
1F7CD
00A71
1F7E1
1FF00
1FAC2
00BA3
1FCBC
00736
00F5C
1F989
0035D
007EC
00A45
1F57D
1FB20
00D6C
1FEDF
012D2
0093B
001FD
007F5
00B3B
1F1D3
0006B
1F255
00A68
1F3C9
00AEB
1FB54
1F42E
1FE26
00E37
1FFE2
0046C
012B5
1EBAE
00F99
1F999
00AE9
1FB9B
00EAD
1F6FC
1EC14
1F421
1EBF0
00EE3
00652
1F0BA
1FFE6
00E6A
001FE
005B3
1F1FB
1FB1C
1EDAD
1FB85
1FBDC
013C7
1F7E5
1FC87
00467
00849
000EE
00277
0097E
010D5
00A00
0102C
1F29B
1EFA4
00F2F
1F1CA
00B91
1FCE5
014DB
1FEB7
1F28E
1F0AF
1F8AF
1FBFB
1EBFE
1EDB5
00F35
1F192
1F6DA
00AE1
01415
1FBB4
1EF69
00B01
1EB27
0018C
00442
1F0E1
0136D
1FCE6
1F3E7
0020E
014BC
0056E
00B5F
1FAEF
00D83
00281
1F14F
1F8A7
1F520
00A5A
1EC9C
1FA7D
1F46D
00D1C
1F6AB
1F5F2
0063F
1F50B
00604
01281
00ED2
1F44C
1FF7D
00D6A
1F149
1F78A
0154A
00B68
00FDB
00BC6
1F9DE
00EFE
00A1E
1F01D
1F815
00C85
1FB01
00AD5
1EB2A
00C88
012E4
1EFBB
00E6A
00DCF
00CE4
1FB33
0033F
1F4E6
01102
00364
1EF0E
009A3
1EF98
011C4
00EB1
1F873
010F9
1F6C0
1FF78
1FEC8
1F0A5
1F4DB
1FE23
1EC36
01109
1FCCD
001D6
1EDFC
008FB
1F65B
006E5
1EE12
1FB00
00D88
00D9B
1F864
015E0
00676
1F5F2
1FD96
1FDDE
1EF72
1FACD
00085
1F7BD
1F9CD
005EE
00B46
1FD0B
00E78
1ECA9
0035F
1F711
013E0
00015
1EED1
000FE
01299
1FCA1
1FAE1
002D7
1E885
1F7AE
1ECE1
1FD96
1F9C7
1E9F2
00105
01786
1F1D5
1F32D
000E6
008C4
014C5
01322
1EC92
1F729
00665
1F80C
00928
1F47E
009F8
00B11
00276
1F2EA
1EAF2
003FD
1F03F
00322
1EF2E
1F5BD
01369
00EDD
008E6
008AF
00FA8
00224
0041B
1F498
010D3
1F673
1EAC0
00A16
00E7B
011AE
1F7B1
1F94A
1FE64
01307
01431
00D72
003C5
1FC3A
1F556
00271
1F949
1F326
00A65
1F8FD
0046F
0083A
00109
00209
1F354
1F48C
1F51D
1F1AB
011F1
00AB2
008AD
0070D
1F338
1F850
01208
00702
00116
1FB7F
01319
1F28A
014A2
00217
1F25C
008D0
00426
1FB55
1F827
0074A
0042A
1F052
1F2A1
01208
1F520
00781
1EF9D
1EE5C
1F705
017CD
010A9
1FA75
1E977
00778
01408
1EDEE
016EB
01877
00BDD
01C06
010D6
1F83A
00DF2
1F1FC
01D74
01137
0190A
01A3E
1F306
0079B
00BED
00266
1F7A7
00448
011CD
1FB38
00AEC
00781
1FB7E
1F601
1F287
1EA40
00DF1
1F550
014E5
1F363
1FB03
1FA09
1FACF
1FD9B
006F7
1ECBB
0128D
1F477
1F7AF
1F20F
007B1
00042
00817
1F58F
00E20
1F4D1
01931
00A19
011FE
1F2A0
007BE
1F8B4
1FC6D
1F1C9
1FAA7
1F10A
1F94E
1F366
1F05F
00F68
007CD
00B90
00D98
001B3
012C7
01495
00A9D
1F0C6
1F69C
1EE3B
01304
002F4
016C2
1F767
1F0D9
008B5
1F6A6
1FFF0
00075
01268
0034D
1EC46
00157
1F993
1F79E
1FA58
012FA
004C0
00720
1F728
1EC56
013D9
0036F
1EBCB
01510
00FBC
1F433
1F7B1
014EF
001D7
1FBAD
00639
01162
1FBEC
00792
00421
00E5C
00F22
1F0FE
1FD60
1F88F
1EAD8
007A0
1FEB8
1F878
00D9A
009FE
1F3B0
1FC48
00199
003C4
000D1
00BA1
1FC61
1FC73
0034B
00EFE
1FD3D
1F381
010CD
1F870
1F380
1ECD7
1FC0E
00C02
00F6C
00C6E
002B4
0102D
1FC3E
1F5D0
1F3AF
1FF50
1F32C
002CE
1FCAB
001FE
1F306
1FC6B
004A0
1F5E1
1FC03
1F39E
00C65
1EE7A
1FF25
0002D
1F532
1FD26
00F94
1F47E
00B65
00FF5
0059C
00764
1F738
0179E
00BDA
1EF78
00F29
00384
1EBAE
1FB44
00C61
00F62
1F8D0
1FFF5
0089D
1FD63
01490
00C49
1F853
1FBD9
1FC1C
00192
0059D
00AFB
00E59
005DA
1EA97
0040F
1FC3A
004C4
1F3EE
1F99C
01659
1F51D
0009D
006CE
00260
01187
1F2F5
1F34F
0088B
1F9E6
005D7
1FE34
1F66A
1EAFC
1FD2A
010A4
00930
1E910
1F7E6
016D0
006DC
1F4D9
1F16C
1EFF7
1F372
00413
1F3EA
1FFBE
1FE1C
1E998
1EF90
1F477
1F567
01394
013D1
01100
00822
00BEB
1EF76
1FEF5
1FBC8
00893
1FF6A
1F4A8
1ECAD
00A7F
1EC84
000CB
1FAB2
00ACC
1F7A3
1F219
1F0F7
1EE52
1EEA5
1F9B7
1F284
007DB
0079E
0103A
1EF35
00F37
1F6BA
0086F
1F246
007B7
1FFE5
1E9A6
1F693
1F21F
1F9D6
0078D
1FC7E
1FF12
1F5A9
0084C
00F93
00FEC
00862
010DA
1F0FC
1ED8A
0018A
1FFEF
00617
1FCB5
00207
010BE
1FFE2
00AE8
1FA55
001EB
1F780
0132D
1F496
1F0D4
1FC5F
001F5
00DDC
0045C
1EDD1
00AFA
00C5A
00E49
1FC7A
1FD4B
1F839
1FC7D
00CE3
1EF5C
1EBA0
1F6FF
1F68F
1EF59
000F6
1F4AB
1EF8F
00254
1F5E9
00D91
01131
1FC06
0006F
1F02B
1EAEF
00951
008BB
00E9B
004C2
1F830
1F48A
00C57
011E2
1F4DC
00CFA
1F49E
00F99
00E3C
1EB4C
1FEF8
1ED2A
0063B
005A7
00BF6
1F2E8
1F827
00397
1EC93
1F796
0090F
1FC02
0071E
1F8CB
00C91
1F3B4
0103E
005A0
1FCC7
013E8
00E0B
1FB77
1EE23
1F8E6
005BC
1F8C8
00662
00DCD
00105
1F3C9
1F9A5
00F1F
1E9FF
00C96
00CFA
00E40
01301
0008C
1EC34
00F97
1F26C
1F178
1FC19
012BA
1F9BD
1F5EB
1FCF5
1ED00
01339
0116D
003D2
00923
1FC7D
008DC
001BF
002BB
002CB
1FCB5
00593
1DFBB
00887
00FC6
1F988
1FCE1
1EB7E
002F8
011CE
1F15F
01136
00840
1E8A9
1F5AB
1FE97
00888
014E4
00A3E
1EFBD
1ED30
1F33D
00694
1EDD6
1E70E
1F2CB
0120C
0105A
1F680
1FB14
00EFD
014C1
1F699
0025F
1ECE0
0013E
00AAF
1F05C
001EE
1FCE7
1F68F
1F2ED
1E83A
1F30C
00C30
004CE
00F23
01288
0075D
00B02
01218
0003F
1FEC8
00B23
1FA7C
1EFD2
1F1D7
00D21
1FB01
00C5D
1FA4B
00EBD
00387
1F063
1FC0C
01022
1FF2E
00A1E
1F4A1
0010B
1F8BD
00AE6
0121D
0153E
00E51
008FA
011CA
1FFB5
00597
00D89
0078E
1EFE2
002CE
00307
004B2
00AC4
00523
1F14E
1EBF3
00584
1F1E8
1F8F6
00C58
1EC64
1F5E1
014EF
1F3D7
008B5
1EB08
1F475
1EC46
1EFDA
1ED36
1F9E4
00BE5
00473
00267
01293
008C0
1F8CA
001B8
005A0
1F46E
1ED72
1FC22
1EFA0
1FCB8
008A7
1FBA0
0062B
00570
0051A
002CD
00F6E
01220
0118B
01456
00409
00DEC
00F2E
00069
1EB79
01323
1F639
0148C
00ADC
1F72A
0083E
00BF7
01380
1ED7E
1F4C5
1F139
1F946
1F75F
1EB2A
004B6
1FB0D
1F1BF
00E6E
1F4B4
012EE
00BDC
01329
0096B
1FCD8
00EAC
003B3
1F09A
1F57A
0101E
1EC10
1F81F
000A7
01223
0140A
1EC91
1F291
0011E
1ECF8
00CE4
003EF
1EDD0
00EEA
00E4E
0042C
01165
006B1
1FBAC
00760
012EE
1ED55
007E0
0080C
013D4
1F1B7
0106C
00765
00E03
1EE99
010EF
1F580
1EDE1
1F90B
00A61
1F977
1FE78
1FBF9
00CA8
1EB9E
1EBA8
1FBAC
1FBA8
1FDDB
1F9E5
00763
1F701
1ED74
1FD95
00AD6
00BF1
1F4E2
01226
010DF
1ED87
1EB1F
00269
1EE87
009AE
00CF1
1FF81
1F89C
0094A
0071A
1EBD2
00043
1FAE7
01456
011B3
01433
1FF97
009C6
0031A
1F0F3
007FA
1EF47
00AE7
00F63
00CE7
1F793
006E3
00D4A
1EB87
1F140
1FD2D
000B9
000CB
1FDCE
0088F
1F3B4
00F1B
1EFD2
00465
1F72A
1E976
00FA4
1ED8E
0021F
01378
1EFCB
00206
01778
1FB35
00BFB
012CF
1EBAA
00F37
1FD3E
01B08
1F663
00C78
01507
00941
1F231
0197A
005DA
1FFB3
00F5B
1EB44
1ED2A
1E9A2
00203
1F1EA
1E9DE
000C0
1F199
1F4E3
00AF4
003A3
1FDA4
009F5
1F234
00F63
014A4
00C63
003F7
003E0
00A59
00F51
00466
1E9F1
1E97E
1FFC3
1F1C1
1F418
00DC5
00EA2
1FC41
003F4
0100D
007EB
00541
00FCA
01383
1F512
1FD91
002B9
1EF4B
00D56
1F779
1F3BF
0181E
1F564
00D87
0168B
1F586
1F6C7
1F32F
01488
1F02C
1F6C3
1FA3A
1F92D
1FCAA
1E967
1FB84
1FD19
1FB6A
1F040
1FA62
00DF7
00F85
1FE55
1F0E8
1F02D
1EE8E
1F3B0
1FFFB
1ED52
004F9
1EBE0
01697
0145D
00B08
00D22
1F96A
1F613
1F49A
1F591
0155B
004E0
1F430
1F2E6
01A50
1FB4B
1ED7F
010A5
1FC0A
011AB
1FD2F
005A5
0051D
014D9
00C2E
0000D
1FD60
1F2B4
00021
01466
007AF
1F11F
1EDD8
005EB
00503
1FE48
1FCB4
1F379
1F3B5
1FEA8
1F9FF
0068B
1FA0F
00E94
00C81
1EEFA
01161
00F16
00979
1F2C4
00350
1F7B7
1F558
00BEF
002B7
00E03
000CD
1FDB3
1FB29
00E85
01209
1F4B5
1EF15
1EE0C
1FD9F
00758
1F3FF
014E8
0147B
1F182
1FD32
1F68B
0076E
1FD17
1EB51
1F917
013C2
1EC2D
1F264
00B5B
1EB4A
01309
011DB
004B5
1EB99
0035A
1EA62
1F862
010EE
0137A
00548
00D03
015D8
1FECD
00620
1F95E
1F641
1EFD7
1F191
1F08D
005C7
011C8
1F761
001BB
00D14
1F87B
1ED3C
1F2E5
00BB1
00756
1E7E2
000EA
0082F
1EF69
1FDD0
1FE43
00AE5
011C3
00250
0085A
00D22
005C3
1F3E3
00DFE
1F112
00A44
1E9E3
1F516
1F459
00B86
1EBFD
1FC53
00024
1FCF4
00A5D
1F918
1EE96
011C5
1F62A
1FB20
00753
1FDEE
1FD12
01806
00253
00CE9
1F61A
00BFF
1EF1C
1F82F
00481
1F710
001A8
1EC21
00D67
00A2C
1EE53
00041
1F1A6
00CC0
1FED7
1E874
01030
1FCE3
1EF23
1FC4C
00CB7
1FEE4
013DE
1F57E
1F196
013B9
01000
01228
015A3
00159
012C5
1F325
00FAB
1EF1E
1FC97
00B4C
00CE0
0054B
00158
1E948
1FDA0
008D6
1F677
1F17C
00BB3
00206
1FB07
1F938
1FC9C
1F8E0
00E3D
1F1CA
1FE2A
1F08A
1F95E
00D35
00026
1EB67
00AF6
0071A
1FF1C
0032A
010D8
0160B
005EB
1F446
0144A
00C52
1FAC5
0018C
1FA51
1FFB0
1F0CD
1F73E
011CF
01061
1EE6B
008B3
010D0
1F6A2
1FBA5
002B7
012F2
00263
00638
00161
1F451
1F24E
1F88B
1F5E5
1F528
00956
1FFFF
00593
00F32
1F77F
0039E
1EF3A
00CB0
0072B
00C7E
00E5E
1F446
1EAC9
1FC94
1F048
1F3C1
1FA53
00910
01322
0118A
1FD11
1F810
1F848
1FBCB
000BC
1FC67
1F02A
1EFC9
006F1
1F473
01218
1F16F
1FBEF
01288
01808
00880
1FD2A
00DDB
1F62A
0106E
1F417
00EEE
1F683
01020
1F27D
00AF4
1EA51
00C5C
00D6F
1EB7B
019A9
1FD33
00B91
01290
1EC8E
1EF1A
00267
1F64B
01747
00BEA
1F65C
001AE
1EA31
1EF0D
00529
1E68F
00F80
00B5E
1F5DC
1ED5E
1EFD0
00388
00164
1F123
00C57
1E870
0006A
1FE0B
1FA23
1F612
0032D
00F93
1F4A2
00DAC
1F541
00EF1
1ED33
1F1DB
00DED
1FAB1
00A00
01210
01B4A
01148
0054E
01345
1EC3F
00532
1FBDC
01460
007A6
00CFD
00E2C
1FE83
1FD55
1F9ED
1F81E
01502
1F827
0001E
00BC6
1FFFD
1FE66
00D69
1FB99
012CF
01463
1ED56
00AA7
1F20B
012D3
1EC4D
1FD43
00330
1EF0F
1F44C
1F6E5
1F96A
1F217
00B5D
1F955
1F913
01498
0131B
003EB
00047
01534
0077A
1F9F1
00718
1EE55
1EBAE
002B7
01525
1FC64
00E2E
1F21F
1F2F0
00379
00F4A
1ED97
1FECE
007A4
1F311
00995
1F115
00D2C
1F79C
1FBA1
1F6B6
006DE
00AB5
01B0B
1F79E
1FD99
00C53
0003B
00725
1EFBC
00B98
1F1B8
000E7
0114B
0059C
1F890
00746
00606
00452
004FF
0105B
1F551
1FD00
00C3C
1EE38
01039
1FF09
023E2
1FCDE
1FCB5
00A3F
005ED
1F532
1F4F8
1FF8E
1FEAA
00982
00909
0146A
01234
0013D
006B2
1F2CA
1F285
1FE15
002AA
003CB
004A9
1FEA8
1F4B1
005D1
01024
00416
004EE
014B3
00213
00515
1F421
00C51
1F1EC
003F2
0005A
005C4
01307
015DC
00328
00D61
00768
1EC8E
1F7BC
1F329
01169
01085
1EC52
00E81
1EECF
1F2AF
0109C
1FADC
00003
1FE3B
001DF
1FB60
1FB29
00D3C
1F485
0131F
1F8D5
1F738
1EBF0
1ECC5
1FCEA
1F52C
1F454
1EBD6
1FA4D
00917
1F645
1EB44
1F6C8
1EB4E
1FA02
1EDC1
011A5
00D8A
1FF43
1FA30
004EC
0065B
1F2C5
010B6
1EC4A
00F87
0139E
000EA
009C3
00B21
1FE57
1FDDC
1ECF5
00F25
1F57B
1FAA0
1F7E6
00920
1FB34
1FA43
1F749
00FCD
1F630
008A3
1F1C5
00575
00DAF
1EC27
1FD44
00610
004E3
002DA
1FE4D
0061E
1FC0C
01364
00747
1FD0A
00102
0057C
00C32
005DD
00F61
1FE42
013A3
1F91D
00371
1F0C1
00982
1FD3A
00955
1FBFD
1EF82
00086
1FC86
1F4FC
1F18B
012D8
0107B
008AA
1ECA6
00E6F
0042E
1F9C7
00FDB
1ECB9
1FF70
1F311
004AA
0138E
016D1
1E85F
1F0F5
1FE8D
0048F
1EA24
004A0
1EC14
1EFD0
1F391
00411
01141
0105E
1F8CB
1EBEE
0000D
003EB
1F350
1EDB5
00368
1FD81
1ECC2
1FCF9
1F9B6
014A9
1FC27
01113
1F2AB
1F886
1FFA8
1FB97
009C1
0097B
1EEE8
003BB
00C57
00DFD
0019E
1EF7B
1F5D9
1F8B5
00761
1EDD5
1F3DF
00BE3
1FA99
1F5A3
1F961
1F3CA
0044D
006A9
1F3D8
1F06C
0054C
1F1F1
1EF06
00FB9
01098
006E6
00756
1EC92
00570
1FC0C
1F4C4
1FAFB
1FA20
00389
012BD
1F42F
00943
00679
1F044
0077B
1F236
1F9FB
1F2CB
1F078
1FFDC
1FE4C
1F442
013F0
1F022
1E8C4
0046D
1FE49
00D98
006A1
1F4AB
00A6A
00E55
1F81C
008C4
1F137
00569
0138F
00B6B
013A9
0114A
1F0F5
1F4F6
1F475
1F6B6
1ED5A
01B0A
00CB3
1FF8A
1E9E3
1F2A1
1FBBF
1F152
1F253
1F4FD
1F747
00A9C
1F1B5
00694
001B3
1F546
1ED05
000B4
00E3C
1ED5A
1EBDC
0105F
00960
1F93A
00EDA
1F728
1FDC6
01479
00D63
013AD
0040A
0197C
1EFC3
1FD91
00E08
1F4D5
00E81
1FAB3
1F991
1F685
005E5
1FC67
1F14A
01B81
00CEE
01531
00137
1F326
1FF8A
1FF0B
1EE5D
00BD0
1EC02
1EBDB
00362
00669
1FE7B
1EF82
00482
1FDF2
1F2EB
1FD2F
1F033
1FCD6
0053A
1FF32
1FA9A
0100F
0133D
00D4C
1F4B5
0105E
00D93
0039C
1FA72
1EFE6
1F893
00978
0020A
00EB3
1F563
00278
1FD24
1FEB5
1FD63
0009F
1FAFD
006E5
01273
1F7D8
1EDFA
1FFA3
1FBBB
005D4
0023D
0004D
014A4
01020
005A5
01287
1ECC0
01438
1F62C
00FC7
00274
002E6
1F269
01532
01A1B
1EC0E
1E7C1
1F0BC
002CE
1F045
1E1C5
1F954
1F28A
1F68A
00EB0
1FA00
1F1DD
1F08F
004EA
006A7
00525
010F4
00923
1F295
1F2AB
1FF73
0045A
1FF80
1FD3A
0048B
1F3B1
1F2BF
1ECA0
1E946
00286
00059
0139A
012A7
00A4C
1F101
0055F
00EC8
01347
1F947
00697
0059C
1FC8F
012BC
01103
001B6
0080E
0001C
00E52
00881
014AB
00855
1F5CB
1F378
00C2B
1FAB4
1ED95
01FE6
01455
0022A
00D0D
002AE
00C6D
1FE8F
1E328
1EBC8
01360
1FDDD
00E52
1F242
1F96E
1F7A7
01194
1F83B
1FA43
1FF8E
1F988
00B4A
1E76D
00624
1FE15
00FB2
1FAE6
0030F
0038E
1FBF8
1F7D9
1F53F
00FDE
00066
1FD63
1EEE7
006A4
00516
1FD05
1FD07
1F1D5
1FDB2
1FF19
00DAF
1EDA0
01878
1F82F
00370
1EF8B
015D1
00F3C
00523
0059C
0106A
00628
1EE56
00C33
1EDE8
1EB7F
00B29
010E4
1F33B
1FB44
00FD0
1F005
1E94C
1D741
1FE19
1EE58
1E845
0057F
1DB65
1FC2D
005B5
1F4CB
1FD78
0093A
1FEA2
1F65D
001F9
1E78B
00F1F
0021C
1F0D2
1F657
1EFB2
017E0
00B22
1FD7B
013FD
009FF
1FA36
00BCE
000A3
00011
1F9E9
1FD74
1F30A
1EBC7
1F1B0
00F42
003D5
1F5C4
1FEE5
00CA2
0049A
0054E
1FD26
1EB75
1EEA7
0039A
1F5F7
1F943
1F2E3
1EC1F
00FB7
1FEA1
1EB28
1F11E
1F22E
1EFC7
1FF89
016E0
1F3CE
0116A
1FE46
00DF2
1FAC6
01109
0095B
1F69E
006DD
00C4D
1FC7E
1F431
1FABD
1F23D
00974
003F2
1EE13
1F4B9
00FE7
01373
1EE5B
00B96
00EDF
1F64D
0046C
00E37
011E0
0131E
01438
0048E
1F0F8
1EEC5
1FDD6
00F05
00DDF
1FD14
1FACF
1FC85
1F299
00EC0
01216
1FA0E
1F14D
1EEF2
00484
1EC4F
01250
006B8
0086E
00898
1F50D
1F347
01113
012F0
00D8C
007CF
1FB30
00807
1FCD8
00D0E
1F2D9
1FCCC
1FC2F
0067F
1F9BF
1F50B
1FE77
002C5
1EFCC
00100
1F82A
00B46
00783
00B94
000FB
1EF0B
1ED99
012F6
1EF2A
00524
00EA2
1FA69
0039F
0066E
1EC2F
1FC07
1EE76
1FFF2
00321
1F707
014DE
00942
00A5B
00A41
013B1
000AE
00464
0068D
00B3F
1FED6
1F25C
00D46
003B1
1FAEE
1F776
00F18
00E3A
1EC43
1F4A4
0063B
01324
00C88
0040C
1F886
1FB04
1F34D
1EC64
01059
1F65F
011D6
002F9
00317
01007
1FE51
1F6C9
1F34E
1FD31
1F1A7
1F81C
0149B
1FD7E
00A65
1F7B1
1FCC1
003FF
0030C
1F8B0
1F5E1
010D5
1EDF4
00236
00E8B
00F74
1FC01
00D52
1F80F
011E1
1FD10
1F5CD
00FDB
1F7C3
1EE9C
1F6AC
1FC38
00FB2
1F185
1F322
00431
010FF
1F8E5
1FA50
1F534
00E9A
0109A
011B0
1F9CE
1F567
003F4
0065E
1EF34
01051
1EF88
1FBF7
1ED9F
1EBF2
1F43C
1F3EC
00397
006F3
01107
1FF4C
001DD
0041D
1F685
1EB2D
1F02A
1F9E4
00247
00C98
0084B
1EC53
1EE59
01366
002B1
00E3C
1FB30
00337
1ECFD
00F76
00681
1EC46
1F408
00D89
1FD8A
1F737
1FE7B
1FA69
1F53D
0029D
001E4
011BC
00816
00CA6
00F75
1ED87
1EC2E
00529
0038D
010FC
01B8B
00576
1F7DE
1F753
1F938
1FB69
1EC9C
1FE3A
00EAA
00DE0
008FA
01291
0108D
1FFC1
0120C
1EE24
01261
02030
0051D
0037C
1EB70
1F740
00B9E
0138D
1F50A
1E7A7
003B3
1FD4A
00530
1EB16
00D6D
1F2FB
1F7B2
1FB92
1EFF2
1F422
001E3
00802
00054
00E6C
1EA59
1FB33
1F1B3
1FB5F
1ED02
00520
00E4D
1F72D
00DE6
1F890
1F244
01171
00294
00724
1FD0B
01103
1F6AB
1EEC4
1EDE4
008A8
000BF
00549
1FBC4
1F7CA
1F406
1FA9B
1FCE8
00A10
1F326
00E4D
00044
00F64
1FCA8
007E5
002B9
1FCCD
1F8B1
1ED45
00D9E
00090
0115F
005F1
00FA4
1FCB0
00DD3
005F8
1F467
1F6E2
1FF57
1EF5C
1F840
007A6
00448
1EFD1
1F1C4
1FC10
1EFDD
00B64
1F5E6
00923
01321
01093
00176
01144
1EC19
1EB91
1F03F
012D0
00BB4
1FB1C
1F6E1
00310
01428
1F8EA
1F221
1EDD2
01FD6
1FCA7
005EA
1ED48
1FBE4
009C1
00067
1EFD3
001D5
001DD
1FEAB
0067C
035B5
1F7E1
01FE2
1FC5A
1F880
1FB22
1F72B
015D0
0353B
00461
1FA3B
1FA55
0130A
1EC56
1FF3A
1EB7B
1EAC5
0102D
011EC
1EB18
1EBF9
029FB
00029
1FEFA
004EA
003AB
1F39F
0065B
00025
1EBE2
1FEA3
00A20
1F5DE
1F946
00598
1F6DE
1FE4B
004A4
1FB1E
1EA47
1F4D4
1F8BD
00D8F
1F8D4
1E42E
01884
1F752
1F380
1F772
02BE5
1FDE8
0001A
1F0BA
00DB4
1F9AC
00157
008E8
1F8BA
1EFC5
00E85
1EE7C
1F988
00CA4
1FE64
1FE3D
1F210
1F385
1F38E
1FAD9
00633
1EE78
0171A
1F29C
001C5
0089F
1FAAD
1FC70
1EEB4
00A6F
1F193
01293
1E925
0127E
00567
1F03E
013FD
00DB5
00236
00E8E
012FE
1EFF1
0029E
1F038
1F902
1FDA5
1EFC3
1ECDA
1EB05
1F904
1F853
00982
1EDD1
00B1C
013D3
004DC
1F5AB
008C6
00537
1FD99
1F177
1ED68
01324
008C3
01074
1E8FB
1F900
1FA72
1EED6
1F6B2
1F952
1F2FE
00E76
01018
01193
1FF43
00420
0131D
1F237
00997
1FFFB
1E7EB
1F26D
1F5B6
01429
1F84F
1FD5A
00833
01266
1EFF0
00FAA
00286
1F973
013D2
1F51A
1F349
00F2C
1F783
00989
1FA15
004AB
1F577
1FD6C
0031D
000E2
1FABD
1EAE0
00ABB
00432
00BEE
1F03E
1FDBE
1FEC4
1ECDF
00450
00C7E
014D5
00A67
00C4F
00FF2
0127C
1EAAC
00C49
1EAAA
1EC8E
00874
1F84D
1ED2D
001CB
1F0D4
008CF
00B0A
00117
1F9C8
1F41F
00839
0059E
00C5C
00B26
000A7
0033F
1F55D
01DA1
00435
1EFA7
01A93
00550
1EB76
012C3
1EE17
0178F
1EFD6
018AC
0172F
005A6
00491
00CD1
0130B
1F056
1EB42
01B88
0054A
00E69
0024D
01A78
00136
006E0
1FA2C
1FA71
003FD
00D8A
00F67
00EA6
1E6CC
1F066
01452
1ED89
00391
0035E
1EA32
01735
00E85
01223
1FBD4
1FA1C
0138B
1EC68
1FBF9
00AD2
1F228
004CC
00EC3
1E763
01FC8
0092A
1F7E1
0016D
0127B
0115A
00743
00E88
1E542
00342
00DB8
1FE29
009DE
1EFDF
1FC6C
00B94
1FBBC
015F9
0031C
001EB
1ECDD
00AD1
1F01E
0054A
01FA3
1FC66
000FD
00691
1F4FD
1F87A
005E2
008F1
1F70D
002EF
1FA18
1FA1F
1EBA1
001D8
1FD23
1FA86
01CA2
0001B
013D3
009D4
1FF78
1F207
011FA
1EF84
006D4
00DB5
0082B
001C6
01452
00482
1FF7A
00A94
1FF1E
00033
01AE7
1E9E8
1EE42
1FD35
1FC4A
1F23E
1EF78
011C3
0081A
0105D
1F479
00E2E
1FFA0
1EC3D
00C8E
1EF4C
003EB
011FF
1EE56
1F01E
1F942
1EAAB
1ED9D
003F7
1F67E
00D4D
1F1D1
00BFC
1FA22
01116
1FF90
012F3
00C1E
1F6F5
004CD
00179
1FA9A
1FCE4
1F89E
008DB
1FFE2
1E8B7
1F728
005D1
1F1D6
1F4CD
0113E
1F449
1EC04
011F2
1FEC4
1EB17
00495
1EDBF
00BE2
1F5EA
1EDC6
008AB
00A77
1F4BF
00535
004CC
00795
1F590
1F33F
1F783
01107
00822
00A0B
007B6
1DDFE
00AF3
025DD
1EB9C
1F1D5
0047A
01D95
1FC51
016B3
00F66
1F9B8
0201F
1F179
0286D
1F7B1
1FA46
0076C
00F01
01059
1FF1E
1ED11
01EFD
01389
01610
01017
1EAD2
0030D
1FDB8
1FBCE
00D97
0038F
00C94
012B1
1F364
1EC41
017FC
1E899
01A34
1D97F
1EB31
1E97A
01D2E
1ED08
00D69
1EAAF
1F3D9
1E231
1EBC0
00129
1F96A
1E5F1
022FF
1F9B4
007A7
1E495
1F7E9
00C1D
1FBEC
1C456
022B6
01238
00C7F
006BF
00282
00C63
1F198
1EFD7
1EF5C
1FF8F
010E9
1F0AD
1FAC2
1FD5D
1ECB4
1F260
1F721
1F15E
1F03D
01193
0086C
1EFE5
1F09B
014C7
1F65E
1ED8A
006F2
1F54A
00DC0
0123D
1F350
0108B
013D8
00439
1F639
1F72A
0021C
00C95
00188
00BC9
00004
1F1DC
00157
1FB5A
1EEC9
011F9
1FA19
00717
01437
1FB16
013C1
1FBCB
00B76
00D0B
001BC
00B88
1F7D1
1F0B6
01355
00B63
1EEB1
00768
1F6A7
1F231
1F68B
1F9D4
00A66
00C8B
1EE88
1F2CA
1EE68
1F782
1FD40
0083B
0020A
014C6
007B3
00175
1FF1D
00428
005EB
1F30A
1F53D
007C1
014CD
01325
0080A
1ED44
1FE86
1F8E4
1F74C
0114B
00B43
013D3
006F1
1F18C
00B99
1F980
1EF91
1F98D
1F127
1F31D
1FBE1
008F7
003A4
1F447
00FE8
1F18A
1ECF6
1F33D
012E4
1F7AF
013C1
1FC5D
009E1
1F86F
0118A
1EF01
00458
00D5D
1EAA0
00AD1
1FAB3
01419
1F4A6
1FCBB
1FAA2
00683
1ED50
1ECE8
1EB8B
1F9AD
1FB90
004ED
01449
0052A
1FBD8
1F44E
1F4F2
00C6C
00123
1FCCE
1FB31
1ECB0
1F540
005A2
006B0
00C39
1EF1A
01462
1EFBA
01258
00F4F
003C1
00EAC
1F381
1FB60
1F04D
0078B
01390
1EFE9
00A15
009DC
1FB91
1F955
1F3BE
0037C
00FC8
00E60
014D0
002D5
00943
002C9
1F470
01432
1F3AF
00D64
1F243
00349
00F2B
1EC14
0140C
006FC
1EDDD
1F658
00F46
00967
1EE74
0117C
1F6DB
1EF3C
1F4FF
1EC1F
00E0A
1FF91
1F49F
1EBF9
01BEC
0103E
1F85B
01331
0125B
1E9CA
1F4E3
01244
014A4
1F82F
1ECC7
1F6D3
1F44A
1EBAE
01EE2
0023B
1FF2C
1F4D6
1F35F
1FE4B
1EAFF
00B1E
01749
012AB
0159F
1FD4D
00856
1F3FD
00406
1ED8A
0055F
01554
01003
1F73A
009EC
003ED
1FF0A
00C4F
1F6ED
00320
1FB0D
1F872
00A7F
005D3
1FB19
1F1B8
00574
1EDB8
1EF2D
1FFF9
00CCB
00C4B
1EE17
1EB7C
1F762
00182
01377
00D97
1F2C4
009BA
0117F
1F867
00142
004C2
1EE49
1EF17
1F3ED
004B9
1F4DD
1F666
0053B
00F50
00FDE
1F7B5
1F910
1F91A
1EFA9
00EC7
1DA69
004F5
00234
1FE76
005C1
1FCD4
1F6FD
1F84C
1F1D6
013DE
00AA7
004A3
1F002
1FDE5
1F176
00BDA
1F4DD
00F38
1F353
00F3A
00E41
01BA6
0013F
0189B
1EBF5
1F49D
1DAF0
00280
1FC33
1EDAF
1F823
1EBDF
1FC39
00088
1EAAB
1EF67
1F0A1
00951
1ED8C
1E854
1E706
1ECA5
1F2C1
1FC41
1DE4A
006D9
1F3DC
1ED22
1F4ED
1D526
1FEA9
00862
009C9
0061F
004E0
1EB84
00390
00E80
00FA3
00071
1FC2E
1F92A
1F3E0
1F9D1
0066A
1F286
0132B
00591
00207
1EDB0
1FD70
004E8
00346
012C3
00862
0006A
1F3E8
1F157
1EEE5
1EE7F
00AED
1F346
01377
00B52
0119E
0078C
01172
00D9E
00D64
1F374
1FFDB
1F575
00D30
00648
1EC52
1F7DF
003B7
1FD83
1F007
0068A
00FFA
00F27
1F9BF
00B7A
00082
1F346
01238
002A9
1FE58
01391
1F4C7
1F0FB
003DF
1EBF7
0190F
1FFB9
1F80D
01147
1F3D3
01206
013B8
1F973
01056
1F139
012E1
1F435
00789
00E8A
009E4
1F865
010EB
0077A
1F640
1EAD6
1F03A
014FF
1F9F7
1FAD2
022C0
1F2C9
1F486
1EB9E
1FB3F
00882
00A93
1F5FB
1F538
008C1
00495
007F4
00C40
1FAAE
00036
013C7
0028D
1EBE5
1F7C7
1FDC1
1F946
003A0
01593
1FDC8
1ECD6
1FD38
00C23
1F111
1F527
0042C
1E8F1
000BE
1FB0D
1FC89
00EEB
1ED8F
1FFF7
00065
1F12B
00E66
0045A
00D2D
00A85
00017
1E991
0114C
1FE62
1FFB6
1EC07
1E8B5
00FBE
00585
0138C
0112C
1FA1A
00D60
0062F
01102
1F24F
00273
1FA4A
0066B
1ED45
1F2DA
01651
00495
00EE6
00DAB
1F297
00D12
1ED23
1FF60
00251
1FDDF
1EEF5
00147
00198
1ED73
018AB
1F5BF
00C54
1FD19
1F550
1FA7B
1E927
00298
00A03
1F6DE
1EBBC
1F76C
1FECA
01183
1FBE0
1FAB6
1F2E9
1FA81
0010B
1F3DE
00C50
1EE69
1F801
1FF54
00A4F
0083D
1F6E3
1F7C1
00CC0
00BD9
1EC7D
1F806
1F935
1F023
1FD2E
0012E
01083
00A54
1F81A
1EC22
0094C
00778
0058F
00418
1ED32
00856
0153E
00158
1F7CC
005B2
004CB
014D7
00EAC
1FE0E
00D88
00676
1EF78
1FEFE
1FF4C
01341
1F234
00572
003CE
00F5A
00507
00323
0032F
1ED65
1EB84
00AC9
1F261
0123C
00F01
00EC0
0039F
1F21D
00308
1F83A
1FF21
1F8A6
1FBDB
0056A
000C9
00DC9
1EC6E
1F1AC
1F4FF
00FAB
01335
00881
009A1
1F48C
1EDA8
1FAFA
1E9E8
00FF3
0015A
1F387
01591
1F206
004D5
006CE
1F4DE
1FC76
01B4D
00744
00E56
1EF3A
1F7A0
1FA62
1EEEA
00ACD
02C44
008C4
0082F
005E5
012B4
1FD23
00235
1FBF5
0038F
1ECD0
01B1B
01080
1F5B9
1FA1C
00301
017C4
1F835
0053B
0272A
1E765
1EA21
00B99
1F182
1ED28
00D58
1F344
1EE85
1F536
1ED7E
1FCCD
1FEF2
1E48D
0178E
1EFAE
00F25
00566
1F90E
0181C
1ED68
1F239
002DF
02BEE
002C7
00888
1F60F
1EEA2
00CE0
00642
1F6A1
1E940
1F921
0002E
1EF20
00A1B
1F29A
00A2B
1EC02
0166D
00640
1F8B5
1F31F
1F805
0071C
01473
011A4
0059E
002B9
0012B
00CC4
1ED5F
1F462
00017
1F2F4
0048B
1F198
00654
000D2
1EF31
1F17A
1F257
01136
1F832
1ECFF
1FDF4
1F34A
001F6
1F443
1EFD2
1F2BB
0083D
01236
006FA
00B0B
005E7
1FFF4
000F7
1EDAD
1FB18
002D7
1F252
1F800
010A5
1F02F
1F310
01164
1F12F
0132E
0073B
1F91F
1E990
010F3
1F991
00730
008D5
008FF
1ED80
1F02B
012D5
1FA72
003FD
00ECA
00BA5
0132C
01068
1ED04
1F3E3
1FC3B
019A5
0333E
00DE9
1EFA5
1FE64
00727
00B2E
1F962
1FEC4
1EE16
0007B
00BFF
00D88
00961
1F77F
1FC3F
01CCF
1F5B7
00DED
1FDD7
1FAB7
1FA94
1EEDF
1F84A
00885
1E3C6
0110B
1F869
1FAC7
009AD
01585
1FBCB
005E8
1FEDF
1EE32
1EE15
1F730
1EBEC
00E59
003E2
1EEB5
0046F
00C5B
1EE2F
00CB9
00135
1F5B3
1EDE7
00A26
1EF02
1FA99
010E6
1F647
012A5
1FC96
1F4FE
0109D
00DF0
00BA1
0001A
1EC86
1EB49
1FA8C
1FF99
00A82
1F0E0
1F727
1FEFD
00980
1F92D
00C3D
1F764
1FABC
1F57B
1FC2E
1F46F
1EFA7
1F728
00D91
1FBF0
1F5D9
0034D
0132A
0036C
1FA5B
0121C
01315
1FC63
1F92A
1EC52
00A1E
00276
1FEC5
1FC91
1FED5
1FB9E
1F004
0140F
1F93F
1FCB4
1F81C
0034F
1F434
1F461
001FF
00A1C
1EC4A
0087B
00960
1FA0D
1FE59
1F4DA
1F3DD
1FBA7
1EE7B
1F6FD
1FCBC
0122E
009DB
1F1D8
1FDA9
1FD20
0115E
002A9
1FBAD
00F08
00633
012F2
00342
1FB31
1FC53
00FB9
00B00
0050E
00F7F
1FF96
1F988
1FFB9
1EDBE
1EF74
007E1
00479
1FAC5
1EEFF
1F86E
015B0
1F29D
000A5
00642
00064
009B6
1F0E8
1F4CA
00207
01058
009DF
1EFDE
00980
1F5DB
1F4AF
001E8
01205
1F7A1
1F5D0
0096E
010C8
008C7
1EBA9
1F016
1F707
0095E
1ED59
1F906
1FE53
1EB5B
0077B
006A9
00343
0120C
00121
00DB5
1FF3D
001A6
00398
1FD94
01410
1F2C3
1F9FF
1EF0B
1EE6D
000B8
005CB
00528
1F6FE
1EBB4
1ECAF
1FDBB
010F2
1EF65
0140F
006C8
1FC9A
1FFED
00BBD
1EC97
007DA
01552
0057B
1F4E9
1F847
1F990
1F7B0
1F86B
1F6F3
1ED28
00A49
1ED54
014DB
01438
1EDA6
006BB
1EF87
0063A
1F00D
1EC0F
007B6
002E4
1F8D3
1FA59
004A4
1F653
1EC3E
005D2
1F9C6
1F5EA
1F733
002A7
1EA42
1F3CC
014E3
1EAF9
0064F
1E9D1
1EE87
1ED2B
1F81E
1F33E
1EC73
1F517
1F290
00189
00222
1F370
1FBC3
0037D
1F9BE
1F9A7
1F80A
1F417
012EA
1F1A9
005E4
1F450
012B1
00F96
1FC1F
01558
01304
1EF8D
1EFC3
1F4B7
01208
1F3F3
1F715
00E95
0087C
00E1C
007B6
1F71D
1F762
1F806
1FD92
1FA12
0128F
00696
1FDA7
01097
00C83
0151B
1FD9B
01114
1EAB8
1F1E3
1F904
00505
0083B
00E89
00A7E
1F185
1EF55
00B79
01004
1F290
00C9E
0052D
1F239
009A8
1F4F2
1FA0C
1F843
1F0B1
1F66F
1F7B2
00E5E
01018
1FF53
1F616
1FB6D
1EBD7
009F7
1F8EB
00817
1FA5C
008FC
1EDC8
1EF16
00787
002E8
0120D
1F052
1F32E
1ECF6
1FAEF
1F43B
1FA83
1ED46
1F150
1EFF6
1F5BE
1FF4F
1F0DB
1F4C0
00F5B
00835
1F2D0
1FA1E
00B81
0109F
01050
1F79C
0115B
1EADA
1EF11
1EBC8
00B21
1F6BA
1F06C
01340
01205
0043B
00384
00609
1EC25
00C99
1FB0F
1DE0A
1F6CA
00EED
1F0EE
1FC17
00109
1F81A
1FAB3
004C8
1E0C9
1FDDF
1F342
024D5
1EBD4
007F7
000D4
0015F
1F357
0075A
1F3FA
02175
1E4F0
004EA
00E8C
1F59E
1EFEC
1FE93
0115B
1FD36
009A5
021E3
1ED34
004DD
1E393
007AD
1E812
01BA0
1ED32
01332
1ED54
1F6DC
1FA8D
1EE03
1F4AB
1F4C4
00F30
1E601
004BE
00190
1FA85
1EF8A
00E7D
01D6D
00397
1F39D
01C48
02F5F
1E39B
1EA97
1E66A
1F062
015AE
1F416
1F2C3
00AA3
01236
1F4DF
1F4B4
00F6F
1F97C
1F47A
002F0
1F31A
0019A
0119F
01686
001DA
00954
1FE60
00030
1F986
0111A
1F3CD
00D8B
1E1EF
00A4A
01AA6
1F325
1ED8F
1EC98
1F078
1F792
006D8
0394C
1DE58
008E1
1EF87
00F3A
00B1F
1FF04
0057F
1F769
1D067
0234C
004EC
1F549
1F65B
1FB8D
0000E
1FCFA
003F7
00557
00866
008C2
0041E
00A5B
1EC4E
1EC38
00B4E
1EA22
1E4C9
00284
1EEEC
1EA17
1F98F
1D40E
0019A
002EF
00386
013A5
01183
1FC5D
1ECFB
00431
1F875
00890
1F8DC
1F7C2
1FA7D
1FEC8
00112
005C6
1F5B4
1F0D8
1FCB3
1FFB0
01119
013D6
1FF51
00F9B
00578
01340
00D0A
0047F
1E8CE
1F0F4
1FB9D
1F2BC
1FB60
1FAC3
1FC24
1F06C
1FDAC
1ED1E
1F310
1F192
1F703
1E0D6
1FEE6
1F7A1
1F6AE
002F4
1F6D8
1ECD9
00F79
003BE
1F4A7
1EFF2
00456
1F78E
1F5E8
00F31
1FC55
1F03E
00ADD
00434
00972
000A6
1EE41
1E3E6
00698
1F375
1EE96
1EF94
00111
00901
1F678
1FC79
00E85
00B75
1EFED
01495
1F2F0
00403
009DD
00903
1F929
00539
1FF41
011D9
00861
0152B
1EF72
01474
00786
1EFCF
1F22D
009F3
0114C
00883
0120F
1F77F
1ECBE
0152B
011C8
009CC
1F473
1F335
1FAE6
00FB0
1FDB2
013FA
01334
1FF21
013DA
011F7
00AE5
00554
1F5F1
00BC5
1F997
1ECDA
004BB
0000C
1EFBA
1FB4C
00DB0
1F179
002CB
1ED48
002BC
1F790
1F1A5
1F334
005AA
1F575
00B97
1FC52
00A99
00896
1EC8E
0128C
1ED19
003EB
1F850
1FFA6
1EB57
012E0
1FA9C
1ECD2
1FBCE
007E9
1ED77
1F5A5
01486
012DE
1FF69
1FD80
0064C
00ACA
00754
1F02D
1FE82
0057A
0092D
00CA3
01536
1F4F6
00038
1EE37
00672
1EAEB
00A3F
009BC
1EBD3
00854
1F63E
1FF66
00F54
005B4
1F495
00921
001D7
0119B
1FED8
1FA41
00D8C
1F75D
1FD80
006AB
01049
1F2C0
1F1E9
1F9C7
00437
00145
0081B
004B4
00EFD
00150
1FB6C
0051D
1F697
00F8A
00716
012B9
1FE9B
008FC
1EB18
1F6AE
1F2F3
1F898
0053F
1EF85
1EAD0
1F46B
00F10
008A4
00512
1EE01
1FFE3
1ED14
0137F
1EAF3
1FACB
002CD
1F2F6
00C5B
1F2FE
1F828
1F785
1F010
1FD90
0013A
001FD
1EBB3
00C70
1F5DF
1FFB5
0087E
1ECF1
1F452
1EC68
1EB46
00E6A
1ECC3
1F7A0
1EFD3
005A8
1ED60
013F6
00A7C
1F05E
00781
1F0D1
1F5B8
1F10D
1F1B9
00C35
01038
00F7F
00EA7
010ED
1FF78
00343
00AF3
1E8C1
1EA91
0103C
1EC07
0102C
1F094
1EB22
000D7
0022E
00DBA
01952
1EAA8
1F7DA
1FE45
00B9E
00F9D
1FFB1
1FC38
011A9
1F2E4
01372
01143
00E9A
1FFC2
1E9F8
1E9A7
003FF
012AD
01532
1E9A6
1F61D
017E4
1FAED
00B2F
0158D
1F853
1F381
1EB29
000AA
010F0
1EB9F
1ED6D
012B8
1FC3D
00A52
1EC46
016C2
1F80E
1FB86
00AC3
00937
1FCEC
1FF78
1F471
001AA
1F484
00E73
1EFAC
009B7
1EBE5
1F942
1FA12
1F761
00DDB
1FB15
01103
00B60
1FBFC
1F3A5
1F6C7
1F94D
01186
013DB
1F2EB
1FA2E
00BF8
1FBA0
1EB22
00DA2
1F1B1
1FDDF
1F32B
006BA
1F70B
1FBB3
01454
00330
1F842
1FBF6
00B58
00AAC
00EE5
1F088
1F7AB
1F8F8
1EF86
009C7
1F52A
00778
00445
01407
006F5
00DCA
1FA10
013C1
1FBBC
1EB1B
00044
00EFF
014C6
012FC
1F1DA
1EDE9
00515
00163
00B61
0102F
1F10F
1F39A
00E2E
00E28
00C06
00436
008AC
03614
1E9DF
1D305
1E7E7
1F10E
1FF01
1E097
1F8CA
1DF19
1FCE2
00408
1DED2
1EC32
1F2C5
02D87
1FAAB
1D8D3
00215
1ED0E
1FAC5
1EE86
1E07F
1FFE1
1E3F0
00D06
02F7A
00020
00841
1EDFA
1F09C
1F470
00E26
1FA15
1EA0B
1FE31
1E8DD
1EBFD
1ED78
0389D
1EAA5
02531
005BA
002E5
00379
003F2
1FFDD
00CB9
00825
1F605
1F3B6
015E9
1D468
1FB17
1E7FE
02458
007DA
1F099
018A2
022FD
1FB0B
003A9
0018D
006D7
001B4
00C82
001DB
00B77
1FB35
1EF66
00377
1FD6C
003B6
1F859
013B3
1FAD4
1FC79
1F84A
00A7A
1F290
1ECBB
00156
00CE2
1F973
1EE2D
1F8AE
00859
00731
00B78
1EF1A
1FD82
1EFC8
014D6
1FE48
1FC80
1F2B1
1FC60
01060
00C46
00BC9
1FAC2
1F670
00A07
1F433
1FE0F
1EDC4
1FC7C
1FE32
01000
1F420
1EE62
00CFD
002AA
00C92
1FDC1
00797
00FDC
014E5
000D8
1F134
00D46
1FD75
1FB6B
1F526
1ED3A
1E9DA
1FBFA
00529
1FC4A
1F6BD
1FC76
1F23F
1FABE
1FD2E
1F799
1F608
1EE33
1EF98
001C1
00490
00DB7
1FE08
0122A
01007
0006F
0105B
1F43C
00A65
1FC6A
00D04
0046D
1FA1F
1F0B5
00CA2
014F9
01052
1FB8E
013FC
1F5BB
00F9F
00157
1F23B
1FF8D
0053F
00D33
1F14D
00F7E
1FBC1
1ED43
1FBC5
007EE
1EE8D
01291
0023D
1FA14
008A3
1F72B
00574
1EF4B
0133A
00EF8
1ECBC
1FDDB
1F3E7
00229
00294
1F277
1E89E
1F299
01214
00880
01438
00D20
1ED0C
1EE72
000FE
1EE5E
1F4A6
1F129
007AA
1E904
1F4D4
1EDA8
1E95C
002F6
1EA7E
00A03
01A1C
00734
1F437
1FA59
1F3E6
003AC
1F764
0183C
1F7F0
01B12
01283
1F1DF
1F266
00869
1F728
01142
00B1A
0113C
017E3
1FF79
00EE0
00A1F
1EFA7
013F9
00C8A
1FCF2
1F1E3
01337
00826
00073
1FAB2
002C1
1F9F8
1ED15
1F497
01446
1ED8D
01BB2
1F167
0125A
0060F
1EB61
00A77
01050
1F502
1FD7E
00DD1
1E7D3
1E70A
00BE2
01944
1EBEF
00263
00409
001CC
1F07B
009FD
1E994
1E73A
00F62
1F937
00017
1FD2E
1F425
1F74A
0134E
1EB73
0095B
0143A
1EE7D
00468
00B0A
00D1E
00491
000D4
1FB41
1EFFB
1F046
1FE08
00016
001AF
1F1E2
1F83E
01394
1FD18
1F9D5
1F959
1FA65
1F9E2
1FDF0
0160B
1FC1D
00C38
1F253
1F684
1E9E1
00852
0028B
1ED60
0023E
005D1
00DCD
1FD59
00184
1FFF6
00FF2
1FE0B
003C9
00F35
1EB06
00A29
1F8D9
008CB
1F09B
00400
1F80B
1EBA1
003A6
00966
002C3
1EECA
1F59F
01655
1F2E0
00429
1F3E8
0106D
00600
1F089
00DD6
00BE9
1F8C8
00550
00D0C
1F035
1FA2E
01796
00A60
1F87D
00F3C
00810
1FC91
000D4
00186
1F5EC
1EC20
004FD
1EE70
1FCEE
1F301
1FB63
1EEA6
0019A
01072
00B31
00853
1FFA1
007CD
00421
0151A
007C2
0088A
1F22B
00BCE
1FE71
00281
1EE1B
0092D
1FB3E
00D86
1FF71
008B3
1F29B
1F935
1F943
00C1D
0150E
1F577
0176D
0003D
00021
003C0
1FD42
1EB11
1ECD0
1FEAF
1FF1F
1FCD2
1E91B
0064E
00708
1FEA0
02550
01154
1FBA5
1FE49
006BE
00618
1F242
00DD3
0178D
001B8
1F465
00A47
01085
006AE
00CDB
1FDB0
00EF3
1DEAA
0183E
00CA6
00C3C
1F7AB
004AF
0072A
01130
1F797
02337
1E84B
005B7
1E82F
1E9CC
00F50
1F35C
00BC8
1E86E
1F62B
1FF97
1F90B
1FF73
1F157
009DE
1FAC1
1EC45
01E6C
02351
0096E
1FCC3
008FA
1E60F
03009
00269
007B3
00154
00A56
006F8
0051A
00432
004F6
01611
1F5D4
1F603
1F0AB
1F187
1F86F
1F9EB
1F6D9
1F334
0052E
1ECF4
00A9E
1F636
1F225
1EC6C
1F576
004B8
1EF42
014E4
1FFA7
00951
012AC
1FA8D
0029C
1F511
1F9B0
00D25
0148B
00CAB
1EFB5
0001C
00AAD
1F572
0035D
00EC8
013C8
1F415
00D96
1F0EB
01379
00C6D
1EE04
1F7A2
1F8AF
014C3
00F4D
1F85E
1FC92
1EAB0
1EEC7
1EC5C
1EC6E
1F756
1F115
006B2
00BEE
0089F
1F5D9
1F738
1F27A
1F94C
011EF
1F4D5
011AB
1FBA7
1EC9D
009FC
1F910
1FF7A
00C34
01031
1FE94
1FFFE
1F477
1F8A7
0079E
1FE63
1F5BA
000EF
1EE26
00E2D
00D40
014D0
1F84A
00874
0105C
1F6BE
011B3
1F9D2
00F71
0058A
1FA86
00A73
1FCFB
1F686
1EB5D
1F6F7
1FE64
1EF4B
0092F
1F800
1FB4D
00713
0044D
1FD00
1F27C
00516
01051
1F33C
001C0
00AC7
1F484
1EFA9
003FD
1F1C5
0046F
1FCE8
0011A
01118
007A0
00278
1F513
00693
1F7C4
00D10
1F974
01518
1EF66
1FCC7
008FA
1F065
00CD9
006AD
1FCBF
1EAF6
00733
00CD3
1ED72
1F9C6
1F496
1F791
00CEE
1F5B0
1F2CD
1EB18
00956
0038D
1FF1D
00CBC
1ED31
1F17A
1F197
1FD7A
1F5C9
1EAB2
1EAF0
1F6B2
00AD6
1EE82
1F2D8
00B91
00B02
003B9
01238
00017
1F7F1
1F2EE
1F40D
00B3F
00C7D
006F1
1F4F3
00AF1
00C61
008AD
1FF85
00EC2
00206
000FF
00778
1FD28
1EB69
1FEB3
1EC74
1EA33
1F5A2
01D4F
1F7C9
1E8E8
1EE0B
0123A
1EDD2
001C6
1F60A
1F475
01413
1F277
0131F
00F89
1F0E8
009E3
00EC0
1EFE0
1F33A
1F572
00554
00774
025B8
1F769
1F7EE
1F053
1EA14
1FEA3
1FE1D
1F9F7
008EE
1FBA0
1F9E1
00A59
02A2B
1EF6F
02050
1F9E5
00758
1E639
1FE0C
1F06F
1F673
00D9F
1F9A0
1EDB3
003EB
1EB76
002D6
1E8F6
025C0
1FDEC
1EA02
1F9BE
004AA
010A5
1EE10
0016E
01106
1E7BD
1EA17
1FAB3
00ED8
1F150
00DBB
0091B
1F8B7
1F400
00474
1FBC2
005E3
1F550
1EFA9
1FCD1
0113D
0125E
00071
0062A
017C1
0054E
001CB
1F342
1FF32
1F312
004CD
1EB2A
00503
021E7
1EC8F
0018A
00BD7
004A6
1FB7E
1EAF7
02956
1F1F5
0083F
00E65
01B56
00A21
01B40
00A45
1FCEA
1EDD3
1F6CD
1FCAB
1FA04
1E93D
1EFE2
1F6DD
00B40
1FE93
00C70
00C62
0142C
1EFE7
005A1
1FD57
1F932
1EE9F
1F0A0
1F67C
00BEC
007C1
00AC5
1F603
1E6D1
1ED24
1F2A9
1F219
1F040
1F672
1FA13
00367
0025D
00E30
014A3
0045E
003B5
1EE3C
1EF00
1EF55
1FFF4
000AC
1F4D6
0040B
00577
00297
1EB52
00632
1F98B
1FC81
00F5A
014E9
00AD4
1F240
1EC3A
1FC9C
00C55
002A2
1F220
00D05
1F10D
1FCDD
1FE32
00B40
005F4
010EF
1FFD0
00117
1F986
1F24C
1F692
1EDAF
008E9
00871
1F8F9
00DFC
1ECC1
004CD
00683
0011B
1F76B
1F6B9
0121A
1EF23
00291
1F7FF
1FA54
00ED2
00A69
1EA7A
1FCA6
02399
1FE40
00AE4
004F2
023E6
1F2AF
0169A
01136
1FE1C
01628
1F912
01F29
1FB3F
1FD80
028FE
0018D
0102E
012F2
1F1E3
01AB1
00D67
02CAB
1F6B1
1EED4
1F6D1
00AB6
00DF7
1F141
1EDB7
00ED4
1F862
0043E
000ED
018B9
1FB33
01C34
1D2B7
00655
1E751
00F37
1E7AC
1FDD1
1ED6F
001AF
1EBAC
1F80B
1E90A
0050C
1F34E
02D27
00A62
00B17
1DEF8
1FDB2
00C36
1E617
1DCB4
021A3
1FD92
1F18F
1E84C
1F9FC
00024
0041D
1FA73
1F070
00820
1ED80
00AB3
1F2AD
1FD18
1EECD
00E86
007EF
1F9C5
007AF
00E47
00183
0199A
1F4DD
1FAA4
1F025
010D7
01D7D
002E4
00C28
02040
00F96
1E984
1ECE1
005AF
1EA39
1F670
001CA
012B7
0076D
1E78D
0065F
00B7B
01180
1E3F3
1EBFA
1ED90
1F6C7
1EADB
1EAF0
0059C
01051
1ED77
1F645
1F8B1
1F9B2
1EED3
0072C
1FBEF
1EE6C
1E5D8
1F4AA
1EF4F
1F109
1F5D8
1FD29
1E913
1E7E0
1E778
00248
1ED9B
0062E
01245
1FED2
1FD59
1EF2D
1FD12
01158
1EDE3
01469
1EC25
0142F
01447
0092C
1ED64
0006A
1F2B2
1F0B4
013E4
1EE22
0023A
013F9
1FF30
1FFC8
1F18A
000B3
1EBC2
00B5A
1FBAA
1F917
01433
00296
1EF00
1FBCA
00FC5
01305
00604
00A03
01360
1F980
00936
01494
1FA6D
1FECE
1F173
00204
000CA
1F16C
00724
1FF73
012FA
00A93
00032
1F3A9
00559
01166
1EEB1
1F75E
1FAE5
00871
1FE18
00B02
0059C
1F1F3
1F2A8
00936
1FD45
00FB5
1FF33
00E7B
014CA
004B2
02633
00914
1FB98
004BE
1FD3C
0069C
01ED2
1EFE9
00EFE
0061C
1FAEE
1F17D
00D7C
00383
03D0D
01D84
1E5FA
1F0C9
00DFF
1EB30
1EC48
1EA62
1FE5C
1CE67
023E3
1FECF
009AD
00BE4
0111A
018E8
1F3E8
1F93A
01243
1E815
1F5B3
1FC7B
1FDA7
00E30
001E6
1EDE3
00266
00D63
1F5EB
1FAF7
003CF
00811
00741
1F7F3
1FB34
00B98
1EBD9
0016F
1FFCC
00E5A
00117
030F7
00322
01098
1EBEB
01211
1F0BD
1ECED
00501
00292
1EC68
00414
1EC33
1FCD2
00054
1F09E
00629
010AF
00DD6
1FF28
014A5
1F060
1F77C
1F484
1EE10
1EFF0
1F960
1F8A4
00777
1FFE6
00E00
1F209
1F91F
01081
1FF41
013AC
002E6
003B0
0118D
1F5D9
1FF78
006B4
1F095
1FA29
00E26
1EC70
01192
014B6
1F120
1ECD8
1F8F9
1EC13
005B9
0064F
00488
004FB
00F7E
1F36C
1F8DA
1F56F
1F0F1
1FD4C
1FCE6
00969
1ED81
1EF33
01224
0078B
1D4EC
0011D
002E3
00CBE
1D9C0
01539
1F612
0058F
1F1B8
1D223
00365
1DAE2
0230E
1E9F3
1E916
1FA4B
00E43
00E5E
000D5
1DA83
0042F
1E736
01583
0287D
1FCF3
1F80D
1FF92
1F82B
0091D
1F951
1F062
1EB14
1F834
1D1FF
1F58B
1E311
0336C
00A71
0141B
1FB44
00350
1F0BE
1FE3E
1F6FD
013DB
00B7A
01A77
00FDF
02E13
1DD5A
012AC
1FB84
02F1B
1EFE2
01475
01649
02B2A
1ECB4
00872
1F161
1FE61
007D7
1F265
01203
00C79
1FA82
1FC58
1FD16
1F4B7
1ECDB
010A1
007C2
013EC
008F7
1F3C6
00C37
1FB33
1F67D
1F2BF
00EF1
1F3D0
00BFF
1F61B
0008E
1ECD3
1F01E
1F5BF
01273
00EFE
00160
1F732
012AC
1ED9C
1F5E0
1F3A2
0073D
00C9C
00A58
1F648
00879
00EDE
1FD17
009A4
01415
00E10
1F716
00E0D
1F80D
1F2DD
0153D
00A9D
1F7FD
1FCAA
0121F
006EC
1FD84
1F9EA
1F701
1F419
1F86F
1FF54
1F82B
00A70
1EDBA
1FA19
1F37D
00140
00FDE
0037D
004B0
1F453
1F4A4
1E86B
00F71
1ED0A
00A9B
1EFA4
1ECC0
1FFC4
00CB8
1F65A
00078
1F88B
00B3F
00352
013C2
00E9F
00CC9
1F71A
0058A
00BDF
01A06
1F144
00EBA
1F711
1F0F1
1FE57
01375
007ED
0016C
1F390
006C1
1F076
006E8
0141E
1ECD2
1F62B
1EE32
0023C
1FE2B
00EEC
00E72
00B47
1ED4F
0116E
1EC60
1F6C4
1F729
00590
0140E
0194B
1EDD7
1F684
1F924
1F332
0064B
1FC87
1FF2F
1FA3A
00B8B
00536
00235
002DA
1F3BF
1F3CD
1F2EC
0116A
002CC
1F2C4
1FF00
1F747
1F1C5
00AEB
1F365
00B8D
00311
00398
006AE
00AEA
00F15
1EB8C
006AB
1FC6D
1F2D8
1EC88
1F476
1EE1B
0010B
0137A
00E81
1F0D2
011B9
1EC0A
1F9E0
1FE34
1F5C3
1F33D
00D3E
00F78
1F349
1FD4F
1ED01
1EC08
002F7
1EE3A
00F56
1FA40
1FC96
00688
1F43B
1EEFD
1FD7E
1EF92
1F325
002A5
1FD4E
00A9A
1F559
00FB8
1EDA9
1EB0F
00C9D
011E1
1F106
017A8
01532
00396
1FA6D
1F8CC
1F8B2
1ED12
00200
009B7
1EFB2
0146D
00A8A
0110D
1E9E5
007BE
1FE6B
005E7
0160A
00635
1EE9F
1ED81
1F56E
00578
00192
00234
1FB08
1EC51
1ED29
1F19E
1FA94
00E51
000D2
1F9F1
00ED8
1EF48
1F883
1EE58
1E8B2
01343
00867
1F338
014E6
1FD44
1FCA2
1FC7D
1FD18
0182D
1EFC6
1F88E
1FB9A
0066E
00E8E
1FE35
014DE
00841
1F917
1F7E9
1F39D
011D1
1E6D6
1F345
003F6
007FE
00A80
1F51F
1F143
1FBE4
1F5FA
005B6
1F1D6
00ED8
1FDEC
01537
1FD99
0137B
1EAAC
0154F
1F553
1F7EE
1EC83
00606
1F0B6
1EC1D
00D7F
00052
014E7
1FB31
1EF9A
1FFC4
00964
00DCA
1F906
1F13C
1F275
1EF56
00AB3
1F64D
1FBD7
009E2
00125
00EE8
1FB42
0001A
011E8
1F69C
1EE6C
01443
0032E
1F0A0
003E7
00E12
1FD4D
01376
00C35
01277
1F6E0
1F2EF
1F6AA
005C8
1FDBA
1F639
1FE3E
0017E
1F8BE
1F204
1F690
1FD56
00137
00043
1EA1F
1FC2C
009C6
0103D
1F679
1F2AD
1F665
006DA
1F17A
00D94
01733
002C0
0123B
0228E
00179
0083A
1FF46
1FC52
1EB5F
1F741
00E54
022E5
00FA9
1ECCC
00D46
1FFB3
1F602
1EC05
002D8
1F545
1F11C
00664
1FA78
1EA32
1FEF6
004D6
00150
00EA1
00DB3
0205B
1F946
007D5
00CEB
1F322
0112D
1F8BE
1FAD6
00636
00A18
1F8A5
01524
00E1D
1F1E0
1EFFF
1F079
1F433
01A23
1FBA1
1FB51
1F3E3
1E2CB
1EA44
00DD2
00BCF
00605
1FE73
00DE2
00D57
00177
1E143
1F19C
1EB13
1FBF9
1FF53
0043C
1F302
1E198
01A66
1FEB3
1FD51
1FC39
00C0C
1F44F
00D6E
1E50B
1E2BE
1FF6A
01C6C
02347
1FD57
0002F
1F3D8
1F32B
1EA41
007DE
007E4
1F659
005A7
1E06B
00E95
0038D
00EA1
1FED0
013FD
001C0
1ED4F
00679
1F641
1FC92
00219
00F90
010C0
1F08F
0124F
1E970
00788
0115F
0177D
010A7
1FD9C
011F6
00C43
1F209
1F72D
1F8C4
1F0FB
1F21C
1EEB8
0133C
1EF38
1F49A
1EDF5
1F88C
01834
1F31B
1FAB8
00005
00DA9
01345
005CB
1FACC
1EFEE
1FB35
0085F
1EFA8
003B3
1EED4
1F5BB
1F294
1F3AA
1FF51
02065
00703
002D4
1FC9D
1F189
000BD
1F3C3
01125
1E9CD
1F881
00A9E
00A91
007EA
1F7F2
00CBD
008B9
1F1EF
0096C
1F219
1F240
00FD7
0097A
0094C
1FFA6
1F9EE
1EF20
0047F
1F97F
1F250
1F1B5
1F1AE
014D5
1F38C
00518
1F6FB
004A8
0032E
1F214
00483
1E0F8
1EF81
012D3
00555
00D82
1FF72
012F1
1F1B1
1FB84
00279
1F305
1FC59
1F7FE
0074A
1FCF2
0099D
00C2B
003CD
1EE4A
00BA6
00FE6
01044
1F764
008DA
00BFB
1F759
008F7
