6D6E
7D63
0A96
7803
093B
19BD
03CA
702F
1393
115E
7254
68CA
7142
05F1
6988
6A7A
0653
7D67
7CB0
7559
766E
11E4
6E34
74CB
0DE8
66C7
0599
7A9B
7C98
70F9
74E0
7578
160C
7724
0F1C
0DDA
135A
6F96
0CDC
6AE7
142A
1819
08ED
7766
7329
64C6
66C1
6489
64DB
00D0
6C41
76C5
0339
6EDB
0E8B
129F
0574
0585
78D2
7CCF
05E4
65EC
10EF
7377
0972
7A42
02A0
6824
137F
126D
1540
728D
7837
126A
0F82
71A5
663A
024C
7A44
01D5
64D8
16D4
6829
13E3
72E3
7150
76EC
782D
7D7B
7342
784A
0078
1694
0103
1600
7BB2
6B85
7CEA
7F03
78A1
0A61
0DC2
10F8
11FA
732E
6AC1
015E
1706
6EC4
63EF
6EC8
7D58
0505
7105
7052
0192
6DD8
733D
7870
121E
78C0
168D
1439
07F0
6FF4
111A
0971
0E15
0F19
0095
0619
7A95
1444
72A4
717C
7AA6
73FF
03D0
7D74
0099
010D
76FF
6DCB
17C4
6E1D
7595
07EF
676F
122C
7990
779B
14CD
0D9E
799B
1072
169E
0A75
6D97
1705
7730
06B8
7C1A
7666
7C35
13F4
0559
7179
1368
090E
1446
0B38
1857
6458
69D8
0868
0665
7850
7CDB
7A97
1823
6EC4
12C4
6C02
67C0
663B
08DF
6730
1688
0470
0526
7758
02C6
0C6A
0A99
0F76
6E7F
78C3
0CFD
69A1
12DA
7C85
7778
6D19
0509
1054
6BB5
05B2
6FB0
64C4
029D
76D9
0DD5
06F7
7D09
6AE4
07AE
1163
0C74
69A7
0378
7705
6A48
0D3E
7C68
7306
1328
6E4F
6B97
1801
77A2
14B4
6C57
04E0
7E30
734A
0681
79F4
0CBE
6B06
6D5D
04C7
0E4A
0B42
7642
0B07
1709
6BC5
07BB
6705
19B6
7163
7CA6
167D
0565
0572
0A59
0C7C
19BD
7FBF
7552
739D
6AD7
7D83
6FB0
0046
0054
790D
693C
078E
0309
79F3
6C14
0E91
0893
1227
104D
049C
7777
0B07
1322
0D89
12F8
6F76
18F3
0D67
0160
0068
6880

