FBC3
139C
0299
13FB
FF78
1391
ED03
1529
E6CA
148A
0233
EA68
EFCD
0694
F5E1
F6CB
FB63
F864
0B76
05DE
017D
EDDD
FD44
1279
0B40
144E
F0B1
1075
F8E2
0BFF
116D
FAC7
F973
10C5
14BE
0F02
F8A1
0EEA
EB62
F918
F7C2
FC78
06EC
148E
094C
F7BC
E8B6
EA1B
08D8
09B1
EE3E
09FC
F9F8
EBB9
1705
F08F
0AB3
ED4B
1221
09BB
F619
E7EB
EAE1
1587
E5B3
1136
ED5C
ED3B
18F4
163C
049F
F62D
F02D
1386
191F
0ECE
0C85
FE34
0E13
FD18
FBCE
0044
016E
0054
EFB6
FAF7
EE29
112B
EE6C
077E
FBCB
0A76
15D9
0F03
0A6D
0331
05A3
F730
170F
086E
11F3
F905
11EF
FE5D
E7A1
F538
0093
124A
F82A
EF49
12B4
045F
01BE
F951
05AA
F27E
FC4D
E5BF
0210
E771
1620
0E11
0E8E
1162
08FE
FC9F
EEC0
13C1
ED45
0747
E681
F626
F721
FD56
F781
EBA0
FC02
F48B
FC93
056D
FFA0
F61E
F4D8
EC47
0A93
0B50
0C20
FCE5
F339
FC5A
EB88
F6FC
FA1B
1554
1113
1806
EA17
0B2D
00B0
EDDB
0A17
07E6
02F2
E87C
0F42
F857
FC78
0C30
0D01
16C6
00FB
1619
E9C1
1300
02D6
0071
F0C2
FF6B
1263
0B3E
13B6
11BF
0CF4
0268
157E
EDD7
F843
1504
00E4
160C
F150
ECFE
E9CA
12F9
FBDA
FD08
FFC4
EA22
FBCD
09FE
03BA
0236
FC89
00BB
F46A
0422
ECCD
ED1A
08AE
03B4
0789
ED99
EE3C
045A
ED2A
0E16
FFE6
EB03
F824
025A
1368
13BD
0CFC
1182
1812
11E9
EBC8
EB2B
EEE0
10DC
1953
152E
032A
1756
1638
125B
1320
107C
1906
FCFF
F21A
03F1
F834
14A3
01D7
F3C4
FC70
ECDC
F92A
FEFF
EAE7
0898
FD47
01D8
E965
180E
F531
0F8A
FDE2
E6E6
12D3
EBFA
0AA9
E93F
E92A
EC97
F5FD
F1B9
0BBD
F940
F4C2
E6F1
084A
FB79
F166
E67E
0BFC
FDB6
1244
FA5C
0F4C
03EC
151F
0153
FA4D
EDDD
F684
EFB0

