1F825
1F3A0
1E69D
1F750
1EB10
1D721
01365
002AF
010B1
1F01A
0130D
1EFE1
01870
1DD0E
01581
00605
1F236
0040F
082C2
04EAA
1EEDF
1D8DC
00301
00A13
1F4B8
1BA3A
014FA
1EC0D
1E4A0
00E17
1E872
00D57
1B74D
1E688
0066B
01191
1E888
1DF10
0125E
1F1B9
00643
01808
00196
1F609
1FE4B
1D192
007E3
0088B
00E0A
00141
05F6D
1EE71
1EEEF
1E19F
0199C
0080C
011DB
1B655
1FF7E
1EF1A
1C70B
0116A
00565
1C9A1
19CE6
1E7B2
1FFBA
0067B
00554
015F6
009E2
00314
00169
002E8
1F501
004EB
0077A
1FA58
1EDBB
009A8
00493
00EE5
01779
1AD78
00E24
012E3
0118E
1EE78
010BE
0057C
01293
01908
1A7CC
00EDE
01560
1C9B2
041F6
1EAEE
008E7
1F04F
0058C
1FD42
00EDE
1F398
000BD
1EE64
1E94D
003C9
1E624
00269
01251
1D186
00AB5
1F40B
01F92
00785
1FD8C
00CEF
0196E
1ED02
013D9
02378
00382
1FE97
06935
1FD95
052B1
04918
06647
0041A
1EDDC
1E7EA
1F6CA
1FD44
1F856
1F164
00E62
00E0B
1ED4A
1FBBE
1EBDA
00AC1
1F3F6
1D018
01327
1EA86
02163
001E5
1E86A
1ED11
018F4
1F751
01788
037F7
00403
006F0
06FF6
1E18B
07BAA
03EC8
03C5F
006E5
1F2BC
00A39
1F018
01BAB
0056C
1FCDA
1F38A
1FE00
0116C
01A97
002EF
1F027
1F2F4
00494
005C2
00408
1E355
1DDA2
1F374
1EA95
00E84
00826
00A75
0278A
006AC
00D64
04366
1FB49
055CB
006F7
04C6B
00C80
0074A
01C81
00109
021F8
1F957
010BB
1F19C
00221
00EDC
1E708
00613
02527
1E6FE
01AE8
1E635
0122B
19EE6
001E9
00E6F
00AD8
1F7E6
1E632
0087E
008E4
1E9D2
1F2DB
061E8
1FC45
0372F
026C4
0498A
01379
00202
00B0A
01247
003C1
00C34
0175A
00501
01526
1FF94
00943
1F80B
0151F
1E78D
016AC
1E9C6
01D82
1C438
007DF
0173C
00709
1EA56
01775
01291
01A95
1F163
1EE99
04506
1E60C
02FAE
045B6
03B29
0181A
1F4FC
00E30
01419
0166E
1FDB3
01162
1E3C6
1F9D1
01135
1F7D3
1FA7D
1F96B
01277
1FB31
1FDFB
1FD0C
1CC0C
1FEAE
015F2
1FD59
0106E
1FE25
012A4
00FD2
1EC38
1FACA
0461F
1FA73
056DA
02D4E

