15C2
047B
3D96
0E9E
05D5
2F30
3E01
3636
3060
2F8A
16E7
359A
3EFF
0BAC
3FAF
119E
2BBA
263F
3A93
3EEA
2C87
262D
3C34
1918
3AD1
15A6
1767
1A19
36C4
2FD2
0802
1745
0611
0775
116B
2BDB
346C
15F8
372C
3E8B
0618
2AA2
335B
3897
0517
2D50
3E7B
142B
34F1
2793
3B34
13A4
0391
1110
0BCC
2C75
266D
1495
368E
0506
327C
0CFD
3D9C
3C64
35FA
3AB7
2BAF
2C6F
12D3
2DED
056D
06CA
2C49
25E3
0E9F
17BE
1831
2782
1607
005D
38F4
3FD3
03F6
2EBC
27E3
2768
095F
1373
07CA
3282
13C6
16B0
2D62
0EBE
08A6
07B7
3518
10B1
30F1
03AC
0422
38F0
3D79
0B56
2F30
0292
0D6C
1356
3742
14A5
12E1
3C86
0872
00FE
07DB
0FA6
0BB4
36B2
31F5
0F23
2706
0E14
05BB
0815
31C5
2789
0C1D
264E
1808
0033
3AEA
0327
0706
3546
17D9
3A69
0366
3B1B
11B7
2B07
2665
02DE
114B
0EC0
1522
388F
2F51
13B4
3236
28DE
3AD0
2C76
39BE
0D83
3413
3987
0C5A
29B0
199B
3873
371F
3897
3A99
36B9
0156
3616
270F
340D
0FF3
3153
3D14
3EBA
18ED
2DDD
26CE
07E4
3010
3ECA
102C
2E30
2B0A
36EE
3ECA
0428
0F5B
3938
1918
054A
028E
06B9
16C4
3CD9
1419
390A
0311
00B3
38CE
3836
14F5
287B
34F0
0BAF
2E2F
1033
2D7E
2CAE
1589
388C
19E9
3C48
0CCE
2A21
29EA
30DE
0EB0
3D7C
03D6
2B47
0A2D
3DEA
2866
1048
2B49
0E4B
3C86
3B4C
3802
338E
179A
2763
0549
3F91
092A
01BE
19B8
019E
29F5
10AD
36C1
092B
2E78
091B
2DE4
3F4C
05DF
2844
05C4
026C
3652
1875
3B87
01D1
03FC
34ED
198A
265F
0B24
18AB
15B0
3839
3B69
331D
06F9
0757
3A85
0641
32DA
3895
0E1A
332D
155E
26B3
2784
0688
2CE5
0A63
194F
36A7
387B
1284
141F
14B7
05F3
026A
0926
0B4E
0583
1544

