0608
07B5
E55C
E640
0D93
0E3E
FD62
108D
03E7
F748
F656
0EEB
ECE0
D476
00B6
03B3
FA4E
08D7
EE54
F169
0EE1
F433
2134
E487
F9D8
FD57
115D
FDDF
0596
12F9
E857
0D1B
F66E
F5B3
02D0
154C
00FB
F973
FACB
0512
E9AA
F45B
F0EB
1566
1C92
0862
0529
1E3F
E69A
EE37
F8F3
F408
EFE7
F698
12EF
0C50
18E0
1A27
3B9B
1412
F1BE
0CE0
F33A
0996
EC07
E7BA
EEBE
E908
F559
07E7
085C
0DD2
076B
0AD4
0B38
11D5
F39C
15DC
F4C9
05DE
033C
EFDB
196C
F0D7
E9D9
04E6
EAE8
13CF
D97A
F799
0085
EEAB
ED9A
FD55
FEEA
05AD
069E
EC23
3513
E6F7
0162
FC6D
1DA7
EF55
060B
049D
FE7A
06B8
0A02
02D9
1776
0BA0
E565
E9D3
F060
EDB5
0650
EB03
2489
2C25
2198
1587
1984
034B
F1AF
0AB6
FBF0
FB36
FAC4
1212
0FF4
EFA6
F615
00CB
F936
104C
EFC7
15F4
F35D
141A
3B77
27A2
E41F
E57A
F3CA
E8BE
0F66
0302
1CC9
099D
0FE5
0D23
BDDC
EEE0
1402
0911
0122
128F
00E1
04CD
07B3
F0E9
F1C9
17B0
FBA7
00D3
FEB1
FF45
04C4
0592
EE03
EC2E
FE4F
1C8C
0C23
1612
1091
FEA6
FFDA
F24E
F691
FC05
DD0F
DB1D
EA37
06C7
B92C
0187
EFC5
E61E
F11A
1682
17F7
1901
1ABF
E903
E6CC
17AF
ED50
FBE6
F08E
FA82
FDA9
146A
2EDB
0A22
155D
FBAD
0026
0C38
EBA7
E630
EFBF
0705
0A35
0D69
EFEE
EECD
140C
0470
EE6E
E873
FF63
FA99
F67B
025D
F0CB
1703
F056
12C1
F8AD
E680
0E14
E955
F985
FF49
11CA
1D2A
0A0F
F381
1714
F535
F1C6
066F
F5D7
ED4F
F681
C292
DF3A
FEB3
BEFB
FDB7
F836
FB95
0AB8
0FE0
1BD3
EFE3
C715
19F2
EC5B
EC46
F73F
F699
00D6
F609
F072
E85A
D951
F2E2
177E
1C58
FA1C
0F2E
021C
FE15
F73B
10D6
F70A
DD41
1B55
F253
DE88
E6F7
FC37
F0EA
EE00
F7A5

