0236
122A
2619
276A
0A97
29F7
1912
0B39
15A7
29A6
0433
10CF
16BA
067A
08D9
10A8
0A62
17AC
2E14
08B9
29EC
03CC
0C15
183E
26B7
3E3B
3C87
0235
3427
0C52
2D8D
35DB
11F9
369F
0AA9
370F
1017
004C
0467
38B5
180D
0107
0110
0299
1016
2821
3C77
343A
0285
1A08
138D
0690
32F9
26F8
159D
2DE9
0AD9
2F45
3EB1
3E47
190B
2629
31E7
0152
14B6
077D
05A5
36AB
104D
0DC0
0B6D
3B70
1989
314C
3631
3178
2CE9
2A9E
132F
302B
2C80
2BD2
0F5A
0F3D
1014
0BEF
08E8
3DDE
3F5B
10A4
0AA7
3009
3FE0
2868
0A33
0DFF
160B
3A47
2983
19A5
3B52
12CA
07BE
3AC7
00C6
2CEA
3FAE
08B0
3CDE
13CB
3624
3156
03C3
2690
05EB
06D2
294D
2BD0
3170
3781
05BD
2C12
048E
0F5F
3433
0600
11BF
02A3
1870
0C0B
1168
2966
0B8B
072F
3A51
1879
3E3A
3E44
11AF
34D0
3CF5
0B22
0728
0445
0944
2770
04E9
0F94
1560
03F9
1007
09AB
38E7
3E13
2AD5
03FE
373F
0986
10AE
3837
3EFA
0A03
3633
2DC8
0428
02BD
0013
3B3C
3990
2AF1
34A2
3351
36B9
350B
31C3
3DB2
150A
2A78
29AF
0344
10F9
16F1
1A12
024E
1785
071C
29FA
0490
19B9
37CC
0B64
2D5B
314C
00DA
1598
3349
0C0D
0E74
3F54
05FF
2A83
117E
2786
28F9
3A9B
1755
02CE
390A
354B
07FB
3817
1227
037A
295D
2A1D
3772
0B95
276C
2654
167B
31DC
2694
3473
2691
2C64
38E3
1483
2785
05BC
2F7F
384E
2FA4
3190
3048
1435
3719
279C
3CAD
335E
3E3D
2E43
0BE9
2804
17CC
040F
1317
044A
2C31
10D7
13D0
3558
3A18
068E
27B4
0708
317E
30E2
29CA
2EA6
0566
3FF4
002F
0D11
3A66
2637
38FC
2DFC
0181
12E2
2D6A
0F35
3E22
37F2
0516
07DB
18B4
0331
0E4C
38E3
1297
0703
28E7
3BB6
0FB3
06F9
1617
27E7
25F6

