3368
268A
25C4
2953
3B2A
159A
0A99
07E4
0EBE
15A0
3C77
18A9
2D0A
139F
0652
1311
0286
1219
0BAA
059E
2DC5
3368
3561
0DC1
2412
1675
0190
2E9A
3AB7
346B
2976
2ECF
0F4E
016D
0903
2E10
3796
0192
3FAC
3A12
3494
0300
0F9D
3BB5
3285
3445
2EC4
2B49
24A0
2678
01D0
18A8
37CC
18AA
1303
38F6
1094
34B8
1409
3749
032A
0B9A
11E9
13B9
2967
29F6
2E9E
07BC
1236
0C1E
1679
2673
1412
1797
0506
1A12
0045
252C
290D
169A
3F0E
2733
0749
3C4C
0D8B
0702
2E86
3381
0624
0F43
0DB2
0086
0AE3
27C3
0812
17A2
39FD
1782
29DC
0D56
2AD2
0962
08BA
30DC
06D4
0813
38CE
10FE
357A
064D
2EF8
0A61
3497
14D0
0751
09DF
3E1D
138A
3961
16A2
35A0
3D5E
2D74
1373
08A1
2688
18E5
175B
256C
3386
0448
145C
15B4
370C
3C00
313A
2B81
043B
0CA8
118C
3267
2FE9
37EC
0C8C
3816
34D2
2994
3887
16A2
06BE
075A
28F3
01B6
0E80
31E7
3FCF
2AC0
0656
3421
02E5
32C3
3FEB
15DB
1478
0E0B
09D1
3A3D
04C8
12FC
05A0
090D
3755
138C
0255
2C46
2461
092C
3E6E
0FF7
101C
0A84
080F
05C4
04C1
2654
3712
34FC
2E4D
0755
302B
35C1
0953
3D13
0A76
2B04
2F1A
021F
2867
2417
3D46
0976
3C7C
2FD6
04B1
0791
3A20
314D
1590
2D7D
2C55
031B
36E5
0911
2B4C
31AD
103F
3165
0F93
3B52
1425
166E
0544
2E8A
118F
01C3
0C78
2E42
1428
3A01
2FD1
301B
0203
0F22
31C9
06DE
0409
066B
0BB1
07B4
3C6A
2D05
3B20
0158
0BAB
10AE
1423
2E89
0AAB
2831
0E2E
0950
27ED
3BD7
295B
3FF3
0707
3F80
3C6A
13AC
0BB7
0EF5
3C80
3C29
0F06
14C7
0258
2737
3DE2
05B7
2B78
1147
3F87
04D4
1404
0D9C
3937
1752
29F1
1487
0525
2F59
0C62
15DA
2A81
0614
03D3
0778
1132

