0762
2EB2
115C
13CC
11C8
0FC0
049C
2C1F
31E9
2BE3
340F
337C
3479
18CB
10E2
30B7
27B2
2ECF
2661
2725
3C14
151A
01A8
068C
3633
0459
2F31
3142
2D29
2689
0349
353C
3D9E
2AEF
0EA7
14B7
0D52
027E
3E60
13B7
303F
2B23
2E02
2C5B
389B
0D1D
1732
3F3C
0F9F
07DB
3A36
1763
30A0
263A
165E
2D93
0F8F
36E4
3A7A
0203
3EB7
09D6
126F
01EA
15AB
028E
33CD
0398
2969
288C
1819
0C49
16A7
30A3
3254
2FAC
16C8
0993
25FC
0D8E
06A0
3B84
1793
3451
25C4
0EA6
11AA
316D
0DF8
2E50
0C51
394E
3A82
2614
0325
36F6
2B72
34BD
3212
0735
3314
17BC
2B5E
139E
03C0
13C0
05E7
1020
2836
13FC
3CEC
0A01
055C
39FD
2CB6
0E63
3803
0EF9
2D21
2975
26C2
3ED5
267C
2BD8
0337
3351
0AFB
3C94
3AC3
0AFF
0E25
3CE3
0D13
10C1
287D
1832
1840
0978
17C2
0251
3007
3617
1060
0BF1
3EBB
328F
280F
1441
0D25
2817
1469
29A6
32D2
2DB1
0679
0F9A
1499
1348
06C1
0DA9
3284
341D
2850
069B
349D
0E95
3A4F
10D4
39C0
28FA
0D09
061D
38F3
129D
03D2
3084
3836
0293
3BF2
0E17
0B4D
252E
3EFC
2685
2E30
104E
0873
34D6
3400
3EFF
3AD5
025D
0FD0
02E3
11F7
25BB
2E69
2D2B
00B9
0F78
3F61
2636
30F0
2AC7
388A
36CE
2AF8
3264
293D
3C3B
2756
3F3F
14DB
3B6C
0B3E
366B
3CB1
052B
2A24
1935
0981
3788
30D7
08F1
3EBD
176A
2906
0E30
3354
3A95
2CEB
2972
32F2
0916
1419
3A93
1346
3C00
12C8
186F
042D
326B
107D
09BB
26E6
2D02
178D
3225
2E05
00EB
090C
0A24
3C61
30C7
11CC
0F78
26C8
1103
0CC9
2598
0417
2776
0A22
147E
0109
06EE
0D5B
149E
30EE
2781
3954
3EA5
3E46
28A5
0EDF
3193
159B
01BB
3BAC
280A
00E1
0679
366D
35AB
26BF
3429
3AC1
1653

