1781
28A1
0EBC
37F6
2E38
2814
0677
3D41
3744
315E
15D8
28B5
0B6B
2D94
0C6A
2965
2F5E
30F5
2E9E
06B4
168A
3049
077D
1802
27F7
2AC4
0B28
2A7C
034C
0977
3C87
11E2
379C
0F45
04E7
3F3B
32DB
3167
0D42
3D3E
12FD
1581
0BA1
28AB
3A98
2704
1807
3F10
1483
3FCF
124A
2A52
14B9
2BC3
3A04
0D90
0639
2DFE
0AE7
0DC9
0065
2D9B
0B85
28C7
0B1C
2865
2938
3684
043E
07AE
3B0F
3023
2C6A
0C01
3410
0D58
3B0C
10C1
29EE
34C9
0459
3575
3E71
27A4
3993
187C
3A3C
3060
09E4
022B
2608
136A
0E46
014B
0FE8
3D4F
045F
266E
0789
33E9
0AC8
346A
14FA
142D
383F
0DC1
3272
3D86
0EB5
1566
3023
07D5
2D77
1558
0E8F
08EC
3567
177F
3ECD
15D6
294D
2A7E
3499
0E90
16DA
1053
0881
1682
0342
2CB2
154F
3C27
12B2
06A5
12FD
2AEB
2CD3
3CC5
0B8F
3106
37F6
12DC
09D6
0A28
064E
3EB6
2A34
01FA
2FBD
11C8
2AF5
3944
32EC
3F1D
3B16
36A6
2BA9
3937
3B32
255B
33EF
3C18
31F6
02E6
3D09
147D
3D5B
268B
1366
337A
2A5A
0BAF
3466
17A0
2E81
2D47
01AA
2E5A
3A16
12E9
3706
3308
17E8
0E2A
0749
3926
0DCF
0979
1217
0B13
276B
26CF
12D5
0B26
1224
1342
0790
3568
083F
17FF
0A8D
3214
0274
0EDE
12EA
0EE9
29CE
2C40
3623
3055
270D
16EB
03C3
03D1
198B
26D3
2D2E
07AE
2859
321A
100B
0DF8
3302
3DD4
2A28
2C69
28C1
38F2
2D8C
315B
3AE0
3665
38F5
27FC
2E8F
0A01
02A1
2D17
3986
13F1
093C
0AE8
25A3
2C57
364A
27F5
130D
1843
0032
014C
2EF2
0403
2626
0542
2CA7
058A
3C7C
1580
33CA
28EC
2990
3B6C
29B6
3B97
130D
2656
34B8
0CE8
383C
3B61
0E77
0D87
16A4
07AE
132A
11D7
01C7
172D
3A83
27D9
39F8
3C61
3878
0B5E
1368
3DAF
01C9
02F0

