1CE5D
003D6
00E3A
009B2
1EAE3
1D36B
1F2A5
1FA77
1FCAA
1E949
008FC
01814
1F048
1F238
001E9
00AF8
1E69D
1EBF3
07AAC
0408C
004A7
012CE
1EADD
013A7
00A57
1CE6D
01475
1FFE2
1E590
00533
1D6DD
02CF1
1B0EB
00910
1FC99
1F47A
1F6D0
1E2C9
001C7
1FDFF
1EAA4
00A8D
1F27A
1E58C
1EFCC
1DB06
1F863
011F3
00B17
1E377
07503
009ED
01449
00D5E
1F1A1
1F10A
1F8AF
1D051
1EB21
1EDA4
1A9A7
1F041
1E2A8
1DB21
1F187
00517
1EB1D
1FD6C
1E7CC
0168F
00A83
1E959
019FA
015BA
014FE
017D2
1F870
1FF6E
1FA28
008DC
1FDEB
00C3C
1DA36
1BF4C
016CC
019DB
01164
00643
1E66E
031C5
1FB8A
1F7A6
1B65F
001F7
015E8
1CCD4
03709
0182B
016C2
1F118
0183A
1E014
1F017
1E71C
00BC8
1E604
00A19
005C3
1FE02
1EFC7
1F9BD
1E0F1
014A8
1E354
09623
05AB2
1DD8B
0096D
1ECB3
01479
019B2
1C706
00CA1
00683
06053
1F8DD
005F4
05345
04241
1EB88
1F778
1E3EE
1FBAD
00914
1F652
1E6A0
002AA
01585
00A32
1F64C
1F7B2
1ED05
1E657
1EEFC
1F992
1F44A
06AC3
1FBA7
00284
1E9A3
00C6A
00784
1FDAF
03813
1EDAF
1E68B
03744
1F9BD
06BA5
004BA
014ED
1F785
1FE6F
01BA4
01610
01239
1FAC4
1F4BE
1FFA4
1FA3F
1F55A
1FA67
015D4
00869
007C6
011F5
1E606
1F3A2
1A31C
1971A
01415
00553
1E721
1E655
1FBB5
02E79
01563
1EE04
01F75
016C1
04A80
1E20F
04312
01A7C
1FA3F
1F141
1F237
1FB44
1FB46
019D7
1F605
1EE18
1E65F
018A1
1EB0C
1FBE8
013AC
1E3AD
00E4D
0163D
053B4
02386
008C8
015BA
019F6
1EB7A
00FA8
01ABE
1E7DF
0106B
05C3E
001AE
0253E
03106
054DF
000A4
1FE90
1EC1D
1E752
01078
1FC91
00972
1F2A7
017AA
1F528
004A6
00953
00426
01460
00189
1E69A
1ED49
01D72
00984
00270
1F7BA
01A16
1FFC3
015D5
01C36
01171
1F775
042D2
0089D
062F6
01990
00B2D
0115C
1F00A
0148B
01380
032B7
1EE13
1F82E
1FB7A
1E94A
1ED11
00A52
01471
1FB85
00D0B
01727
1F3E1
01887
1881E
1D24E
1EC21
02391
1F2B4
1FF7E
1E6DC
04E86
0037D
00893
0507C
02777
07043
0029B

