F5C3
0719
3344
F5DF
0BB0
16B3
15C9
F057
0B44
03DF
E84F
FA88
1A15
1779
062D
0B14
FE62
FDA1
E84C
FD7B
0009
1489
3610
0BF5
0DFF
0F65
305A
1424
F827
E774
0D8F
17E9
EF6C
118C
24AE
1089
026D
EB31
17E2
E81E
F77D
17E9
E66F
EEB2
0BD9
FE54
0BB8
199B
F67D
1EC6
0A9C
093A
E6B7
F45E
1C57
281C
288B
0C27
275D
FB2B
EEE7
FEE7
1295
1822
09B5
EC99
1764
0988
F045
F552
0A8F
10C0
F66E
EC8A
07AA
0F49
F9FE
E58D
ECE3
F500
EAB4
0340
F0A3
079B
EAAA
06FF
04B1
0977
4786
F36D
0850
176B
E88F
F53A
0489
081B
02F4
066E
1B46
0186
F37F
0960
19AA
F1FC
F37F
0DFB
EEBA
ED95
33A2
2256
EBD0
0A28
078E
0E56
0BEC
0F4E
1309
0AB2
FF3C
05CE
2060
F722
0F54
1AAB
F62A
0A69
0FC2
F11C
FD0B
FD18
197A
EB47
FB45
EA0C
2766
1478
FCC8
0202
0B4B
080F
3139
28E7
FED6
F7FD
0ADC
E3CB
F4C0
EE9A
F2D7
1391
0957
14D4
0B88
F9F2
F179
0B4C
121F
10A2
FFE6
F710
1700
F72B
48F1
0C8F
146A
E6D3
19AD
0A79
FE11
0101
00DB
EEC3
328F
352B
008B
F3A2
FE82
FA43
EC39
F944
F81E
1237
1AAB
337C
0631
023C
2083
EF0C
FEE4
E8E1
E79F
EDDF
173F
E7E1
EF20
F4B0
1140
EDA9
F10A
F24C
E8BE
0B78
E5F2
EA83
F1F8
00D6
11D4
0CC1
EFB7
052A
FE9D
06A6
0AE9
F451
0E3F
120A
E990
0A51
09C7
0E47
E83C
E7AE
F4F8
198F
ED60
F020
0990
ECE1
02C7
0A24
101E
0047
02C8
F9CE
092C
1715
EFE5
13AC
F192
EDD4
0156
EFC5
01B5
0460
0149
0C63
054D
054F
15D1
0DB5
1400
EBF7
FFDF
F219
072C
0137
18C6
FF16
FD07
1383
E8C7
F145
0ECF
07B2
EC19
1258
08F1
FA6C
0E66
0796
0CAE
FDFB
FB8F
09A2
F9FE
0868
FA6B
FF79
EF01
074E
F8AB
F579
0623
0F02
18E9
FE72
0574
E8EF

