1186
0B32
EE3A
155D
1773
14B0
0BF2
18C1
F761
F341
068C
09B4
F8CA
0A99
E887
FE02
03F6
010A
02AC
F04C
E905
05FC
0ADC
EC05
17DA
14F8
FBBD
E5FD
158C
F322
0A77
EDD8
00BB
E708
173E
ED3F
ED15
02A7
E765
FD53
0208
F573
F9AA
182D
0917
0D52
14D0
E259
FB57
E53E
F0C5
E777
F466
FB2B
F861
0943
071F
10C2
138A
022B
0F37
F597
1878
FB77
F4D3
0472
F6D7
1793
1459
F740
0C36
EE66
F54D
F169
F41C
F92D
FB37
0CB3
EDBA
12CC
0DE6
0E03
FDFC
0937
FF20
15A9
F145
031D
EF78
135E
F6AB
1602
F613
0C3B
10E4
0B65
EB7F
EBA5
EFF0
066F
ED3B
1139
1450
F766
E8A9
03AD
FCA1
F46E
FA9C
17FD
1428
0F62
001C
F1CE
F7C8
F66A
EC15
E595
FA53
116A
EEC0
0643
0604
00E7
14C5
16EB
F2A8
FDB3
EA42
EC2A
F44D
F43C
18CF
12F7
FB28
034E
1157
0DA7
EF1A
030F
1145
0A3A
10D6
0470
0F2B
FB7D
F35B
03D8
0AFF
14CB
F3C8
F5B8
FB7C
F9B6
F3AA
0AF6
12B5
124C
F2C8
FE0F
E516
0837
FFDF
F645
0BAE
1739
F41C
0CA7
1170
FDC6
FD93
E62B
19D7
14E6
0B39
0131
EDEF
0707
E674
F8D7
113B
0F8F
0494
1316
0713
F0AF
EF3F
027F
0036
0F55
17E7
F5FA
F75B
0B24
12AE
FDFD
FF90
EF3C
06D7
0075
F997
0459
F0EA
F21E
FCEC
FCD1
F30D
0B16
08B6
E6A1
0103
01E8
F7C8
F6DB
17A9
EB54
FB7C
EFAA
FB64
0970
054F
067B
06A4
071F
FA5B
FA69
08B8
E8FD
EA28
187E
EE43
004E
E7E2
E87F
1361
07B8
0B7D
1702
ED11
12B7
013A
057F
FA54
040C
E55C
11F6
FCC6
07DC
E926
E9CA
F708
FEC2
FD2C
F737
EA52
F0FC
148A
E6EE
1395
F813
FB71
ECEE
0F3D
F6AC
0886
FBF3
064B
069F
E8CA
EB49
195F
F311
150A
E946
1523
0C34
F280
0E9E
FB5A
15FF
FF25
0DE6
01E2
FF8B
EE45
FECD
1301
EC90

