FEC8
F928
105F
0A7F
F8C6
0393
06BC
17C1
1493
FD58
ED8C
F006
F40F
03AA
FDD9
E9AF
F104
0FEF
E762
07D6
F1FE
0981
17E0
149C
0FED
0D5C
EA74
E8E2
131C
F998
EE82
F5E8
F848
1142
1054
0E95
ED5E
024F
0167
F5DA
F73C
EB00
049E
1127
01EA
F9AC
EDAD
E8D6
FCD3
EE03
FC56
F0F0
F3DE
00F7
12F6
F15E
0318
F793
045C
FEF8
F691
FBB6
1455
FD73
15E6
0DD5
0723
FCB9
FA79
EB43
FCAB
17E1
04A9
FCA1
1462
FF8A
1369
EEE9
15C8
FF8A
F632
14AA
0234
F340
01E5
E7AF
F705
FE37
F919
0143
0FE5
17C6
0BC4
072A
0A9C
F0D5
EDBB
0FA4
07BF
E923
FF21
02AF
1330
06AE
F4C3
0938
EADA
14EC
0097
FB2A
E5E3
F661
EA69
EF17
F808
E97C
17E4
0152
EC24
0E47
1331
FDD3
FB61
199D
F2C0
16DA
0C7A
EEE6
EE4F
0AD5
FD26
0DEC
FA6B
FCEA
F280
FF0D
114E
01BA
EA2A
061D
E8F2
1434
1601
07C2
0BE3
F3B9
108B
FA9E
17F2
0B43
173E
1003
FBA4
074B
F24C
19B8
FE91
0227
E931
FB62
0BF6
0E43
1755
1918
0BDE
08EE
FF2E
09C8
FE1F
E9D4
FE26
EFC2
E7AC
08B5
F397
FED5
FD28
1044
12D3
F633
FB40
E6F1
0222
F1C5
FC43
F0B8
091E
0404
1274
12A0
1771
F4B0
F1B1
F8A7
F6B8
08B5
EA64
F626
F963
12B0
05C3
0BCD
FBCC
EFAE
08ED
F5D9
EBA3
FC1B
FCE9
1384
162F
0C18
F74A
F16A
FDFF
0408
02C8
0F92
0790
F5F4
0A6A
F284
FE9D
F736
E716
FA9F
E951
EC12
0970
0DBE
EAA1
1264
153E
0899
17C0
F74E
E852
F2E6
16C3
05B4
F5D5
FB39
0A4F
F0E7
146C
EFD0
FF02
F807
0C4A
F80D
E759
034F
119A
10A6
FD93
029D
0739
F583
EE1E
1597
188D
F6BA
0726
F3D3
1587
11D5
E7FF
F33A
15C8
E8E1
FDAC
064D
F035
1865
0F01
1985
F869
0B87
F269
F1DE
FD04
F37F
EE89
0420
ECAB
0B55
02D6
E6EA

