15CC
0772
3D75
37DC
0BD5
3912
28EE
1197
0AD9
0E9E
1135
1687
02DA
02C8
3B7D
294C
38DD
05D6
34D0
095D
26FF
3ED2
3EF5
39C9
1848
3354
2BE4
36E0
29F3
25DB
0537
1568
0E66
0C12
07D2
0F40
3033
2BEF
3895
295C
2703
3746
02E7
3F17
022D
3942
2E9B
0A3F
18AF
2EEB
0CE2
129C
0BBC
0F2A
2A21
0F3C
0766
0436
339D
1658
2B6C
26CE
1523
2A79
052A
092F
1802
3DB1
3D9A
041B
37B8
33EC
1317
2BB8
354F
003A
18D4
28D3
10A8
3E74
36EB
0EE9
1876
194D
2691
26A9
0372
387B
275D
3B16
06F9
3E04
0A0E
125B
3984
39B5
02C2
3960
0752
3F40
0619
3C16
06A4
2B62
3C54
2C2D
1160
0632
2AA5
3FFF
1805
0137
2C94
155B
2765
0908
2A65
096E
2B0D
15F2
166D
08FF
3753
37DA
2D71
3C46
1117
1730
08CE
02F2
12A9
001C
2682
0308
3AC6
2CBA
3ADA
359D
2EBA
18B3
064B
18EA
3BC9
3B94
1366
0456
381D
2C2A
01D9
01B4
16F5
37D0
19CB
0400
1130
1398
0973
0B16
0736
2F2B
38F2
3CC4
1675
2F5F
0706
1561
055B
03B9
04B3
362D
3081
0632
3C4D
3DA2
0142
14D0
3B82
39FA
14A8
3213
2B12
3084
065F
06E5
051F
281E
03A8
2ADE
1082
1709
03D0
3EC6
391A
163E
32B7
3CCA
160A
2AE0
1212
1517
2D4C
36C4
1771
0B7E
06D6
07A8
06D8
31A0
05A8
0252
3E23
2D70
03AD
2F4C
3653
15DE
2DBD
0D9E
04C6
33C9
08FE
36C9
2F05
035A
07D4
0C55
05D9
003B
3987
0FCF
17F3
042D
063F
067D
042B
35AE
1454
3C8C
050E
1122
136C
0256
1775
2A8A
37FF
38AD
31D0
2D3D
1931
09FD
04D8
3696
3A11
1427
3693
0464
2A9F
3DA0
3A65
0AB4
1744
2B2D
3560
3D83
2829
0DCB
0F51
15A3
3B90
3A72
3D56
38B7
18B2
1710
06D4
3FBD
2795
357A
0A59
17EC
2C11
36FA
0179
38BE
2FFC
10E2
2D6A
2EC1

