1781
E8A1
0EBC
F7F6
EE38
E814
0677
FD41
F744
F15E
15D8
E8B5
0B6B
ED94
0C6A
E965
EF5E
F0F5
EE9E
06B4
168A
F049
077D
1802
E7F7
EAC4
0B28
EA7C
034C
0977
FC87
11E2
F79C
0F45
04E7
FF3B
F2DB
F167
0D42
FD3E
12FD
1581
0BA1
E8AB
FA98
E704
1807
FF10
1483
FFCF
124A
EA52
14B9
EBC3
FA04
0D90
0639
EDFE
0AE7
0DC9
0065
ED9B
0B85
E8C7
0B1C
E865
E938
F684
043E
07AE
FB0F
F023
EC6A
0C01
F410
0D58
FB0C
10C1
E9EE
F4C9
0459
F575
FE71
E7A4
F993
187C
FA3C
F060
09E4
022B
E608
136A
0E46
014B
0FE8
FD4F
045F
E66E
0789
F3E9
0AC8
F46A
14FA
142D
F83F
0DC1
F272
FD86
0EB5
1566
F023
07D5
ED77
1558
0E8F
08EC
F567
177F
FECD
15D6
E94D
EA7E
F499
0E90
16DA
1053
0881
1682
0342
ECB2
154F
FC27
12B2
06A5
12FD
EAEB
ECD3
FCC5
0B8F
F106
F7F6
12DC
09D6
0A28
064E
FEB6
EA34
01FA
EFBD
11C8
EAF5
F944
F2EC
FF1D
FB16
F6A6
EBA9
F937
FB32
E55B
F3EF
FC18
F1F6
02E6
FD09
147D
FD5B
E68B
1366
F37A
EA5A
0BAF
F466
17A0
EE81
ED47
01AA
EE5A
FA16
12E9
F706
F308
17E8
0E2A
0749
F926
0DCF
0979
1217
0B13
E76B
E6CF
12D5
0B26
1224
1342
0790
F568
083F
17FF
0A8D
F214
0274
0EDE
12EA
0EE9
E9CE
EC40
F623
F055
E70D
16EB
03C3
03D1
198B
E6D3
ED2E
07AE
E859
F21A
100B
0DF8
F302
FDD4
EA28
EC69
E8C1
F8F2
ED8C
F15B
FAE0
F665
F8F5
E7FC
EE8F
0A01
02A1
ED17
F986
13F1
093C
0AE8
E5A3
EC57
F64A
E7F5
130D
1843
0032
014C
EEF2
0403
E626
0542
ECA7
058A
FC7C
1580
F3CA
E8EC
E990
FB6C
E9B6
FB97
130D
E656
F4B8
0CE8
F83C
FB61
0E77
0D87
16A4
07AE
132A
11D7
01C7
172D
FA83
E7D9
F9F8
FC61
F878
0B5E
1368
FDAF
01C9
02F0

