EA9A
F6A8
02D6
01CB
056C
0E5F
0E0D
ED69
144E
1661
1693
EAC2
0A57
1A8E
F8B2
F045
0889
0592
11BF
124B
061A
0A40
F157
E220
1C65
F605
0F96
0FE0
0370
0ACC
FC44
F54C
FB08
0B9C
E2E3
ECEE
ECC5
117C
1C03
10D9
EECD
F08A
FA1D
EFAC
F577
0E78
0DE2
F596
0DCF
17F2
1B56
0958
FD6D
0CDA
1127
0DC5
3E41
0409
E72F
0FA0
F5F4
1465
15B6
EA05
157D
F195
DAD1
F403
1105
F9A7
04A6
10DF
161A
0CC2
EE51
0BFD
F5E7
FA2F
F796
0FF2
F704
1538
1825
0ED5
1517
02F6
0247
2604
504D
1506
2C67
1203
ED32
1521
EDEB
F46F
FB07
F740
2552
1853
14D3
16A5
18B7
0751
F47D
0422
03C5
008D
1ED9
15F1
1052
02B6
0C13
F0B4
FAEF
0FEF
FB42
F117
13A4
E8CC
2B99
0315
16FD
F08B
F2B5
1024
0C2A
F830
FE1C
EC97
1FF5
0DAF
FF2C
1214
1EE5
1612
086C
FBCB
1464
112A
1153
0A51
F98B
09C2
F956
DDF9
FDF8
10C9
E82C
FFE5
07A9
2DB2
4FCD
07F6
4DA3
EDE4
E62B
F76B
F4B1
F76F
D8F5
E70B
41EE
EE36
E780
0D01
FC87
F95C
ED72
F335
12C8
FBAA
2E53
0D05
002F
106E
05AB
DDED
EAED
EAC5
0864
FB82
0BA6
1F49
3EFD
152A
4C01
FBAA
118D
F218
FE4A
F7D7
0200
090E
0493
0F1C
F72F
0466
1ED5
0605
EF66
F33C
FE1B
EEB9
D4A6
0735
0C6D
F071
00FF
0630
0B49
18DB
EE1F
E957
38B1
0A6D
6E47
F1F1
24B8
E9EF
0FA5
E897
09FF
056F
F08E
13D8
0630
03BA
02E6
E767
FC0A
FC72
F349
0067
EFDB
ECD6
1972
07EF
0D77
FACA
01CE
FF3D
1A4D
0DCA
F4FC
E790
EDE9
415A
4481
1214
3F6E
F3DC
EEB3
EFC2
0902
1333
0EAD
1301
1423
F2F1
F8D3
1372
F9AB
ED9F
F803
EAD1
04AB
08A9
2534
11DA
FBCD
019B
F2FA
0D24
F850
034D
FC71
F4E0
F693
003F
00E0
1760
EE9D
16E5
FB66
EFF1
FA36
07C3

