F33C
EAF9
097A
FB27
EF81
10B1
EC31
FC7E
06CF
0703
0833
07B7
0483
F1C9
1001
11E8
13B6
194F
CBB6
D640
03DB
F079
EF80
EB56
F8A4
EAB5
01CB
F5BB
C4E3
1473
030E
0E43
E097
1227
E9C8
EA68
F7A1
1219
08B3
00E8
F54E
0D6D
F734
14C0
005C
11F1
056D
1472
0F75
FDCB
BE26
006F
1A65
0FD2
02C2
14A2
F6D9
EDF0
F752
EC1E
C3F8
0433
DAAE
F26C
FDA3
0AA0
0680
07A5
14EC
FB83
FC66
E867
0793
0C6A
0201
07FE
04A0
11D1
FC47
F78D
14A7
058E
DD43
FEAA
1618
1274
16C3
1594
06F8
F230
F19B
0876
C3CF
033E
F85B
F415
F7F0
0921
00F2
EC8D
FAB0
FBBB
EA33
15A8
00D8
F9D3
0453
FD62
10C6
F232
15FE
F58F
0311
FFDA
C42B
D0E6
F42B
F0EA
F2CE
F7AD
F4C1
FE46
07FE
EFD0
D643
F246
E798
D438
ED6B
F782
1963
0700
F8F8
0520
EE54
0D9C
F868
E84F
0F47
08F4
0B8C
EAD6
F254
EF18
EDD6
15E5
C06B
F97F
1C91
19BC
067B
F83C
04E3
FF64
EC79
0E0C
C53B
E95B
CC04
E109
0747
ED5B
EEE5
EAB6
F86E
11A6
E734
147F
1337
0AB3
0977
014D
FA0E
F63C
F621
F022
0487
F45F
F78B
1F54
0AE1
1612
FCD1
F489
097F
F894
0D0E
F7BE
C4D9
FF5D
C565
F6F0
D562
F45E
F7DE
E70A
0B37
ED04
F9DC
F766
FE82
04F9
1455
F7E6
E8C8
E843
189A
E7A5
1958
E29F
5560
F889
0CD5
1179
E937
10EE
F3DC
E9D4
F10F
E98A
D295
1703
F02C
FE96
B437
FF0F
0A38
114D
0530
F307
0910
0978
13D8
EFF5
FFE3
E64C
E8D0
0916
FBBF
18DA
F078
0F6C
496B
1270
12A8
E546
ECF3
1582
1785
F6A1
1273
1611
A0CD
FD44
A7F5
E221
C233
181F
179C
FE65
0F80
F0B8
0487
095E
0A7D
0698
EBC0
EBF8
11C5
E4EC
EE3C
19A8
15AF
04CE
6C1E
1A79
F3E5
090B
FEFF
0E29
1777
DEE7
FC37
F284
A0E6
F631
A870
DF76

