016CC
1F306
1DD01
1F3D8
00B5A
1EC6D
1EE86
007DB
1EAA6
1E95C
0089E
0100F
1F5C6
1DAD0
01775
01066
00B5D
00B0B
1FFA1
00246
1EB70
00642
1FA56
1FF69
06127
01357
01515
1F291
1EE5E
1F5B2
1E868
1E8EA
0276C
1FC6B
1EC03
1F909
1E922
00A1D
1F844
1F550
01828
0001F
005CE
1EEE1
1E392
1CFF9
1F854
0025A
012E3
01464
1F9D8
1FBC9
00638
1F1E2
1FDB3
013FA
05566
1ED24
04BDE
012F4
1E9A3
1F5B3
1FC1A
00A32
00C01
1EBE9
02915
1FB9F
00CD7
1EE5D
1F2FC
1FC13
0070E
1EE5A
1F1AC
1F4F2
00957
1CECF
1E80A
00806
00F3D
1F2BE
012DB
01706
1F93A
00B49
00570
02D43
061EA
014C7
05505
00360
00B52
1FBB3
1F9A2
1F14D
1F7EB
019AA
063D4
0113E
1E6F5
1E951
04469
00011
01072
012D6
015CC
1F4B4
0465E
03190
1F583
1E146
00CC6
1DC31
00528
1FCFF
00873
1EB8A
02F7F
0453C
04E08
1F825
02C5E
01211
0012C
00CD1
1FBCB
1F77C
1F6EC
00095
03BEE
01A9C
00DF5
002C3
03AB5
00735
1FA77
001B6
013B5
1EBC6
03C64
0328B
018E0
1E9CB
1E87E
1CD16
1F5A3
01556
1FF1A
1EF63
0440D
04143
1EE66
1FF48
04783
1F64C
1EE8B
1F554
0072F
1F528
1E383
00BE4
04361
00E8A
1EB1E
1F388
014A5
1FD88
00D87
1F4DE
1F09A
00520
02F46
0275C
1F06C
1D828
1E6B7
1F91E
1FBB0
1F205
1F1CA
1EB0D
02D74
03C8F
1F129
1EEA7
02CAF
1F098
1EBBA
0189B
01647
00990
006FB
0059A
1DB65
0055B
1FC6D
1FE57
1EC62
1F893
1F3E4
01893
002E9
1F714
1FFFB
036AF
0025D
1E023
0080A
1E982
00B85
017B5
1E899
1FE80
1DCB1
1EDFF
1EF87
00F1A
1CC6E
00D9F
00E5E
1F1B3
1F5CA
0068D
1DAD3
1E7E4
1D725
1ED56
00FA0
009F4
1E577
1FBEF
1FC5C
00E37
1ED1F
1F306
00F1A
01F5D
1F9B7
1FD46
00939
1FC28
0006F
00CB6
00C61
1F8C3
1E307
1E547
1F1EA
1F4C1
1E4B6
0100C
1F29D
016DD
0180D
009FC
004F9
1F0D9
1C565
01772
00FE6
1E932
1DAEC
1F7FA
0140A
1FAE9
1F0F4
01223
1FA9C
00CED
1E84B
1DA39
1F3B3
009A2
1F0C5
1EB3C
1F7DF
1EF8B
1E786
1D49E
00671
00991
1EB66
017F2
1FF23
00805
1FA70
0036C

