268E
12B9
25E6
2AB0
0264
368E
0428
0F4A
26F7
1486
3E93
306B
2D3E
0716
0927
2788
2CD9
14BC
1908
16F8
1546
018F
03E5
3DC9
01BE
27C9
2AEB
1387
0BA8
120B
3FAD
03D6
3311
16D7
2EFC
11FD
00E4
10A7
3133
026D
08C2
363F
19F4
08AF
035B
0AFE
3858
0A52
2FBF
13C4
3C10
2F53
09E3
2E4D
0158
04C1
3655
0A17
2D64
07A1
0F39
34C4
3B53
312E
0EB8
0216
379F
2A3C
3B80
1256
0AD2
0234
3D3E
37E0
0B85
3B54
0DF4
0B42
2BFD
2611
31F5
27C0
2F65
3ADF
0677
29D7
3D7E
1425
2B80
398F
0B53
0255
0133
1743
2A1E
134B
3411
2C9A
0221
177C
3DCB
0593
3987
381D
14F2
07DA
119F
0DD9
0948
24E9
39EC
1144
3EA5
3617
12D0
381F
03A9
3D4C
28B8
2DF6
10C1
1A1C
2788
13FB
0F91
3339
3987
3458
0F8B
2D77
1674
05E0
190F
2772
004A
28F7
11F3
3F53
1643
0686
1066
12BD
07BA
0D70
1107
2DCF
285B
2ECB
3E71
3ED2
12C0
07BD
3621
1308
0EA0
16C5
08C8
3669
2CC3
2EFE
1052
102E
34D9
062C
0FEB
39FB
0679
01F8
0522
3A31
3A16
294D
3F4F
3153
0B71
2B50
064E
0726
350D
2914
128C
07D3
1527
0236
3A5A
002C
1334
3D78
127E
342A
0611
361E
02FD
3EFC
25A5
1279
3C1B
3E86
3ADA
39F8
346B
10F7
175E
3F9C
2F22
0B99
0A86
2516
352D
2FF9
3793
3967
05CD
3860
2B4F
3713
01EA
0372
3657
2DC0
0667
3F20
26D8
1236
1133
283E
3FC1
2EF2
2FB4
074B
3830
2A98
31A2
2572
0D8C
0463
2DD6
3D26
0BF2
1330
35DA
3CF8
0A0E
099A
2BBE
3C9C
3B35
3CFB
26ED
04A3
3D7F
2DB5
36B4
0E93
0D3D
13AD
35E3
1640
3267
2917
2EF0
3A72
252B
299E
3118
2A37
3895
39AF
0B80
03B8
35F0
335E
0B68
32FA
3134
3464
3F32
3945
08BA
3177
056A
0B0A
0099
0F02
0613
0195
3BBF
3400

