2D6E
3D63
0A96
3803
093B
19BD
03CA
302F
1393
115E
3254
28CA
3142
05F1
2988
2A7A
0653
3D67
3CB0
3559
366E
11E4
2E34
34CB
0DE8
26C7
0599
3A9B
3C98
30F9
34E0
3578
160C
3724
0F1C
0DDA
135A
2F96
0CDC
2AE7
142A
1819
08ED
3766
3329
24C6
26C1
2489
24DB
00D0
2C41
36C5
0339
2EDB
0E8B
129F
0574
0585
38D2
3CCF
05E4
25EC
10EF
3377
0972
3A42
02A0
2824
137F
126D
1540
328D
3837
126A
0F82
31A5
263A
024C
3A44
01D5
24D8
16D4
2829
13E3
32E3
3150
36EC
382D
3D7B
3342
384A
0078
1694
0103
1600
3BB2
2B85
3CEA
3F03
38A1
0A61
0DC2
10F8
11FA
332E
2AC1
015E
1706
2EC4
23EF
2EC8
3D58
0505
3105
3052
0192
2DD8
333D
3870
121E
38C0
168D
1439
07F0
2FF4
111A
0971
0E15
0F19
0095
0619
3A95
1444
32A4
317C
3AA6
33FF
03D0
3D74
0099
010D
36FF
2DCB
17C4
2E1D
3595
07EF
276F
122C
3990
379B
14CD
0D9E
399B
1072
169E
0A75
2D97
1705
3730
06B8
3C1A
3666
3C35
13F4
0559
3179
1368
090E
1446
0B38
1857
2458
29D8
0868
0665
3850
3CDB
3A97
1823
2EC4
12C4
2C02
27C0
263B
08DF
2730
1688
0470
0526
3758
02C6
0C6A
0A99
0F76
2E7F
38C3
0CFD
29A1
12DA
3C85
3778
2D19
0509
1054
2BB5
05B2
2FB0
24C4
029D
36D9
0DD5
06F7
3D09
2AE4
07AE
1163
0C74
29A7
0378
3705
2A48
0D3E
3C68
3306
1328
2E4F
2B97
1801
37A2
14B4
2C57
04E0
3E30
334A
0681
39F4
0CBE
2B06
2D5D
04C7
0E4A
0B42
3642
0B07
1709
2BC5
07BB
2705
19B6
3163
3CA6
167D
0565
0572
0A59
0C7C
19BD
3FBF
3552
339D
2AD7
3D83
2FB0
0046
0054
390D
293C
078E
0309
39F3
2C14
0E91
0893
1227
104D
049C
3777
0B07
1322
0D89
12F8
2F76
18F3
0D67
0160
0068
2880

