0948
E886
04D2
F4C8
E830
FC6F
0E5D
F98E
E862
186E
0328
09A5
D501
DB92
123D
17DD
F6AB
0BD1
EB3B
EA99
EB95
1B1B
0B60
1260
4C5D
F447
29F8
E8A6
0B96
1144
F054
ED4F
0ABD
06A3
F18D
F3C5
114C
1388
E782
05D3
1423
075C
106A
0846
0CF6
0257
F03F
09BB
04A4
1F54
1079
17B9
F426
EE28
D28F
2E73
194A
12AA
2FDE
F9E9
0271
F96E
14DB
F6FD
2290
0186
EFF0
0D52
1570
0820
C39F
16CE
138A
FB62
11EF
EBA1
E4F4
F4A0
02B9
03BA
0122
1B30
F27E
0767
0EAA
F03B
D6D8
D349
FDBB
FEE2
FC0B
F1D4
F4E5
F18A
173E
FE15
E2A9
F6BA
27F8
F2F0
F634
FDC4
3440
F28A
15CC
F7B6
0204
EFF9
3F30
2BDC
F4AD
F12B
F915
E733
FAC9
0F32
F7CC
1AC0
2B48
6434
246F
F2F5
4785
EF56
096F
0C62
047B
155C
0838
FDFB
437E
FF04
F07B
11EE
0C6C
1920
17BC
11D8
0CF9
000A
348C
2895
02B8
1146
F265
F64F
F554
06D2
E728
1171
E9E5
47BF
1ACD
EDA6
240E
0742
EFF6
044A
EDC9
03B3
05F9
F6DF
120B
1062
EF21
0A3C
FDF7
13FB
FE28
F010
16E0
14C8
FAEC
1229
EE77
F4E1
F9B2
10A5
15A5
F1E8
0006
F7CB
279C
D283
19B7
F376
EB1C
F795
16E0
0CB0
0C9D
09FE
EA1A
0769
3CD9
078C
FC15
0C36
0A4A
01BE
1A81
E854
0A9B
0B18
34FE
0103
0A88
0AD4
DFF8
EDEE
F29E
E9BA
FA74
00B5
FD8A
6DF9
18AE
1210
4386
E986
ECFD
082E
F8B7
1A17
1464
19E2
FF28
0510
EB74
E9C6
0422
FB08
E928
E574
FE95
F472
362B
253A
FFE5
0E75
F38C
FB72
F449
0C79
EF14
1829
0C88
251F
0B54
0F38
1E26
00A6
ECBF
104A
EE97
FBBE
FB0A
019D
0244
09B2
FDF7
1BE5
D846
11BC
F0E6
0B9D
FAA0
E7C8
FDB8
1034
E6C6
E02B
EB1E
EE93
F7F5
F75D
F85C
04F7
F070
C5BE
DAA8
1A2C
D24C
157B
FB64
F8BF
FAEF
0CFB

