04C5
1806
2986
F3B8
ED36
ED58
1072
0053
E740
F0B5
147D
F91D
F071
F90C
EC9D
0633
ECA6
052E
F526
F5E3
EAC3
FF17
1213
0AAE
0395
1871
0816
EBAF
F8D5
F621
1188
10F6
0D95
0D39
2D8B
EAEF
FA29
F4F9
22A0
0759
F989
F370
0851
161E
25C0
04E3
01CF
EE6F
FF03
F6C9
F104
1704
1114
148A
0023
1C72
FF34
EE3B
068D
0057
0D8F
076A
F421
0657
038A
18EA
0885
F08C
0DCE
FCAB
16B4
F2F7
EB67
E550
ED6C
FECC
2903
15D8
E904
EC70
04A1
071E
E69B
0DC9
E540
0215
FB39
FB11
051D
06D9
0FF2
0464
0017
0CD3
FBAA
F434
E504
E890
F9B5
ED4C
F0A6
00FC
060C
16A2
01C0
E961
072D
F27E
2213
0675
FB6C
0E49
EEAD
F171
19B0
0EE2
0E76
1268
1100
0BF0
C705
F706
EDB1
1807
0FBA
1134
EA3B
FC93
F860
FDE9
1FFF
ECBA
0FB8
071E
FBF9
03B1
F714
0D81
1962
1729
2668
0258
173A
EC99
03AB
F715
F85D
ED2F
F199
0B5A
14B6
196D
B9CB
FCE7
E5CB
FEE0
E6F6
FB5D
0923
FC21
17BD
E769
EFBC
1856
E710
179F
F8DF
F394
EF3F
FEC8
F7DE
F746
2656
24BC
139B
1006
1418
18BB
0AE4
F0CB
FD25
13AF
F488
F928
F17B
1890
CE5A
FACC
1701
EDD7
18CB
EAD1
F95C
F30D
ED98
E7EE
17E1
EECD
E959
EA6C
EEC9
F388
F25A
1648
018E
E9F3
02AA
0166
19C3
FE68
08CE
0BB5
09BC
12D9
D655
1194
134E
F754
F76E
14C4
E687
168A
1858
F32A
F70F
EB03
CD4C
060C
1629
15CC
DD77
EB36
1228
1148
F200
F43B
E2F5
FC8B
F7B7
FF2B
1ADE
F515
F57D
EBC2
0399
EA0B
E875
D093
E8EC
EA91
D69B
FDE7
149C
F8CB
078E
10DD
1376
0DB2
E12C
F62E
0BCD
1786
EB7A
0617
02DF
EA1D
017A
16A4
D8D6
E1DA
0833
EC46
1AC4
097F
04F4
FE48
0D62
0521
ED96
DA6D
1036
EC07
E838
01A1
F7A6
1607
F802
146F

