0779
01E1
0C20
E4AE
E781
077B
E60C
0572
F66C
E5F5
EBC6
08EA
ED93
0BB3
E6DE
00F8
F0B1
F529
1738
140A
0844
0181
0899
E820
0BC3
0929
F29B
164B
0654
FA05
FE4F
FBFB
F4C9
036D
ED98
E532
00E0
F849
17E3
0992
F5F9
1459
E9CF
00B1
EAAF
00D0
ED4F
E6CC
F5E2
0ADF
F3E8
EACE
02D6
F21D
E7E1
E8DE
060E
F2D2
1789
0224
1195
FA97
F087
EE9F
EF05
E62F
196B
0EAB
ED80
FEA4
0500
1041
E620
1261
0EFC
EA14
0870
E89B
0B30
0F87
146D
E3E0
1189
E4AF
0D8D
12DD
1190
169C
E760
F0A3
F8C9
0D6F
0CED
ECC0
0E96
F3DE
FB8B
F9C2
1247
E8C3
10F6
EDE8
F8FB
F8BB
0D63
EC51
1990
01E5
F8AB
F316
EB31
12D9
EDC0
FC49
15CC
03EF
02A5
E48C
042F
0909
174D
F321
13AA
02B8
E5F1
F46E
FFF8
FA6E
0F98
FC98
F1A7
0213
0076
0B40
EA65
F64B
097E
0406
ECCC
0E03
EDBD
1749
EA84
FC0A
112F
F1C0
0238
0016
FD2D
E671
E827
0474
FBB7
0432
023D
0556
03CD
111D
F175
0467
EBCA
0278
FCEF
F884
07A0
063E
0B0B
0A22
FF37
F170
F5BA
EE8F
F6B5
1797
0091
053F
F3D6
FFDC
F07E
F9BA
123A
099B
0EC2
F7C4
19B4
E983
F637
E77C
1093
E387
F069
1207
0D8B
0CA0
F533
F688
ECCA
0C37
EE72
1777
FD89
ED88
F8E4
E99B
0F32
EB32
17D3
ECC0
FD00
F431
EDE4
F05B
F3E5
074A
F358
F75C
12CF
075B
02D0
12A2
089E
F13E
F945
0886
13B9
EE7B
1015
E8A7
F90B
F90C
F3DC
067F
0500
0EFE
F0E1
FAF3
FF59
E48B
EDB8
F2B6
033E
0150
0D3A
FC25
F677
0F46
F7D4
EFBC
EB1E
11F2
19D6
F633
E8F7
01B5
0DB4
0E65
EEC0
0B47
0209
F28D
024E
F941
06D6
083C
04FE
06DE
1618
FE48
EDF5
0435
051B
E503
EA12
11A1
F84F
F31D
0E79
09B2
14A6
0050
F46B
10D9
16D5
07A7
F023
FC91
F082
15E5

