393A
0050
0A68
303A
0779
180E
2B00
0978
0A49
32F6
0BBC
3CAB
3ADC
2E58
031D
399F
23C3
3C5C
0568
03C6
15E6
0F34
0284
05DD
3E44
3160
1416
2E99
13E9
0EF9
1051
017B
0571
2DDC
3F8B
1263
006F
2FE4
0BB2
327F
30C4
0853
1843
1367
2FC1
3E01
355C
0435
2378
02C7
34CA
0F7F
38DD
101D
36C6
12EB
2959
36DF
3602
0D03
32E4
3F8E
3FF1
30D5
2620
140B
24BB
07D1
3A4A
34C9
2D0D
0DC7
183B
25E9
3042
10DF
1195
149D
2CA7
065B
032D
096D
057A
37E1
3854
02BA
3714
2DAC
0CEB
122F
34D2
32E0
3B78
092F
26BE
3FA0
2DC3
3CA3
26F6
3616
135C
31C5
3285
2A97
0D09
180B
3855
0F7E
05F7
3EA9
3012
2C4C
02F6
301E
3E60
0D8C
166E
31AE
0A84
146A
2E2F
2643
2E49
3034
02DA
05BA
0815
0873
1102
37DC
3D30
3C4E
163F
1858
3C03
2884
2950
325C
0015
07FA
0DB7
1016
2B12
0F09
252E
3DB1
0C2F
3965
3103
07A5
29A6
235A
2812
31EE
0563
3671
000D
25EF
3F01
32D2
10EE
1831
3BCE
3963
2CF8
0A10
238B
16F7
0AC8
1528
331B
063F
2411
35A6
0813
12BD
0B9A
3596
3C19
3752
18EC
26F7
2628
3AD1
297A
38E7
331B
19C6
16C8
0C4B
0AAE
3765
0836
0926
27EE
39CF
2839
34AA
1390
0B7C
0329
2CA3
0236
3990
25EE
2B1E
30C5
3EE0
3297
2B68
194F
08DC
34E3
28E1
02C7
0069
3CD4
07EF
2698
0748
3FD1
139B
0CB7
07AF
3BC2
39B5
2ED3
3A95
3C52
2B7E
32FC
137F
2AC5
0489
34EF
11F5
23C4
103D
121A
2A1B
3858
3B9C
296C
394A
2E81
11B2
375D
08B7
25C7
021D
1318
30F0
0D54
0959
3453
054F
3E89
3DE8
1417
1833
2C49
0651
369A
1856
193F
16E6
081C
1978
3FA3
058D
3312
3B89
366C
2517
010B
2970
3C2A
3D91
0751
3EAA
0183
32FC
3143
32AB
280F
3C9E
117D
0E05

