09CE
0A28
01C9
2EF9
0A26
2CD9
39A4
0808
3160
112B
0F26
26B3
3EFF
3867
2E63
2B6B
38B0
19C6
1044
036F
0D04
1392
2B6D
04C7
0826
10C6
35B6
36EC
0FC9
1757
02A3
34E7
0D34
31A1
120F
031B
0F2E
0B1C
3E13
0F62
10CC
1164
1172
3A1C
07D0
27C2
285B
324C
32D5
35D3
096B
15C2
0782
0AF1
0230
2EF0
2639
2E4C
10FE
3BFD
30DD
03F0
3970
2D3B
36BE
052F
2C80
38F2
05F9
017D
00B4
39AE
0780
3C71
0112
090B
16D4
3073
37F1
3460
266F
2F76
13DD
1314
32E1
0444
05BA
2A64
3490
155C
2E12
0BE3
094E
2983
3DC2
2FDE
3FE7
2AAE
1136
0920
285A
06CF
2C2D
315A
2B61
1690
2805
2CF4
33F3
3411
3282
01A1
3634
2F27
1392
01CF
0756
373A
2C03
3386
0FD8
0016
1A1D
00E7
04D1
04F0
0C09
1262
09E5
093D
062D
0149
192D
0787
0177
2858
2DEC
0EE3
0FA7
3D89
26B7
3A62
31E2
3E5C
3186
0205
09C6
38E1
3386
2A00
2955
1862
3D55
2F24
016C
3B9E
069E
0D42
1409
0653
0943
181A
33B9
2DFA
30C1
3260
04EB
0235
3023
3D6E
0C08
0D5D
3710
0702
3A84
347C
38F4
17DF
2788
3B96
281D
28CA
2F49
0BEE
35B0
1A17
135C
07F0
31DD
0F48
3835
0148
3E15
01A9
2E22
0D55
1489
027B
077C
1107
39C5
3A07
34D2
2AA4
32A1
26FB
3DC8
3143
140F
356F
2B7F
18EA
0056
3719
3464
2F2F
2BD6
3B6D
11C2
0A70
0D11
111B
26A4
3B2A
043B
1702
3A7E
03E6
02B1
0230
3D4E
09E5
327B
3CB6
1056
3BF6
185D
1115
1243
0509
18B2
2D0E
172E
005C
1365
3F1C
39FB
2ED4
3B2B
0C47
2E95
363D
0CAD
3010
2C7B
05DE
370D
082A
078E
2DD8
3465
3417
03D8
18C7
0CEC
36AD
1867
186A
1488
2F4E
3FDF
0AF1
03CE
3074
03C1
25FE
0421
0852
1301
08AD
3B90
14F4
03C7
0D77
3C9D
11A1
07A6
079B

