4BA8
EA09
FE2B
EEAB
170C
179D
E9DA
EE71
081D
ED3B
EFAD
F3F0
ED1A
0FD0
04C0
ED66
EF65
FD12
06A6
E316
0001
E539
E7AE
133E
046D
1D26
09FD
0B0B
66B8
D39D
5776
27E0
5A7F
ECA8
0746
E9D5
F065
FC95
0C3A
FCD1
140F
F50E
F552
100D
19CC
1A55
0685
FF3B
F4EB
E595
0BF4
E549
DCA2
0A80
E60F
06E2
ED3F
13E6
1472
1402
6917
DC02
47AF
4E77
3BF5
0407
F5C4
0A80
0A13
19CB
0C2E
F5A5
F10E
F75B
178E
09AD
EB12
0BF7
13F7
D85A
0DEA
E27B
3C07
191A
E734
0D22
1589
01B1
0C88
3101
FD73
1783
50E9
FB04
57CD
1FC2
4817
1D4E
12B1
EC52
F11C
1DAD
010B
FCF0
E7F0
FB0E
FEE6
14F6
EBD7
FC78
067A
F92C
E9A1
085C
9F0E
E504
FF65
08A6
0A7F
0A0B
0C71
3FEF
1749
E660
524E
15E9
32A6
31FD
354B
1466
17C2
ECDB
F3F6
F295
E97B
1682
FD73
F704
10F5
03A5
EF17
00D3
044F
082C
E741
11DE
A9F3
0354
0241
1390
E94C
18CB
13F1
2A78
E7F4
F747
32AD
093D
3426
3721
2902
EAF5
01CC
F159
FC45
0EAD
07AD
0906
0411
F6ED
E6B7
0D03
E88C
19EF
14B6
E882
00B4
0A20
0972
1E69
F2DA
FC31
1231
F45E
052C
1140
14DF
FC16
4CC0
EA59
4711
1E72
FE9C
1652
0F30
1584
EEFA
F9E1
F88F
F522
05D8
0BFE
1171
EA19
E8C5
1032
F997
169D
E8EB
1FA5
A6DD
D759
105D
FDFC
037B
FBD3
0A4C
145D
07DD
FEAB
17C4
1DE7
3BF1
E464
F1D3
FE7E
0CBD
0979
0268
10DA
FD46
F6F1
F806
0119
F0CF
F52B
E847
12B0
141A
1DCA
F4A2
F60F
BBF5
EC52
1AE4
1330
F80E
0FA5
0B15
0A25
0DA6
F8FB
FC68
FE23
ED75
F691
0802
0583
152F
ECF6
0136
EB92
F71E
0C3E
F492
F20C
EEB8
F3CA
187C
100D
0136
FE53
0CA9
030F
EADC
1869
09CD
045F
F7CE
08EC
FDF1
ECCD
EC76
FC2E
4297
F9C6
D98B
370C

