0F3E
0EA6
7599
1C00
6C4F
6C91
050D
0E3F
1A56
10B6
012E
7C9D
06D8
7C56
0048
78ED
191C
7407
5E6D
739A
1624
6D48
004A
6860
78A6
751B
0B53
6CDB
6596
6BA0
7274
78CD
776C
7279
1560
197E
6F7C
680E
17DE
7034
0E36
1748
6CFE
0CA1
6F98
7176
6A54
025A
7A1E
006F
5F8C
0EA5
1C55
6DC3
7814
0D4C
09A1
0497
0D95
74E0
6FD6
1660
76AB
7625
061B
042F
0D74
1400
0677
76A1
775D
09C1
7076
6C5B
0C4A
10C3
1851
7F3E
06FA
059B
172B
6EDC
2AE4
784E
0A94
076F
01D4
7B0A
72BF
7840
6801
0832
6618
128D
5F57
1293
61B1
1050
7043
1B80
797E
12A6
0174
153B
0E54
6F1F
0248
6A20
0EA8
1CD7
0446
08E3
0C05
1B87
735D
7EC8
76A4
713D
0575
6743
6A83
0FE8
72AD
1065
5C1D
7FB7
664F
76CB
1A6B
0EA5
7FFA
12BA
0B7B
031A
7418
0826
6CB2
6EC4
002D
7B4E
025A
7504
7DB8
0EF5
715B
760C
115F
2276
104B
1A1B
7946
7E44
0A2B
6A0F
6C8F
0513
735B
6A9A
10C3
11B5
735A
7AB7
6CB9
7C35
166F
67DD
0AA9
6A4A
09B9
178A
0CC3
125B
6E5F
0F96
108F
7E6B
7BB8
1AD7
38EC
1093
1A43
6A4B
6735
7A23
15BF
7D96
6B7B
0F59
0710
6DB3
571D
1367
77F4
6F36
6652
1E11
12E5
10F0
1480
122D
1AB6
0CA3
08FE
6C45
682D
13DD
7E4A
0F24
79FD
0B6A
64D0
62DD
1A26
1F68
07B9
0A31
16BB
1859
00B8
156D
4904
104D
7A9A
063E
5981
78A8
099F
0733
6550
114E
13A2
0DAC
76A6
0235
6D40
0F26
723B
69B0
0CC3
0202
7C0A
7C66
3C6E
2E19
051E
794B
098B
0395
7EC8
6D1A
04BF
0CA5
6307
1220
5750
7ACD
0FBE
0D98
0E32
09A9
6581
7F79
0454
174D
16C9
6DF1
6A97
0548
03F5
0A27
1661
664E
7573
0689
32FB
2479
01BD
7350
0ED9
00A3
07D2
598D
14B6
7509
672F
0ED0
5A9E
7E02

