3F11
35AE
1077
2A2B
01B5
3B6E
01BD
34AA
2BB9
1231
0449
108C
0A3C
27DF
3CA7
0761
0453
2A53
0CD8
0B4B
3F5A
2E19
119A
3276
0BA9
2691
3A5A
3A63
363D
2BAC
0A57
010A
20D7
3705
3848
0164
26C9
2E0F
2DBA
3430
31E9
0201
05D1
3D04
303C
2685
2D5C
37C7
0924
3F85
336F
0981
1002
38DA
3236
0E70
369A
39BE
3BC6
27AE
02F2
0121
0C89
00EC
3BBE
273C
06A4
0BDA
2F3C
2D16
3341
36A3
3109
0C78
34C3
17F0
3631
304F
2C21
03B9
3E22
2F91
0E25
16F9
0E0A
2D88
075A
3D65
073C
01DF
2F1E
365B
338C
3BC2
331D
3F07
0D4A
09BB
391B
0529
3070
1656
3D4D
32E7
1224
03A7
1694
3B6F
3D2B
0D49
3217
2198
366B
3949
0863
3C43
064B
323C
2D77
0B46
2935
3A67
0A06
0640
0BC3
2E94
0663
1560
0FF2
13F8
05C1
18C4
2F18
3352
172A
320B
171F
3516
05A9
0A73
0733
2F71
0E6F
2CB8
0A3A
279C
3D91
0FD4
3EC5
0242
0E62
1774
34D9
3433
0482
1786
2CAA
11C6
3D1D
0B16
03AC
3740
314A
3387
2DBB
0B43
2E24
2D67
3C93
37AB
02DA
2699
2C93
2EB3
2907
3CAF
10F3
3C3A
0317
199F
3159
2798
3E2D
253A
33D0
0825
22AB
3146
0093
37FE
3CCF
164C
380D
3C2E
3CF9
0C10
3F94
3EAD
0423
12CD
0C7F
06C6
1144
1040
1B25
058F
109C
3EDC
0275
05F1
2775
2E5F
2DF1
28CD
3A6A
0C86
011A
107C
04C5
2A2F
1014
029C
07BF
29D4
067F
32FF
2DDE
3117
2E0D
08E7
3BFC
27DD
09B7
3107
31F8
3EAA
3C5B
038B
3747
350E
2134
357D
3725
2AB2
06C5
2CA4
1C1E
3238
0CA7
39D2
09F1
0AA6
0BD3
2FCF
0DD6
1271
0306
16D9
0D07
3CB5
199E
3CA0
34BB
0524
2854
3103
0D19
0D68
2E97
3501
0632
0626
2AE6
284F
0026
0ED6
305C
3881
1953
2992
3F3E
374F
069F
3EA6
2E06
05F2
1578
1046

