00D72
0186B
1F5CB
00E91
1E613
01F6D
002F9
012D9
01200
1F3D9
1F98E
1EB45
01569
002BB
01338
1FDB0
1F50B
00AD1
002E1
1FABA
0017C
01CF7
1F3AD
1ECB5
1E9CA
02398
1EE51
1E87F
000EB
1FEF9
00C65
1FC7D
1E70A
1FF3A
00E8F
00925
1FD5F
1E9FE
00F40
1F1B6
00959
01016
010AC
0154A
0091A
01869
1F75B
1F9A1
1EA15
1EC05
06447
05731
016E3
1E971
1ED07
0108E
0089B
1DD1C
00CFC
1FCBE
1DCA2
001A3
1CC64
01EB1
1D697
015F2
00634
1F501
00EF9
1D4EA
1FA84
0045A
1F7E1
00DE2
1F8B4
1FFC5
1FF98
1E394
003C0
1FE87
1F7CE
1E4D9
07596
040CE
1F6BB
1E7D3
00DB7
00931
000A5
1BED8
007C8
01431
1B5D1
1F767
1F358
1D92D
02921
00309
1E94B
014A7
00076
00F30
1E8D1
1FB81
00287
1F2FE
00170
1FC82
003B6
01614
1F4FD
01052
0145B
0001A
1F1F0
01C1B
1FB79
00D3D
1F986
1FA68
1FD6C
02E7B
1FEFA
1FCB2
04857
1FAA1
03A2C
03252
03294
1F85D
1FD72
00C59
010B7
1F729
01614
1EF56
1F37B
01587
0066B
1FE56
00259
00FDE
002D8
1F0D1
1FA90
1FBCE
06127
05913
1FB7B
1F3B5
1F919
01723
003AD
1EA56
00A90
019DC
04FF8
1DD2C
02994
049B4
02AEC
1E352
00895
1F681
00601
015F8
1E736
1E754
00157
1E64B
1FD05
1E8BF
0164C
1D9E6
00CBF
1DBEA
1EA93
001DA
06C59
046CA
1E402
1E496
00B43
018CD
1EF40
1FA40
013B1
00277
0673F
1F4FA
03EA6
0544C
02EC1
01B06
00506
1F5C4
006EE
021B1
1F5F9
1F2C1
00C10
00AAA
1F543
1F3B5
1FBEB
00664
1F07C
01676
1E750
02087
1EB1D
1FA70
024BE
01F79
1FE94
1F9CF
0040A
01F60
1E7D1
00AF8
04FFB
1FD96
02458
01908
04F1F
01131
012CE
01D8D
1FA74
00DAB
0078D
00DF9
1F60B
00CAB
1F5B5
00769
00B7B
1FDF9
1F99B
1ED7F
00C9A
005DE
01DEC
01B31
016D0
00F7E
1F9F8
0017E
1FAED
1F07B
012C9
00C0D
05C10
1ED43
00415
04FF5
03E94
1F81E
1F513
1E159
0162F
00EF6
00FEA
0014C
1E7E9
1F9CF
01653
1E81A
01163
0040C
1F4C0
1E25B
0003B
1FF40
02081
02A12
1F84D
1EC81
01743
018F2
0004F
043A5
008BC
00DC6
0810E
1EF0D
062EB
03472

