D079
EFF2
1527
01E8
1105
00AB
EFF7
E7EB
F029
05DA
001F
05BB
F22B
13EC
157F
FF32
E676
148D
B4F2
035F
1435
F1C4
FEA5
1292
0AAA
D4E5
FE49
1147
DA40
1A10
BA3C
F99A
DED6
0E4E
0AE2
03EF
E8BD
FD6B
E7D8
FD80
1309
0375
0AE1
022F
F4DA
ECA3
FC5E
16DA
09B9
1F14
AFB7
FAED
1354
F428
0355
0BB8
EDEC
F257
FC48
0142
C947
ED06
DF77
EE6A
C515
1B28
EA8D
03CC
F64C
E9BB
F804
0D45
F6A9
F91A
11E9
FC22
F893
1836
FED2
1F90
F324
07AD
D8CF
DCA9
1E31
0C15
FB65
0571
E816
F717
FA83
F7FD
DCFC
0C34
CFD1
DE15
EA74
1015
FF5F
100E
FFD8
F0CF
0F2E
F7EB
FC21
1A04
F515
F8C3
16E7
F6CA
F867
11E4
092A
F3AF
CAFA
E531
1427
0FFB
1691
01C6
14C1
0317
0DA1
0CA9
C533
FEEA
C4CE
D29E
E8BA
EF90
ED6F
FD36
1537
0AC8
185F
1071
F100
F788
02E7
1438
F93F
0E81
F224
1B55
FAF8
1860
DE15
F5A8
0C5C
EF6C
F26D
ED35
F2FE
E345
1988
1503
EBB3
EAAA
BDC3
E96B
D7BA
F4FA
E91B
1AFC
E764
02DE
F3D9
F6D1
E95F
0EA6
F8D3
0AE9
E72E
1C8D
05FB
1E90
0BCC
129E
0BDC
1BB3
1BA9
F6CC
14BF
EAF1
F422
F281
0A66
162C
EB27
152B
D890
015E
C261
1910
F136
F4B0
1621
D822
1776
0DE3
05AE
1393
0760
18DE
FF8D
E2AC
0789
0017
E70E
01C4
36B3
E4F1
0C3F
13F2
0A52
E920
0B7A
E9A8
F9FC
114A
B3C4
0DF9
E04E
D7FC
C792
08FE
ED09
F7AE
08CA
EB5A
0569
0C6C
F4FD
0FB2
0818
08C2
0A33
0718
FCA7
F56E
192A
FB60
3C4B
0CD3
FA7D
0154
F8EF
003C
EABE
C8C4
1666
0494
D2B1
0B8C
A8A5
E6BB
E706
12EE
FB11
0C1E
1843
F3EB
F2D6
0DD1
FF33
F57C
048B
F129
08D2
F73E
E684
F67F
F2AF
FF11
7155
2339
F3F9
EA26
1054
EB61
FDFC
F0B1
F7EA
05CC
BE19
0EE1
CF33
DB7E

