379F
375A
3FD1
059B
36BF
3780
38B6
077D
02C9
1997
3B3D
2C93
3ED3
0EFC
2984
32FB
33C7
2B98
0757
3432
0C85
030A
07C3
3DEF
30B5
2814
2D86
36C7
0886
0F77
01EE
3562
1555
2489
3346
2E2A
3BF9
0994
10CB
1329
2A5D
2DAE
021D
34B4
1A1A
134A
068A
10A3
0302
1489
1802
2B27
3A36
12AD
137F
2783
0A5C
0636
10BD
34EA
38DB
3AE2
1190
35A7
0A4F
064E
38E6
35F2
3A52
2B9E
0D4A
31AB
2D67
1071
3100
3B87
3C52
3B84
3912
0261
3BFF
00C7
00B2
0398
0E6A
2379
16B7
05BA
120D
3D5D
070F
2DC2
0BDA
14F1
01D7
2F02
0506
04A6
3E3F
2828
17D5
32C2
0504
1644
0030
35DF
2A50
291D
3F16
37EF
2943
2666
3CC1
02B1
2D8F
0E16
00E5
1491
2780
2998
193A
335F
060B
033B
0836
3E6A
3942
03DD
14CC
105E
05DA
00FF
0018
0593
2DDA
35F8
063E
3239
2629
30FD
06C3
0549
0D24
363F
0CDD
2E50
1121
0CA3
3731
0825
0388
36B6
18CC
1577
3A46
1380
2E45
0C74
3FB1
159C
0C0D
09A9
16F5
3B06
3653
13F2
2F73
0F1B
0343
1960
0F17
0AE6
2C67
0384
058A
2906
0ACD
119F
000E
157E
3E50
39BF
33F5
3886
2AFA
361E
0A61
2754
2869
3E78
12D7
0D3B
3B33
0D37
3EAF
27EF
11E0
31C8
09B2
02B7
0299
07A3
262A
3D9E
1353
3CFA
374B
0ADC
3CC7
29BE
16AB
127E
3119
3455
015A
34D7
1757
2E64
0188
2CAB
0575
3D93
1317
1040
33D3
055A
3CA4
356F
3EF4
297A
27AA
27B6
19CE
0AD0
3D03
0374
15F3
31E0
2C01
07D7
3564
3831
0FC1
15A1
25E1
09C8
3869
3E54
001D
278D
3284
028E
02E2
0F20
33FA
28E8
2F3D
28F8
3AA7
2688
3A06
0730
294C
3701
046A
0B55
3CD4
3F15
0ACE
27C9
0694
1612
29C1
2F96
2A2C
3871
3CD1
317B
3AA1
06A3
1216
0080
08E4
0711
28E2
0CD9
1350
2404

