07B7
24CD
14CC
041B
1507
301C
2878
0F9A
2B96
09C9
34E4
3E75
2F87
3D20
2AF7
2802
3AA5
3DFD
0F66
09FF
152A
3756
0926
2CCF
182E
283D
2F49
371C
3E01
1446
177A
07B0
1100
3282
37C6
2CE7
1038
2F57
050D
08EC
0C20
1604
3E8D
28F9
1190
0CBA
3FED
2507
3305
0C66
3BA6
3668
02AD
3F3B
19A7
0EDF
1008
321C
3775
3EAF
0E1A
30AB
096D
0F95
32CD
145D
3D30
0A77
2EF7
25F1
2CA3
2ED4
342D
32C3
2B25
0334
0909
0C4E
391D
07DA
0010
2D8C
0D97
28B3
37F9
160D
3E31
01D8
2F5C
14AC
13C4
2ECA
39F9
24F6
3D5F
16D5
3EE5
0498
3CE0
3639
0E1B
170D
3BA5
0CF4
3569
3403
1335
0CCB
3698
1748
2DE8
0269
111A
12C9
080C
1606
03B9
2A16
080E
3BB6
3A70
2F52
16D0
067B
3DF0
1158
35D0
3C2E
325A
047D
3683
2C19
1485
39DC
315C
3349
35A6
0F28
2C7A
0B1A
3550
3AF8
3813
32EC
0B50
2B72
0CAA
0086
3C96
32CC
1274
29B5
0458
1462
0336
1051
0012
2464
2A1F
15F8
383E
29E9
0F29
3F42
1093
0DC7
1401
0864
10BF
2A9B
0BBC
394C
3743
0667
0093
3968
265A
307A
2A22
2ABC
3DC2
1287
0E85
1116
39D5
289A
29C4
3AB4
0B29
341E
2889
3C73
0EE5
3CC6
2D4D
3180
3229
2604
0316
39BF
3EBB
30E2
0945
30DE
082F
0193
12A4
359D
10D4
2D46
2D75
3C52
0AB4
35F7
376A
00FE
2834
1166
03F7
3298
02B3
1119
032C
3C71
075C
0BB5
2AD5
16DF
2A3A
0C06
09E0
26D6
057B
0F6D
265D
099F
19F1
0298
18F0
0A81
35AA
3F1E
2AAE
1582
0DB1
296F
1456
030A
3E06
0D70
15BE
0FE5
0642
0646
0470
069B
0235
3278
15AB
3253
10A5
2E15
1650
1496
0F05
2ED8
34D0
37F7
2742
36C9
0D39
2F90
0E33
32D2
15EC
2827
29A0
2E5B
0F89
12D9
3A3D
2C41
2B2B
08C9
327C
2902
251A
3E4E

