BE4E828A
BDC29AAB
3E8431D9
3E5D57C0
3EB16A23
BE6E2CBF
3E485B9A
3E0352E6
BE940130
BE5871CE
3CECE37D
BE843952
BE9C646D
BE521EE3
3CEC62B2
BE906D44
3D93DD60
BC8143B9
BE9ACBC8
3EBDB1E8
BEC5C54E
3E96273F
3CF974E8
BE3ADF6C
3E950789
BD5E7B56
3CBD7FA9
BDA29898
BEA96D8F
3D220E20
BE89F457
BE086AEC
3DAADC0D
3EBEB0CD
BEDF9B3D
3EC0401E
BE7A9B36
BC17D824
3E9CE6C2
3D023C8A
BCA6E830
3D79577F
3E84C429
BDC97964
3DF84990
BD464C58
3E8E9CEA
BE3AAB3F
3DCC63DB
BE9B84C1
3EAB116C
3E7B7B5A
3E8A6356
BEC5D952
BCF686C6
BE8165A8
BE63ADD1
BE39395C
3E30C2CC
3DBEF514
BEA388EE
BE92C46B
BEBA564F
BEB08B3D
3D2EDCA1
3EB73DCE
3E7B16EC
3DFFB23D
BD3B730F
3E91A6BD
3E3A2E0D
BE854C22
BE10846C
3E6E83AE
3E675035
BE0A198C
3DB40F5F
3E836235
3E9D3348
BD8C71A4
BDE48426
BE236AFF
3DD3FC3A
BDB17C0A
BE3A9556
3E0079A0
3EADA328
BE90FDAC
3DCEE478
3E290CD2
BE1BA46C
BDD3EBA0
BE3C65DA
BE1CA1AF
3E8C3A2D
3E5997DE
BE8A16AA
3EDC1C59
3E910101
3EAEE112
BD8A0156
3E310B5F
3E975D1E
3DA1AD76
3E836D8B
3D2D9FD7
3E0555E1
BE1612D0
3DDA9535
BDAE374C
BD74FB36
BE89889D
BE2EC1FA
BE3FCE6F
BD7901AA
BD87DCF1
3CFC40FE
3D888610
BDB2D051
BE5A99C2
BE1F8496
3E5BD4EE
BE83CD95
BE33B3AE
3E7041A3
3E0A05E8
3D2209E7
BEA03C45
BE8F14E2
3C354FE0
BE01E6BF
BE8DB1CE
3E20480E
BDCE5AE4
BE906C2F
3D99D8B4
BB082680
BCA6DF50
3E714ED6
BE3C17E5
3DAF86C8
3E5577E2
3B7E9D00
3E7A77F6
3D5D6C80
3E7ED01F
BDDC65BB
3E608CB4
BEAC21F1
BD9D7CC0
BED03E90
3EB0FD3B
3E59D5FA
BEC5E421
3DC73A58
3E79E622
3DB89B78
3E7507D8
3EB54476
BEB49E22
3D815CFF
BD07C0FB
3DAB20A7
BD82C399
3DD6E216
BDEFCBB1
BE74DE99
3F5F028F
3D7A2750
3D9B87C4
BECDCA2E
BD304800
3EC2A515
3E82E700
BE5150AC
3E000F20
BE2A3FE0
3F0498BE
3CE33E04
BD77EC40
3E3AC3E5
BC884D18
BE22FE4E
3E7044DA
BDBF8C64
3E4924B8
3EE599F9
BE1FF49F
3EA346C1
BE5CBE29
3ECD0AEB
3E5ECD56
3EB1F1C6
BEC918F3
3E5F4675
3AA9B83F
3E3051A4
BE44F19C
3E9B50BD
BEA00CFC
3E0538FA
3C7C32A5
BEABB036
BE673A57
BEF6C32E
3EA3BC79
BDDFDB53
BE8388AB
BE2B1A81
3EB2D87B
BE6E040B
3E37B5A8
BCDAC4A8
3D859AB4
BE5C6CDC
3E9607D1
3D4A0B88
BE5CD420
3EABB035
3DD5D014
3E0E8030
BE98F198
3DBC7658
BC9CD1D0
BEAE986B
3EE86EDF
3DA03B39
3E907021
3DAD5ABF
3DBE8AE5
3E8A1C93
3E875A89
BDA32C40
3E7B7E09
3E85EAF7
BC431A80
BE2AACE7
BE8CCB60
3E034D0B
BE33CEB5
3D5DE214
BDDA06F1
3E9DA27C
3D716F92
3E9C02E3
BECD97A0
3EAA2FB7
3E4DB6ED
3C2C0800
BE7B22F7
BE35C6BF
BB93FEC0
3D4A4220
BE4AEF06
3D0ADAB5
BE0E122B
BCD3F460
BDF0A093
BE8E4AB1
BDC5F689
3DE78001
3C8C0DAF
3E4DA453
3EAF74DB
BE4E5CA2
3E838A0B
BE18F3CB
BD830A14
3E9D682B
3DF5FD14
BCA60F45
BE69D8CF
BEB508CF
3E8FFA05
BE903E5B
3EA55B46
3E8CEEF0
3D83CEF8
3DDB05D2
3E9814D2
3D82BBD8
BEAB4EE1
BEA375C3
BE824034
3E0FCC8A
3DF886D8
BDBA0D38
3B77B580
3E9EC1C7
BE597175
BE8476AD
BE4EAE20
BDA1E968
BD89A670
3DAE17EC
BE46397F
3E12906E
3DCEB978
3E891CBF
BE42C372
3E5A13CE
BE39007D
BE712AC6
BD3CCBB8
3D693ED8
BEA6B75E
3E962A59
BDE34C14
3DE59063
BD704098
3E9BC0C3
BE807E06
BD3795D8
BE315074
BEA6655C
BCE56640
BEAD7B14
3EB2F90F
BDD770EA
BE9836C9
BE119ECA
3D18F43D
3DA2780A
BEA26E29
BE5484A5
BE2B9AFC
BDC8E9B0
3E81F4DD
3EA42569
BEACF857
BC8A6240
3EB0CF5B
3E0B4FD1
3E603B58
BEA142CD
BE7615D2
BE2353AB
3D83B76C
BEA8C5C6
BDF95C20
3E4A4CB0
BE85DBBB
BE955C41
BDDEDD5A
3E8F5B7B
3E42358E
3DA68375
3E5409B2
BE49F6A9
BE62DF85
BE7B2049
BE6E04C8
BE34E538
3DC2C1E0
BDD2AD98
3E9EA1D3
3E837FF3
BE9D9A9B
3E715796
BE31B028
BDD2648C
3EB0CBC3
BD68ABC0
3E213472
BD8B8204
3E816DC9
BD826594
3DE458BC
3E66A396
BDE7C050
BD1708ED
3E35440D
BE544940
3E40D549
3DF32728
BE465E66
BD83C1C0
BE89DF12
BE1C7F9C
3E1808EE
3E4B846E
3D095E60
3DD83F49
3E79CA2A
3E89D361
3E9B4ED8
BEBD363C
BE38630F
BEF563ED
3DF2F00B
BED0D622
3E7D5D38
BC470C40
BD23A76C
3E77821D
3D862064
BDDF6A7C
BEA6CFD3
3EA27758
BC27C820
BE70E807
BF0DAF31
3E872940
3DA57CE0
3EC4675A
BD84F988
BB296089
3ED3B778
BEA22588
BE42CDEC
3C7C4C1F
BE7004D1
3F16ED28
3EB02063
3D709C0B
BEA483E0
3E8EBA57
3D44C69F
BEB8D900
BAAB8EFD
BED839D7
3D53CAFF
BD121D43
3E1273C1
BE800828
3E7BC2F1
3EFC4AC4
3D438068
3EB496EF
3E5C0E56
3E8E7FEC
39DB2800
BE80420A
3EC6AE7A
BDA89F8D
3D2A94A8
3E492E9A
3C49E06D
3DB1396B
BE9C313E
BD780378
BECAB595
3EB79053
BD11F180
3DCF3B5F
3E7C7182
BE2C7B41
3D99B4B8
BDAA0F3C
BE4B392E
BE018363
3E44DB6F
3D970A34
3E8EEAEA
3D0DAC8D
BD8094D3
3B025700
BE7A3B0E
BD0FD09B
BE53433D
BEAD63A5
3E8A825C
BD8DDB7E
3E463E82
BE45638D
3E120286
BEA868B5
BE45B1E3
BE96DA59
BE979578
3B92E400
3EAB80E1
3DFD0EE0
BE994ACA
3E81DECB
3C6F5AC0
3E90A5AD
3EA70971
3D96B7FC
BE9D6A3A
3E0DC954
3E6B9428
3E831223
3E3D8376
3E8F799F
3C83AC25
3E34CBC2
BEDC6B9F
BE30BBA7
3E1B0427
BE7D3982
3D282CA0
3D2E6343
BD19C4A7
3DE96BF8
BE29CAEA
3E3B323A
3E4BC158
3DFFF944
BEAEFC17
BE081E5A
BEAD9892
3D133B8C
BD822BB0
BE6906BB
BDA28984
BD1F7BD6
BEA5E5B5
3B9DE2E4
BCB1D479
3E986F8F
BD63A680

