BC8E17CF
BC675940
3D932126
3DCF8868
BDFA40A1
BD9914C5
3CD9C899
BCBBDF98
BD4E7656
BD7A574A
3CDB6598
BD6CEEED
3DFC58C5
BE1B5122
BC830DB2
3D50E56D
3D130968
3DBFDA66
3E501F21
3E686FF6
3DE5CA41
BE1861F6
BD0C0F48
BCC7BEFC
BD63B684
BE8480C9
BDF315CB
3D1355CC
BE0F95BE
BDA4A5D4
BE5B75BA
BD902B0D
BE29E3C5
3D5FA6F1
3CE19146
3E1CA912
3D2D6569
BD951EE8
3DDFAC59
BE085644
3D91C87D
3B524900
3DF5C1BE
BD4F2C90
BDE6BA45
3DB43DAA
3D63C761
3DB02020
BC901470
3DFDB191
3D0A67C2
BDB0F8EE
3DCB3567
3CEE0EB8
3D5F8788
BD2B4F52
3DD44B00
BB9CB65F
BDF60FA6
3C09CFE0
BE41C3A2
3DBC5C88
BE17E3A9
BCE69220
BE2E1241
BDE24AE7
3D468B63
3D451ECC
BD4A7BF0
3C1E0B11
BD0F3A30
BDD9A3F1
3B96E20B
BC2A9A00
BDDB012E
3DF5923A
BC3166DF
BE0711A1
BE075F4A
3E3F6BF8
3CB01F90
3E1B2D52
3CA9CEA2
3B83CC7D
3DDEA9E8
3D5A25D0
BD609CC4
3D2D9FFC
3D6C1690
BCE4E402
BD560E74
BDF9CF3A
BE07D4D1
3E0FEB97
3DCF92EC
BE463D6D
BD737C13
BCF6AB71
3D116E42
3E05B2A2
3DEA5268
BE15FD03
BE03CC87
BDAE1F1E
BE2AC368
BE1170DE
3D87FF1C
3DB2B65E
3D86323A
3D8BA7C5
BD916F2D
3E368201
BC9AFD70
3E0482EE
3DD10292
3D2C9A80
3D7D4E0E
3DCC607D
BE09C799
BE067CF1
BDC35A9A
BDAD69B9
BCA66484
3C202260
3DAEBC26
3D575A44
3C96BAD1
3C201FA0
BB947B02
3D5826F3
BD42635F
BDC69C90
BD088C1D
BD25E389
3E00A41A
BE1122E2
3C91485A
3C4EC4F0
BD52D134
BCC86B8B
BDDE4B30
3D913742
3DE73ECE
3E1101FA
BE0E53B4
3D5BB82C
BDBB186B
BD10A5A3
3CC5D2F8
3DF9DC46
3D8FF790
BD1A4A6C
BDE1095C
3DC25EB1
3DA1C256
3D82342C
BC7D13DF
3D3F7692
BE2AE505
3D11D607
3DBA148D
3D89AE2C
BAB7F94B
3D9F2397
3D827B6E
3E15EADD
BDA89337
3DC5410A
3DB850EA
3D4E9BE8
BD520CE2
3D485F34
3DBE3FF3
3E0FA864
BD8E61B0
3DD2AEF0
BDC45652
3E51A442
BDEAC82B
BDA9EA3B
3E041341
3DF9322C
3D37AC74
BDAF1F43
BCDA65B0
3D47F573
BD7525F2
BDD9FADB
BD9B82CF
BDA9E3E1
3D85DAA0
BD09206D
3E01BA37
3CDCA1CC
BD2ECDD0
BDBB7A2C
3D0E84E9
3DBC2BC1
BE0C6DD3
3D5F99A0
3DE398E8
3CE7A638
BDD4DE96
BDFE1C5B
BE07833A
3E3EB9C2
BDD2F79A
BDCEF321
3D166AD4
3DF3E0A4
3D8D818E
3E578CDD
3DA8C4E9
BD549003
BB7660C0
3D14BDF8
BCB38138
3D26FBE1
BCB622DC
3CE6AE40
3DEDFBEA
BDA06DE8
3E03E2F2
3DDA6B70
3E139BBF
3CDB5FB4
BE073E4F
3D5B1764
BDDBB00F
3DDC9CE6
BDFADD6C
3CAB76C0
BD3F8BD9
BD55A25C
BE000260
BDE7ED5E
BD23956B
BCAFC3C2
3E01688D
3C6A1CBE
BD03E73A
3E24FB5B
BE0B16D4
3D2A0D9D
3DB5DB84
3E25F307
BD83B9C3
BDA08034
BE09E69F
3DA2EA2E
3D31933C
BDB5AC91
3DFB8F76
3C2EBB79
3C260117
3E1828C1
BC869F06
BDB558A7
BDF430DA
3DEAC08E
BDA0D134
3DCF193B
3DB1F7F2
3D2CC5A0
BD7E846F
BCC8B318
3D9EB612
BB9C2E24
B9FA2FEE
3E0D7CE7
BD21F8A2
3E203E2B
3DC5C102
3DB5E3C0
BE7E0FD0
BE8483C7
3E360276
3E1F168D
BDAB9758
BD5D7B7E
BD3C24AC
3E08CEB5
BDC036E3
BCAEFE18
3E185674
3DE80DD9
3E1E2E09
BDB7CE7F

