F972
FD05
F7BF
1037
EFCA
1703
FFF7
EA71
EDF3
FB00
16E8
F720
02B9
E9FC
0E06
DEC8
E430
07EA
F31E
084B
1370
FD6A
FBB9
0450
F195
041E
F4B7
F5C3
0211
016C
F1B5
01AC
ED8E
EC13
0F86
01BC
1718
ECD8
0A8E
0ABB
1530
1193
FB8F
E607
007B
02A1
0706
FAB5
10CE
0033
F275
FBFB
EE55
F190
0809
05D7
F409
E8AF
E59C
1860
1849
14D2
E7D6
107F
E64B
FB59
FDC5
FF2C
FA73
F0FE
F64A
0C99
F949
E8D7
0D2E
E656
0BC9
0874
0A87
08D9
EE49
0590
F486
02B7
F3AB
E9D7
10E7
E2D9
FCE3
F5BE
E3EA
FD66
F7A1
FA0C
068B
EF5E
0A2A
1580
0056
FF08
1537
E6D2
0394
FAD6
FAF3
0D89
E850
F829
0D0A
FD17
0A9C
0E07
F20C
1276
FC63
FD82
0A09
EE50
04A2
EDA5
E294
EE5D
EEC3
E7D3
F7D4
EE05
F8A7
0EAB
F376
06D0
F2DC
1391
0AAE
EE15
E6CC
EF75
001A
0CEC
F0DB
F94D
0294
F2DA
F163
E56F
E726
F7B9
ECA8
09A5
02E5
05E9
FEF2
E7F7
059A
F221
037B
E9F4
EACE
E966
02F4
15E2
0935
0384
0FCD
0414
FA77
1254
1282
1520
EE82
09A4
F64C
EABC
F3D9
EBED
F626
046F
EE7A
F67E
F0E5
0042
121E
F36C
E526
E5B9
02BC
F305
E602
097A
0651
FEA5
19EC
0260
10A8
1819
E36C
F6DA
14E3
0364
0D4F
EEC2
1937
06E5
19CE
EDA8
E199
F2D9
F475
0026
EBEE
E6A4
FC42
F922
F909
F2F1
FC07
E265
E1B9
F9EE
14DA
1564
0689
0E1F
0DF6
ED68
EF5A
007A
EBFC
1780
0CD8
17B2
0B2C
155F
0E7A
194D
0FC8
052A
02A4
EBB9
12C6
0068
07E6
E9B1
138F
FC9D
F71E
0879
0E9F
047A
F3D1
0EC8
F952
054A
1777
E661
ED2E
0FFF
EECB
0623
0D6F
EFA0
ED24
EC45
E76C
E630
F2D1
0FE9
025E
0B01
0660
0DF2
E5F7
03C5
E86A
0079
0512
01D9
0486
000E
E68B
0C3D
070D
044F
EB6E
1089
05D4
FF71
EBB2
1034

