FEC8
03B8
04C5
1097
F609
F368
0398
FAE3
FFF6
122F
FD2C
E68E
EA9A
EFBD
0963
065C
ED6E
F972
09CE
0948
0608
F93A
16CC
F5C3
E854
EEA4
E679
FE8E
FB58
0B80
FE28
FF11
F928
F2BB
1806
E889
0E13
E68A
1848
129B
01B7
E8F4
F46C
12B9
F6A8
EDBB
0DDF
1560
FD63
FD05
0A28
E886
07B5
0050
F306
0719
F564
0194
E830
FCB3
EA60
001B
F258
F5AE
105F
259C
2986
18D1
077F
E5C4
FFB6
0B39
EF38
E522
EE98
E5E6
02D6
1A37
0EF0
0B51
0A96
F7BF
01C9
04D2
E55C
0A68
DD01
3344
EDD6
D9C2
08F4
13D4
EC63
FA66
F255
1077
0A7F
FEFE
F3B8
130D
0C40
E953
FC78
EB1F
1296
104E
114D
EAB0
01CB
07AB
06F6
05B5
F803
1037
EEF9
F4C8
E640
F03A
F3D8
F5DF
0729
FA4E
0B0A
EE0D
04D2
F1B8
EC01
EA2B
F8C6
E9D4
ED36
E6B6
EDE0
FB2A
0062
06F5
F3F5
FE4B
FB0E
0264
056C
E881
123E
095D
093B
EFCA
0A26
E830
0D93
0779
0B5A
0BB0
00F5
1196
EEF1
F5D4
054D
FF9E
EACA
01B5
0393
031F
ED58
0CA1
E757
159A
15FA
0B9B
F5B3
0CF4
126A
F68E
0E5F
FC69
F4C2
EB0E
19BD
1703
ECD9
FC6F
0E3E
180E
EC6D
16B3
0C2F
14E6
0FE1
EE4E
FB9A
164B
0813
FB6E
06BC
38F6
1072
2C5E
0EA0
0A99
0704
EFA4
0BA4
D732
0844
0428
0E0D
0F1F
E49C
0CE5
03CA
FFF7
F9A4
0E5D
FD62
EB00
EE86
15C9
09C0
D750
0376
168E
FF14
048C
E4B4
01BD
17C1
176F
0053
115B
EEE8
07E4
EAFE
0D20
F651
1616
F78C
0F4A
ED69
E688
0F13
008C
F02F
EA71
0808
F98E
108D
0978
07DB
F057
0141
11C5
0215
17BC
105C
E78A
FDDC
F4AA
1493
FECD
E740
F2DE
ED1E
0EBE
F973
FA20
0442
FF88
1305
E6F7
144E
F3B2
0E15
0385
1393
EDF3
F160
E862
03E7
0A49
EAA6
0B44
F726
1866
10C3
EF3A
FAE6
01E3
E621
EBB9
FD58
EB12
F0B5
0A5B
0E8D
15A0
039B
009B
0446
1990
F208
1486
1661
FBAB
F6FD
EA3F
115E
FB00
112B
186E
F748
F2F6
E95C
03DF
0813
02BC
F5BB
0E9F
0804
E960
ECFC
1231
ED8C
E674
147D
FEC5
E97F
FC77
FACE
F2CC
E7F7
EF04
17E4
FE93
1693
18AA
13FD
1787
F254
16E8
0F26
0328
F656
0BBC
089E
E84F
02EE
E616
ED76
0FF9
EEA3
14C8
EDD2
0449
F006
EA6F
F91D
0A3B
0B78
18A9
061F
095D
0E21
FBE1
0BE2
F06B
EAC2
086B
1488
16E9
E8CA
F720
E6B3
09A5
0EEB
FCAB
100F
FA88
033F
EFEF
0A1D
E838
EEA5
15F3
E9AE
108C
F40F
E3C5
F071
1404
F436
ED0A
F56B
E81D
F5A8
AFD0
EFBB
ED3E
0A57
F8D6
0932
E5CF
F142
02B9
FEFF
D501
ECE0
FADC
F5C6
1A15
F83A
C4CE
EB95
0C54
FF07
F074
FFC5
0A3C
03AA
1337
F90C
F2DF
0E3D
139F
0DD1
0F32
091C
BCC4
FA95
0716
1A8E
1381
0039
071D
05F1
E9FC
F867
DB92
D476
EE58
DAD0
1779
0201
C6D5
0859
1687
14C2
12AA
E3A9
E7DF
FDD9
E4D9
EC9D
FA73
EAAC
0652
F730
F94A
F338
0E89
E998
0927
F8B2
132C
F7B4
F5D0
E988
0E06
EE63
123D
00B6
031D
1775
062D
F862
EA43
F52C
EC81
0975
13B3
F74F
FCA7
E9AF
0923
0633
0B07
00AA
1311
1477
131B
FA27
1A07
09FA
E788
F045
F4E6
073C
F8BC
EA7A
DEC8
EB6B
17DD
03B3
F99F
1066
0B14
0BD4
0C23
14C0
E80E
ECD3
0473
08E1
0761
F104
FC8B
ECA6
E63F
04DA
0286
E99A
204B
F2C8
F23A
E503
ECD9
0889
F140
1513
0417
0653
E430
F8B0
F6AB
FA4E
E3C3
0B5D
FE62
0982
E87B
F3C4
EAB8
1841
F6B0
E483
0453
0FEF
E7EE
052E
0923
F9D9
1219
1494
0502
0476
0DD5
0765
14BC
0592
0ED6
12E6
FFBE
FD67
07EA
19C6
0BD1
08D7
FC5C
0B0B
FDA1
EF8A
F5EF
0B97
04CB
EBC5
144B
E616
EA53
E762
0C17
F526
159B
07C4
0BAA
F77B
ECBB
FBAF
0E79
F330
1908
11BF
EE66
EF48
F63A
FCB0
F31E
1044
EB3B
EE54
0568
FFA1
E84C
11A2
F0FE
FE94
FFC9
F2F2
00D4
090B
0CD8
07D6
106C
F5E3
F393
0296
059E
ECC1
F83B
19B3
18D7
0C0F
16F8
124B
1296
ED42
FF28
F559
084B
036F
EA99
F169
03C6
0246
FD7B
FDC9
F5F2
0ADD
0E50
122C
0BDB
E8F4
0B4B
F1FE
0D4D
EAC3
17CD
E8D5
EDC5
F3BB
F5C5
F59D
03C4
F376
1546
061A
F34F
06B4
FBFD
F66E
1370
0D04
EB95
0EE1
15E6
EB70
0009
11DF
19DC
0947
EED4
E56E
1D7D
09CA
FF5A
0981
059E
FF17
1436
E7F1
F368
192C
0AC9
0CE8
0CCE
0DC2
018F
0A40
0427
13EB
1391
11E4
FD6A
1392
1B1B
F433
0F34
0642
1489
F75F
FE6D
F6AF
F1A3
0BE5
F7A9
0BBE
EE19
17E0
2579
1213
055B
F855
F561
F245
1B61
06A4
D88E
0B36
03E5
F157
2C89
1775
E9B1
EE34
FBB9
EB6D
0B60
2134
0284
FA56
3610
155D
D7E4
EE16
0896
F5FB
096C
0207
119A
149C
4A00
0AAE
F737
0CC6
0DC1
F0AB
F8D8
EA10
A5F9
09EA
FDC9
E220
F9C7
FE6E
DED9
F4CB
0450
04C7
1260
E487
05DD
FF69
0BF5
F043
D3A9
F848
03F7
0793
E41D
E3DF
F276
0FED
4014
0395
108C
0128
E412
0880
1703
F36D
C2E3
0420
01BE
1C65
3679
E6D0
EE2A
0DE8
F195
0826
4C5D
F9D8
FE44
6127
0DFF
071E
1E3C
F3C3
DD12
FAD0
FBFB
1330
0BA9
0D5C
EFE2
1871
1960
E895
1675
092E
FF2C
FCD6
04C4
E719
E7C9
F605
02F7
F041
ED3A
E6C7
041E
10C6
F447
FD57
F160
1357
0F65
F9A9
0A98
0CA4
FBAB
0DCD
EA35
F91D
E691
EA74
29B5
0816
FF90
FE25
0190
0A14
F97A
0C79
C494
FD7D
EAEB
0F96
147A
0A3A
D7E1
0599
F4B7
F5B6
29F8
115D
1416
1515
305A
ECC4
E152
F0A9
124A
0223
EE2B
F646
FA5A
E8E2
0CF6
EBAF
EB87
1804
EE9A
E843
050D
0D68
EC83
12F8
1387
0FE0
0B77
19F1
F514
FA9B
F5C3
F6EC
E8A6
FDDF
EE99
F291
1424
0732
0201
06CD
1779
16C6
1379
EDC5
FA63
131C
F09C
F8D5
E8E5
EEDF
FAB7
139E
EFA8
E888
1154
F47D
0BA8
0370
F2D4
F715
040E
FC98
0211
0FC9
0B96
0596
13E9
EE5E
F827
FE61
1934
05AC
0DE2
043E
00B8
0507
F63D
F998
05FB
F621
00E2
E82B
F46B
FD64
0D0E
0FED
FFF5
0C96
120B
0ACC
F40E
EEFE
F51C
F0F9
016C
1757
1144
12F9
0EF9
F5B2
E774
F209
15A9
0538
0701
0CC3
F791
E9CD
EBAC
EE82
14D4
1188
0A35
02EC
E976
0CDF
E68A
06B1
E7F8
0FFD
FFAD
FC44
0659
FCD1
0578
F4E0
F1B5
02A3
F054
E857
1051
E868
0D8F
17DC
0565
F9BD
E909
EC94
E7A1
0D61
0A57
F5E8
046C
10F6
F7B6
EB56
EECF
042F
E95A
EBCB
EC46
E9C5
03D6
F54C
EB1D
0A12
F17C
F578
01AC
F4E7
ED4F
0D1B
017B
E8EA
17E9
F76F
E5A8
F6BB
EFB9
1255
1772
19D8
010A
F848
EAB0
0D95
E7BB
F5C9
0F4E
0E1A
EA61
147F
1C0E
EE7D
F311
FB08
F1D6
E588
12B1
160C
ED8E
0D34
0ABD
F66E
0571
276C
EF6C
0DC7
15C5
1088
EB3F
012A
FF29
10A2
E0D7
1142
06B2
0D39
156B
FCCE
016D
EEE6
02C6
E80D
EC7C
0311
16D7
0B9C
FFDE
F60B
EB2E
F724
EC13
F1A1
06A3
F5B3
EDDC
FC6B
118C
FB72
046F
F1EB
19C3
1895
E726
070F
F705
1054
CFCA
2D8B
2169
039B
0903
0FEC
F533
0909
B373
FD17
EEFC
E2E3
EAB0
F6DF
BBBE
0F1C
0F86
120F
F18D
02D0
FF8B
EC03
24AE
FE02
AB18
0653
E3E9
184B
FBB7
EAEF
F848
0E95
026E
EAEF
0389
FBC0
EE10
034A
020D
E72D
1995
1138
11FD
ECEE
EFCE
0E4D
EF65
0DDA
01BC
031B
F3C5
154C
1263
F909
1089
1712
02E3
0510
135D
0A04
FDEC
064A
0164
ED5E
F438
FA29
E9F5
1969
F796
0087
EEBA
F21C
0152
E781
00E4
ECC5
0030
F4E8
18A7
135A
1718
0F2E
114C
00FB
006F
E922
026D
EDD4
094F
0432
EDA3
1295
0B08
08A6
E6C9
024F
01AA
F4F9
F370
F14B
0192
14A5
F50B
169D
105B
0F89
10A7
117C
1760
F198
ED90
EF96
ECD8
0B1C
1388
F973
EFE4
0A1D
EB31
EC26
FEC4
EB45
EC91
F7BD
1093
E7FA
EE0F
0167
E553
22A0
09D2
F1B9
FFAC
F568
1939
033D
E3F9
103E
F133
1C03
F1D8
E63C
EDD1
0CDC
0A8E
FE13
E782
FACB
0BB2
F844
17E2
FC3E
C914
E8C5
D7E5
09EA
ED84
E9E9
EDBA
F5DA
09D2
0759
0604
F8A5
FA12
1114
11F4
EC39
F51F
1792
026D
10D9
EF1E
FF7F
0F35
EAE7
0ABB
0F62
05D3
0512
F27F
F550
E81E
19F0
14DD
009D
0BD8
00D0
1082
18FD
F430
F73C
FE1E
F989
E7E6
04FE
F494
EAF4
EAC0
EA3D
120A
EE46
08C2
EECD
00DA
F939
05FA
142A
1530
10CC
1423
E9AA
F0C4
1828
F77D
0EA0
EC1A
120A
190A
FF9B
0242
17DA
F1E9
EB00
1403
F370
F29C
FE45
0300
F317
158B
0B07
FD32
F418
F63F
F08A
FC90
E81C
1072
1819
1193
1164
075C
F45B
0853
001F
17E9
1818
F7B2
FB71
FD35
FBBD
FA65
EEE1
0201
049E
02FF
0851
F96C
1734
0F9D
F56F
08CF
FB81
FD98
FC4C
19F4
FA1D
128C
F5B7
0187
08ED
FB8F
1172
106A
F0EB
1843
05CE
E66F
F79F
F35F
051D
1263
13E9
0D05
F692
05D1
1127
050C
161E
E6D9
095C
FBB5
0972
E72C
0995
06B9
E70F
08AF
EFAC
F9B8
EC66
F33B
F766
E607
FA1C
0846
1566
1367
EEE1
EEB2
F818
F7C1
FFC0
15DD
F000
E5E7
12A0
FD04
01EA
DE82
25C0
1D03
F779
F285
E818
1647
0BCC
CA92
EA08
035B
F577
CE2A
0460
D288
F329
007B
07D0
0CF6
1C92
EFC1
E392
0BD9
15C9
BC98
EC01
EE2B
0183
FDE0
0BC8
F03C
F9AC
DF0E
04E3
15C3
E5DC
F445
163A
0463
1086
CF18
F763
0AFE
0E78
DDAF
0D77
D2EE
E4C6
02A1
E7C2
0257
0862
FE01
CFF9
FE54
05CC
E834
EEF9
FA80
E893
FB7F
040A
E685
EDAD
EBC5
01CF
E8A7
F2C5
EEC4
0507
FB35
F184
0C24
134A
F858
0DE2
13C2
11FF
0608
E6C1
0706
E85B
F03F
0529
F55C
F854
0BB8
04E4
F8F7
1532
F9E4
F5CD
ED42
1101
ED5C
E8D6
1AC3
EE6F
E56E
0C16
EB49
0B67
174D
15C0
F866
F897
0A52
F596
19FC
E8BC
EED6
E489
FAB5
F24C
09BB
1E3F
0435
025A
199B
EE7A
108F
0928
00ED
FEE8
F0B6
F0B9
F7C7
FCD3
10AE
FF03
F832
F276
E4A0
07C0
0E3F
0F1D
0FF3
E64C
EFBF
0DCF
0CF1
00CF
03F6
E4DB
10CE
F2D5
04A4
E69A
E378
12E3
F67D
1764
0CA8
FB47
0390
EA0B
0D96
EB43
0924
EE03
1D9E
F6C9
F6DF
1321
E678
1373
EB34
F751
EE4A
F75B
13C4
17F2
1C1B
F93C
1349
00D0
0033
F5D3
1F54
EE37
02C7
1464
1EC6
F639
1D83
FF8F
0333
049D
E6AD
031E
FF85
FC56
0219
F104
F83E
E80C
01D0
0949
123F
0CD3
E97A
1725
FC10
1B56
F80D
E986
F917
EC41
F275
096B
1079
F8F3
F4CA
F9D8
0A9C
0BB9
ED03
0DEC
FF17
F066
E6D2
F4CF
F36F
F0F0
138F
1704
0E81
0D58
18A8
F386
05B2
F4CA
0446
027F
EF53
0958
146E
08D6
FF80
F6C5
FBFB
15C2
17B9
F408
0F7F
FBC9
093A
EE8E
106B
0F81
FEB7
FC5E
0950
EB02
0981
F3DE
127A
1114
00D1
F8E4
F7CC
E879
0DCD
E826
E848
EBFE
09E3
FD6D
E5AB
0938
F7B5
0339
EE55
0782
F426
EFE7
F8DD
0638
E6B7
087F
09BE
FC30
0818
F2BA
FF12
0E1D
1002
00F7
EB24
148A
10CC
180C
18AA
05F8
1936
0DB6
E95C
ED81
EE4D
0CDA
EA72
0AA8
F91C
EEDB
F190
0AF1
EE28
F698
101D
F1E2
F45E
F0A6
02B7
1680
FAEF
16EC
04D4
0849
F8DA
12F6
C01F
0023
2EA1
F1DB
1303
009E
310A
F033
BAFE
FAAF
0158
1127
0DBD
12CF
E9B0
0E8B
0809
0230
D28F
12EF
F6C6
FDB3
1C57
0E41
D6F8
127F
CFE4
F98E
125B
073C
F236
F15E
35A6
1C72
1C18
1250
F8F6
01D8
22D1
0CC5
C18E
FA7A
04C1
0DC5
25CB
E6CE
D67D
129F
05D7
EEF0
2E73
0C50
12EB
13FA
281C
0F4D
B6FD
F29C
F81B
0C36
EC0D
0963
0E70
0318
0E0F
FF34
0DED
F99A
1094
EE48
2704
E4B7
F6D7
F315
F655
3E41
15E7
12D7
2EF1
0574
F409
E639
194A
18E0
E959
5566
288B
090D
FDD1
FE1F
BE7F
F218
E27D
11EA
F69A
F793
EE06
EE3B
0FF6
0293
F4B8
01D3
13A4
1188
0B77
FFFB
0A17
0409
FF65
F754
E866
0585
E8AF
EE4C
12AA
1A27
F6DF
ED24
0C27
FD23
F240
14D9
F520
1803
F97E
EFEC
F9BE
045C
13F9
068D
033B
EB2C
1409
05F4
0BF1
1518
C7EA
1362
ED64
E72F
16F8
ECCB
FECB
F8D2
E59C
10FE
2FDE
3B9B
F602
4BDE
275D
EA48
C975
0BCC
E537
14F0
0327
F562
FBC6
FEF8
14D0
0057
034C
FF98
F749
E7D9
EF32
0B24
0956
FA95
07A1
0FA0
ECC7
ED9D
0EC2
FCCF
1860
FBFD
F9E9
1412
0D03
12F4
FB2B
F981
F00E
EA44
0C10
F43D
0D8D
01E2
E7AE
F691
12BB
0D8F
05C9
18EB
032A
0136
0D89
14CD
ECC6
0D25
0F39
F5F4
1131
0AB2
FCE4
05E4
1849
F0DD
0271
F1BE
F2E4
E9A3
EEE7
0577
F254
F97D
E6E0
1288
FA70
0B74
02F2
FBB6
FA6B
076A
0AC8
EBB0
0B9A
0E11
E841
0814
F3FA
FB96
F4C4
1465
EE8D
0B85
1796
E5EC
14D2
03F0
F96E
0CE0
FF8E
F5B3
FEE7
036F
FCAC
1133
EF51
F47F
E638
F3E3
0121
1455
0569
F421
10C2
E60F
11E9
11EA
F9AB
F339
F56B
09C1
FB53
15B6
0505
F0FF
00E6
10EF
E7D6
F970
14DB
F33A
FFF1
FC1A
1295
EB3C
EE04
04AA
0454
1748
FE2E
FBE0
0C89
FD73
FB65
0657
ECEF
0FF8
13B9
0F05
F342
F60A
F97D
1420
F12E
EA05
1797
E898
0EC2
F377
107F
ED3B
F6FD
0996
F0D5
0A32
1822
18BC
0281
F3A0
0382
122C
1613
12E4
00EC
15E6
0FE1
038A
E894
1858
E967
0A3B
FA1F
F8FB
28A8
FB47
0EB8
157D
1257
FBCA
F11B
0972
E64B
F6BE
2290
EC07
E620
0C01
09B5
EC35
F8F2
FBB1
F80B
01DF
0D8A
F4CC
FBBE
0DD5
FEE0
18EA
E82C
01A3
E9F6
F599
096F
F6F7
09B0
EC77
0216
F195
FA93
F924
E654
FA42
FB59
052F
0186
E7BA
140B
EBE9
EC99
F994
F66D
F399
197D
F914
EF9F
0D72
E73C
0723
D2B1
0885
0FA8
11C0
EE9E
0FBA
0489
FA31
E409
015C
F79F
DAD1
DB50
EB4D
D9EA
02A0
FDC5
EC80
EFF0
EEBE
E4BB
2915
1764
F866
CD80
1589
C5BD
0F6E
0143
EE89
06A4
FCB9
FB02
F08C
E8DC
0C5A
07BC
0716
F420
F379
F01A
F01E
EA3C
F403
E6F0
029B
0A6B
E824
FF2C
F8F2
0D52
E908
07D1
FB9F
0988
ED49
0B5A
0D0B
EB3C
EAA6
01DE
F49F
0BDA
FA79
F38D
0DCE
12D9
0F8F
1236
09B4
0493
FBD6
F27A
0147
FB80
1105
E9C1
01E7
E946
137F
FA73
05F9
1570
F559
FA4A
0CD7
F045
FDD9
04F5
F8B6
FA4C
E6C0
F484
EE52
EF3C
EB43
EF17
FCAB
F377
0AE0
0C1E
FC81
FA80
ECCA
E6B6
06CB
1256
F9A7
EC80
FEEF
F146
126D
F0FE
017D
0820
07E7
F4C9
EE5D
F552
0781
ECBD
0E1F
F758
0D90
FEDC
065C
ED16
FCAB
EA78
16B4
0416
F660
1679
0CA4
1719
ED9B
133A
FA93
0AD2
04A6
D7A7
E385
DE92
1540
F64A
00B4
C39F
085C
ED0D
F2FC
0A8F
FD45
00D6
0E94
FF21
E578
16A7
ED5E
F341
17E1
EB2F
F2F7
EAFA
FEA4
E673
E68F
0FD0
006D
0C82
FE72
0234
10DF
F140
1513
FD2C
F28D
0C99
F9AE
16CE
0DD2
0DC7
FC13
10C0
17C0
FB29
E704
0CCA
F093
0133
E922
F6A3
04A9
F0B3
EB67
01B0
FFBA
1412
F290
1772
F7BD
EAA5
1560
FD3E
161A
EA27
ED35
E6BB
F837
F949
0780
138A
076B
183B
070E
F66E
ED91
FA8E
F96C
1601
EB5B
EAA8
0053
F109
FCA1
EEB7
E550
FD5F
F4FE
1797
F8AD
F22E
04CD
171F
F762
F7E0
0CC2
EA5C
0422
140F
126A
E8D7
FC71
FB62
0AD4
E5E9
EE5A
EC8A
04D6
E8F7
FC73
EFE1
017A
EF31
FCA6
0C78
1462
E924
ED6C
097B
EA38
0506
0090
F18F
13F9
F691
F000
0B85
EE51
13B6
FF75
E7B0
0F82
0D2E
0112
11EF
0B38
F042
F1AC
07AA
F987
176E
1691
0161
0D82
02B3
0FDB
F4C3
FF8A
ED57
FECC
E6F0
F810
1A12
EF52
F784
1869
F70B
FA10
FB54
0BFD
EF1A
140C
0681
F1A5
E656
090B
EBA1
11D5
10DF
F4F2
0F49
0DCA
09A7
F313
EEBB
FA3F
1109
0C46
17F0
1369
B3AD
2903
0747
FBC2
0045
02F9
262D
FB1F
C64C
E6D7
0DF4
F5E7
D8AC
0671
DC23
E63A
0BC9
16D4
E4F4
F39C
1195
0957
F9FE
F46F
DE9B
E96B
C540
F080
F94F
08E3
F631
EEE9
CDF0
15D8
1027
0C61
E52C
E80F
14C0
E9CE
FC5D
F74F
0B42
FA2F
DD24
199D
E49D
024C
0874
F073
F4A0
15DC
149D
CECF
E58D
F68C
C255
EC9B
E093
F760
ECB3
0B14
F04F
15C8
11DF
E904
053D
008E
E90D
0F81
01B4
F9F1
F6A8
F665
EBFD
F796
FE99
0329
F16F
FA44
0A87
F7F1
02B9
F4C9
ECA7
E80A
ECE3
0DA1
ECE9
11A0
E3CA
051A
0A6F
F88B
EC21
FF8A
FB17
EC70
E61D
045C
169A
03F5
2425
FD34
1C43
0089
E611
0FF2
0383
0D84
F9A5
01D5
08D9
F460
03BA
05DE
065B
0806
F500
FECD
0CC8
FADF
16ED
E652
F691
FC9D
03B9
F632
EDDA
04A1
0608
FC07
FF0E
F0BE
0526
EDE0
1F8A
F4D9
F1F5
F704
FB08
F6E0
F6D6
E4D8
EE49
E66F
0122
033C
032D
0F3D
EAB4
EB96
09B9
0308
1954
FDE3
F4D6
F15F
FE22
14AA
15BF
071E
E996
ED46
E733
FAC9
1AAD
FF1D
0E50
0179
E7C0
1538
04E7
12B7
0AD2
16D4
0590
EF76
1B30
EFDB
096D
F2BE
0340
0C99
124A
097B
FA6E
FF25
043F
F158
EF91
0234
04FF
E69B
14C1
F42F
0749
16C2
F729
0A31
FB51
FBB0
EF65
1825
EE7F
FAC3
F813
E829
F486
13DD
F27E
196C
057A
12DB
F0A3
ECC1
FD68
03ED
F09F
109D
EAFB
0532
0E25
F340
FC05
0DC9
F758
E663
FC4C
17C8
0237
FD19
112B
E906
FADF
0ED5
0161
05BB
EE6D
13E3
02B7
1314
0767
F0D7
F7E1
1706
079B
FF32
FBC6
ED4A
1409
0F78
EE63
E7B7
16F9
01E5
F6BB
E540
F11C
0648
0D8B
EECD
EF90
EA0F
FB90
F580
0677
1517
0617
18FA
00C5
F2E3
F3AB
F2E1
0EAA
E9D9
F854
F93A
EAAA
FD64
FFDA
FD79
FBE5
FD61
FA11
15D9
0E0A
E7AF
1229
0215
FE2C
F56F
0702
13F8
F3B1
0871
0082
1465
E9D7
02F6
E7AF
F364
022F
F150
E9D7
0444
F03B
04E6
02BA
0B49
06FF
FC13
061B
ECD3
1887
0D4E
14CF
F99D
ED88
F705
FCAB
FB39
EDCB
F3A9
EE86
FA46
2851
ED36
FAB2
02A2
FD7E
0247
D28C
0686
DA33
F6EC
10E7
05BA
D6D8
EAE8
F714
0570
04B1
0156
E0F4
EDB4
E412
1784
0048
FBC0
075A
FE37
C546
FB11
1F35
E9E1
F381
ED31
4B17
F923
BFC3
08D1
1425
2604
080B
FF1E
0349
F82D
E2D9
EA64
D349
13CF
EDAC
2D43
0977
E632
BDB4
0C0D
DE07
F601
FBC0
0B49
FD65
F919
CBEE
051D
286F
04C3
0624
128C
2C07
F206
045C
F50D
EB80
504D
2B9C
FA05
2BCE
FD7B
FCE3
F490
FDBB
D97A
0CEB
61EA
4786
09BC
0ADB
EB63
E61E
0AAB
E60B
0D88
073C
0143
0C86
06D9
E5F1
E808
0F43
FBF5
0835
1692
FA9E
00F0
F98F
1506
1691
0CA5
FAD8
F342
F5BE
155C
FEE2
F799
122F
14C7
F36D
FC1D
0451
07F0
1290
03FC
F18F
EB57
01DF
0FE5
D3BE
0FF2
2454
E80E
0DB2
02D4
2F36
FE46
E3B6
F9BD
0B53
2C67
F0D3
014C
1634
F84A
E3EA
EE12
FC0B
0085
F4D2
5505
0850
163D
FE64
ED78
E19B
16C9
FB2B
F289
EF1E
17C6
FB85
0464
0AD7
E954
0086
0B49
14DD
FF47
EB16
14C1
0255
1203
023A
F478
0F89
0078
FD66
0BE3
F1D4
EEAB
F2E0
0360
176B
FB7E
1090
ED89
F493
EED9
EE02
0429
F65B
0BC4
EF3C
0017
E7B5
09DD
0AE3
1446
0702
EA1F
F65B
14D9
0133
ED32
F2EB
0251
0EA9
1694
F7A1
094E
F4E5
ED9A
FB78
0B52
E88F
0514
0198
E7C3
0268
E666
0116
0125
F38C
072A
FA80
0CD3
09F1
00BF
E7C3
108C
F239
FA5A
198F
F665
1743
1521
FD1B
FD26
FEC5
0103
FA0C
E983
F18A
FD55
092F
FBB3
F53A
0F73
082D
EDC1
09C6
F646
F41D
000C
FBC2
0A9C
F2AA
FBAA
F59F
EF03
0812
F2E3
067C
1827
13DD
ECCE
EA1E
EDEB
E88C
1504
10CD
1600
068B
FDC2
173E
FEEA
E6BE
F9A2
0489
E93A
13E8
ED60
F4BA
FC9A
16B5
E8F9
F31D
F0D5
0EBD
F434
172A
FE30
17A2
EE76
E70F
0634
0620
14AA
134B
F46F
1295
FCA7
0A04
FBB2
EF5E
EFDE
FE15
05AD
FFA0
F14D
081B
F008
07C2
0433
F612
FF12
1170
F742
FF07
EDBB
F73D
E504
F940
E646
F9FD
FFD2
FA28
E9A9
1F3A
0081
F411
FB07
150B
F62E
07F7
EB85
0A2A
FFE7
E2A9
069E
EDC3
F7EB
02F4
123D
0DA3
EE85
029E
E4B7
E9DA
EDB8
0D4A
0FA4
0E41
E890
0A59
0CA5
1782
077B
F286
036E
F877
FA16
EC9A
F740
EB3A
0FE5
F085
FCEA
1580
EAAE
F6BA
EC23
FCA3
19AA
066E
EDBA
F652
084C
0F39
083C
F0B7
14F2
09BB
07BF
374D
F9B5
DE8B
F708
E9DC
106B
EA75
F896
F23E
F3DA
0221
2552
FA8E
ED2D
FD98
FF03
0056
1136
27F8
3513
E6F6
63D4
1B46
0663
4C09
F6CC
2933
FC24
0561
08E6
F91B
E923
FEC1
ED4C
FE54
F392
0D56
FD6A
E895
F3B2
0270
1218
177C
1853
F8C9
06EF
06F6
F8A1
FF08
0920
F2F0
E6F7
F616
113E
0186
F3E1
0037
E8FD
0BA5
F794
0720
0B8A
0529
FF21
01D8
F0A6
F111
06C1
EAD2
E9A9
F9CF
EDC8
18E1
19EC
FDCB
14D3
0224
13DF
F5A4
0A61
1537
E85A
F634
0162
135C
E6F5
F37F
071A
E716
0DFC
EB81
E915
EEAD
EF2D
F070
02AF
1755
00FC
11BA
04B2
0962
0539
E6D7
FC75
1845
E830
0593
16A5
17F0
1275
F50C
0DC2
E6D2
06CF
FDC4
FC6D
F1C5
E951
0960
FB8A
010C
04E7
EA28
0BAB
043D
EBBC
1656
1330
2DF4
060C
016F
FA91
08BA
E812
F8ED
ED04
E2CA
F7DD
F987
18B7
056E
EBAD
0698
10F8
0394
EC2D
3440
1DA7
F285
4469
19AA
EE23
1A9C
EE3F
0493
0F3B
FFA2
10BF
FD4D
06AE
E881
16A2
1467
14F1
F0DC
F652
ECBB
E9EE
F446
EC15
F81D
0751
E894
0A89
0B8C
11FA
FAD6
F15A
F28A
EF55
EA97
0011
F1FC
0890
F618
0B38
1808
EE05
F611
1443
F2E7
F4C3
01C4
01C0
F645
0D33
06D4
F7F2
09DE
F0E2
E686
1355
14F2
F47D
124A
08C8
F8D4
F32E
FAF3
EB61
15CC
060B
0D09
1072
F37F
030A
05A5
004A
F3F2
0B49
FF2B
F363
1224
0938
FB06
E961
E8BC
01F9
0813
F778
0C0A
03CA
0B41
FBAB
07DA
0422
16F5
1549
0B62
EAC1
0D89
1690
F7B6
049D
180B
12D6
0DFB
FA19
05DB
12B1
014E
0D72
0136
173C
03A7
EADA
EA7A
072D
0ABE
1311
F8CE
F56A
11CF
F2F0
0977
F286
119F
03C5
FA8A
14AC
E7C9
015E
E850
E805
0204
FE7A
F855
15CC
EEBA
07BD
ECB6
130A
FB32
041F
EE53
07F7
1694
14EC
13CF
F27E
F8E0
0F4E
10FE
0A18
0072
E81D
F4FB
E681
0DD9
008D
1441
1583
1644
1706
F829
ECF4
EFF9
06B8
0F7E
F4B4
ED95
0CE0
071E
125E
FB9C
E69A
169F
FD19
FB6F
0097
E76D
2213
E189
F4D2
F57A
FBDB
F43E
EE33
CADD
1190
0948
1ED9
18FB
01D8
D433
EEC4
0D0A
F3F3
3F30
0A02
05F7
465E
33A2
F29C
FFE6
E66D
016A
0D9D
0D2B
03F4
FD2B
FB2A
0792
0675
0034
F36B
064D
F77D
05D0
1035
D6FF
179D
E4E9
15F1
0ED1
FCB8
F63F
E3EF
FD17
F411
2BDC
02D9
FEA9
3190
2256
17AB
1460
0434
2170
F86D
F981
E57D
0D49
E5E3
E857
FB6C
0C1E
EAFE
EEF8
0BE9
0D5A
17F2
FFD3
EBDC
F9EC
1052
F782
FF0F
0D03
EEC8
0A9C
F282
F4AD
1776
F012
F583
EBD0
0DFB
09A9
FD8E
FCCC
0437
16F5
161D
F217
F661
013F
0E49
FFB6
0702
0A61
0F82
095A
EA4C
EB37
1267
1144
02B6
E6FF
E9BD
0681
FD58
0E07
01A1
F12B
0BA0
EC4C
E146
0A28
00BE
EA15
09B8
1324
F3EC
E8DD
02CF
E198
EA69
EC7D
EEAD
ED50
01B1
F497
F297
217C
ECC8
219F
EA39
FEA5
0C13
06E9
F609
065B
0505
F20C
F634
F915
E565
02F6
0CC6
078E
E8B0
F520
1232
198A
0BF2
01B5
EF21
F66B
EF17
0974
F171
03E2
FED6
14D0
F44D
1F7E
EB87
E508
0B76
F617
F0B4
E813
FC72
09E1
F105
1276
EF27
E733
E9D3
F01E
DC31
0E56
0717
1370
F2FB
F2B3
11A5
0E54
F342
F949
F808
0587
19B0
0318
EACA
0751
FB16
11E2
E633
E8A7
F7BA
12D0
FAEF
1482
1466
EDBE
F052
FC63
1392
FAC9
F060
FE60
0528
0BEC
0C73
08FE
F657
133F
0D61
FA84
068B
0863
E97C
118E
0EE2
176A
F98A
09DF
06D2
06FB
F7FE
182D
0097
F81F
0FEF
062D
1175
F550
0192
FD82
01CF
0F32
EDB5
0D8C
FCFF
0F4E
EC4E
E89B
F481
078F
0427
F3F7
EA82
FC43
17E4
F303
0E76
05B4
FC0B
FE1D
01D9
E650
10A9
FE37
F79C
03A9
FB42
FDC1
F8B5
094E
EDD8
0A09
0756
F7CC
0650
166E
0873
1309
0FF8
FBD5
029A
F8AD
01A9
18A6
E76C
064B
0152
160A
1268
EBA0
08C5
138A
E801
1036
FF65
1047
F047
FD4C
F117
F0B9
F0F6
F2C0
F33D
EE50
F73A
1AC0
EB03
F1AE
EB8A
0AB2
E93C
FFEA
0C2A
EFC8
0ABF
FE34
F278
F23C
EC24
28E0
1100
10A1
15CC
F961
03D0
19F1
11EE
D808
0638
E8B8
13A4
2639
ED3D
326F
F870
04A2
EC03
2B48
2489
0A84
2F7F
FF3C
ED22
3E96
FFF1
0E1C
E7BF
126C
EA55
ED77
0E47
2F33
0BF0
0BDB
E991
16A2
F93B
DEAF
F779
C7F8
0A32
EDF6
E8CC
00DD
EEDA
CE0E
121E
EDA5
F386
6434
2C25
146A
453C
05CE
FA34
31CD
1113
24B8
1866
F96D
0372
0B46
1331
EFBE
C705
EA5F
01C8
F5A0
16EB
FB1A
0168
B78F
0FD2
10C1
2B99
065D
FBFA
28E1
F8C0
E294
0FD8
246F
2198
EE2F
4E08
2060
EA5B
3902
06D7
BBD2
F95C
10D4
F8B2
E935
FDD3
FDD5
F706
15A7
E7E0
FD5E
1602
00B3
13C3
FEA1
EB98
1A1C
0315
15F1
1325
0B7B
168D
EE5D
0016
F2F5
1587
E643
F825
F722
0CAC
0835
0F77
FF9E
1A47
0B09
1071
FA67
FB61
1FD3
EDB1
EEC7
0ABD
ED74
037E
0599
0D03
B818
0A04
E788
16FD
F202
F1DF
E4C4
1439
EEC3
1A1D
4785
1984
EE49
2C5E
0F54
E6EF
1C50
09C4
F188
0927
00AF
F25B
0A06
199D
15DC
1807
0C29
116C
1373
F980
0AFD
EBF3
EF8D
0B08
13FB
F08B
F918
13C1
F86E
07F0
E7D3
00E7
EF56
034B
F034
1211
1AAB
E899
01CB
ED3A
1221
0982
038C
F0F0
0640
F2C0
E620
0FBA
0EB2
0BC4
08A1
16EF
F437
13AC
ED1E
ED09
0F91
F2B5
F522
1820
EAF5
EFF4
F7D4
04D1
096F
F1AF
02DA
012C
F62A
1844
F2F3
F001
EC1B
0381
EA3A
104E
0BC3
16DA
0A41
1134
05D6
F456
E688
11EA
F9CF
FAEB
0C20
0F67
F339
1024
0795
1157
F981
111A
EE05
04F0
0C62
0AB6
05BA
0CD1
0A69
FC46
F280
F6A9
113D
0CE3
F98B
F276
EE94
0C7A
F97A
EA3B
F8EF
12B8
18E5
ED53
0582
035A
EF2E
0B8A
F987
0C2A
0F0A
0721
EBDE
0971
F8A7
0C09
047B
FBF0
0815
FBCB
0FC2
FF2E
0A5E
01F2
FBB7
F7E4
F31D
14BB
0663
EEE6
EF2B
FC93
130B
1526
175B
FEA9
FB85
FEC9
10A4
E763
F458
F830
05AB
166A
EC92
0E15
0EAB
1262
155C
FB36
0873
F77C
F11C
025A
0ABA
0F82
F20F
F58F
E81C
F6E3
1560
EE4F
0D9E
F860
0D77
ED6A
E56C
F9F9
EEBE
1617
1B10
EDAC
0F8B
FE1C
FE73
0731
0DE3
0F19
F376
09E5
0838
FAC4
1102
F6EC
FD0B
0E3D
1E09
080F
EC81
FB07
FD1D
F62D
0FF2
0AD5
ED61
FDE9
EA35
062E
F386
F5D8
06AA
1263
E79E
13FB
ED77
EC97
1428
F08B
FD9E
0095
06D0
093D
FDFB
1212
F7DC
0095
FD18
EF6F
F682
F15B
140A
1621
EE54
F8F9
13F8
FD26
0B4B
1FFF
14BE
0D9C
0448
F017
FB01
E944
FABA
E556
1674
1FF5
2F6B
E46C
FDF9
0619
F2DC
062D
437E
0FF4
FD30
3BEE
197A
1318
10AE
11C1
F91F
EC6E
F72B
0A62
05C1
0DEC
00D8
ECBA
0983
FDD6
145C
069A
0B99
1563
15F5
1815
05E0
0DAF
0F79
E805
09C6
FA95
1391
0149
FF04
EFA6
FC4E
1A9C
EB47
0120
EBFE
0A85
0E9A
F18C
E89F
0884
18C4
FA6B
FFCD
0FB8
09E6
F2A5
15B4
F9D9
FEC3
F5F5
FED1
EE92
190F
FF2C
F5AB
081D
0E54
1444
0AAE
192D
F07B
F615
163F
0DF5
FB45
F7E1
18A9
0859
FCF1
0B90
0448
EF7D
EF18
FCEA
0F07
071E
13A2
0A89
F70C
F042
0641
FD1A
0DC8
15FE
E772
1214
139C
131E
074E
F2A4
EE15
0787
11EE
00CB
1858
02C3
EA0C
F305
0F33
0E43
0104
F313
FD9D
155A
F352
F280
10CA
FBF9
1C39
F9B1
FC00
ECCB
1459
E56B
E9CB
070B
004A
1EE5
0048
FA80
2B7D
F17C
E6CC
0177
0C6C
F936
FC03
3AB5
2766
EE46
E93B
E909
1B19
E566
145B
028B
172A
FF0D
FF1F
03B1
0168
F272
F13A
0A59
FB1F
088B
FF2B
F157
E8F7
1612
0718
0425
12C8
FAA6
EF75
E858
1920
104C
E884
0735
1478
0C06
0443
FAAB
11D9
F035
F3E4
02A6
F20B
114E
057D
F714
F5DE
198A
EB81
0F13
0D7E
00F0
EBCF
0EAA
11F3
086C
FDB2
EB41
0FB4
F3FF
001A
EDEC
17BC
EFC7
E950
FA77
FCC8
F0B9
0C2F
F217
0434
E79B
F932
FE22
171F
01BA
1189
0D81
F210
ED69
043B
15E0
F795
00CE
0CA8
F272
FF53
FBCB
0885
E5EA
09CC
03D0
0CEC
0EE3
11D8
15F4
F25C
01B6
0202
E608
0AAD
1198
1963
FA23
123D
EA67
F516
EA2A
0612
1962
0177
EF33
0CA8
115A
E868
0FA7
F9BF
F02F
1643
1464
F4FE
FD5D
1960
FD74
F0DB
0FA7
0CF9
F35D
0015
13B5
0B4B
FF95
F25F
ED87
F6EB
1477
10FA
F302
05A9
061D
18E8
1729
E4F0
FD49
118C
F056
E895
FE80
EB62
1A13
0686
112A
0685
09F8
1775
0099
F94D
FD89
000A
141A
07FA
EBC6
080F
158A
0CD6
EE6D
0C46
01BE
1492
FBFA
0A73
E8F2
E800
2668
30B1
084B
F267
06C7
0A4D
0194
F547
E5EF
1066
1153
FEA0
F9CF
ECEA
010D
0294
E6B7
348C
3B77
0DB7
3C64
3139
FF7F
072B
FAA4
F393
0A95
F66C
EB05
0733
1434
EB0E
0258
2E3E
FAF9
EFE9
075E
EA18
0474
E881
0F76
12BD
0A51
2C97
F617
EAAE
F6FF
F2DA
FA62
2895
27A2
1016
328B
28E7
E9FB
CDCF
FCD7
F9A1
E61A
01D3
F1C7
EF71
1601
0FBE
173A
16AE
EB95
F7EC
F44F
0B17
059E
0E56
F6CF
07BA
F98B
FFBA
1348
FC85
EDCB
F163
F1E2
02B8
E41F
EB12
18E0
FED6
F333
103F
F30D
E7E8
149E
1728
EB1F
0E6F
07C2
FB13
EC99
EBBE
EA3D
0C8C
016F
1FE0
F3CF
103B
1337
0D70
09C2
E969
FB3F
045B
17C4
E56F
FE5C
1146
E57A
0F09
E9CB
F7FD
FCE8
1251
1731
005C
0CA6
0D28
EC2C
ECB8
0BE3
FC7F
03AB
09CF
FFF3
F816
EBB4
0238
EA11
1442
14C4
1107
F956
E7A6
160B
1018
EE1D
E726
F186
F265
F3CA
E52E
E87E
0ADC
F164
EC90
FD30
0690
ECCB
FDD5
0C0E
0A3A
F3B9
1DFF
F715
09B0
EDBF
F4D2
ED52
F1F4
EE86
09AE
F37F
EDCF
DDF9
FD3C
F683
FD00
F595
F7B9
0205
F64F
E8BE
FDB1
CD16
E3CB
0DDC
21E7
16BB
FF6C
0E52
0E74
EB4F
E79C
108B
0B43
F85D
006A
EF3D
E994
0F26
01E5
1729
0C97
FEA4
E85B
FDF8
0905
F42A
1812
07EF
ECA8
09C6
F554
0F66
0C2F
F5A3
F4C0
1410
FAAC
0402
F6C2
E6FF
164A
F7B9
FD91
FA9E
F6C6
ED2F
14A3
151C
F887
19E4
1827
E973
0CC4
193F
EECB
10C9
0875
0501
FE98
E76F
09A5
F8E1
06D2
0302
F965
1556
EE9A
F83A
1938
0B64
04BF
EDFA
FD58
FF49
0FD4
17F2
FE63
F199
E8D3
0D6C
16A2
F31F
FA97
0BC9
EE8B
F3D7
FE71
E82C
E863
FC02
FFCF
122C
02E5
F386
E728
1CC9
F103
FF1A
F2D7
F4A2
F619
07FF
F324
EDB5
EEBF
E67E
FEC5
0B43
F2CB
0B5A
0F47
11E4
06BE
FFD5
F073
F219
F9C1
0E73
FED2
FFE5
0086
046C
F9E0
F990
05E9
EA00
1171
099D
07A5
EF63
1391
F9A1
FDBC
E7D0
12DA
EA3D
048B
FBB3
0242
173E
E8E0
14B6
1457
FF63
075A
F210
2AC4
F833
0117
FE93
12C0
07A9
2CDD
FDA6
161C
F79B
FEF2
E955
E9E5
0FE5
E9A6
440D
0957
EE66
FBF0
F53F
004C
FF92
0D07
10A7
0E62
1003
5CA4
196D
0E7F
EB6D
E8F3
10B7
1880
0787
C8EA
E6E9
07BD
2DB2
26FA
1544
4C9D
14CD
E7F7
1862
47BF
0D23
E35A
4143
14D4
F6E8
3816
0CA1
F7C7
E59F
E9FC
1099
1774
FBA4
FDDE
B9CB
E447
0B83
01B6
F9CF
2F55
128A
E3CA
0AA3
F621
4FCD
01FE
03A8
3D20
0D9E
059A
FD55
1ACD
BDDC
E812
EE66
0B88
F178
2784
1733
D422
0029
1311
EAA2
F4D9
074B
F972
FCE7
F47F
F794
0E80
0E74
0AA6
E78A
17EA
165F
1308
07F6
E790
F16C
E8E9
F99B
F221
EF24
EDA6
EEE0
F1EE
FF48
F9F2
022D
E96E
EF46
F188
0D26
19B4
112D
F433
F24C
01F6
E5CB
0FA4
EB74
F1E7
E897
1E77
F40F
D47C
0676
0EA0
4DA3
25FC
0887
4763
1072
037B
016C
240E
1402
0563
4783
F179
1164
333C
0299
E42D
E4CC
F9C8
F9D7
0482
19B8
F0BD
FEE0
EA71
E9F8
FFCF
06D0
F8E6
F05D
F1E9
11A1
16C5
EDE4
0900
1531
1354
169E
E9F4
FB9E
0742
0911
F671
F64C
0B4C
F718
0814
022E
E7B0
F41F
E64E
1984
1786
FE91
0FA8
E6F6
09BC
E871
EAC0
06DE
0829
1350
17E3
EFBB
08C8
E62B
0F2F
0207
F0D2
0A75
EACE
069E
EFF6
0122
000D
EE8B
121F
F705
09CB
0D7E
0C72
07BC
0A0A
0203
ECAA
0227
1A15
FB5D
0E99
EEA5
0656
0C41
1091
0C6B
E76A
E92B
F669
F76B
11D6
F898
1114
ED97
E966
0D42
044A
128F
E5EF
F554
10A2
0477
14C3
FB62
0839
163E
005C
E85C
11C6
E931
1892
0923
F0E3
12F5
F421
F023
F565
0028
00AA
F33B
ECC3
F4B1
0870
E832
EE1B
1705
02F4
1409
EDC9
00E1
FF01
072F
FFE6
02A2
F2C1
EF79
F04A
EE9B
E821
0EFD
FD1D
FB62
F47E
FC21
FABD
0FD0
02E5
16C7
F584
0811
F50C
0FCD
EEFE
F76F
EA12
147B
163B
F730
15E2
0653
03B3
04CD
F2D2
F528
F710
E540
F681
121F
E9D7
EE08
F5D5
EA26
0B16
0BF6
13C2
17BD
EFA6
F929
F2C3
FF7C
0460
E557
1472
E965
1052
D8F5
EC9B
0007
094C
06B8
0935
0943
05F9
07B3
10EE
E383
1700
EAB0
1A76
EB75
FFF2
04A9
FB62
E23D
03AC
0E43
FD61
E769
F1F3
EC48
FFEB
ECA9
103D
E9CA
ED8A
F126
102E
E70B
03DC
0E50
F75A
FC1A
0384
181A
F6DF
F0E9
1831
0BE4
F72B
F0D7
EDC3
EC8A
0670
06C7
1956
0D35
F740
1755
C840
EFBC
35B9
FABC
15DB
FF3D
2126
F31C
F7BE
EE7B
F4D9
41EE
1A97
F6E3
1F60
F666
0FCD
F3B9
120B
F1C9
FBCE
4361
48F1
0095
F89C
F6E8
FD1F
05B9
0A3E
EE6C
F14A
1918
FA87
1856
061A
FDE4
1478
ED2B
1766
0115
FA93
1646
062C
EE36
0C63
F3C5
FC9A
FC35
0414
EDFA
1062
17B0
F963
0E8A
0C8F
EE4F
E9C9
0790
0FFB
FDFD
E961
FB90
F387
0BDE
0CB5
E710
036B
17C9
0E0B
F7AB
0C78
039E
0B8E
F9FC
0FEB
E780
143B
145B
F33B
13F4
FA77
F0C1
EF21
FBA7
ECF8
EB1E
146A
193A
08B5
0B5B
15FE
EAF2
049B
EE72
EDBB
08EE
F50C
179F
EAF2
FFDC
09D1
E82E
F5CD
0B26
F362
FFFA
F9FB
0D01
0C2C
0D7F
FDC3
0559
1254
F260
0A3C
00D3
0A10
F388
E6D3
0B69
F67D
16D6
FDE9
0A96
F6B8
EE2E
0B43
FF2E
02EB
F8DF
0756
17DF
FA3D
F3BB
EB7E
E723
1E68
F450
0679
FC87
1A1D
138F
E5C5
F179
1282
04EB
FDF7
FEB1
E38B
14A5
19AD
EB23
F551
E84D
0909
16AD
F4D5
0D3D
EE24
09C8
F0D3
F394
EF85
F781
04C8
03E4
E713
ED74
F566
08F1
01F8
F95C
F4EB
1639
1145
1368
1520
0235
13FB
FF45
16F7
FD88
0A79
1518
030B
F784
14B8
FAE0
F0AC
071C
ED67
FE1F
E74D
EF3F
08D8
FAFE
12FC
1856
1309
E830
0F5D
EDD7
0522
ED72
E6B0
FB60
EFF3
090E
EE82
F023
FE28
04C4
0AC8
0D87
FE11
16A3
FF41
E7DF
FC9F
14D1
04F7
1825
FC93
E9D4
EAF5
FEC8
ED6D
ED42
05A0
FB07
F952
EB9A
029B
F514
FA31
F335
02A2
0FAD
EC91
1446
09A4
FD6E
F010
0592
1528
F4DE
0101
FD61
EC7B
EB81
085B
EF2C
13B0
0F08
F7AB
FE26
09DA
F7DE
038B
1144
090D
F8F9
ECCF
EF3B
F4A3
09C6
FA16
12C8
189F
EE51
F3FD
0B38
F64C
0C08
16E0
EE03
F31B
F09A
00DB
0F51
0C21
FAA6
1439
FDF3
0CDA
0533
02DA
EFC2
18F6
F746
0CB0
15A0
F755
FC5C
ECE2
FC96
F24F
0E79
E94D
FBAA
FC7E
0C57
EBB2
1857
EABC
0D5D
14C8
EC2E
063F
0520
EEC3
07CF
1235
E898
16EB
E954
FC7E
F36A
E699
E7AC
EB07
2656
2185
E7CD
138C
FBF6
4286
ED89
EC50
1737
FF4F
2E53
0E07
1D77
2C74
E458
F3D9
F710
FAEC
FE4F
E411
2F46
328F
E674
0F60
FCE0
E39B
0C3A
1477
0405
EC93
08B5
F77D
24BC
04BB
0EBF
0255
E6FF
1F7C
F85B
006A
156C
F153
0D05
1E68
FB3D
0385
E9D8
EBED
0702
1229
1C8C
F5A6
275C
352B
E804
00E7
EA88
D443
07AC
ED53
ED33
EEB3
F397
02B1
139B
006B
1392
EC46
ECDA
E9A0
F200
1475
01A9
0B71
002F
FCA1
E788
FC19
0868
F626
FA84
EE77
0C23
0813
F06C
008B
EDCB
F6DA
F49C
0EF0
F3F6
0CB0
F765
E907
FED5
074A
1006
15F4
FD84
E461
031D
00CD
F8CB
1D57
15BF
EB50
106E
FAAC
EAD7
0BE5
0665
046F
F47C
F4E1
1612
12BD
D828
F3A2
F019
09A8
F509
1B84
F716
EA61
1350
FCAF
FD28
0855
1418
0972
E4C6
092C
EA17
F47E
F701
00A2
16B3
064E
05AB
091D
E3C4
0160
F850
EE7A
F8F4
F9B2
1091
0B9A
E6B7
FE82
12B6
140C
F95A
19F4
F184
0229
0088
10F3
1044
F0AF
18BB
DFAD
E961
FE6E
FE16
074F
0190
1DEB
1133
0726
DDED
E3EC
F4BA
E147
FCDB
F67E
17DF
10A5
FEA6
F596
F91E
FA43
0E54
09FB
12D9
F634
F046
F527
0532
FC3A
12D3
FE52
0AE4
FCB7
01F6
0FF7
06C8
F5A3
E885
E8B3
F4C0
F50D
EAED
0B9B
17D5
FE6E
FA97
F0E5
E788
15A5
FFDA
FC19
FBB0
EC39
0FE1
F80C
0298
083C
FF43
F758
17DA
0317
F633
FB89
F0CB
E864
0C3D
101C
FF0E
1584
EED8
0DF9
FCC0
E914
EAC5
0420
F510
03BF
1823
0042
FB96
F1E8
F24E
F752
F205
F944
11F8
1256
EF39
F33D
FBA3
03C6
186B
199F
FB40
1895
FD25
0E1F
133D
0A84
18CC
EA6C
07E5
E787
F3BD
128C
0864
166F
16DF
0EAE
EEC4
121E
E81D
0006
F691
18EC
F1CA
F81E
FDA5
10CF
0292
F1AC
12B2
068B
E781
F159
E6F1
029E
13AF
023A
E720
080F
F4F8
0337
F777
0FC5
0E7F
07D3
FB82
16FC
176D
ED18
12C4
F36C
E8CA
F7CB
FC05
E6F7
EB0D
1237
F791
EE8B
EB4E
006B
EBD5
F4FC
E9C7
E798
0222
F655
F488
2124
0895
05C4
12E1
05DE
F438
33C6
F02A
1527
0BA6
FACA
0FF9
DE97
EC02
E526
EF49
279C
DD0F
E628
2D74
1AAB
00AC
D692
FA1E
066F
01D6
FF14
E387
FE2D
F1C5
BAD2
F928
4013
ECF3
04C1
08F7
2A4F
0100
095C
EF3A
0236
1F49
20F7
FC29
1DFC
E7C0
E5B9
0BEE
D283
DB1D
FAD1
3C8F
337C
FF54
02D3
00FE
DDAB
ED22
00E4
E738
E53A
FC43
D790
F17B
F70E
EB1B
E654
F506
EB59
1161
01EB
FFD7
FA5A
3EFD
02B8
0181
1B5D
E63B
02BC
F5B0
19B7
EA37
E97A
F129
0631
114D
2B66
F3F5
D209
0A50
EC0D
FE46
F3D0
F0B8
0C87
1890
07F4
1751
F712
1190
F1E8
E6BA
0233
EC7A
002C
152A
ECFE
0945
F624
08DF
F305
1A17
F376
06C7
F8E7
EEA7
023C
FA99
0FA9
EFD6
01D0
E9D2
E54A
10B7
0825
091E
C223
CE5A
0F7B
0645
F4FC
FE78
2EA0
020D
215E
F323
1334
4C01
0053
EC66
3F50
E730
E602
135C
EB1C
B92C
F31B
2CAF
2083
ECEF
187C
E7B3
E2FB
13A2
F781
0D1D
E2AB
0404
0E77
FACC
03C3
F6D3
EE4D
EC2B
0043
F0D1
0FFD
FD06
FD78
FBAA
FC41
0F8C
F55E
1688
097A
07F0
F795
0187
19C6
F098
EF0C
0C9D
08B7
F340
161A
17D3
F33C
1188
F146
1274
1590
1701
E722
12A4
0755
0B98
17A3
E7B9
E785
F28F
127E
118D
FF06
EE74
18AD
0470
0651
F1DD
16E0
EFC5
16C8
EBBA
FEE4
F797
EA5E
EFD2
EF1E
EE49
EA80
EFCE
0093
12A0
FB30
EDD7
F160
0E9A
F02B
F2F7
F8FF
F6BB
164A
0047
F42A
F218
F525
04CA
0A7E
0526
FEA5
0F48
0CB0
E61E
0C4B
189B
E8E1
0A66
1024
0224
F640
F86D
EA87
FECF
F7FE
1771
10D7
18CB
F31B
17F1
F5C1
1362
FA1D
FD98
1268
F71E
0611
FE4A
F902
F415
1645
F758
19EC
F835
0C9D
F11A
0AAE
1647
E79F
0C0D
F797
0D2C
0297
F822
0128
0512
FCCF
F4B0
FDAF
EAD1
127F
05BF
0953
18F4
01C8
F66E
F999
083F
F61E
F7D7
E508
EE5F
EAB5
02C6
0260
0148
09FE
1682
F765
0990
EDDF
11AC
E5C2
F187
09E1
03CB
0389
EEA0
164C
F1B1
E84D
F95C
EEE6
E705
FD13
090B
1AA5
E5AA
160E
EBC3
02FD
0200
182F
1327
103F
0C6A
10A8
FE15
EA1A
17F7
0836
06FB
173F
EA27
DF6B
EF14
0012
EB02
094F
E822
F80D
F8A7
FF34
F30D
019C
E619
0A76
08EB
FB30
F3CB
1979
056D
FEFC
090E
F7D1
0E93
0A87
0A99
1819
01A9
0769
1901
0926
059A
E7E1
F455
E974
09F4
0444
FCAD
F478
0BE8
FC2E
F6B8
3107
ED98
DB03
0DCA
EB04
E7BC
FDB8
0260
E174
0166
E5A5
0493
CDF2
0A7D
E33A
0F76
E36C
EE22
3CD9
1ABF
E7EE
DB65
EF20
EDCA
2C62
ED72
FFB6
0757
FB12
E2FA
FCF9
08B5
0940
E7EE
F133
0522
EF1A
1228
0BA0
F624
FE5D
EDC1
1279
0F1C
E75D
100F
F3D3
EE7F
F6DA
0D55
078C
E903
F9CF
055B
F4B0
0773
FB66
04E8
F69D
0C55
0521
E907
0C10
EA64
FCBB
17E1
0389
F884
021F
04C7
1745
0B42
FE5E
FBE5
FC1B
F72F
EB6B
EB20
FB7E
F8C3
14E3
1489
FC15
E6CC
E839
FC6D
1140
0C13
04A9
14DC
F648
E909
F4B8
1595
FF94
F626
10B1
EECD
EC47
EF07
E867
03B8
1587
FA35
02D8
0470
FE86
0466
1322
F985
F5C6
0CFD
0364
027B
0C36
17AF
F4AA
FE57
EDA9
03F7
EB6B
F659
E96C
118C
FC9C
0FEB
FEAD
F963
2C2C
E959
0826
055E
E417
15A9
0C02
F253
F82F
F9A1
FADA
1ED5
1377
F98C
3710
E9A1
0D4F
077C
0A4A
ED50
1390
EC62
F10A
0BF6
2366
0A58
0500
E5A8
116F
F576
0423
12B0
EF24
EA6C
E690
FCF6
FD46
16DF
F054
E947
E8F7
0842
F9F8
0605
F83D
0001
E6F9
12DA
EEC2
1107
01BE
FBE6
0B7C
F893
F24C
0092
F4A3
ED7C
E805
1562
E8F2
1416
12CD
05C3
F282
EEC9
1694
0F2E
0976
0D13
11F2
097F
06D4
1653
F46B
EF66
123B
06F8
F76F
FC85
1937
F9C5
1A81
F08E
0329
F3E4
E8BE
0FF8
F520
EFA9
E78D
1330
0274
FB93
0C7F
0BCD
1166
F388
0C72
11F4
FC7C
F792
17DC
EA0E
0ADD
E93B
10F7
F33C
F687
04CC
E9F3
F778
06E5
FA07
E854
FA82
ECA3
1893
0B78
FD37
F73C
046A
FD85
1A31
E61E
0C00
06C6
FBCC
17B7
F25A
EFE9
E853
EFD6
156F
1131
E873
EA0D
F58C
175E
FE1B
FFFB
FCE5
1356
ED19
19CE
F4D2
0A9B
FDA9
0236
02E9
E5F2
0CBB
FD90
0623
E7E6
FD34
10C3
EE91
1144
EFAE
F685
1648
F5D2
EB64
04B1
F226
F459
F581
FB5A
0259
FF9C
EEB9
0A27
01D6
1789
0509
EDA8
EAA4
0B18
146A
F990
F714
EA83
F5D8
F3FA
0E59
F0D3
01C5
11F0
1871
1040
08ED
06F1
018E
D266
F2A6
0791
FCC0
1A0B
06AA
DEB5
F19A
EF22
D4A6
DAAA
F9AB
E8EC
1054
E199
F2A1
34FE
2EDB
E5EE
FFFB
F1F8
E965
4F75
0627
219C
E5B1
E6BC
1256
1B25
F5D9
2870
E9F3
E704
1383
FA20
F8D0
08D8
1602
02C9
0CF0
0B99
0735
078B
129B
EBA9
EBB5
F2D9
E6FB
0103
0A22
EB1E
36AF
00D6
EAF0
4825
0652
1360
0D64
E92C
FF89
058F
EBA3
1067
02AA
F153
165B
F14D
FC76
F09C
1040
EA9D
0523
0A86
0C6D
E76F
EE8D
0FFD
05B2
F475
FDC8
0A88
155D
F0C5
025D
11D4
0DC1
1B6B
EAB8
1869
F3ED
F503
E903
109C
FC1B
F950
0166
0DD0
EA72
1590
03C5
1BD4
E5BB
2371
0D29
E516
F071
1CE6
0AC2
FAF7
EFB0
0026
F143
0AD4
FBAD
FEE0
E023
0CC1
010A
0178
F02A
EC05
F688
F236
F311
FEDC
FCE9
11F1
19C3
159A
00FC
ED7D
FE77
F780
FE13
059C
F491
F52D
00FF
F66F
E7D6
13F3
E4C4
EBEE
140F
DFF8
0026
F297
080A
EFB7
EC8B
F373
F893
EF17
E893
09A1
11FA
0275
1384
E7C1
FE68
0869
F6BC
EC55
F9FF
1221
12F0
3148
FBD3
EFF9
0630
EF67
042C
FF57
029D
E6A4
F56F
EDEE
0C38
EB68
E982
052A
0457
E2C6
02A2
15A6
E65C
12BF
F765
05F1
162F
ED98
08CE
F177
E93E
031B
089F
0940
1791
F345
145E
F793
0B49
FCCF
F552
EDA2
F6D9
FC42
EB7F
F29E
EBA7
194F
0B85
FE9D
F3CB
F296
ED41
F070
E66D
FA88
11AB
E775
0C18
05C3
0BB5
F22B
14F5
F6E5
FDB1
1789
19E5
0137
15B9
F967
18DB
0C18
0078
0F06
0DD5
F922
18EA
E9BA
E630
08DC
17B5
06A6
EC84
E743
F46A
1700
EA1F
F42B
0C6F
EE5F
F74A
F73C
09BC
04D5
F0D2
0911
04E2
E737
F286
0D54
FBDB
05CD
EE1F
F9F1
FCF9
1619
06F7
F909
0056
FA74
EFBF
F4E3
E899
0AE9
F958
F1DF
EA79
ED65
02CC
F7A9
EE96
EDF1
F16A
ED2E
12D9
EB10
F064
EB4C
0D74
1723
0B84
07F5
F2AA
F860
E957
EE54
EEAE
F2C5
FD09
F2F1
F719
00B5
0705
E8E1
FE80
F451
FC03
F744
0F11
EF33
F832
E5F8
E839
E8CD
FDFF
40C0
D655
F014
EEEB
F1AD
E815
20FF
10A2
0F50
F823
EB4F
38B1
1CC3
F156
4BDF
EAE4
FC07
F464
FD8A
0A35
02C7
DCB1
0E3F
FD21
1BA2
E87F
2D12
0AB9
FC9F
ED1A
FA6A
0408
3107
1194
F075
0D3D
103F
0BD9
0C40
E647
E185
15D0
F713
0A6D
D123
F8ED
C51A
07AE
E265
EF2F
6DF9
0D69
0069
EDFF
120A
ECBD
F652
E848
E489
130D
1987
05BB
0C86
02C8
E456
134E
15E1
02B2
F165
1174
FFAF
12D4
1D5B
FEAC
01EA
6E47
1421
04BC
14CA
1163
E1B9
EBD6
18AE
EFEE
FCD4
EF87
E990
F476
D0FA
F6DE
0227
F9F4
ECCC
104F
011A
0F92
0852
F754
EB12
F00A
0F93
EFC7
16A7
1959
03D0
F09B
0372
F1F1
0783
0B46
F8E6
0C74
F9EE
FB6D
1210
EECD
07EF
0F1A
0A51
F926
EB9D
0F5F
0178
F6E6
FCFB
1040
107C
0790
281B
F76E
FA28
EB2D
FB52
0E1D
2448
F32D
04C0
F2BA
F657
24B8
E155
0BBE
FBC4
E9A7
14DA
11C2
4386
140C
E698
CC6E
09C7
01D4
FB4B
1322
F710
04C9
F56D
0067
04C5
F5F4
FCB5
14C4
F86A
F84C
1425
EA6D
F23C
F1C1
E6C4
FBCC
EDC0
E9EF
0E4A
0EAF
FDA0
0378
1564
0A70
E986
0470
0748
0D9F
0E47
1027
F170
F819
0FA1
E7B5
0976
EFA7
EA2F
0A6A
0FDC
E687
0853
E7D1
166E
EF15
F145
167D
EF01
F7B5
0667
0FA5
EFD1
FC10
FB0C
F705
0689
0D11
ECFD
EE6E
FFD1
0E5E
E83C
ECA1
ED96
0806
0D7D
0710
19AF
ED3E
1014
F284
1228
168A
EF82
EB4C
0544
17E3
0471
E75C
0FDE
EC24
FF20
E897
19D8
F14F
F4F6
EA48
0E1F
111B
082E
E873
139B
F1B3
E7AE
EE8F
E618
062E
FC34
1808
F17C
13A4
029C
FE9D
00AD
1858
080B
07CA
EE8A
FB3D
F68F
1006
0A06
0502
E6D8
09FF
E640
0D1C
F30F
0D3E
0DF6
E6A4
F8B7
FF63
0CB7
F5CA
F4F8
0CBF
0388
FE7F
F8AC
06E0
F66B
0F4E
07BF
F736
12EF
F32A
F943
F82F
118F
F282
FDCF
0416
E66A
03F0
1236
056F
128A
FCBE
1874
FC68
ED68
FB2A
1A17
FA99
07AF
068D
198F
F3B7
0A00
0021
0150
F6FD
010F
0F3F
E9D4
E716
E64C
F70F
0229
F388
01C3
EB5A
F29B
13A0
26F5
0961
1133
F08E
03C4
177A
E331
F306
EF5A
043B
1464
F67B
FBC2
DAD3
ED60
F954
DA0E
F5C4
2470
EA08
035A
F934
067F
FA9F
0E51
EB03
FE95
1847
0C78
14C2
063D
020B
EBD0
11E9
E83E
13D8
192D
F7B4
F441
1328
007A
1702
19E2
025D
F9B5
E7E4
F020
12E1
F4BE
EDEA
0DEE
0F86
EA4B
0203
F2FF
E951
333F
CD4C
F79C
0C49
EE42
E86D
27A8
0B7F
DE98
FFD2
FFC1
0630
EFA6
F199
1147
EE4F
EBFC
FA7E
FF28
F0CB
EED3
D725
0990
1651
4437
0D67
E77C
FD7D
00F2
FB99
EDDE
EC12
10D4
060C
0D9B
F537
1428
E7CA
F202
E9BB
0057
1026
EEF2
03BA
EF81
EFD4
EA61
EB97
1780
03E6
0510
1703
FA95
ED56
ECE1
02D5
19C1
0A89
E7B6
F841
F24A
F63C
F117
0970
FEB7
1629
0016
FA5A
FA01
FD9C
F30A
1598
EC3E
F75D
EFB4
02E6
F620
0A21
F9DA
1801
0CD8
02B1
EB74
F056
FC52
0FA0
02C7
155B
0BEE
04CC
F6F0
118A
ECD6
F110
EE0D
0DBE
F292
15CC
E746
F918
EFD1
1538
EEFA
16EC
FDCB
F423
074B
E767
131D
FF15
152F
F7A2
17B2
0230
E9C6
12C1
EB7E
09F4
0A24
0CDC
12CC
ED32
0905
1216
E764
FB97
08E7
EAA1
3596
DD77
1EBF
14E8
F01B
EA9B
224D
F345
184B
EAFB
F830
FC0A
13EB
10F6
0EEA
14B4
0B2C
FD4E
0422
F8AD
F2FC
E577
101E
15B2
2F94
F769
F659
03B1
F2DE
0F87
FBFC
1264
F529
EB36
0C3C
E913
0203
EBCF
EDA4
EFC8
F84B
FDC3
EA98
FC72
0749
0DCE
0352
EC57
155F
09E5
FB08
E680
137F
FBEF
0047
02F0
F303
FD30
15D2
FC5E
041C
F3DE
E7DD
153E
F4EA
1228
F09A
084A
0F22
1388
072E
F9B0
1009
1A9B
F1A2
F349
08CC
FE38
1791
04E0
0E7A
F27B
E928
0E14
EAC5
FC5C
02C8
F3E5
F02D
F94B
F5B0
1033
F9DB
060D
09B7
0899
F1C0
1148
11BB
030B
F1C9
EB04
0AAC
E659
F5BF
0D94
E572
0067
F915
122E
E704
FE30
194D
FCB6
E574
E955
0489
0E37
F9CE
10B8
0319
F14B
0354
074F
F701
0240
F107
17C0
F2A2
F200
F54D
147F
06DE
E620
17B1
17B2
135D
F7E7
0D8C
EFDB
0391
FC46
0306
F34A
0FC8
1056
FE95
F985
F4EF
ED1F
092C
0342
114A
0491
F795
0BF4
EFC5
FB80
F1F8
F74E
EB7E
F43B
117C
0F2F
0409
1426
0A73
0DA8
FC03
EC86
0463
ECD6
191D
0407
E713
0681
052A
FBF6
F472
FF49
11F5
F306
1715
0ED7
17E3
171C
E940
0CF5
EA0A
14CF
FEAA
E852
237C
E2F5
166A
0168
066B
048C
3747
F5A4
DCBB
EB28
EDD6
1972
0024
050F
1CAE
F9F4
02A4
185D
362B
11CA
E3C4
0F1A
EFE5
E90C
46A7
0CBF
E564
FA56
F2B0
E3EB
FC5B
F2E6
1A78
FC8B
1F5B
F08C
0BB1
E54B
0B69
0A57
EC51
F1C2
FD26
07EF
079C
E628
079B
0CBE
EBB9
1115
253A
1D2A
103D
1F5D
13AC
FFE6
5292
FC9F
E50F
08F5
E8A9
E8B2
038B
16C3
0781
F7B7
F7B0
FFB5
07B4
086A
E7EC
FEBA
0420
0213
0BF2
0D77
0EF0
F65A
FF9E
EB06
12C6
1243
FFE5
0A0F
121A
F9B7
F192
05C2
F62F
FB67
14D3
19B7
F095
EF12
F747
05B4
F994
FF2B
1449
F6D0
FC6A
13D6
1426
0732
0E2E
F0F3
1330
FACA
EA35
02C1
1E0C
ED5D
0068
0509
0E75
F381
EA1B
FD46
EDD4
0C73
06B8
10EB
0CDD
F432
F878
F0BF
F50E
F5D5
0DD1
1ADE
0CCA
E901
ED05
F840
0E8E
11C9
2E29
141D
F5DA
01CE
1784
F641
059D
04C7
07E6
18B2
F38C
1714
F858
0939
0156
0DFB
E6C6
FAA3
238F
FF8E
13C0
EE56
E134
FB39
F7B4
F515
0043
138E
FB20
E9FF
EF86
0A9A
2A8A
E7D8
FCF8
FF3D
0710
F549
F77A
0E4A
E9B1
ED0E
FB72
F535
FB9C
FC28
EFC5
E813
FD7C
1331
0018
F514
0CCF
12CA
F57D
0A4F
0968
F57D
048F
EA67
0158
F2A5
FEEC
0C01
012D
F5BD
0A0E
1A4D
0F1C
F399
F5F2
0B42
138F
172E
F449
F1C6
E96C
006F
01B5
02D6
EF9B
ED6C
FF39
F7A1
130C
F798
F725
F0E7
0E32
EBC2
043D
055C
0BAB
0C02
E789
1081
F74A
10AA
099A
0DCA
078F
FD75
FD13
F642
FC9D
005C
0C79
066F
F94A
0CB6
0460
F802
03E7
EF09
F498
EC83
15F7
F1A5
EAB2
146C
0724
0399
FCF7
16F6
10AE
0FEA
F336
F8D7
EE7C
E57A
EBBE
F4FC
EB67
116A
FB76
0B07
F71E
1365
EF14
F5D7
EE81
0C61
0149
E5CF
FFE4
0C7B
0AA5
0E32
0C13
096F
06C5
EFD0
0031
EA0B
FBE0
E87F
1423
EED2
FA5C
F7EF
F806
02ED
FC9C
E790
F7E4
EA89
172C
1709
0879
FF1C
1829
ED4F
11B2
F8C3
0C63
EFC7
F96D
FB2E
080B
01A0
F284
FCFE
ECA4
FF02
1EE6
E875
15DC
0F2C
EE89
1125
1A42
F3CA
0EED
192F
FB35
EDE9
1A5F
F989
2F19
EBC5
0E9F
F9FB
0C88
F681
F75D
E307
054D
FC3D
3007
FB32
3451
EB04
F795
EFB0
1C1E
F807
44CF
D093
E849
0607
0AAB
0BC7
363A
09DF
1469
EE44
FCFB
415A
DF35
F27C
57A7
07BB
047A
EED4
251F
C292
08B7
E547
054F
FEDD
1D71
03EF
3BA4
E954
F051
FEB3
F238
0C4A
F461
E8EC
0D2D
066C
E831
FA2F
093D
03D5
3B40
FE03
E6ED
4481
0EFE
E82E
38F8
E705
F3D1
FB2B
0B54
DF3A
E5C7
F1EA
15D1
F418
065C
F857
3BF6
1315
FDA3
E395
0CA7
F80D
EBB4
EA91
E246
191E
0E2E
0C7F
F931
F20E
1037
E7EA
04A3
1214
E36D
EC31
ED0D
19B6
0EC8
0C47
0F38
FEB3
021D
F4C1
0DB5
EAD0
05D4
09FA
E8EB
0A07
FA8C
169C
F9D2
E759
31F8
D69B
038D
0B26
0950
F5E9
2D47
ECF8
2D94
FECC
FD7F
3F6E
F739
F7F9
4EB4
F163
F952
EE95
1E26
BEFB
1318
E4B6
1400
0E42
297E
0AEF
19EC
04B6
EE34
F1C4
09F1
034F
0606
FDE7
10DD
05CC
E7ED
FF39
02ED
1906
F4B4
E56D
EDB5
F3DC
F140
EACF
EB84
FCA6
054A
F63D
00A6
FDB7
F0F0
100C
EBF7
08D2
F476
E67A
1869
EDB8
F249
FABB
0AA6
119A
F28A
149C
17B6
14D8
FBD7
F918
FA72
F5C1
F6EC
EF7F
F6B4
EEB3
F9A3
007F
F8DE
167D
1777
0CAD
ECBF
F836
0D54
F29D
FFDF
F752
EC21
12C6
18AC
08D1
0F73
FBA5
0BD3
10A6
122F
F8CB
FE28
13C0
E95B
145C
0FAA
EB8F
EFFF
F0C5
0E93
EFC2
174C
03C0
FF6B
0565
E661
F010
104A
FB95
0959
16DD
F219
FA38
0F37
09DD
0B2D
F823
11D5
0120
EFCF
FD93
18EF
078E
FAF3
F3D0
FFF3
F3C3
165E
1505
F9DB
FF0B
0D3D
0902
0CEA
19EF
E6A8
0572
ED2E
EC7B
EE97
0AB8
F453
180D
072C
FD1A
F481
E950
0859
FDB7
00CE
04CC
0DD6
029D
EB69
10DD
1676
054D
0707
0DB8
015F
F6F1
FE60
FB0A
13AD
1333
F62C
EE73
0CBD
0A59
0FFF
05DE
FBBE
0FE0
054F
09FC
0137
07C5
F41F
162D
E95B
FC90
F4E6
F334
1271
0739
EE58
1376
060C
F4F0
FF80
F320
004A
FB26
F2A3
F782
F5E3
0EAD
11D5
06D8
D62B
0C7C
EECB
F70D
FB0A
1BD3
FE89
04F9
18C6
184A
FE58
01A6
F7BC
13CD
FB52
E542
0306
F583
F203
0DB2
10B9
E981
FC6A
1148
0424
EB8F
0540
12FF
1640
1301
FA00
F6E3
18C2
19BD
0623
082A
019D
EFE3
FDE8
F0D9
FF16
182B
1A57
F6EC
073D
0D8C
1276
0F03
16D9
EE1E
019E
E12C
F9A5
F2D4
13AC
F8D1
2AF6
182C
FBAB
10BE
F267
1423
13D2
144F
1562
FFBF
0D6F
078E
0244
C715
1417
C565
FD07
F64C
220D
EFCF
DB5D
FA08
E558
F4CC
0D07
1597
F6F9
F62E
E88F
EE32
0BB7
0132
0A6B
F80D
EA39
F798
E917
F2F1
0680
ED9B
F1B5
F552
EFA0
EDD8
09B2
19F2
1833
1772
1383
1A01
1174
08AD
1341
FF18
FA15
13AD
FCB5
188D
046D
0BCD
1895
EA0D
0EF5
EB8F
0D39
1577
0F41
FDFC
EEF0
F8D3
F614
F0F4
03BE
F39D
ED24
F465
FDF7
EC5B
EC49
0FE6
E8C7
0059
03F4
0DFC
197E
EE59
1844
EE61
199E
F6BA
0573
1786
1238
075F
FC80
FE61
1062
FDA9
F7BC
F980
FA72
1372
E711
1116
1818
EAD7
EC45
F417
1BE5
EC46
0651
E932
F145
1230
0869
F5EC
F3D5
EBB0
FD37
1789
FCA0
0726
EDFB
EB7A
1107
0EFF
FC29
F0E9
1279
F30B
F083
E640
E52B
F9AB
08C0
E6A2
E85E
FD83
E76C
03D8
D846
F73F
F69A
DAEC
0ECF
1131
0166
F6C8
FCA3
098A
0634
F2C6
F4BB
F3D3
15DD
0617
1126
FB91
0F06
0D45
FBA0
1125
E7FF
15C5
E99E
ED9F
F6D5
FB8A
1684
EFB0
E630
18C7
11BC
F699
1856
F7FA
07B2
F7D6
F7AC
1063
1372
F209
151B
F016
0524
1587
F3AC
02DF
F34F
1870
14C7
0CFD
0B1F
F333
EEA6
023B
F118
F803
EEC7
ED12
F29F
0046
F2D1
0CEC
F0E6
00D6
193F
140A
EC19
FE30
FD32
006A
0241
0642
FE73
190B
E854
11D5
0F1C
EA1D
0BAF
F3BE
0258
EF0A
135D
E87F
E9BB
E8C3
EA37
EAD1
F0A2
107C
0EF7
0054
0FE9
F6AD
0B9D
F609
16E6
FAE9
1258
F85D
1638
FAD9
F97E
EDC2
18A3
EDC0
F103
E7FF
F063
017A
FFBD
E8B2
E737
ED38
FC4F
F4E5
0984
08EC
F895
04AB
FDEB
FCBF
ED5E
F90D
025E
1867
FAA0
F072
081C
F0F4
08F1
01C5
0E65
FFE8
173D
0FF0
1285
FA11
0D19
F33A
0E00
16A4
EA61
1052
FDE2
15DD
0B51
FAB6
ECEF
0936
F9AF
08A9
F251
0961
F846
E93C
0B01
186A
E7C8
E85A
1978
1223
FA6C
08E4
FD12
0C9C
0BD2
021C
1671
E8C0
0D68
15C8
D300
D8D6
F7C5
0FAE
05B7
00FA
20A8
1701
35D5
13A4
0B80
2534
0EC0
FC3C
4C4B
078E
0660
1488
FDB8
D951
FFA3
FA9C
0E66
0D4B
0F3B
ED15
E88C
F458
F12F
EC60
EE97
E8E1
D7A4
E1DA
F256
04D8
EB78
EF05
0101
F479
0956
F29F
03B8
11DA
EF2E
E78B
005D
0309
0DF2
EF4E
1034
F2E2
058D
0CED
0796
13E7
2B2D
FED1
040B
E888
01B9
E301
F501
FDAC
F537
0833
1923
1457
1147
0D7D
03BD
0A4E
0997
02EC
F5F0
FBCD
EAF7
F676
F4B1
F9F3
E5F7
FFDF
E6C6
177E
F312
E84B
0CAE
F791
1BFA
ED32
066C
EBB6
1210
F6DB
0632
064D
037E
EC46
EF10
1288
FF87
169E
FF5C
01B8
1B42
0EFE
F35E
019B
F2DE
049E
F438
EC14
03C5
0AF1
E02B
1C58
FB89
DA39
FDFB
0897
02C3
E6B3
F782
0B38
FE29
F73C
0626
F035
17DA
1AC4
E771
16B9
04D4
E8E0
1166
1244
F5E7
F538
0B68
F2FA
EA96
E471
ECBC
0E91
E86A
03CE
EB1E
FA1C
F66C
F3B3
FB8F
1615
DD97
FB31
20EE
F1E8
EE9B
040F
EAE6
1865
080D
097F
EE2B
EE0F
1404
1295
1C0B
F5A6
F3CB
0647
F2FA
0D24
0BD4
EC27
0766
0893
0079
F074
EE93
0F2E
E517
09A2
09A2
1062
054D
E66A
2496
F524
F68A
ECE2
E84F
0F01
FA2E
04F4
1366
0626
0D9C
EA26
077E
F9F4
1685
E8A9
F134
F850
0020
E900
1764
1227
0512
03C1
F7F5
021C
010B
F0C5
F9FE
101C
EF47
E8FE
E903
0E57
120D
1541
0026
1985
F925
FE48
F9A1
F818
F937
FDB9
EEBA
F0AD
1850
0DCD
F464
034D
ECD9
11AD
FC66
104D
01D9
E5FE
F75D
FE15
E970
EB3C
0868
116C
FA71
0778
18E4
E853
183D
0F0F
0ED6
F869
EA4B
0D62
FC9C
E914
1752
F77F
198C
0215
1184
F028
FF32
FC71
EDDB
F2A7
FFE0
049C
0486
0421
F85C
F73B
FC2A
F7DF
FA6B
F528
136E
1149
FB6D
F94B
1B93
019F
F05C
0B87
00A1
0521
0333
F46A
E9F1
0324
FA87
1690
0488
EC2E
F945
F4E0
FDF8
FB56
ED5B
F777
000E
0852
04F7
10D6
FD91
EF8B
FF79
EA02
F310
EA1F
1366
E60F
0275
FD16
F881
F269
171C
ED96
269F
0F14
1487
0551
19F0
E7BA
EA1E
FF6C
08BA
F693
1015
0F15
DE4C
0B07
E68B
1301
F070
F70A
0751
E786
EF01
F509
2F86
073B
1EE3
143A
0179
1458
1953
F1DE
EC64
DA6D
0E68
FFEF
0525
E7CB
134F
F83B
5A55
0390
F177
003F
155C
F32A
3EE2
1322
0C3D
08AD
C5BE
DD41
FEAA
D49E
074E
F4C4
258D
0F4E
F5B6
E694
1221
0C26
E992
FD04
127D
1036
498A
1698
EF59
F406
07D7
04DE
09B8
0715
056A
00E0
0FE2
0BE1
D806
0D89
070D
FB90
DAA8
1B55
0183
0671
F8AB
FFEF
0701
EDE6
153F
1694
F37C
1334
FF3E
F37F
F928
EC07
02C8
E840
0C62
F76A
16FD
1443
F8D2
F58D
0B0A
1760
10AA
EF15
0775
12F8
044F
14F4
1A2C
F253
F2FC
0991
F579
0768
00A2
17A4
F203
1862
10FC
0DFB
F74F
EE89
F18B
E838
1081
EB22
15DA
F1CF
2113
E9E8
555D
FE1A
0099
EE9D
170C
F244
2751
EF76
EB6E
03C7
D24C
DE88
F143
EB66
0623
0CD4
154A
EF89
229B
FB58
E883
F460
069F
0420
EA13
01A1
1275
0BB7
EA81
04BA
0DD6
F999
F71D
FC25
0F02
16E5
F399
12EC
F01F
18F3
1089
0D77
157B
E6F7
F2AB
17F2
0F02
180A
E9C6
F78F
0BA3
059F
FB33
100B
FEA6
ECAB
0C97
F7A6
0FF0
FCA5
0614
E8A9
FF7D
EE12
1671
0D95
0613
FB66
0017
1889
1144
0D67
05D4
FC9D
FB64
FC37
E80F
FF23
18E9
1291
06E0
F388
FE44
E8A9
1046
E734
EE06
0B55
12DD
1607
F397
0A23
03D3
FE22
F2BA
FF57
110B
0DEF
0195
EFF1
F678
108E
10E9
0160
FF71
11A1
F8BF
F0EA
FC9E
0805
FE72
0DDF
0A93
F811
12F6
E6B9
FA4E
0466
05F2
02D6
E96D
F802
06B3
FD27
0778
ECB2
1892
0853
117D
049E
FBBF
FA36
189E
F863
0F39
0068
EBB2
07A6
FAEF
EE00
117D
FA70
0574
F56A
F7DB
102A
F58C
089C
F3DB
0BB3
1578
E6EA
FFE6
146F
0982
E59D
1132
EFA8
142A
F290
0ECA
0C31
F400
07C3
F980
FD06
1A04
E880
1034
079B
0CFB
F7A5
0E05
036C
E8EF
FDA7
FF5F
0D8D
FEED
01BE
F629
E72C
1046

