2679
2830
08F4
0B0A
2EF1
0FE1
0376
0215
10C3
35BB
2D76
0A1D
2B95
0859
352C
14C0
33C4
0B97
3E94
0ADD
0947
36AF
2E16
3848
33C3
0CA4
30A9
06CD
05AC
0538
39BD
36BB
1088
31EB
0653
0510
0432
2B45
28C5
009D
120A
3B71
051D
3FC0
2C01
2EF9
1532
0928
3B47
3F8F
0DEC
0F81
3C30
1680
127F
329C
3E1F
14D9
0BCC
2A44
397D
1133
04AA
33A0
3BB1
3399
1589
0D0B
38B6
0E1F
0E94
2704
396C
3C73
1691
3313
296B
2C9B
11A0
3ADF
0308
097B
03ED
2D4A
3D79
2CD3
2DB4
0C0D
2B63
07F0
2D78
2D89
27C3
2DC1
2D60
0433
2E85
084C
36CC
28FD
0DFC
04E7
2E3F
0B38
004A
12B1
130A
125E
266D
0434
3D8E
09B8
1232
32FB
3657
3481
029A
0C2A
3FF1
1113
06D7
0F77
09C4
2D3A
3001
36A9
01F2
0F82
080F
315B
11C1
0A85
0859
0E43
2909
3AAB
3217
1198
2D87
2E6D
3AA4
3CD7
330D
1731
3D30
16BB
0402
0B64
07FF
27D0
353F
0CA1
1733
2F46
0299
022E
0D7E
3B62
2F79
121F
2B75
2C8A
36E8
0790
0B5B
16D6
284D
3784
27DF
2B81
3AA6
2898
3CE0
2A88
349C
3509
395A
12D9
0298
2F39
0292
2B4E
3A1E
00FE
33F5
2FD6
27B3
3340
2FD2
0224
0D2C
3187
2F14
09F4
2D72
04E8
14DC
3659
0A58
2D7C
2FA9
046A
0623
0E59
0627
0652
2AB8
302A
3893
02A2
2D41
346A
2A79
0F11
287F
2848
36DE
0F5F
1322
3819
0806
062E
3E7F
0021
35C4
2DEA
0D67
0A89
04CC
2D32
3769
3D30
394B
314B
0491
171C
0CBF
3C9F
3B67
10EB
3AA3
1331
2D6C
2F09
0C7B
3B2E
3B32
03EF
3857
09FA
0AEF
267A
12C6
09DD
2950
162D
01A6
36EC
2FCF
08AD
0DFC
35EC
36C8
1063
006A
3AD9
3FE8
0C9C
2D15
3ED1
2D32
26B3
3B31
266A
28FE
0778
1149
2A1F
073B
0F4E
2DE6
17A4
2F89
378F
3388
3811
102A
0D8D

