3E28
3258
3255
2C01
2ACA
0813
24B4
3DDC
2621
2CFC
2DD2
29AE
3FC5
23A9
374F
08E1
2483
2616
090B
28F4
09CA
0BBE
0207
23DF
1330
391D
3646
2DC5
0507
29CD
0D61
19D8
10A2
070F
2AEF
064A
08A6
27FA
29E9
18FD
17DA
2EE1
3692
12A0
0BC8
040A
1101
30B9
2B43
031E
34CF
2B02
0E1D
0849
073C
0963
11EA
2FEC
3562
01E2
0B74
33E3
3BE0
12E4
34CC
0D72
2E89
349F
2E52
065C
2D5E
2922
0053
3CA6
0FDB
0C46
08E3
0B14
388B
3C9D
315F
3158
0532
27B7
15D9
399D
3BC0
0B49
0D88
2B57
3289
0429
0125
000C
28F9
3742
2DB8
14F2
08E6
0B8A
2F2D
2BBC
10BF
1443
3363
173C
07F7
3D19
03F4
257D
161D
02CF
2F21
3342
068B
2A82
276C
3278
2A55
0372
38B2
1071
325B
30F0
104E
3276
14BB
36E3
362D
38F9
0A62
0884
2F7D
155A
028B
02A6
3E22
2A67
3302
3BFA
2B05
31C7
2B1F
2C2C
0C0E
2B4F
37B9
3F49
267E
3BB3
10A7
1099
2AA2
112D
39D7
1984
0203
285C
0EFD
2A26
223D
0D35
2E6C
3B90
2E72
2E2E
0D3D
071C
1825
0F08
0533
336A
0405
2D33
3765
1350
0088
0532
17DA
186B
2781
29C7
2387
2738
3E46
10B7
0D1D
1188
2FCE
3ECF
0512
2EA0
2822
0BE8
22FA
2907
1595
0FEB
3576
1416
3B93
0C00
2E91
1871
1256
3F89
2903
3311
11FA
3765
11AB
0C6F
2E96
2839
2D1A
05BB
104F
1040
0067
2FA7
2D3E
13A4
0F4E
0F3F
3934
0203
3B99
363C
3110
3B97
0F87
33DE
060D
0240
3B80
14CF
23EB
28B2
2F12
30BF
2E56
12CA
3798
31A5
096F
3CFE
2FB0
3EB3
2395
169C
31C4
3ABB
3BA5
0120
04CC
3334
2542
0F03
34CC
13AD
2E61
1789
32C6
3016
190B
2DC0
3A11
28C0
2C60
2301
36DB
373C
040F
2CE2
1541
0F0F
019F
3D16
1458
0C26
1334
0DFB
3460
100B
2734
0466
0BB3
272C

