0963
0DDF
0EF0
06F6
123E
34C2
249C
0F13
0E15
36FD
13FD
1488
0932
0039
37B4
073C
1513
12E6
2F48
2D42
06B4
13EB
1775
3E6E
26D0
3041
0A3A
19F1
3715
2EFE
3CD1
0A12
2588
360B
36DF
0E4D
34E8
3198
263C
3F7F
3939
281C
35B7
2C66
0460
0D77
11FF
28BC
00CF
393C
2986
08D6
0938
0AA8
12CF
26CE
12D7
3754
2CCB
2D9D
0AB2
0B85
30FF
2898
3BCA
3924
2B4D
029B
01E7
3EEF
2385
1513
2D35
0422
3F75
140C
0671
199D
0329
0D84
36E0
12B7
3AC3
05BB
18FA
3364
0686
3F1E
3A05
0CA5
014C
3478
0251
3D26
1504
3CA7
362E
0FE5
2D2D
06EF
13DF
1275
2BAD
0A89
08C8
1549
14AC
1583
01D8
3CB8
3F0F
29BD
3609
3C72
1466
1175
38B5
30F6
2D3D
2EDA
3BFA
1325
31DF
13C1
1820
1157
0721
166A
0731
308B
246C
2805
081D
131E
3A80
0425
2B41
25EA
3D5D
09F8
39CF
3617
1348
3B3F
160B
3683
342A
0501
3C02
046C
3DA6
1544
03A8
316C
0887
1531
0207
3898
2832
147B
0007
0E50
36E3
33C5
145B
0D7F
138F
1639
3B60
0FAD
2E51
0C57
1D77
3B3D
2788
2AD7
23C4
34BA
17D5
3510
16DF
176D
0FF9
3C29
0181
0945
2C66
0F8C
2E74
04CA
3415
2E5F
1327
0E93
0A7D
100F
2B20
3985
398C
0001
06F8
04CC
3CE5
01D6
39AB
129B
2E8D
0AC2
27D6
042C
3552
0078
3CF9
2EAE
3156
38ED
04BC
0B46
0BBE
0EAF
3C10
314F
0D1C
3CBE
177A
37B4
3199
2FD4
0A21
3F15
10F6
0DCE
3E38
122E
3C46
0407
050F
2628
365A
02C1
3641
3549
3399
3D75
116A
2A89
3989
327C
282E
2C31
37F9
2ACF
007F
03C0
19EF
2E73
06D8
36E3
144F
2D9B
30F4
1116
26A2
3B8A
2D12
107C
3CBF
0961
3C3C
278B
3676
049E
2471
2C27
2900
11AD
32A7
3B56
0F15
332A
0BE1
2F15
3244
12EC
1889
108E
3863
3D06

