BD7E2090
BD7DBA96
3B4E1C00
BDA7FF03
BCDC87F6
BD51D726
3C447828
BD8C85C3
BD1C3B10
BD891876
3B046700
BD1C7D0B
BC900BB4
BB280E60
3C07E898
3BECDD50
3D066E10
3C532040
BC02DE28
3C9D5314
3D35C7AA
3D82901D
BD42DCB0
BD05DA00
BBBBC330
BABA3F40
3CACFDEC
BC719118
BD8E09BB
BD85AB20
BC061328
3DA63FE5
BD51EF30
3D410A42
BD1B5136
3D2A0446
3D433B9A
3D1502CA
3CF4EFCC
BD7BEF10
BD549646
BD79CDBB
3D9C083D
39558A00
3D0D5EC0
3D7EC312
3D24573A
BD7CD426
BCE2B9CC
BDA1E28E
BB0FC500
3CBF62C0
3D5C448A
3D83991B
3D52DB22
BCE3856C
3D717302
BD0BC310
BCEC1356
BCA62954
3D2B4576
BD3FA5A6
BD4311F0
3D784AB2
3D47A15D
BDAFAEF6
BD9F5E92
3D1573D9
BD961343
BB4F9396
3CB8D3C0
3D0F5CFD
BD9F28E5
3C35189B
3D101F73
3D278BC6
BC57447F
3C9F1559
3C518AE7
BD547CDE
BDB1B129
BD9F41DC
BD5B51FE
3D91E486
BBAC9630
3D22809B
BD88E6AB
BD700C41
3DA148CF
BCDD0D68
BD97F400
BD849A21
3CC094B2
3D8DE201
3C9E47D2
3D94C5E1
BD28119E
BDACF116
BDAD524C
3CB0C542
BD9CF377
3D867F9C
3D6774DC
BD407B29
BDC586E5
3D4594BE
BDA31DA7
3CE2CB4A
BD75DF30
BC513CF7
3CDE39FD
3D9527CD
BD9BBED1
3C884FC0
3DBEE14D
3C8FE391
3B2289B0
3C96E05D
BD5A8FD5
BD4DE5CD
3CB4A9E0
3D81BED7
BDC4F623
BDAB5173
BD939614
BC766194
3D5A0D21
3C90E729
BD035B1B
BDB89BF3
3C684360
BD947A6B
BD9A84CB
BD8E2803
BD780170
BD916333
3C94F436
3D1C89C5
BAD06140
3CD3EBE2
3D8791DD
3D1E09D6
3E357F2E
3DB313E2
BD0C183E
3D9F192C
BD050D10
3D22EE88
BD802F4E
BCDDBE1C
3E0D1922
BC2A95C4
BD38EE17
BCA0154D
3C367680
BDCBBDDE
BCF5A4CD
3CFF2AE3
BDACCA20
3CBA77C6
3C163A94
BCC4F0E0
BCF85B3C
BD90A39F
3B3EFE00
3D94BFBC
BD308285
BDA79223
3DF5136B
3DB1A19A
3D358A92
3D4622EA
BD11002B
BD12900A
BD4DA426
BD8F3EA3
BC815A8A
3CF0E5A0
BCEB2DAF
BD9BE891
3DAB115C
BDBD711C
3D88172A
3CF99A20
BDA63883
3DA4AB9E
BD044672
BDC5B84C
3C68E9F3
BD6A565C
3C9820F8
3DC59BEC
3D18A826
3D79D345
BD53E136
3CAAA730
3CE67034
3D352593
BD7EA936
BD14820B
BCE160F9
3D0A18B5
3D20E450
3DBB84E0
BB33F259
3CAFC305
3D15DE7A
BB1D9EE8
BD86D7AA
BD284B16
3D93C061
3D89BACE
3D9EB265
BD3143F5
3CBFE109
3D8F636D
BCECE2D0
BD0DB79B
BD33B316
BD62A13B
BDB7CFE4
3D845414
3D269242
BD0A8F64
BD9365B2
BDA9061B
3D87E616
3DC6A450
3C0D0B06
BD1D9B44
3D406E44
3D3B61ED
3C286D24
BC614CBD
3D9CF043
3D874595
BCD29F4C
BD4F44A5
3D5EA6CF
BD49E903
BD1DE9D3
BD148870
BCE61E23
3C3D5823
BDA6A73C
BD2E2A17
3C4A9FD6
3B8C88D0
BD12D106
3D71504F
3D2CFFA4
3DB3C9D4
3B2BCCB3
BD3037A8
BDBB4680
BA392386
39E83000
3D019C3A
3CB3E308
BD131BEE
BC4F3280
BC20B58C
BD3491DC
BC092D31
3C9CBD86
BC04BC02
3D5DE36A
BD90014D
3CBF9474
3C948E93
3D701D86
3CCD41AA
BCC5B78C
BD6BE988
3DA90261
BD8E7CB4
3D998AE3
3D97642A
3CDC9851
3D1AA0EF
3D84ACC5
BD8D4FA3
BD889060
3D3BD9C6
3D3913BA
BD4E609E
BD86E339
BD40B69E
3D1E3DFF
BC142EC0
3C414BE8
3D083A5E
3D1C0BB0
BC5E84E0
BD1877CB
3C741340
3C15910F
BCB212B6
3D87E0D9
3D8ECD2B
3D0BD64A
BADE7AC0
3D99D45C
3D8B5E9B
3C0CD198
3C884E54
BD3F2627
BD1C1CAB
3D508D00
BC0614E8
BD86EC86
3D8C4DF5
3C878D74
3D43397E
BD8F4D43
3D8435F5
3D5EA50F
3D8BF645
BC5908F4
3D843F9B
BD1B4D6A
BDA24FDE
3CF0AD38
3D860310
BC640328
3CF27B94
BC541D5C
BCB28AA9
BD17D5A5
BAA58706
3CF40614
3CCD346C
3DA16A55
BD08D705
3BA41E79
BDA2BCB7
3A0F756B
BC8C1176
3C18ED00
3D3B80AB
3C0D1768
BD972B91
BD07C6B3
BD0E7E0A
BCDDACFF
3CCB698C
3D33DF06
BC685BC0
3BC12A04
BCDB371A
3CB4951F
BBC0A833
3D3B01EE
3D0FF2BA
BCCD8F00
BD8A5963
BD9989D0
3D2302A0
3D797806
BD69DF5B
BCCCB8A3
BD6C8346
BDA22E28
BBF01900
BCE18B20
BD53570B
3C372A74
BD49EF83
3D875BF9
3CFA2500
3D0ADE40
BB5F6A36
3BC38510
BCC4198C
3D941E65
3C0A26E8
3D144426
3C933238
3C8EDB3C
BD57CB9B
3D91854A
BD921366
BC62E581
BC86054C
3BAD3C30
3CD00340
3D8D61ED
3D90C0F0
BCAC9080
BD18F660
BD4FD814
BA1A034B
BB94237E
3CB16260
3D866DBD
BD6A39A9
3DA1C483
3CDB4DFE
BCCD763D
3D609484
3D52BFAA
BD3650EC
BD98929B
BB84ACC9
3D251400
3C60E0F6
3C8E45C8
BDA35206
3D850B2B
BB2C3E00
BC9978B4
BD5A583B
3B24EB52
3CF1843C
3D297FB2
BD91E538
3DAA46EA
BCBE38A0
BD167620
3C98D62D
3D88E71B
BD2C491D
3CA69A00
BD202720
3DA572B9
BD38F760
3C561E40
BD518D30
BD53E6D0
BD7D238B
3D5A8999
BD45E9DB
BC0DCDD8
3D55ECD6
3D342947
BC6F4F5C
BCBAC81D
BC87D214
BD1D14BB
BD9437E6
3D7DA80A
BDAB2EF9
BD375AEB
3D85101B
BD6FD0E6
BD1E14AB
3CE84788
BD8AF35E
3D69D4DB
BD7FE606
3DA9E703
BD038DEF
3D7756F6
BD10D8DC
3D14BF1E
BD8E82FF
BD45CAD7
BD7DA6DC
BD324CA7
3D463EFA
BCA7C39D
BCE5D2D0
BCDA1D45
3D02314B
BCFAFE3B
3C2C8EF1
BD0520F6
3C7FD310
3BEF0150
BCA8AB77
3DB26F86
BD843B61
3DA646EA
3DE2E78A
3CC7E3E8
BA166141
3C0BEB97
BDAD3D8A
3D68789A
BD9B0315
3BACCF91
BD8D0CE3
BC8F8F57
3D0C3F4B
BDA629BC
BD1C4F03
BC84A735
3C80D8D8
3D5B3771
BCFF8839
BD14986C
3D729595
BD4FC648
3D8AF9A0
BC176F12
3CC27E17
3D7206B5
BD7D18B0
3DC70C2F
BD0E32A5
BD51776F
BC8E3E94
3C80237D
BD39ED3A
3D92BFB1
BD5A5FB3
3D63B8E5
BCA59677
3CA87DE0
3CFA07EF
3C6E54A7
3A63FA26
3D6ACAE2
3D2754E6
BDA3C19C
3D3971C0
BD40E7E6
BD9BA1D9
BD4B0969
3D81D4B3
BD4314DF
BD267FC9
BD615660
3B57BC69
3BA7E750
BDA4B0B6
3D3CC87A
BD13B029
BBD5DED0
3D3E4B0B
3DA01FE5
3A00F3BA
3C315D80
3C91738D
BD0DFCBE
3C99839D
3D852FCF
BCC0ED0C
BC67E1A8
3D2C5172
BD7A8B8F
BD44B7CC
BB40E47B
3C00174D
BB8800B1
3D943221
3D24FB36
3D8B75D3
BC880940
3D54D179
BD6716E6
3D764DC6
3D544E70
BC065F80
3D0638EA
BDA73250
BCB92E80
BD0D4BE6
BCBB3ADF
BD3D9E20
3D3D91C2
BD800AD0
BD22DD41
3D9DE698
3D89591B
BD16FDEB
3C11D518
3D9057E3
BC47C9A8
3D7D87D7
BC837434
BB023700
3C9F754E
BD5961B6
BD94EE3D
BD546736
3C8C93D4
BD151396
3DA27E4D
BCF3BDAE
BB9AEE77
3C922FA0
3DE816E6
BC8E5694
BCC049E8
BCEF29B3
3D08D6E4
3CC311D8
BD5BECB0
3CF4E7A2
3E0FD788
3D2B0809
BCF8A013
BCFE23AA
BC82C7E0
BD09EBA0
BCAD4A56
BB8DDEB3
3CD12041
3D9ECB43
3DC37D66
BD1CA179
3CFFC944
BDBBF357
BCB41F00
3B102B60
3D8889D5
BCA8329F
3DB26839
3D4558D8
BDAFF8DB
BD223A92
BDB3D9F5
3D93D52D
3D2D8FF4
BD24E46C
3D2A26BF
B9EE1731
3D8A35B6
BD977782
3BCCA033
3B155DA0
3D69DFF2
3CD2F161
3CAC49B6
BD524E0B
3D8A6111
BD08150F
BDA7CE82
BD8B008D
3D889DD1
3D92ED3D
3D8BB01B
3D281958
BBA16133
3DA153A4
3D83EA42
3DDCA903
3C8D4619
BDA21547
BDA1E1A0
BD44C25B
BDA5383D
B8E81640
3CC38854
3CB084F4
BD8B52F0
3D81CFF3
BD916E6E
BC2F48F5
BC867B00
3C537DC4
3D9E7823
3D7B198F
BD26CD56
3D319ED7
BD657E10
3B0837A7
BD92A860
3D88967D
BCC5394C
BC1C2CCD
3D88FF48
BC00E232
3D9F342E
3D1E3A6A
3D017B30
BCE955AC
BAE67192
BD9D107C
BCC9D26A
BC844BA9
BD8D3E1A
BC0A6BC0
3DA02ACB
3D762553
3D7AF842
3D59BC38
BD92AE6E
BBED1C50
BCF9432E
BD6EF0D0
BD7E3106
BD803B00
3CAAFF6C
BD18F0E9
BDA8459B
BC392468
BD2ADA80
BC5F8168
BDA2F920
3CC496D3
3D689702
3D00850C
BD4A8186
3D3975EA
BC104C98
3CF76C59
3D9519D4
3D6166A2
BD7A6A47
3D72648A
3CA332E5
BD832FF8
3D854805
BDA21D7B
3D05E5B1
BD304D00
3D1A36B0
3D24F960
3C3C679B
BD7A54EB
BD89BB6F
BD58DF4B
3D810125
BD85B2CB
3D5AAED6
BDAD9D66
3C09C0B0
BD20AC75
BD818536
BD7BB796
BD7D5DE6
BBA94430
3C048428
BD971EBD
BBCA4BFA
3D875F2B
3D9321AD
3D6A3061
3CB70E2C
3D9E69FB
BD411A70
3D545EFA
3D5A9D56
BD7A9920
3D3777BB
3BFAD680
BCF4BCA0
BDA9D63B
BD139996
3C0D9ADD
3CCED5B5
BD31434B
3C170C5D
3CA54AAC
3CC2AB74
3CD31C00
3CDE5880
3D6323B2
3C034870
BD96AF1C
3B9FC250
3D7BEFFA
3CEC6710
3DBF1E50
BDB18F44
3D0B0A26
3CF20812
3C645278
3C2931D8
3C9F5AB2
3D682FB4
3D612ECE
3D46BF36
3D1A19B6
3D8C607B
3D2F0902
3D5EC81D
BCEAAE9B
3D8998FF
BD834841
3D8F9AC9
3D962A18
3D97E411
3D5D4F83
3D614A04
BC1C90B1
3CE3F479
BD047E49
3D14BB98
3D573A82
3DA85A44
3D13EFCD
3C9FA8A1
BD48A536
BD7D81BC
BCF257FB
3D699C96
3D967E2D
3DE7B5CF
3D6377C2
3D74793D
BAAED100
BD998A6E
BCEE846C
3C31ABD1
3D0C2EBA
3D427B74
BCECE1D5
BD2FD5AA
3D13087E
3D0624AF
3D08292C
3AF8BC22
BD41774A
3C1FF47C
3D66E597
BD8BAA28
BD80E320
BCE01273
3D2EDAFF
BDB1F15A
3D18FF56
3D662E22
3D7D7BED
BD8BF4D7
BB01B200
BD96EE19
3D81B542
BD9624C8
3CF04FA1
3CE54C26
BD9779FA
3DAA966B
BCD1B9E3
3D28254D
3DB5BFD5
3D2D6782
BB9A8DE6
BDAF692D
BD14BC74
BB781C69
BD7BE562
3D2FA24D
BD04026C
3C74FD40
BD545D26
3CB87E5F
3CC8BC36
3D0550B6
3D1433FC
BD967C43
3CB65CCB
3D4032A9
3D3819BE
3CBBDC4F
BD68D3A2
BD214DC8
3B56E34D
BCE4CF76
BD8F4DCA
BCC92220
BD000264
BD11CA9F
3D607471
3CFBFE6E
BBE17F1E
3D131CE6
BDB4C8F1
3D0BE36B
3D2A6E7A
3D111A4A
BDBC6FE7
3D01EF89
BD490ABB
BD528F6F
3B9C7959
3D28B94C
3D6DD49E
BB973E7D
BD34C03E
3D24C98C
3D3357D1
BBB72D30
BBA93900
BD8E0A68
3D70DADB
3C5D8FFD
BDA2CC3B
3D8A64A5
BC832680
BD0ED0A7
3BAA541A
BCDA779A
BD23F12B
3DCCBD22
3D33AE16
3CA0DB60
3D5C7D07
BCEE2CF2
3D0EB162
3C2D1531
BDB1169A
3D8EDC75
3D818B79
3D82ED14
BD18B580
3C564994
BC8A8BE0
BCA344A0
BD2457C6
BD9F928F
3D9D2FFD
3C89E153
BD017D06
3D617BD6
3D0863E3
BCA6636C
3D4BE964
3DAE944A
3D2E8BD2
3D69DE79
BD949BB8
3D25ED60
BD8D4CA6
3C20DB58
BBE73E38
BD8F64A9
BC13E75E
3D27061C
BD24EEB0
BCC23FEC
3CEC8420
3DA8CBDB
BB221600
3CEFC32C
BD6771E6
3D14317C
3C49DFD8
3D2650E0
3D4D7B36
BD4127CB
3C8DA86C
3CD37927
3D9458A3
BD5CC105
BDA00B90
BD8BE323
BDA5CB40
3DA9DC29
BCCD7236
BCEA62BF
3D546A48
3D372F02
3D83E59B
BC5F5B88
3D25AEF5
BCFBFFD6
3D775C1A
BCAE4824
BD20BE10
BC958D54
3C1CA64D
BCA6DA2F
BD95227C
3CA47194
BD1049DB
3D5421B2
BDA98820
BD06621B
3CE09A31
3CC7180A
BB1099C6
BCA3F906
BD90C18D
3D8A8AA5
BD90FC48
3D9A8BC2
BDA0EA25
BD518D35
BD601025
BD9D527A
BD18D3DC
3D54ACA2
3BE72709
BD25538E
BD666434
BDBB604F
3B9F4744
3CC90134
3D602657
3C52DCD4
3D64B469
3CBB1DD7
3D832160
3D6B0E36
BD5DC268
BD4CA432
3D8D8860
3D821648
BDDE8775
3D495491
3D4AE128
3D81A7B7
3D3BADD1
3CE2F012
3B9F9F2D
BD0F1615
BC1F570D
BC7F169A
3C813351
BDB8D1C3
3D74DF27
3D5C0954
BD81F5A9
3C82773F
BD0B3974
BD114CB3
BC550268
BC2D7D38
3D71F853
BDB038BA
3D5407B6
3CC47930
3D912A8E
3D5A5E62
BD3C9FB8
BC9D3777
BD20E489
BDB2E41A
3D2EABB2
BD2DC2AB
3DD6F7C7
3D66F7A2
BCB5C8C0
3CE8696E
BDA1EB68
3DA0445B
BC852D74
BBFEFD44
3CAAD994
3CA9B9F6
3CD0F50C
BD7AD44B
BD5658C4
BD142DF0
3C7AF23F
3D02E1E6
BD1E1F70
BD858C3A
BD95372F
BCCEE0D6
3DA7DE13
BDA4A2C6
3B428DF4
3D0703B4
BDA16529
3D611AE7
BCB91C36
3D75ACB6
BC80CD2C
BD9D2BD0
3D419A0A
3C3F9E98
3D9821CB
BD29E362
3D084C5A
BD4A83EB
3C59DAFA
BD711AFB
3D38B3EF
3C9AC781
3C186898
BCEF738C
BCCE4A36
BAEB08C0
BD24E0E6
3D1C7A9A
BD82D9EB
3C2F84D8
BD2894C0
3BDD45B0
3D8D615B
3D4EA94C
BCB857E7
3CE7C8D4
BD737C40
BD1FE5EB
BDA2D42E
BD3F015B
3D606A00
BD3AB31B
BD1D2A7B
BDA30673
3B94BCD0
3CB3674C
BD70985B
3ACF9E00
3D6127CA
BD848F8E
BD475A96
BD824E86
3D77D8AA
BD8AE74B
BD6C8B6B
BD0F8736
3CB7FC39
3C7A38D8
3D0DE61B
BAE8DF40
BC3995FE
3D8AC162
BC22F085
3CA6F649
3C433879
3BDD8F80
3D8074D5
BD84F518
BD9B92F8
3D1A732E
3D1BCA74
BC28AC1A
BD699046
BCC74436
BDA7F7FB
3D79A102
3D1C0AC6
3D0919BA
BD9E48A3
BBC7851C
BCF1180C
3D9D657B
BCE01900
BD1AF380
3D9A5546
BCCA794C
BD106AE0
3CA66931
3CE1E900
3D5395D2
3CD8CCEC
3D663CA6
3AAEB8C0
3DA949C9
BD281256
BD7BAA86
BDA0EE26
BD0F591A
BD96EAC1
3CC7FD49
BD4D14D6
3DAA0485
3CD2B194
3D42CEC6
3D6E7A18
3D276B4D
BCA7E96C
BC585358
3C3784D8
BD219700
BCD76403
3D9A6E7B
BD6BADAB
3D3A4602
3D965515
3D3383C2
3D718DD6
3C0CDB18
BDA87F60
BD933F60
BD5CD2D6
BD293310
3CC41B94
BB7B5860
BD6D7B30
3DA18D4B
3D9B7671
3CF77820
BC393198
3D9B191D
BB06E1A0
BD44B530
BD01B1D0
3B9161B0
3CEABBF4
BD89BF28
BD35B94B
BC708780
3CF99EEC
BDA0D826
BBB09F30
3D3F9912
3D7D2D8A
B97EA600
3BE779B0
BD38CE76
BD7EB47B
3DA45EBD
BD76657B
BD3A412B
BD9DF67E
3C6028D8
3CAA52D4
3D4576DA
BD57973B
3C577058
3DA215E5
3C21B598
3D9A07C5
BD2C66D0
BA033580
BBD98830
3D94A9B5
BB2D8400
BD899218
3D371EF6
BD2F7606
3C9A9134
BDA34CD0
3CFFC820
BCD1264C
3CE6288C
3D3E61B2
BD862068
BD02F776
3DE149C7
BC82157E
BCAF881D
3C902090
BDB7DD9E
3C470022
BCF03B60
BCCFF447
BD9FD5C9
3D3210A6
3D80FB62
3DCE5489
BD0263C7
BC06720C
3C5B16B7
3D1C2A94
BD387522
BDC059B3
BDC4A701
BD82332B
3BF69100
3D4F1AAC
BC080B15
BD194AA3
3DBE4A13
3BB9730A
BB15154C
BD496440
BD635F28
BD7C354F
BBB755F5
BD48F217
BD0ACAD0
3CA84EA8
BD138CE9
BDB9EBF0
BCAB2987
B98749E6
3CF8A4CB
3C5062E6
BCC308AD
3D590FE3
BC9D8F3A
BD303B47
BDA21CD8
3D29701A
3D5682A5
3C811262
BD73465A
BD3BCE60
3C527FFA
BB13CCAF
3B21ACD5
3D03F7B8
BD4C615A
BD0940AE
BD6D6EE0
3DB5C1F1
BD984B9A
BA9E4B8B
BB03343E
3BE3C3DA
3D2A02D4
BCF80B6B
3D9E2C6B
BD1E1623
BDB3D46E
3D95F5D8
3BB69900
BD8CD3AC
3CAFCC1C
BD6ED0D3
BD3D3DAE
BDBFF968
BB070B00
BDAAE6A0
BCAAFBA0
3D04E7A1
3D1075E7
BD748E47
BCDAF82C
BD5C3D47
BDBD41B7
3D020ADB
BA8D0940
BD6071F8
3C88C90C
3BAEE263
3D801F5E
3D84B928
3D916AD5
BB1636C1
BD7BBF1B
3D176F68
3D08F816
BD864535
3CB87A9F
BC0D5828
3D8D4B25
3D052B09
3D1F3630
3D048AE6
3E06BC96
BC532E33
BC9BD03A
BD6E7D32
3D138D96
3C0224A8
3D303ABB
3D230516
3C48CDF5
3D5EC132
BCA6FF31
3B9A09D0
3D9DF50E
BC8F0DEA
BD180540
BC5B6AB1
3D84EB6A
3D8D6BA5
BC8370A0
3BC85EB6
3D909D38
3C830C77
BCDB1AA9
3CCC4D13
3C821588
BD08AC7E
BDA0F823
3D92F783
3D121CFA
BD8992E8
3D27FA66
3D8123C3
BD41A0D0
BAFE9940
3DA7A4ED
3D2E5562
BD4586B6
3A93B200
BCCA4E60
BC84A700
3D8809E9
3CC7B354
3C80D600
BD9FBC16
3D73EF22
3D39E71A
3CB5B154
BC0C9780
BD95B390
3C685068
3D0E0340
3C0A4798
3B9BDF30
BD4CE15B
3D961B23
3D18BF06
BD8AF07B
BDA99C78
BCBE18D6
BD5987B0
BD5592E0
BD61A9CB
3D86A021
3DA5ED85
3B5436A0
BC0C2B58
BCDC4E20
3DA10CE1
BD574626
3CA93BEC
BD1228C6
BD02CD76
3CA91B14
BCBC5B20
BDA6E7CE
3D8BFAB3
3C261800
3D9BFDEB
BCE2416C
3D919D73
3D4855EA
BD840E23
BCCBBA4C
BD33BA66
3D9F57BD
3D817099
3C612CC0
3D7B8052
3C9CB414
BD843E18
BD1018F8
3D65B6C7
BD2CE1C5
BD9530A6
BD881018
3B046657
3D45153E
3CB9FAFA
3DB2DAF6
BDAB940E
BD7A8187
3DB2657D
BCD9AE8A
BD125AB6
3DAEBFA8
BCB1EFD4
BD1788FB
3CECFBD7
3C8E7263
3CA786B3
BD91216E
3C41B2D5
3DE4F18F
3D83BCDD
3DC5B979
3D65500C
BC14C6AE
3D5EC3F0
3BB00D81
3CE5F9CA
BD0BAC9D
BCFC542B
3D987662
BD8BA505
BD8610F7
3DA21DBC
BD541A4B
BAEB0DC9
3D66D634
BAE92923
3D5BD074
3CF60568
BC66B601
BC40C131
BD5A5A6F
BD66CC2C
BD84AA12
3C06252A
BDAC4EC5
3D88FF73
3DCDBAE7
BC5B57B9
BD5C0A8F
BDA33C3D
3D5AAB33
BD474D1D
3BA6E330
BD2A86B0
3D79A2DD
BCFB7496
BD6857BA
3CF999B5
BD1A0CE5
3DADA83B
3DB73677
3D51CD73
BD92B9ED
BD642A7B
3C5C8FE1
3CDA1049
3CDD3E58
BD5980BB
BC256DED
3D3BBB82
3C750B9D
BC1D18F2
BD0A62C8
BC6D3C5C
3D91D3AC
3BBC3BDA
3DA67312
BD4164EE
3D6F07F2
3D863680
3D83448B
BD99905B
3D3C363F
BD9ABDC7
3DC907DD
3DBDA689
BDB5886C
BCAEBF3D
BCBBE832
3D308B37
BD609E32
3D9C39DD
3DB0C689
3D996122
BD4205F8
3A91851D
BD5F9825
BD9A5110
3D0C8D77
3D0AC5B8
3C9B75E8
BCA14162
BD21A870
BDADA082
BD4D01C2
BDA358B8
BD7CDCA1
BD345DA9
3D5CFC5D
BCDFA756
3D8AE31A
3CE16117
3D64DBA0
BD837035
3D725CCE
BB501AF6
BD71B970
3D947F87
3D4B6FB2
BD93E8F9
BCA8D1AB
BD7F2796
BD31CD72
BB4C1933
B9226A00
3A92D400
3D2F35C6
BDA304ED
BD9434D8
3D8C7254
3D0771D3
BD8526D3
BCCBD6BC
3C2202F7
BD951186
3D4FE9B4
3D2621D6
3CF50633
BC6A9461
BA11EBC8
BB0D7EB7
3D3E8F3B
3C803B0C
BD9C7EC7
39F7EB00
BD44D1B5
BD1BE110
3D839594
BCD2F2C0
3CEF3C54
BCA09DB4
BD0E5C36
3D6C9A16
BC9B89CB
3CF019FD
3DA2996F
3D55CB6B
BD9203D6
3C99BA49
BD56DEC7
3D5C6F3A
BCEEC543
BD351466
BD8721B8
BB7A8965
3D36A21A
BD49C066
BD5AA650
3D37AA0A
3D622725
3CE52B0B
BD361E9B
BDA58868
3D6C409A
3CC7DB44
3D2AF3F5
BD7F738F
3C7B7ED8
BBF55C50
3D6645CA
BD5A9520
3BEBDB62
3D0D3A20
BC8ABFF4
BCF0B61C
BCBE112C
3D5AAE13
BD84D43E
BCDA2A43
BC5FB29B
3CB37EBE
BCB92559
BC8758BE
3CF892D8
BCE76EC5
3D161206
3D446316
3C60C849
BCF3F848
3DCA46C6
3D18F77D
BD26ACF3
3D2B360D
BD659B15
BC5E5010
BD2609A0
3C97EB3A
3CC8C746
BD8033BB
3D0B1D3C
3E07FB86
BC3D61B9
3D9BDF3B
3DCD041E
3D1DB8BC
BD86C870
BC8BF64A
BD7A474F
3CC007E9
BD0E72BF
3DCA1B32
BCC10F21
3CE96F0B
BD32748D
3D505B98
BA07CC3E
3DC209B2
3CC7729C
3DB950FF
BDA9896E
BDAE3407
BD8E27E3
BC87ED02
BD0F807B
BD565FB2
BB44FC25
BD3CAF5B
3CEB610C
3D0AD740
BCF41980
3C9C8A11
BD6390CF
BD962B80
BCAF0AFC
3CC2C240
BD5F6259
BCADC10F
3D7D8B60
BD61B55A
BC50890D
BDB9784C
3D863477
3D70E34A
3D01AECA
BD72FFC3
BD7BAB09
BB3CA6A0
3D5139CA
BD33A720
BD6F268E
BDB00330
3CB70D25
3CB25740
BD2F1757
3B1339A0
3D889041
BB684FC8
BBFACDC1
BD236BD6
3CDE53FD
3AD12400
BCC4E9F8
BD2D10FB
BD3A0D97
BD85559D
3D61F1AF
BD606C5E
BD4E17BB
BD9FDDD8
BD6E0466
BD658678
BBCE35EF
3CE65B6D
3D758BDA
BC650B05
BC977F4C
3D9DF1A1
BD36F699
3C991ACC
3CAC96AA
3C28C380
3D03EF9A
BD468EEB
BD76C430
BD7910BB
BD589CEB
BBF05BD0
BB8AA40D
3D46EF9E
BD29A934
3C7F8A00
3CED3E74
BD2678A6
BC77149D
BCD50454
BD114AD6
3C317028
BCFAEA2C
BD5F3FC0
3D3FF703
BCB2FF9E
3D293380
3C1661DC
3C495280
3D8D3EF1
BDA9A049
BD0983C9
3D027C61
3DBF7C1D
BCE1A297
BCD5BB41
3D8A95A5
BD4DEFED
3C6F9CE8
BD679698
BD9AE5DD
BD8E5415
3CE3096B
3D185EF7
BC76BCB7
BD00E40E
BD222886
3C4EDA59
BD80E33B
3D805CE1
BDA12133
BCE9B3A0
BC6BE167
BB233D39
3D282197
3E166023
3D2C2B87
BDAEF99B
BCDABF8D
BD0F8AB4
3D810E76
BA10A205
3D71B149
BD02B9D7
3D8AFF21
BCE8C095
BD71AE00
BD9F1957
BD00C7A6
3CECEBBD
3D7647B1
BC8123CA
3CD496C1
BC6CE367
3D0C22DB
BC9BD535
3D003E6A
BD0BE638
BC55E92C
B7254C84
3C568500
BC04F2A2
BD8325C0
BDA81D5D
BD8C40D8
BD9D8C89
BD4CBAFC
BD1D853B
BD2BFBD7
BD4B3B85
BCE2F4C1
BD818055
BC08A7F5
3CFD83EF
BD93D70C
BAA86000
BB910680
3D514D2D
3D6C25C8
BBBC18D0
3D0C602F
3B7953AC
BB32DDF1
3D366E88
BC4BBF66
3CCD7CF4
3D885BDB
BD82CD43
3D3ADDA0
3D060F16
3C96B4F6
3D54AB8A
BC76A8C5
BD8E06F3
3D729668
BC9A094C
BD7A81EF
3C53BE4A
3CE402EA
3C248042
3CA7D594
3C7C13A8
3D26FD26
BCDF1C79
3C75FEA1
BD81FC3F
BC992579
BD74679D
3D379232
BD9A2F83
3C8A506A
BD3CFD50
BD89DAFB
BD486180
3D813BB5
BD986624
BCA1C8CC
3D42368A
BD57D446
BD935780
3D8FA0E1
BD950DB4
3D0043C0
BC89B90C
3CD383AC
BCD6432E
BD8785E6
BD13E14D
3D2CC369
3C527818
3DA2F25D
BC94FBAC
3D6C79A4
BCD197C0
3D094BEA
BD47BDE5
BD8D6CE6
BDAF6B96
BD0BAD30
3D24C4DF
3D5E2CF2
3D38BEAB
3D765656
BD5EDCA6
BD816B38
BD446E83
3DA41B19
BBDCED77
BD5A09EB
BCF6F356
BCA4CC8D
BD88AB20
BD3CD236
3DC28FD0
BD4925B6
3D1786E5
3CC987F4
BD9D83FB
BDAA2FCB
3D89518B
3C0B1735
3D5EF227
BDB4F694
3AFDB772
3D255560
3D9E132D
3D7A471A
BD76E150
3D38F246
3D792212
3DA2E355
BBA733F1
3C490C00
BD35B91B
3B348FEA
3D220B40
3BDD1F77
3D949B4E
BC265740
BD1A0DB6
BD8813B3
BD446976
BB84C950
3C1EE840
3C20ABA8
BD69C20D
BD9B7CD5
BC79F3E8
3CD010F4
BD5688B7
BB408216
BC956080
3D339552
3CA2E67D
3C204458
BCC552C0
3D4CBAE5
BC02869D
BD7D1B2C
BD86F850
3C95CD80
3BD70314
3D64CBD6
3D524B1A
3D841BC1
3CB92834
BCD43D20
BD2C52A0
BD99C8E0
3C832020
BCD36F36
3CCE07EC
BCA2BEEC
3D863963
BD16B7E0
3D0826B6
3D43B4C2
3C905634
BD51A86B
3D1DE6EA
BD9ACE06
BBC5FE80
BD589836
3C5D3B00
3DA8F239
BD90279B
3D2E6AD2
BB12E6A0
BD3658CB
3D719722
3D374C46
3DA2D3BD
3CBB5A2C
BCC00456
BBD16A50
BCEFFA16
BCE7BD96
3CB0F240
3D2BC962
3D71E786
3D39E0A6
3D0C1086
BD8A5153
BD5077E6
3CBEF7AC
BD2D8F80
BC52B168
3D898683
BD8B6643
3D1D3C7A
BC5F2658
3DAA2A2D
BD61F546
BD5046CB
BD73794B
BD9D85EE
BDA46296
BDA45486
3D77EC2A
BD837EF6
3BBF30B0
3CAF4C20
3C1F5618
3D63442A
3D532946
3D88A51B
3D176B10
3DE818CC
3D38CDEA
3C91A879
3D18AE06
3D708966
BCDFE827
BD449013
3D6B117A
BDC8C773
BCBA994F
BC9BC1F4
B9D695B2
BDA846AB
BD0B5399
BBAC3144
3CF02ABB
BAC85E31
BD83B73C
3D366932
3D3C653B
BD85B3C3
BDC4DFDE
BCD97D0E
BD92A6A9
BD804C6A
3DD02810
3D29ADF0
3BF4D3B0
BCB217DC
BA2FFF30
BCE802B6
BD80D1F0
3D09288E
BCFA6A76
BD98CE98
BD4A5E23
3D9F6491
BDAB8F96
3D2C6528
3CA38340
BD973AF4
BD44AD96
3D70E5E2
3D13DE06
BD6C7F20
3CA80AAC
BD1EE4E0
3C9120E0
3C478DE8
BCDDBC2C
3DD33A45
BDBCE2C8
3D45D968
BD671939
3D2C943E
BAE27EC0
BCAE6880
3CB7E72A
BD1327DA
BD6B744C
BD89376C
BDA40C76
BC1180A4
B9DD370B
3D22510A
3D808233
3D0CBF26
3DA88995
3D070B7A
BDA72D30
3D2D8926
BC94B640
BD0BEF26
BC5FFF98
BD44B640
B8E95400
BD0900FB
BD776F0B
3C85F9A0
BC8B4A60
BC56E2D8
BD98988E
BD9D45CB
BD8B381E
3CB60240
BD71AB36
BBC212D0
BC88CC8C
3CC6EF0C
3C766980
BD92AF06
BD9E48EB
3C8E6F2C
3D4E02D6
3D00AFF6
3D406E06
3992A000
BD5D3FF0
3CC37CF4
3CB715A0
BCB2B816
BC6CFD68
3D5EB342
3D8B2EB1
3D8FB13D
BD4F2A0B
3D6BEA16
BD53C650
3C88046C
3D6E90EA
3CD6FBCC
3D939921
3D9A2FF5
BD2131AB
3D703896
3D6215FA
BBA1E450
BD51A700
3D94FE4D
3D708542
3D7794D6
BDA21B73
BD568D8B
BD398646
3D40C6BA
BC06B180
BD0D7C66
BD898583
3D8749C6
BD83499F
3D7BC395
3D577B8C
3D84A9FC
3D6CA2EB
3CFDFCC0
3D90E587
3D48BC49
3D68C4CA
BD07D467
BD7D74A3
3D9F51CB
3D8B45DE
3DAFA0A1
3D9BC0D1
3CB584A8
BCDBE9DE
BD51BC76
3C17A71D
3CA8AF40
3D6789EF
3CD9584D
BD9013A9
BCADC97B
BB0B4D4F
BD18D27C
BA7BF4C9
BD1E020C
3CBE3420
3D518646
BD901EAB
3D91977F
BDAB2F9E
BD49F9F6
BCC9C21A
BD846EFB
BD9B28FA
3D8ACBF6
BD404AED
BD219EC4
3D90E094
3CF01129
BD93AA8B
3D030A28
BD5C8B5D
3D7D01C6
3C12B1FD
3D8EACEB
BD1D81EB
BD609538
3D4104B0
BD09E2BB
3CE619CA
3D01124F
BCB09C08
BD8D874B
3D41C012
BBE12D03
3C81EADB
BD41914F
BD29182C
BDAB91D6
BCFB4929
BCEB0697
BB9B70CA
BD78E4F8
3D414B04
BBCB0630
BD9B4421
3CECD3C8
3D838D2C
3DCF3091
3BE4110A
3D835C5D
3CAE4E8E
BD9A9BFB
3D4F8C45
3D4D3A75
3D026344
BBB2921D
3D9312E6
3C8A24B4
BBBAACC5
3CCF7574
3B76BBDD
3CBA30BA
3C7F3C48
BD05320B
3D42B82C
BD128416
BD87112F
3D713137
3C0F0DB4
BD61F2DD
BE0090D6
3D00A560
3D085326
BC9A71D4
BCF573EE
BD325FC5
3D5C8248
BD42748B
BAA11FB9
BC8BF373
BD6E0FCC
BD6DAC90
3D8FC76D
3C27D728
3C46FFC8
BB1D657E
3D67F2F0
3D9BD006
BB710700
BDC6AF9A
3C804004
3D3D3F13
3D3D77EE
3D5B4C5F
BD1C79D6
BD29AF5B
BCA8BED3
BDC8576D
3D6BA16E
3D05D6F2
BD8289D5
3D656FCC
3DF3579E
BD9F64ED
3CF09256
BD3C8EC3
3A7ED065
3C674768
3C0C5D36
3DAEC2AB
3CB3E5D1
3D83075A
3D8C4446
BD4D4880
BCAE1359
3D8AE2EC
3CC3C948
BD2D839B
3D9CEDE9
3DA293CD
3BB54A5B
3D815101
BD2085C4
3D439D4A
3DAE9048
3DA71522
3D4AFBAC
BD30746E
BDBCF0CC
BC1ED928
3D90E1FB
BD333A84
BDA0877A
BD179B79
BDE3ACF3
3D42130B
3BCB6F50
3C4DAAE2
BD807BD0
BB1CE917
3D9C4913
3CF318F4
BD94DC0E
3C7DDF83
3BF44A00
3D8A4FFB
3D881A03
BCE86576
BDADC0B2
3D348FC0
BC349A91
3D651A58
3CED6C0C
BDB49107
3D8C4841
3D61E681
3CF74E8E
3C2EB422
BCA92BB4
BCDAE08C
BD20595F
3D6D4DC1
3C0804D2
3C967351
BD800DC6
BD7F5F08
3C51F903
BCB52020
BD6F3300
3D8732F9
3D39821A
BCB77176
3C931E74
BB8D9430
3D8809B5
BD3A80FB
BD10CE8B
3BE60AB0
3D986CBD
BD803740
3DA12D59
BD7511DB
BD496560
BD5472E6
BD9912F3
3D4B57CA
3C8DA114
3DA43281
3D204AF6
BB78B760
3D78D482
3C973D6C
3BB23550
BD51131B
BC58C2D8
3CC4DE14
BB836E30
3D8F660B
BD937FD3
BD8EFC53
3D2584C6
BD60EBB6
BCEB4620
BD4E1F80
BCB42CA0
BD2D0726
3D88B951
BD9CB013
3D7BDD8A
BD46D606
3C7AFDC0
BD98EA6E
3D3FDCF2
3D5C69CA
BD9688D8
BD83CB48
BD72E366
3CC6810C
BCBE434C
3D3241CA
BD84D738
3D182A0A
BD26AB36
3D339F46
BCD51660
BCCF38EC
3C482D80
3BD55B50
3D765712
BCCA0BE0
3D9F2065
3C8829B2
3D8707CB
3BEAEAC8
BDA6C38E
BD98D33B
BD8D561E
BBB57DA3
BD608D6B
BD747690
BD828CDE
BC24D840
3CBAFD90
BC7B2718
BDAA5293
BCD49AC3
BD9E8D93
BD937F96
BDA74063
3D59A7F6
BCA58C80
BC190718
3D95E9AE
3D24BE4B
BC2BA931
BD916935
BD7907D0
3D82A0E3
BD9A823B
3C452F98
3C2E8528
3B499200
BDA0C3BB
BD7D166C
BA9A1F40
3D58EB8A
BD076B35
3CAAA934
BD1C441A
3CC0ACDE
BD0AF9DB
BD8EECC8
3D59EF12
3D5E5C82
3D8FB36D
BD9EFB4B
BD659FA0
BC1B4180
BD59B631
BDA814C3
BC47D068
3D33F4A5
BDA06A6E
BDA55298
3D8465FB
3CC3D42C
3D17EAC6
BCF9BECC
BD17F152
BD675334
BDAA824B
3CDDE58C
3D051826
BD4DA370
BD83399E
3D7C2452
BB08C760
BD05D884
3D408C2A
BD508CBB
BC9B1D2C
BD645D9A
BD2F6046
BD903946
BDAF4C16
BD01A78B
BD146AB7
BD8DB68E
BD4797B9
3D521427
3D9E0898
BD1DC5C6
BD913B2B
BD722710
3D5AFA7A
BD85319E
BD7D38AE
3D82489E
3DA1CA1D
BC7E0F7B
3CE2F8EC
BD0A273B
3DA3100D
BCE2EC1A
3D5E3226
3BC2D51C
BD8FC776
3D2DE35E
3D74138A
BC5F1D58
BD19E300
3B5E2D00
BCA18652
3CAB84C0
BCE372B6
BD99E8BB
3CC8D8E0
3CD42280
3C98FA54
BD8E940E
BD7C6406
B98D0FDC
3DA31B79
BCAF6CC0
3C1D3AE8
BD55D2E8
3D584394
BD44DC9B
BD235100
BC153080
BDA9A030
3D76DCE6
BD59A6AC
BC40AB80
3D8E08EB
3D2045EA
3C957014
3CC07FE6
3CDC8F6C
3D3261D0
3CF17893
3C8B6390
3C1E178E
3C3360AF
BDAD9226
3B482B27
BC31A620
3CC1FB46
3B16FA60
BD9466D2
BD5F0EF6
3D03D9F5
BC04BCB7
3D02B76C
BD85E6C9
BD5D145C
BC99EF1B
3D83FAC7
BB334DFF
BC92696C
BBE3B4C8
3BBF6676
BD1FA7FA
3E030EE6
3D067866
BD484FE8
3D5B4C3F
BD243568
3D8945BC
3D4E27CA
BB53CE1E
BC8D8E67
3D0DC6DC
BABD255F
BCFD2EF5
BC80D91C
3D4AD3B2
BC7F074B
3B8C546A
BD92425D
BD607A2C
3C8F6CA9
BD8CF836
BD7FB320
BC586EDB
BD71B9F7
BD9B8F44
BD83E9EF
3CA15500
3D8D83E3
3C6C8219
BDB3E414
BC45C2CA
BD905DAF
BBB6BFEC
BD809060
3DBDFCC4
3CD75056
3D304335
3D0FA76E
BDC688B6
3D603679
BD790829
BCC854CC
3BA43700
BD9227AB
BCCCE74C
3C9CE134
3C45140E
3D3ACDB8
3DA950D7
BD8C3A65
3D243BD5
3D025446
3C6DE392
3D8656ED
BD064E75
3DA4EA6E
BD96129E
BD8CBFF0
3CD95722
3D9E1535
BCF5927B
BD0DC3E6
BD816AE2
3D121FB8
3D585F6A
3CE74918
BD95AFD8
BCAB6420
BD27345B
BD970014
BD7A2C1A
BC2A8A0B
3D9D8227
3D62E318
3D569206
3DA4B20B
3C49D4A9
BD995B66
3D4F9579
BC240B40
BD94BFA3
BC6E196D
BCC08940
3D864CD3
BD9A7E48
3D0485C6
BC02A3D8
BBB53DFB
3DA0B7E3
BDA8FE60
3CC5E84C
3D8B8651
BD98FC23
BD8DE724
3C2AF940
BD545270
BD41F426
3D831325
BD0FF1E7
BD98865E
3D9200E1
3D1AF6FD
3C9BC36C
BBE798B9
BDA387EE
3C368BA7
BD23FD36
3D410028
3C3B29DB
BC9EC252
BCF9B36C
3D1C4C82
3C4D7E58
BD74AAFC
BDC0D43C
BD8B301A
3D994A16
BCD0B87F
3C915ACC
3D4F8E35
3D857028
3C53DB4C
3D4E3EC8
BD9E3213
BBD98080
BD353670
3E0A427B
3BA36899
3DD6DCBD
3DDCF3C5
BD3FFC78
BAFEF84E
BDCAD957
3D30E33A
3DA7EAF3
BC06F880
3D1DCE6D
3D5DC767
3CE7303C
3C7AD79B
3E23CF75
BC9CDCC0
BBD3A85C
BD82E90D
BDB37D78
BD35CAF0
3D2CE070
3C91B998
3C0B7FFE
BDBC9B81
BD357A9B
3DABFB73
BDE56F78
3D9AA383
BC20A998
BDBA5294
3E104058
3B5BB70F
BD0AEFF1
3A032462
BCD0C17C
3C3AC600
BC0ECB7A
BD622B91
3D5C99E6
3B962DA3
BCF8ACC7
3D971F4B
3D2828C0
BB0C7F00
BD719516
3D09A91C
BC12CE04
BC9C3920
3A95E737
BD974FB9
3C93E443
3D671E98
BD5C132B
3A3A6580
3DB3C849
3D986C6D
BD653897
BD33CA97
3D78B093
BD9C7B66
3C023743
BC4785E8
BC330E70
3CAE90E0
3CA9EC3A
BBE62063
3C9D8F20
BD020C7D
BC80A82C
3CD84D4C
BCB11876
BCB57F61
BBC70F8D
BD07FC88
3D0CE74E
3D81F221
3D8EAF7B
3D9E1FC3
BD89D08D
BD238206
3CC664D4
BD113456
3D41EE52
BCFD5FBA
B75B0000
3D1F75C0
3C5D3468
3D893F81
BCF0C275
3C4AEDD1
3C30C7C0
3A48A000
3CB3CFD4
BC450312
3CB48552
BD399620
BD9D7C32
BD44D606
BD4AB656
BC87DE74
3C75AF5F
BD0A2DC8
BD9A1A98
BDAF5223
3D909865
BD864B31
3CBCF5CC
3C6CB2D5
BD222ECB
3D57486E
3D85B4CB
BCB9C336
3D99AD79
BD3E6522
3D8CE3AD
BBBB6036
3B41DD00
B9B85300
BD7F588F
BCC9032C
3CC3BB07
3DB5DF77
BD86B536
BD88C571
3CF592A0
3D680602
3D88B531
BD913553
BB92D7BB
BD6445FB
BD44DEDF
3D01048E
3C09752E
3D7634EA
3D4BEFA2
3D7C66A2
3D9F4BE3
BCADE660
BBA64A80
3C4F1F35
BBFBA980
BD284010
BC316A57
BD39FD8B
3D4B1574
3CD04E64
BD460A46
3A8B4C2F
3DA57529
3D3CDDE6
BCA657F4
B94F1000
BC249528
BD930728
3DC45E1B
3D1B8246
BC3AF100
3D789C9F
BD255656
3D7D9AE6
3D86613B
BD888510
3D93A366
BD95988B
3DC127D4
BD12B665
3D1FFC2B
3CA1782C
3CED9440
BC218758
397016B1
BC69ED98
BBF9E4D2
3B97A3AB
BD95C2E5
BD47B6AC
BDB5FA9C
BC8ED8C8
BDA955A9
BC08FE73
3D909C14
3D268B50
BBDC5BC7
BD7F545E
BD85C081
BC122AD8
3D544861
BD89F9EE
BD0763FD
3D709C0C
BC9F4B1E
BD1EE04B
3CDA9F2D
BDC5CA62
BD64914A
3DF2E75D
3DB35CF8
3B788908
BD385C19
3C1E9118
BABD20FE
BD141FC1
3D2065EA
BC9D3230
3C3E5ABE
BD9A383C
3D751716
BC773B0D
BBAFDDC9
BD816C7B
BCDA9228
3D2D0EC9
BC4958D2
3D2FFD88
3D2F13BC
3D1E96F6
BD46DAA1
3CCFD8F7
3D9366C0
BDB63B76
3D20E4EA
3DA9BC7A
BD0A9EAF
3DA10E79
BC6996A3
BD8088CD
3D201A40
BD32FF10
BD92D3DD
3CA24300
BD2576E5
3D18E570
3D06CF9E
3D7296A9
BC1FE36E
3D706EAA
3D40EF27
3D01CE60
3D18A40C
BD939818
3D66B49A
3DC05802
3CD02824
3D98C8BA
BC8B7229
BDA9E9B8
BD4A3925
3D2A8A4D
3DAFE8E0
3D3AE075
BD1F7769
BC258CD4
3D815628
BC4ED218
3D0E5349
BD401846
3C4A886F
BCCF273C
3D98E758
BBA69B08
BDB34ABA
3DA72F01
3BD78F0C
BCC91A4C
3D96AD2E
3CF325D5
BD8F7C3C
BD5CEA46
3D8D3BD3
BD92843C
3D950562
BD4C4548
3D1DB600
BD276674
BBFD105E
3BBE3E4A
3BBA28D8
BBEFC530
BD8CFD1B
3C8ED0B4
BD6542B9
BC86D303
3D916D21
BDC6D0E1
3D78F35A
BD5F47A0
3CEA256E
3D1B9BD8
BC0DFAAD
BD4033CF
3DA047BD
3D05127A
3CE90C21
BD24244D
3D9F2C6D
BD0CAB66
BD892270
3BBAF5D1
BD4D3F44
BCF237F0
BC3320D8
3D64E14B
3D1AB440
3D2EFAD2
BD0B70DB
3D8D811F
3A8E7000
BD9F47C7
3BD48D30
BDA5FA63
3C1819B6
3B047AA0
BCE6DF09
3B50080D
BBB96FD0
3D201996
3D92446B
BD723590
3D8DC903
BD9BBC58
3BBA156A
3D4BC185
3BCDEAF7
3D83F136
BD920F23
BD88BEF8
3C893BD4
3D233990
3C947B80
BCCCC700
3D7F2EC2
3D6757B2
BB054060
BD941C36
BBDAF75C
BC219D98
BD5528F6
BC2B6F41
3D796222
3D573966
3CF59D80
BCA8EB54
3B614100
3C779818
BD428740
3CDBBE8A
BD614FCA
BDA4EAC8
BCE29FA0
BD0FAB9B
3CF3640A
BDABD414
BDA79D33
BD56253B
3C538168
3D8F9BF5
BC5D5795
BD3DAB70
3CFE1643
3D89A659
3DA59E3B
3D0A4720
BD717890
3D67E65D
BD4D7D5E
3DC55088
BD002444
BD27F378
3D67103A
BCB76974
BD344F04
BD88A364
BD86B5EA
3C08EFC9
3D8C2832
BB97AA6D
3DD09E20
BD7E49C7
BD647513
3DB15FD3
BD793037
BCD66F75
BC0A8576
3DA29BE9
3B7124C7
BDAFA710
BD897E62
3C2D42FD
BCB57440
3CC00F32
3D8053A7
BDAEB5BE
3D81C89E
BD00A5F2
BC5C8DD4
3DAEAA81
BD8A557F
BD032231
3BEF58E9
BD043A18
BD1C2FDB
BC61244F
BD20DA32
BC9CE7E8
3D4CAED0
BDA8D8A2
BCB7A937
389FF6EA
BD64F910
3C73EFFA
3D8CE771
3D3BD41F
BCF8BE00
BD88890C
3D6A1BE8
3D96B0BA
BDA20CBD
BD5E3482
BD8FDEAF
BD90CFB0
BD8AC500
BC693983
BD3CCFA6
BC6FCAD4
BDA8A00F
3D7324EE
BE1A6C6D
3ABCB4C0
3D590F9A
3DA69A81
BD90C2D0
3D76D3F6
3C99808C
3D8C4813
BD98EBCE
BCB66E30
3D475632
BD4A2766
BD0F53A8
BD9EE988
3D96208A
BD804E3C
3D25EFE8
BD09FFBD
BB6B1C6C
3D70C7CA
3C18EFE8
BBBC3A50
BD96E43B
3C987F63
BD9BE5C7
BC04BCFA
BD010590
BD1FE900
BDA5B5FE
3D0200F6
BD3409A6
BCDF8160
BCDA064C
BB4D035B
3D94C739
3D96810D
3D8BAC9A
BC807D74
BD6DF097
3877539F
396B6000
BD23BA63
BD1EDCC0
BD370370
BD5E6130
3DAA5C89
3D041150
3DA1515B
3D9DEAA9
BD751460
BDA67FB3
3D58EDBF
3D592039
3D34685A
BD0C7570
3CBD1B40
3D44346A
3C5D01A8
BD48E7B4
3D6A2555
3D6D1A02
BD6D6D80
BD565840
3CC8C594
3DA04605
BCA1CDE2
BD7A37EB
BD280A3F
BCF627B6
3D32C762
3C7EA1A8
BD2D6330
BA569A80
3C2A2094
BB32F860
3C6B44A8
BD89FB43
3D902801
BBBBB531
3C5DCA28
BBB60600
BC6F601F
BAB6CAC0
BC7803D8
3D826A75
3D379566
BD4AC1D4
3CFB9470
3D0E9309
BD835A06
3D139C5B
3C9E2F8C
3D002D80
3D3C95F2
BD0DD2C6
BB16A260
BD8312F6
BD48AFCE
BCA314AC
3C2DE218
3D8ECFDC
BD417EFB
BD7F3625
3D26FB8A
3D87BF0B
3D3141CA
BD223940
BC79C240
BC849594
3D8ED7FD
3D61B27A
BCC5AED6
3D1D2D20
BB78B7A0
3C408BD8
BD9AECB6
BC89C4B9
3D347102
3D954F91
3DA370A4
BD447AB0
BD1A198B
BD92507D
3ADC11F6
3DA7982B
3B3E2CA0
3D1F5B4A
BD939226
3D85B0EB
BC9B28CC
BD163876
3D33E632
3B654160
3D86DCFD
3D1F2416
3D60A8DA
BD9C116B
3B8C4300
3D9B6351
BCB42ED6
3A98E400
BD11F5D0
BD88B650
3CA55674
BDA059B0
BC780DE8
BCDA820C
BC847400
BD92A203
3D48709A
BD767B70
BCA27060
BD103236
3C228480
BCE72B16
BDA2AD0B
3CA0E9CC
BD8EA87E
BD7AF980
3CF653E0
3D5457C6
3D9C9CC3
BC92980C
BCCEBDB6
3C464D40
3CE6C0EC
BCE56AF6
BB90FD00
3D86BE11
BCD5D576
BD59B2E0
3C1EE868
3CB3882C
3D861EF9
BD896943
3C79C598
BDA40096
3D7442AA
3D9301A1
BDA86198
BC85D280
3D998639
3CEDEE20
BCF84316
BD4BBD9B
BD7FBB6B
3D6FA242
BC11B580
3BADD980
3D60BF96
BD751D06
3D3832E6
3D6B5E86
3DAA36BE
3D121D5C
BA63E416
3D3C553D
BBDCC6AC
BD4EF22F
BD8F6FD9
BBC61419
3D0DB8B0
3CBA3164
BDA51C98
BBDE4C83
BDAA6DC5
3D756185
3DDDEDD8
3D8E27AB
BC062840
BCCB45EF
3C69F65F
BDABE3B9
BC08A598
BD479476
3D14AE37
BC598610
3B3BD8B0
3DDEBE41
BDB5BF87
BDB0E827
3CE61715
BCE0D40B
3D17F855
3DAA5A5F
3D27A856
BCEAF7B3
3C81EF93
BD2BDB17
3D6DCB76
BD8E8C1B
3D0A7AC9
3D244DC8
BD7E2697
BB70507E
BD2432DA
3D32A847
BDA8D32C
BC0B4EE1
BC38824C
3D294EDD
BD4E8FFA
3C810960
3DACDDEE
3D80C00B
BCE4BB9C
3D04BCF1
3BA6A992
3C05445E
BD43C606
3D03FD16
3C5A5EC3
3D851397
3D59C94E
3CC2F9FA
BD224E4E
3D37A25E
3D4C051A
BD950A6D
3D9E900E
BDA797D5
BCFE7E0C
BD26E746
3DA0AD7F
3DA8EB45
BD1AFCA8
3D55CCF7
3C872614
3D840A3F
3D3CCD92
3DE39861
3D04ACF1
3A8F19BC
3BE740FC
3D0A0C02
3CDA74FA
3D3FAAE6
BD9F4E7E
3D8BAFAD
3D8AF25C
3DE37343
BD37C846
3B607354
BD36F860
3AA68FAF
BD5F94C7
BCA6ACF3
3AD56BFF
BD0B3FCB
3C2EDF12
BC4798E8
3D4AD35E
BD5D7C6C
3C3B7161
3C601CA0
3CFA73FF
BDB0C447
3D8640E3
BD8BD66D
3D5882E5
BD627860
3C0AF845
BD9FE793
BDBC358E
BCFD3B58
BDAD73A4
3D9145FD
BD04E36A
3CD49917
3D2EA8EB
3D6C0148
3D203697
BB09C4A0
BD1F24C0
3CA94EF8
BD9E6FFE
3DDC1717
3CE81770
BCA360AD
3D389237
BA28B3BC
BD65F71B
3DA3B599
BB5A11A0
BD40D106
BDA987DE
BCE93876
BBA59030
BDA837C0
BCC6624C
BD8D6150
BDA694A3
3CF0EBCC
3CA2922C
3D141CB0
BD7D08C6
3CC4A000
3D9D1871
3CB58080
BD10B4B6
3C82F740
BD9FC666
3C106040
BCCE7CC0
3D830755
3D9BA115
3D5F556A
BD80F2C8
BCC0B16C
BD915A2B
BDA1BD66
BD08A2E0
BD2E01E0
BD17C7F6
3C7EEA00
3D1959D0
3D8CCD39
BD053B60
BD84F02B
B93FB600
BDA7272B
BD900EA3
BD66C516
BD8D3AFE
3D853D4D
BBECAC00
BD9E6E6E
B99AC800
3D250F16
3CB8594C
3D2A3E80
3D0AA92A
BCD4A50C
3D81CA03
BB5C4100
3D0A3866
3CC08BC0
BADDA8C0
3D1EBF66
3CEF6D00
3D931535
BD22366B
BD80A930
3BDE4C00
BD86104E
3D35AA16
3D865818
3D89F463
BCDB7BB9
BD8059DE
BD2DF2BF
BD2AF03B
3D315934
3CD8CAC2
BD078DDF
BBD5E187
3DC12AB8
BD369DB0
BD289C0E
3DDF4806
3D6E27D0
3D1BFA8C
3BF70258
BD080673
BC01239D
3CFAADCC
BD83ECC7
3D016B83
BC8EAA9D
3D435AF9
3D1FDFDA
BC338443
BD4EBFA6
BDBA6730
3C9F0CB5
BCE221C6
BD670405
3CDBD770
3D60B112
3CCE6989
3DACB6AF
BCC3244A
BD456B14
BCC094B3
BD4A2E42
BC9AE744
BD8CDE99
BD186646
BBC7CB87
BCE3CCDB
3D324BC3
BDAB62C5
3D62FCB8
BDB0A818
BD5B90E6
3D1B9E08
BD8B0E46
3D188102
BB70DF8C
BD825AF6
BD2AF6D6
BD83E9F0
BD1107D6
BCAC3CD8
3D259ABE
3CF4EF39
BCEF911C
BDB71A04
3D443A6E
3C305619
3D1A5953
BD1BA549
3BD15797
3C156676
3D75871B
3D121AA1
3D9B7314
BD8BDA78
3D51D219
BDA46EE3
3D16D0E6
BDA9B4D2
3D1919EE
BCB78B91
3CFDD1AC
BCF42276
BD7DEC7A
3D26F392
BD03E150
BD868013
3D7F4C10
BD334B60
3D53A874
3DC4CFA8
3DC813D5
3CC486A6
BCBF9529
3D3F92E4
3C9F83CF
BD85C91F
3D8CEF62
BD5DA8B8
BDA6A812
BD90C608
BD6168E8
3CE3E751
BD9C49AA
BCF2361C
3CDDDC37
BD0FD748
3DA9644F
BD056BB1
BD61E89E
BD83ED6B
BCA17C43
3DAFAD71
3C8DD33E
3B601C08
BD2A8AA0
BC609C12
BD35F835
3D6573DF
BD817511
3CF7724A
3D9EEC2C
3CCD2734
3B0FFAE5
BC2EB322
3CE81C4B
BDAF9F20
3D197D1D
BDC333D7
3DAC527B
BD85A4A8
BD967356
BD6E27EF
3C968276
3D7FFA1A
3D994D28
3D3C8E6E
3D0FC0B4
BD872AD6
3CB2A419
BD7809F6
3D927C89
BDA9768E
3C72E1C8
BBF16813
BDAB86E9
3D9A7435
3D8FF0DB
3D2C47F2
3D86C45D
BC0C84A8
BD1A760E
3CE5DB60
BD83040A
BD7CA576
3C9D0140
BD46D8C6
3D4F2CC2
BBCDA0EC
BDA13EA8
3C7FAE10
3CF375BD
3D797B0F
3D82A76B
3D80C110
3CFF075B
3D7186B2
3D90557D
3CF7032C
BDA97BCB
BD3B55E1
3C1374E8
BD050666
3D9CD425
3A100000
BB3D5E57
3D449B87
3D43EEDA
BBC20E00
BD8E8FE8
3D9EC1CF
3B977789
3D335E07
BCDEB4CC
BC1B4B40
BD9D56AB
BD359E3B
3D070883
3CB08533
BD1CE09B
BD14AC98
3D17E2DA
3D13FC84
BDA886A8
BC2722ED
BC432FE8
3DB0D40A
3C4AAF4B
BDA6224F
BD9DBD33
3DC10A3F
BD458672
3D08F828
3CE9F90B
BDA70FA3
3C18865B
3C8A21BC
BD0AC647
3BA0BDB8
3B809711
3DA4998A
3D67338A
3D865116
BCA311CE
3D81C615
BCEFC760
3DBF3142
3D83E0DB
BD088934
BD4144A1
3D366C7A
BD9C5922
BD698BE4
3BD20054
BA9515EA
BC959BE4
3DCCC471
BC06119B
3CA2D42F
3C6AEAF4
3D2C96C8
3D8A77E1
3D78ABAC
3D276F1A
3D3E9709
BD3F9E3B
BD0E3595
BBF47483
3C4EDE1A
BD8C8C6C
3D31831C
3D57439B
3B86427F
3C366F98
BCA9D2D7
3C1FFCD4
3D903EF8
BCB159C6
3CB71952
BD51E5EB
BD05C436
BDCE4487
3C0AF2A0
3BFD18CA
BD3AAF31
BCB6F7CE
BD4611EF
3D61B7A1
BCA4D4C0
3DA77879
BD304B81
3CC69B88
BD9523FB
3D5D4B04
B98EAD92
BD981AE2
BD26241C
BC5E784A
3D27ED2A
BD83BA4C
3D3F181A
BDA1C343
3D35263B
BCA02677
3D5FC93A
3D1609BA
BD09DDAB
BCCD848E
3D9BB873
BAC3CA50
3D22F26D
BD7693BC
BC8EAF1F
3C9B6634
BC099D98
BB953B30
3CADF121
BCF2180C
BBDA863F
BCD31BC8
3DA822D4
3D0D4CEA
3DA21BBD
BD8CCD08
BD494E6B
3D50E0F1
BD9E501E
BC418618
BC476BFB
BC8C8E74
BD02B4E6
BD9FBABE
3D319C1A
BD095770
BD1DD400
3D824C08
BD91FFB6
3DA8CFDD
BD20B0F8
3D12A07C
3CF964E3
3D96D691
BB0A87A0
3D4383E6
BDA0C4B8
3D71E2FF
3C741FAC
3D844A85
3C9B3288
3B4BC860
BD86D7CF
BDABD52D
3D4EBF37
3C347F49
BD5CC79B
BD976809
3CF7FD63
3DA2DB6B
3DC546D1
BAFD5A00
3DB76855
3BEAD31A
3D78C123
3D28B00A
3D99DDD2
BBD4879F
3DEE1C0F
BCA6D08C
3DA9C236
BD9804DD
BC8A7BB4
3D77A992
BD211506
3C83FD10
BD4BFC0C
3D131A3E
3AFFE070
BD39A217
BDAEDB10
3D2863F5
BD4D986A
3C84E380
3D39B311
3D944708
BD2D4E46
BD9DA27E
BB404E59
3DA5AAAC
BD4DF070
3D0C691B
BD90F2F2
BDAECA9C
BDC6FDE2
3D5C0664
3DA0D6A8
3D531E44
3D33850B
3DA954B3
BD4EDAA3
3D0F5B7A
3C2EB3B9
BDA017F8
3CA5CD60
3D06E2D8
3D36AA93
3BF58B5C
3C551618
BC80CE07
BD5E9496
BD0AE0ED
3D442F7B
3D4AFF1E
3D8F728B
3D7A4109
3D2D0FF0
BD7919C4
3B7E8400
BD998550
BBCD2440
3D9A965B
BD98E7CE
BD175A93
3D4678A0
3D4D393D
BD4AC302
BD271716
BD42C966
3D94F810
BD7E7796
BCA43943
BD2ECECC
3D87E9F2
3D4A5B72
3D530003
BCF9B7CC
BC3CB962
BCAD5016
BD4968C4
3D719767
BCACE16C
BD6A620F
3B6E6660
3C5E6A58
3D3443F6
3D9289C2
BD2739E5
3D940310
3D1F23C7
3D99A145
BDA9775B
BDAA725B
BC59F693
3C90A9EC
3D79DF3A
3D7DBB62
3D8F2C73
3D48CB73
3C5DC228
BB395F00
BD59F136
BA005280
3D630022
BBAE6863
3CD662F4
BD1EB506
BDA4C3C0
BB93AA00
3D723DEB
3C5E1630
3C7F41FA
3C952660
BD121520
3BFDF750
BA149561
3B6E7BA0
BDA4E463
BCC1D721
3D27BC9A
3D33C049
BD6B47AB
BBF42BEE
BD965CFB
BD8F7C88
BAA422C0
3CB8F900
BD9477D6
3C917914
BD68BAEB
3D28AFAE
3D1D0FE6
BD0E0FA6
BC828D0A
BD995663
3D15DCF1
BD3A8F66
BC358958
BDC11147
3D4CB482
BB7E32A0
3D6F950A
3C9391A0
3D3A6AC0
3D5026FF
BD938069
BB05F7F4
3D9C7B0A
3D7019E2
3C07B2C0
3D2AAAC6
BD80A813
BD349FD6
BD1E5D36
3B908506
BDA0E350
3D66465A
BDBBBCCE
3D8C4F83
BDA96269
BD38FA9D
3C13A8A8
3D035B4F
3D00C250
3D343DE6
3CFCB92C
3D5DEB92
3C27EA18
3D8CDDF5
3D2650E0
3CDE98B4
3D8D792D
BC11640F
3D02B06C
3D48C2EA
BD814E76
BD0B159C
3C09B340
BC6D5958
3B6FE16C
BBE2DEBA
BD55D1D7
BCF4DAE0
BDA96246
3D2FC74E
3D94050D
3D2E0F36
3DA80379
BD68B170
BD4CA766
BCB5C9CC
3D89C4C5
3CFFF560
BDA399AB
BD968903
BD45802B
BD4A2C10
BD00CEA0
3CE28A8C
3D895269
3D8DC281
BD0B13BB
BB4B7200
3BAA1300
BD0E7806
3B3B5200
3AC5E940
BD6E24EB
BD659E5B
3D6543C6
BD94EFEE
3C749918
3AFA3E00
3D81D84B
BD36A926
BD89413B
BBEEFC80
3D8EEC31
3D5BB236
3D9F2E91
3C597B98
3CB6FC20
3D3BFF52
3D8941ED
BCF18D80
BDA0A126
3D93F18D
BC90A8EC
3CE61554
3D89C981
3DA5010B
BCC1AD36
BCF3440C
3CE7786C
3D22E54A
3CBBE0A0
3D90047B
BD279BF0
3D66F4AA
3C2DC700
3DA03D9D
3D7BB8FA
3CF43D60
3D14FDDA
BC9D3C2C
3CAE5760
BD9E5A96
3D287A76
3BA93530
3D716C72
BCBF42E5
BD994BF0
3C28C887
BBE60E20
BCE67FE0
BD3D0E3F
3DA417CE
3D8098A3
3D8C6791
BD9BEC58
BCA3EE74
3C0E47E5
BDA127AE
3D77395A
3D5B2351
BD880272
BD5B1667
3D37A5C8
3D416772
BC6D8D62
3DA88E35
3D353471
BC9BCCD2
3D9E66BF
BC9FD832
3DAD4612
3D2CEB1A
BD92FEAB
BABDC6A1
BD2D272C
BC55B873
3D753B3D
3D5FD93F
3D83C3DB
BD9BD1FB
3C5A91EE
BB8ABD80
BC1D9416
BD9828DB
3D01D5E0
3D146A8B
3D783B02
BC5F2DC0
3D3E7096
BD28852B
BBDAA4B0
3D279E41
BD662D00
BC3D3240
3CAB2ACC
BCF82DDF
3C695193
BD8E0936
3D85D932
3D619B5C
3D6CB15A
BD5422E0
BB9B243C
BB90347D
BD3BD27E
3A0AE908
BD08BB75
BD96AA1A
3D91E34C
3CD31ED4
3D6DB9A6
BC983260
3D850A4D
BCC5B6F6
BC1C1D68
BD51FB20
3D9B0421
BDAAA943
BD4B11A6
3CE9D5D4
BC9C5F54
3C75DCC0
BD54B8F6
3D85EE03
3D5C43C2
3A88CF40
BD33DB10
BD42C156
BD967913
3D4C514A
BDA1D913
3BBA3EB0
BD4592A6
3C37A898
3CAD6960
BC4D7D28
BD7DD800
3B8D83D0
BD5FFDE6
BBB48AB0
BD57A07B
3D980B1B
BCB3A060
3D068656
3C8EB534
BC8042CC
3D9897A3
BD4E3B60
BCEEEC16
BD2A24FB
BB7B4500
3D7C3906
3CCC8434
BC9BA020
BD8F43DB
BD75E320
BD18537B
BBC73250
3D954741
BCEC9FF6
BD23B1F0
BC7A2F18
BD68A190
BC204D80
3CA1BF40
BDA9BCE0
3D22E216
BD6DB8A6
BD959378
BD8D25B8
3DA4904B
BD4F45A6
BCB71680
3D0BAEDF
BDB7855C
3D24782E
3D8DE757
3D9894E4
3D157887
BD49A325
BCBBEFDA
3D3D1850
BBDC386C
BBAED308
BCD589BD
BD426593
BBAD5A5C
3D8C91CE
BDA31B2D
BD6D246A
3CAB1AD9
3D3E2A9B
3D0F20C8
BCD48B56
BDB968F3
3CDD4712
3CFE516D
3D9F48A6
3D7CDD2A
BBB318B1
BDB5E1F3
3D90AB62
BD8D3BA1
BC6877F9
3DC39A1A
3DAF6AB4
BD56E4CE
3CE96792
BD3CA37A
BCA906B4
3CC560B1
BC40C7D5
BC983C3C
3D33E8D9
3D39DD7A
BD6B38F3
3D1326FF
BCB44EF2
3D340249
3D90CA20
BD41912C
3CA6F5CE
3B878D30
3DB3152B
BCF8BA38
BD5B878A
BCD3A3D3
3C2B81F7
BCFBA37F
BC399900
BCFD7B08
3E234945
BCA3C6EF
BD7C7CA2
BD3C84BB
3C886911
BCEF1C4B
3CBFE4A5
BDB7C214
3D73758A
BD4C7D31
3CC169EC
3D77A8E9
3D6D9D42
3CABD4C8
3D09BA8E
BBFFA002
BDA8CD58
BD9CAB63
BCECB120
BC22CEE9
3D96288E
BD72E576
BD1BE9DD
BD0BFC28
3C5C7ED8
BD42734E
3D937579
3D658743
3D9658D7
3DC8D92D
BD3AC9E6
BD57C0E9
BD9EA368
BB3F5CE3
BA8DC2DF
3C1A3115
BD21039A
BE06E139
BB0792FB
3C871EE0
3D9ABEED
BC8F4376
3CB944E5
3C819456
3D737574
3D3ADAD1
3D4B2F08
3D3C9ED0
3D59A8EA
B9898000
3D6A1D8A
3D6B4FF2
BDB126DD
BD92FB51
BCF54FD2
3CF582E0
BD1D730E
3DC0CF42
3CD87E38
BD911536
3DDE8932
3C90A9AC
BDA791C6
3D035BCF
BD4E649C
BD17E8B4
3D7295F9
BD9AED03
3D272D3E
3DD87AA2
BD7ED6BC
BD08418E
BAECFB53
3D80C687
3D91EAFB
B9C86495
BC818BFD
3D8130AD
3CDAFBDB
3BB1636B
BDA598EE
3CF9013C
3D210F0B
3CACEF3A
BD6B0206
BD733F97
3DF6333C
3CBC3B4E
3D80D5F5
3CE7F54C
BD12AB6B
3DC77F6A
BD4F46EB
BCA33060
BD48D43E
3C8E9100
BC185080
3D843B6F
BD1FAC99
3C546FC9
3D42752F
BDF7ABBF
3D72DC37
3D5BB9B2
3CE99906
3DE1A5A2
BDB9E817
3B05BBE5
BD5CDA6B
BD32F19B
BD6D6A72
BC94752F
BD134EC6
3D162140
3CF07220
BD1AE62B
BC7FC9F5
3C932A9B
3D4BECEE
3CEE968C
3D3D97A3
3DD01EFB
BD80CAD5
BB8387E9
BD4418F2
3D87C299
3CE6CE4C
BDD7998F
3D833654
3C891314
BD5718F0
BD1A4FC5
3D42EE19
BC983E4B
BD198226
3CF8D48C
BDA53998
BD857810
BCE48096
3C886D4C
3D8E7301
BD9E807B
3D0F0EF0
3CED9954
BD8C4E23
BD3ED900
3D06379A
BD1DD896
3C834BCC
BBCA5900
BD7A1030
3CDAED80
BCA33960
3C23AE98
BDA1B136
BAFDEEC0
BD7BCDA0
BCD51036
BCC93CEC
BCC46636
BD88D388
3D94A273
BD005E16
3D03C4E6
BDA5BB43
BD1A72C6
3CB17DEC
BD7413F6
3C86A32C
3D8A38BD
BC7450E8
3C52BA28
BD912DDE
3D441536
3D6E1206
BD28C9F0
BC8C542C
B83A4000
BC4C3768
3D949813
BDA4665E
BD952D90
3D41E692
BD345C50
3C9A4454
3D5993D6
BD03D776
BDA20FA0
3C4DF768
BD26C0C0
3D848E25
3D8EE571
BD65D66B
3C9204C0
BDA82CD6
3BC932B0
3D21A00A
BCFA9980
3D932479
3C8BBC34
BD1FB5EB
BCFD6C8C
BD8FACB8
BB3C9300
BD55FBF0
BC8C72D4
3D95743D
BD3A0150
BC60E098
3BEB5480
BD6B2A06
BD94CC9E
BD8E25E6
BD677546
3D757F16
BCEB6096
BC978EA0
BD8B9F56
3D034D06
3C9A0A20
3DA2FAB9
BADB2200
3D9F2061
BD0538D0
3D4BE1E6
3DA2757B
3D68D6FA
BC479C58
3D0AC95A
3B4DA7A0
3D83D6B9
BD771490
BC9CC714
BD93604B
3CD84460
3D7F8E76
BD8BDC38
3D2DB076
3CFF2EE0
BD9FEF63
3DA55B33
BDA89926
3D7E45A6
3AFAC000
3DA306F5
3D29686A
BD83A810
3D8DAA2D
BD10311B
BD2D75C0
3DA67351
3A2B7580
BC912880
3D48CF0A
BD2B40AB
3DA3EB63
3D9B2DA9
3DA4A0B9
BD64EEB0
BD522310
3D2F8E22
3C3202A8
BD864CCB
3D3C1D96
BBF30B6A
BD81D492
BD93CE68
3D2C1D16
3C1FCF41
BC964091
BD59C460
BB110689
BD639250
BD295951
3D3109B6
BD81BA06
BBE577DF
BD98F933
BD289886
3D36EE6F
3D8F2CF3
3B974CEB
3B8BA100
3DA39B80
3D6346E8
3D28E497
BD6B90C0
BCEC2000
BD7A9656
BCFC0FA0
BD408950
BD9A7AFE
3CD29137
3D860C25
3D59A3B8
BD5B0DBB
3C4ABF28
3C6DFCD3
3D9B0403
3C8F8D42
3D85403B
BCEA79AC
3D646C1D
3B0643A0
3D5CA162
BA623E80
BDA0EB06
BD8F9950
3D3ED155
3D928333
3C8ACC00
BD932F18
BD8887A6
BD800850
BC1530C4
BD6BCE20
BD8CE36B
BD0CB780
BA8D5F40
3C61C2A2
3C41A100
BCEE2B40
3CC7F7AC
3C190728
BD594223
3BF69430
3D7ECEFA
BD8B9D24
3C609FCB
BD8E4B3A
BD0E33F8
BD7FD883
3D52036A
3D41D455
BD54F999
BBCD6306
3D2482D2
BC0957CB
BCC99A21
3D0F520F
3C8909CC
BCC1675A
BC8BBEA1
BD588CAB
3BC3D63E
BD93C82B
3D2BE16A
BDC31444
3CE36EAA
3D63B12A
3E197BDB
BC14FCEA
BD52A5A6
3C1BF17B
3CCE9C84
BCBA436D
3D42FD5E
3D28881C
3D9FEEB5
3D800C47
BCEB4558
3D4F3B1A
3D482A26
3CC69CC4
BC4F7070
3D387290
3D228E86
BD21EA0A
BDB2544D
3D721677
BBD59AC3
BCE8DCC3
BD30594B
BDAF5FB9
3D710DAC
3D1C65B0
3C90ECBB
3CEF7381
BD3C4CD6
BC6FE293
3D5888D2
BD1ED7BD
3CA8C76C
BC67C751
3CBC7DF0
BDA84A41
BDB0FE7D
BDA08A7E
BCC05922
BD4942C4
BD974AA3
3D928C15
3D18FBD0
BD3D8CD0
BC41BF28
BD6B9076
BD0389D6
BBD50480
3D41A33A
BDA984CB
3D25DA8A
BC0D1DE8
BD1606D6
BC2CAC18
BAC87B40
BD4E1D70
BDA3380E
BC218068
3D2B35AA
BD6EEA76
BD28AD6B
BD11A78B
BD052B20
3D65B5DA
BD2A3216
BCB945B6
3D90D8B5
3DA0E90B
BCA780E0
BD7EDB80
3BDAC230
BCDCDF60
BC8437A0
3D5C7A9A
BC87708C
BD780130
3D84F78B
BC9D4234
3DA603AD
BCDA1260
BC801294
3D96B899
BD6F5CF6
3C9687EC
BCC68C40
BD335F30
3C46A058
BD04ABCB
3D16F38A
BD9605F6
3CB504F4
3CA265E0
BD6D3A9B
3CA50354
BD744EC6
BD32A680
BC0F3980
3CC9CFAC
3D050F2A
3DA7F453
BD97B196
3CBF730C
BD56C786
BBFC18D0
BDB284B7
BD862C9A
3E02749A
BCEAF1EE
3D86B55F
3D26BE70
3BDFC433
3D9707DD
3D863428
BCAA6ECB
BD379AC3
3DF622AB
BDAC91A8
3C9DED26
3E3791C2
BD85C101
3DBE53E4
BC2C6110
3CCEF1C0
3D1CFB9A
BD339B3B
3DAD7A59
3E47F964
3C9D14E3
3DB4DDDF
3DB99D52
BBF52B9F
3CD1E57A
3C36D428
3D46DAD6
BDA10F86
BD246EBA
3DA56FD3
BD999605
BDBDB4C3
3D3C6D55
BCEB21E6
3DCB847A
BD6923BE
3C9EF9DA
BD917293
3CB1D346
3B85B6AA
BD8608C6
BC6DB159
BD1E13FB
3C230428
BD9FBBB1
BD8BE16B
BD056E3B
BDB698BF
3CC8A0EA
3D74E7C8
BC74AE02
BDC598B9
3ACC715B
BD1887B0
BCC9CD50
BD2B761B
3D6A2538
BD8923E8
3CEC6179
BCFF8EE1
3D8ADAD6
BCC8B5C0
BD172E8B
BBC5BD1D
3CE88A7C
3C8A3A6C
3CE4B577
BD7E58AA
3D3526E6
BC9F3146
3C72E0B1
BCC1224C
3D8ADD31
BDA991F8
BD67EB9C
BD84EB0D
BD9ACFFC
BABD7340
BD03EE79
39A9B000
BD47145A
BDA55EEB
BD81649C
3D21449A
3D8FAE91
3DB2BB66
BD7924BB
BD8F13E3
BBD70130
3D0B205B
BD7EA141
3D2A405B
BD0B52F4
BCA5B003
BB4C3360
BD0FB176
3DAFC9E3
3C708A98
3D6193E2
3DA02EC3
BD85C228
BD96B31C
3D2968BA
BCD25E56
BCBA336C
3CDB076C
BCDCFEF7
3C33CB5D
3D960549
BD75B1C6
BD320026
BD952751
BD545455
3BB77FD2
3D9BEBD5
3D8E5663
BD776AF6
BDA422A6
BCB888EE
3B2ACC66
3D9BFCC9
3D7A2F9B
3DA65E3D
BCBFE3C4
3D8C1475
BD81EE57
BCF88296
3CC0574F
BD539B76
3D1450F0
3DA81141
BCE048F5
BD380856
3DB2E7E6
3D0C8CB0
BD13B990
BCD39AB4
3CB37814
BCD92A14
3CBE9935
BD7C3395
BCB57177
3D2777CA
BD785850
BB1C6BA0
BC36CD18
BD551804
BC939268
3BB1C6A3
BC1F8173
BCDD8314
3C73C128
3D0D28DA
BB8C1D80
3BEEA0B0
3C6D52E8
3CEFAC54
BD9F9DB2
BD406BB6
3CD6ED14
BDB3510C
3D99D925
BD05ADBC
3DAF808E
3DA992C3
3CD60368
3D011B6A
BDA977F8
3D928BB1
BD1F1B1B
BC9DC6F4
3CF25EE2
BCBF9118
BD55DB90
BC8C1A34
3DBB23D2
BD632948
3CA385A0
3D82F18B
3D1EE4E2
BD4DB7E3
BD84A24B
3DA3F98D
3D8642AB
BD4BCE99
3D9760E5
3D3CF632
BD870EE0
BC203D60
3D869DA9
BCD70D12
3CBBF49C
BD89254D
3D8BA5A5
BC3D27D8
BD85BE80
BD65CEC9
3D335CD6
3D514A88
3CFF3468
3D257BF4
3B2BDFDD
3CA1265E
3D395E5F
BD975F92
BCC3EDD3
3D508D9D
BDA7B113
3C15C482
BDAA43FB
BCD7FB94
BD4CC3CF
3D387C8A
BC2C75D8
3CA756B2
BDBD544E
BD842C41
3D0C5B05
3C153337
BDA777CB
3DC2CAE0
3D275D56
3D416B14
3C683CA7
3CE313BD
BDAFE465
3D102DC5
3C3ADF50
3C67DF6A
BDA34CDC
3CD06E18
BCFCD950
BD9849B6
3BD1D6A0
3B77D2C7
BD1ECB9A
3D5E3DD6
BCE060F9
3CCE1060
3D86E01A
3D4DE676
3D2C8294
BD071951
BD2E0E9E
3D05CA37
3D0B7616
3D71631C
3BEBB9A4
3A740827
BD0B6547
BD83DA8D
BD8F3F79
BD288BE8
3D57EEB7
3D1A6663
3DD0B845
BC95223D
BD99CFA6
BCE6F94B
BD38ECBF
BD96A0E9
3D140990
3D74DB92
3CF18E40
BCC0D11A
3CF73540
3D8D19A8
BD103437
3D83AC59
3C68D38A
BD91D6D1
3CC8F0EC
BD85C117
BB870080
BCFA5F9D
BD5D694A
3D4C0C8E
BD42406C
3C6625AF
3CD2536C
3BFA8A39
3D25FFC6
3C63143F
3D8EC841
3CC97B02
3DB75413
3D3F5666
BAA60EE3
3D14B82F
3CB53A7F
BC4BCE21
BD552E36
3D27F4CC
3D2A0575
3C6A86FC
BD49AC9A
BD321D30
BD54AEB0
3CA6AFD3
BD31F1A6
3D9103F6
BD8493EF
BDA810A6
BD9E06F9
BCEBAB89
3D5EE454
BD2BB290
3CB13752
BD28D386
BD9BFE26
3C8C4CFD
3D5C970C
BD57C246
BBC8C148
BD942FF2
3C374429
BBBFD10B
BD1195E1
BC501740
BD84BAB2
BCC3C9EC
BCB38B96
3D0D63BA
3D9B277F
3D45963A
3CA4C33C
3CE66CF4
BD9CA5A8
3D71BD76
BD7F0730
BD8240CC
BD7BD931
BD102097
3B3B41FA
3D8AE14D
BC199940
BD865DD0
BD0F799B
BD5F8A55
BC4D2655
BD7EF856
BD8C1377
3C8D1FC5
3D667CC2
BD307280
3CA445AC
3CACDFAC
BCBA948C
BD338986
3DA12651
BC55F228
BD9D3008
3B8B94E1
BD6EFB70
39C2E869
BCE04441
BCA68CC0
BD476023
BDA02D86
BD4A440B
BD8B1DFB
3C188340
3D073C06
3D3560C0
BD531E18
3CE24760
BD145726
3D88D27C
3CE2A2FA
BC58DEB5
BCA00E4C
3D875F06
BC055040
3C23D6E8
BDA967A1
BBB085D9
BD26DB96
BC68A040
BD246B3B
3C731DA8
3D9AFBAD
BBA746B0
3D1AA671
BD58A10A
3CFD0D63
BD606A9C
BD445438
BD22C021
BCE34A2B
BCB3812A
3D2B60B3
BCF22E85
3D15D7AF
3D150C73
BD9D2C67
BC1A3FA5
BD6080E1
3D9250BF
BD2DE48C
3B4C452A
3CBE5113
BD984786
BCD56205
BC2D3174
3CBF459D
3E0AE891
BCA18CDC
BD94902A
3D94EE71
BC407F38
BCAF5DDB
BCF3B9E9
3CC86130
3DD3F13A
BC06ED75
3CAB62D3
BDC2CFF6
BDADDB08
3BD28C4E
3CF34691
BDBA4266
3D3042F7
3D54ED02
BCE827DA
BD5BE7F3
3CFE2646
3C976012
3D8D6BDA
BDA4FFD6
B9654080
BD86BC3E
3DD706E0
BCA26768
BCD26316
BD938868
3CCECB67
3C7852C7
3CD06774
3D8E5C25
3C26AD43
3D4B4FF0
3CE0401D
3BEDA767
3C05D3E9
BC83EBAD
3C692D18
BBC35B30
3DAB4D7F
BA28C400
3D3D77D2
BC2AF968
BBF6743A
BD2A707B
3D2DAD3A
BCF2C9A0
3D9737E1
3D9C7E14
3B7E1EA0
3D47A3B7
3D534742
BD8A9745
3D6BE57F
3D0F9C6E
BC14AA68
BD8072C6
3A244580
BCF63124
BD905EF8
3CC9ADC6
BC3783D1
BD048620
3CABF64C
3D86BF85
BDAA5330
BD4F0AB0
3D1BA206
BD6C09F0
3C9FD1E3
3D7ADEA2
BDA5A8E1
BD881820
BCE81836
BD3EB678
3D148785
BD7B7DA6
BCB6A19E
3D363416
BC98772C
3D30C0D2
3D7BED46
BDA46C8B
BD686C00
BD621C30
3D73EC86
BD76E580
BD743D80
BD633172
3D8129E9
BD2CC9E0
BD7AC186
3D4F1442
3CD108E0
BD6A76A9
BCAFDD19
BD90F558
BD862EA0
3D6C6F66
3D4416BA
3D5F1586
3DAFBE97
3D6CD3B6
BD5A6C80
3CB58B74
3D1F80B0
BC26B9E8
3D1AC7EB
BCD670E0
3D8DA020
BC2318C0
3CCE2674
3D9A271D
BD430BC6
BAD845A5
BC7A031C
BC337D00
3C6E59FE
BDA43F5E
3D3F24FA
3D04A376
3D9186B5
3C5628EB
BD86AA4E
BD1A1112
BD2EE174
3DA59A54
BD2A9960
BD1C67D6
BD3565D6
BD43D0B6
BC46BF58
3AA6DFE4
BD70BAFD
3CAC2600
BD5DF480
BA6ECA56
BCB744AC
3D0F5628
3C8601A3
BCEF5136
BD1D4B82
BDA15BE3
3D8DB95B
BD2D2ED0
3C9934A0
BBDC02B0
3D10184C
3D0921DD
3D0DEE60
3D5CAFD2
3BCD3DBF
BDAFDF5B
BD800230
BD87C388
BD245B01
BCFDB2E0
3CC67A94
3DADBC5A
BD51CB8F
3C8501DF
3B8B6F00
BCF536F6
3D3F6E8A
3D78F7BE
BD8BC728
BD9956A8
BB533600
BC70EC00
BD7ED016
BD270BD6
BCAB576C
BD8D5613
BD0F7B5B
BCF0038C
BDA54C48
3C0EA458
BC893134
3CC711D4
BCBC9D76
BB3FD0A0
3D89B0C5
BCE2302C
BCFFA236
3D6F6746
3D4BBB12
BD9075B3
BCE95220
3CB19F0C
B9E47D00
3D10D09A
3D99D58B
3B127BA0
BCF8AB56
3D77945A
BD0F9490
3D6B9CF6
BD8455E6
BD925E78
3D8307C9
BD87DCE6
3A878000
3BE3E850
BD937EF0
3C43A858
3C4D8298
BD2716BB
BD8874AE
BD504D80
3D9FEE41
BD3512D0
3B95ACB0
BCAF94D6
3C031CC0
BD3F54E6
3D598DE6
3D2DBE22
3D270BA0
BB2E2900
3D17C986
BD8F2710
BD9D881E
BC200928
BAC36C00
3BA97550
BCC83120
3D2A8BD0
BD63C176
3D2D3202
3DF1101A
3D1166C9
BCC2DD99
BD930B97
BC583EBF
3D80BAC6
BD6AF58D
3D18AD22
3C58941D
3A42072C
3D32731C
3DB227A1
BD8A5ED4
BC077718
3D145D91
BD9FAF79
BCE4F3D4
BC27C903
3D739EE3
3D695F39
BCAC096C
3D968E17
BCC46253
3D4739B4
3C77BEBC
BD09DB1B
BDA6476E
BCFDBA37
BCB468D2
3D7C8100
BCB25B0D
3CD1E5A7
BCC1744D
BD5BB765
BD9A19A6
3D763796
BD8A6B68
BCB5F915
BC41FB50
BB8D1932
BCDD5467
BB06FF52
3D38A24B
3D6963D3
BDBE0299
BD7566EC
BCA53118
BC2DF8F3
BD0AE63D
3D6A6F6A
3D68BA9B
BD5F22FC
BD3CEC3C
BD4DF841
3D15B0B8
BD996E9E
BD43CC36
BD2C70F1
BD863712
3D851326
BBD2A4C0
BD6EBF49
3CBC258D
BC91FB01
BD1522FC
BCA14120
BCF6F49B
BCAAEEF6
3C2DD480
3D6ECF93
3D36AFE0
BB8B95E4
3CCF6216
BCEFBDB7
BD75C50B
3D95C25D
BD955BF6
3D8E2058
3D80CCD9
3D940FF5
BDA31E41
3BA7DEF6
3D767B1F
3B86693A
BD18C95B
BD85B0F0
BD90029D
BD084425
3D03C47D
3D84D409
BD86FCAE
3D6015A0
BD28AFFD
BD46C8D9
BD6479F7
3D2CAFDE
3D190307
BD9A70A6
3D4FDF26
BC786678
BD48FB9A
BB9AECF5
BD364725
BD541C30
BD6B6AE2
3C485CBA
3BDB91DD
3CC72C8C
3C97F5BD
BB5A1DA0
3D627F60
3D0DACFF
3D92F22A
3CDDFE0C
BCF9301C
BB9BF3E8
BD72F5E9
3CF3CA22
3CC5948B
BC5A1C58
BC525480
3CE43C81
BD80337B
BD493A4D
BDBCEA61
3D1C48B7
BC99048E
3CDE86E1
3DA230DD
3D84D489
BC6DCD18
BD892958
3D23B480
BD76069B
BDA1A90B
BDA6D168
3D13A620
3CC835F4
BDA08876
3CDF6E2C
3CB0EE94
3D42E692
BD39B7EB
BD97B3B3
BD1802F6
BDA209C0
BBB33500
BC66B918
BBFA1180
3D075D46
3D3D5F1A
BD48D08B
3D8EA285
BB5926A0
BD017FC6
BC49B1D8
BD1A7976
3B80BB00
BDA7764B
3C692328
BCD9C8EC
3D560906
3C725200
BD96D593
3D25CBB0
3B5490A0
BC23FAC0
3C9D4CF4
BAF99E00
3D81D529
3BF015D0
BC9E5DF4
BCDE6056
3D036FF6
BCAC61CC
BDA22916
BD010C46
3D2BE03A
3CE3622C
BDA344BB
BC80E6F4
BA6C6000
BB16AA00
BD388686
BCBA4236
BCDEA436
3D983989
3CE99974
3D6EA822
3D43EC7A
BD14CFE6
3D88EF5D
3D765AA1
BC033DE2
3BF570B6
BDA2CA8F
BA867563
3B1FFCF7
3D8D9A19
3CA0B7C3
3C9AC70F
BD6D78C7
BD9C7595
3DACEB9A
3C393090
3DBAB5E7
3D721D90
BB23C842
3D6A24A5
BBCE1094
3D104F00
BBF0C638
BCB2C28C
BD11A4FA
3BC54A17
BD3A1FF7
3DDBF9AC
3DA82DDC
BD6AD959
3D501F75
BD77C145
BDA99653
BD04C3F2
BD4D886E
3D49CC49
3C1F3ACF
3D853C53
BC1FC04D
3C37A181
BD2AA411
BD94A09D
3D1110B2
BC70FD64
3C552FC0
3D0D5DE4
3D6659BC
B9B26145
3D7354CB
BB0D8D3F
3C286C30
BD256C66
BD8DE5BE
BD82A94E
BD708926
3D6541E0
3C4A02BB
BD861157
3B305D4C
3ADC3940
BBCD5758
BD01516B
BC03AEA7
BCF147AE
3D34C21B
BD623A2E
BDA21A92
3DFF2453
3C917EE2
BD58AE5B
BD3B2A4D
BAA8FBAB
BD1602A1
BD8EB502
BD06C21B
3987DAA2
BCA6E4CB
BD7AB29E
3D49CCAC
BCBBB96A
BD31109D
3D1B3AA7
BCB0A985
BD8A09BA
BC21F7FC
BCF249F2
BD9BB095
3D24D880
BCA98475
BD35EFD4
BDB05755
3DB34B5D
3DED8A4F
BCB528EE
BCFE5C1D
BD587B1D
BD9BEFA1
3C82427B
3DAEA704
3B0CFCAE
BD850179
BB000911
BD279D44
3ADC1AA8
3D14F59D
3D68BF76
BCB837ED
3CE2D31C
3D748904
BD0E11E4
BDAE38A9
3D396584
BD483370
3C3BE1BD
BC456B1C
3D8ABACA
3D56CC4A
3D05A5B6
BCA7E603
BC4AC088
3D7EEB20
BC24CE07
BD84AEE9
BD88C448
3CEF339E
BD89A06E
3CD194C3
BD42363B
BD271890
3C7AB8C7
3B349136
3D9443A5
3D64C4A2
3D5E0392
3CF501AC
BD806CCB
3CC50514
BD881746
3D05DA4A
BD99C9E3
BD290E1B
3C9FA6A0
3D96B389
BD92EEE8
3D9F0A19
3CE0FEA0
3CAFBB8C
3C692DE8
BDA6DBC6
BD3EFA70
BD56AFF6
BC087500
BC2B6EA8
3BACCC30
3D6541F6
BC097A00
BCBDF12C
3D8C3E2D
3D6AE76A
BD199C4B
BD6C5720
3CF0258C
3DA0FFD1
3C3576E8
BD60A346
3D052DD6
BC8587AC
3C6B5AA8
3D70727A
BDA8743E
BD4B2D86
BD3E7736
3D00A490
BD007B60
BCF15A76
BD1EB670
3D68655A
3D9E8399
BAE8AC00
BD502546
BCBD1B6C
3C80FEB4
BD7E0D30
BCC00A20
BD02D91B
3D551DCA
3D92B37D
BD60E9CB
3BED7E80
BDA9255E
BBC8FF50
BD78B5FB
3C78B180
BBADC150
BD3E24E0
3D99A053
3D34308C
3DBE0813
BD5C5038
3D883193
BD7D5CD9
3D0C91C5
3CBA8DB0
BD154957
BCA9EB6A
BCE0464D
3D66BD49
3D7FAEC3
3D8C2D53
BC2E817C
BDB6AE85
3E11E392
3DA81E2A
3D45B288
BD55F933
BD4370D0
3D80E63F
BD741FF6
3D788909
3E2C5965
3D68EC64
BD2AC3B4
3CB98922
3C68ED28
BD90BBC3
BD803166
3D344381
3D52CAAA
BD883401
BD375848
3DB47A55
3C386F06
3DC6BA37
3D829299
BCBC0956
BD897A20
3DA15B20
3D6ABFAB
BDAE7081
3D66BB8D
BD935A10
3DA02A9E
BCF9E740
BDB54154
3CB8DFF4
BD4A7774
3D33597E
BCFCB22B
BD74B970
BBEC388E
BD4B04AD
3CD1866C
BD3121B5
3D73C682
3D7DEA3F
BAFBB16F
BD9FA56A
3D4CBB41
BDF4F07E
BD8DE230
3D28064A
BCE9C93C
3D9EC882
3D16F3E6
BD5129BD
3D59640E
BDB316CC
BD24DF1D
3D33C8E7
BCF0A560
BC90BFB7
BC23FC68
3D475E82
3C9465E1
3C07F920
3D89C2F4
BC797B3F
BDA8B8BE
3D847BE2
BD4DBDE6
BC288C7B
3D82C75E
3CCD638A
3CD4C4CD
BDA2D948
3D8FF799
3D336012
BD767EDF
3CABA884
BD524157
BD211982
3BC8E3FC
BD47930B
BC3F6A49
BCA65054
3BA4B930
BD87305D
3D6E8B82
3B196860
3CD702CF
BD931C63
3D924755
3D620ED2
3DA803E3
BCF3F573
BCEC613C
3AC91026
3D7B2B46
BD81470E
3C1C2FA0
3C934E4E
BD902E66
BB2FB5CB
BD8762B0
BDA29B33
3DA809F5
BD6D9053
BD03E373
BB5F0760
BD6E07A5
3D723D66
BC81B5E5
BD4CA914
3DA5A538
3D869E72
3D1FE3B4
BD038AD6
BCE78F3D
3D11C9A6
3DDE3171
3DA677D3
3D05695B
3CF352C1
3D40853C
3DCBA603
BAA3FCA5
3C5A13EA
BC96C1A3
3C2D27EF
BD0A91DC
BD355507
3C760C80
3D831A18
3AA59E00
3B862F3F
3DF86770
3DA46C78
3D9C1DFA
3D11DCBB
BD2BFF06
3C6E626B
3D908CA3
3BFF1629
BD5D6B88
3D248968
3D64A48A
BD737C8D
3C45CD15
3CB26FA5
B9CBE606
3E030B98
BD7E77E4
BC58A94E
3D4C4E2D
BCDA77E0
3D7530E0
BC8B62D3
3D4B3E9A
3CB428CE
BDB23DD3
3D413315
BD167CA7
BC4F0428
BCB2C599
3D1DE1B8
3D80F699
3D61885D
3C246C06
BBED6157
3C9C0C40
BD921C49
3D0BE935
BAE3F364
BD6AF940
BC3D1892
3D513543
3CDBCBB2
BD205676
3CB23214
3B538A08
BC1E3E7C
BC2B6180
3D0D815E
BD7A6051
BD14F579
3C1A0925
BD81A9F6
3D3FBB6A
BD9DA65B
3CB95334
3C276446
BD3D4C90
BD0A15A3
3D937195
3D6E1DD6
3D8F5C5D
3C2389A1
BD0608DB
BBE109F3
BD24FFB7
3D04D41B
3D606CE5
3D76C442
BCE9BC20
BD8C0D28
3CCEE6F4
3D16DD6F
BD538E35
3D83FECB
BD81D87D
BD9A2B9E
BD9B55C0
BCE828F5
3D315CC2
3D67C7CD
3C359828
3D94F741
BD0A4A10
BD946F00
3C953BD4
BD76488B
3D16FF7A
BCFABCC0
3C06BDBD
3C888FB4
BD593146
3C081200
BCDC7CFA
BD07F0C0
BBCE2438
BD1E2ADB
3D028ADA
3C7F7558
BCF22F8C
BCE0C3CE
3C444840
BD566E26
BD81AA2F
3DA7E1CD
BDA057C6
BD0C984B
3D50B953
BD7F2156
BD9276EE
3D18621A
BD9E2EB8
BD83CED3
3C9546F7
BC9AF014
BDAB6B56
BD60D506
BD415F06
BD9FD5ED
BD2DE48B
BCE6A7A7
3C8815DB
3D4ACEE2
BD24451D
3D9BBAF9
BD7EA6BB
BD8306F8
BC40BEE8
3C159EE9
3D54623B
BD01D0C0
BBB89AD7
3D8CD4C4
BD52DF50
BCB23100
3CB1A580
3BB97D00
BD22285B
BC17D9C0
BD72BAAB
3CE8B820
3C6164C0
BD9F6830
BD162B5B
BC032AA1
3DCB0AB6
BD33A536
BB8BE5E4
BD9D1DF6
BD9601E6
BD82AA68
BD5C93D0
3C4B20C0
BD6D0E53
3D2D3B08
BD787730
BD6001D6
3CC24D00
BD7CF9F6
BD8FEFBB
BCE8EC4C
3C834C17
BD9B5C4B
BB6C0EA0
BD1845EA
BD5C7B8C
BB910378
3D24C740
3D8D71EB
BB8C9C9F
3D6AC8C2
3BB2EE30
BD62946B
3CD8A620
3D49B942
BB5C7EA0
BD81A458
BD662BE0
3DA1E905
BDA9C668
BD269E26
BD4E79B0
BBFC9530
3D80A969
BD8EC19B
BC8404B4
3D271A66
3D5C3806
3D811C9B
3D679FA2
BCD12236
BD708290
BD4C3426
3D8E2C85
BD6F2D66
BD65BE5B
3DA99B7B
3CA5D6F4
BD1D8FCB
BD2CEAC0
3D60D9A2
3C3043A8
3C4850A8
BCA13134
3D7F44D6
3CCC9860
BD116AFB
BCE22E80
3D1F80A0
BC2C0EE8
BCC10A76
BD312836
3D1C2256
3D3FCFA6
BBFCC350
3C8038C0
3D47BDFA
BCABBB0C
3D8CE261
3C4CB540
BCC533E0
3D92D949
B93FA000
BC05F128
BD577AFB
BDA8B98E
BC917214
3DA3D179
3C867BF4
3D83BFDB
3D9AE3C5
BD21F7F0
3CD600EC
BD14D39B
3C6D41C0
BD130116
BD1CA77B
3D7856A7
BCEAC033
BD90B1E3
3D168F09
3D173639
3D929899
BC7DE3DB
3C3DE5DE
BD354C90
3D628A7D
BDA9EAF3
3D240A3F
3D998484
3D8B3989
BBDF4CF9
3DAC6387
3CF0A040
3CA9988B
BCACA0C0
BD9AFCDC
3CAEC283
3CDF4C51
3D09E2D6
BA2A96DD
BD722280
BD1AA680
3B04BEEB
BCA487FB
3C0E9738
3D224EC8
3CDEB581
BCBCE9CC
BC94ABB4
BD3E0A2B
3CB65BD4
BD735F4D
3D6F3814
BC993DB4
BC4AEEBA
BA6D6A80
3D57106A
3D92930D
3D13D24A
BCBEFB20
3D90C87C
BD96BA13
BC675A28
3CB3E734
3D0358FE
3D871124
BCBA284C
3C3269DE
3D2F417B
BCD9C116
BD766C76
BD0D401B
3D7B5010
3D82127E
3D3489C6
BD41647A
BD9076ED
BD235C27
BD02EC50
3D32BB66
3C877180
3CA290D4
BD18F506
3CA911EC
3D9E3D59
3D38FB26
3D9A1B39
3DA6239D
3CBFD8B4
BBA74330
BCAACEAC
BD782576
3D09B38A
BD99D5E0
BD92F3C0
BD279076
BD4728C0
BD6F7800
BBBFDAB0
3B972AD0
3D82F73D
3D89CDD9
BD1DCCA6
BD9B6186
BD913CC6
3DA8BAB3
BC345418
3D61EC3A
3D17FF96
3D5A1AD6
BD2F650B
3CFF914C
3D90DFCD
3D33B45A
3D6E2FD6
3CA162EC
BD22BBC0
3D9D0933
BC54CBC0
3D5B0F3A
BC0E5EE8
BDAA56A0
3B278CA0
BD199170
3C4A2328
BD4762FB
BD733236
BCFF2B6C
BD662556
BD8A14DE
3D11C8BA
3D19BDC6
3D972C65
3B81C5B0
BD016FB0
3BA4AF00
3BCA5750
BC288458
3C1C20E8
3B6C3600
BD611210
BD2CDD2B
3D801311
BD356323
3C52BF74
3D30A75F
3D556C82
3D22E18D
3D4FBDE1
3D14FA40
BD2A2463
3CE99F90
3D5D089D
3CEB0C0A
BC8AFDFC
BC19CB9B
3C82B5C7
3D0CED1E
3D878407
3D9F1B36
BCD1433C
3D95E04B
BD24A92B
BD4CF17B
3D2C8A3D
3D3AA9A2
3CD17878
3D202ED4
3CE085AF
B9FC9E0E
3CED2D65
3D3CFD68
3ADAF08C
BC32CD78
BC9CE4CA
BC99A384
BC6BE114
3CE609EF
3CD7EC97
BD8108DA
BD0E498E
BDB5BE5C
BD4C8701
3D4B933C
3A7E7297
BDA9F1F7
BBDB55BD
BD362D5D
BC8F02F8
BD9A8368
BD9CDF5D
BCCD96AC
BD202BE6
BDBCF3B0
3D0096AC
BA851E53
3D83D618
3D8CABAE
3D702FA6
3D9EFA0B
3D7E118B
BD2948EA
3C3F6543
BC7F1156
BCDA1BDC
BDB30669
BCB2965E
3D8E2BD8
3A017DA1
3D5E64AB
3D104630
BD517BB6
BD1B1D47
3D7933E3
3D0FE1D3
BDA1B6FF
3CAAFEC0
BD9C3522
BDA1B5D0
3CCA9E1E
3BF2A02D
BD867D9E
BD999090
BCA7EE6F
BCA55A74
3C2A3E91
3D8D4379
BD79E00B
3D7D551D
3DBE8A6E
BD889552
3DDEDBEF
BD323FFB
BDA6ABB6
3D621267
3D8B43C4
3C2C9D5E
BC0303F6
3AF11862
BD0A1746
BB81DEB0
BD9EA61B
BD9810F0
3D89C81B
3D4532AB
BD112792
3CBEF811
3D29F553
3D716452
BD974C6B
3D49FE66
3D2228DC
BC7F95F4
BBD59DC3
BD1D4ABC
BBB762B0
BD43F11B
3C3BC248
BD30FA4B
BD61F726
BD082F78
3D99C945
3BE606D0
3D3ECD84
3C17C0C1
BD31DCC1
3D1BC408
3C3D78AD
3D2DF416
3E19AC7A
BC274AAA
BD43463F
BCA05139
BC87879D
BD98E550
3C9E3F16
BD575EC8
BDA68D4B
3D9F8667
BD48FD7B
3D1DAB80
3DC48EFD
BD48131D
3D94814C
BD1F8187
3D2134F6
BC882708
3D441FEE
3C1825C0
3D222D31
3D4A05E6
3D3930D7
3DB2C93D
3CE5EE85
3BDC0F92
BC5815A8
3CE86C00
BD99828E
3D6FE266
3C016EC5
3B80DD1A
3C06E142
3D212BEB
BC220EC0
BD89DA9C
3D828CD0
BCB392F6
3DCD0DF8
BDC9A1E4
3CD17DAC
3D9BB0A7
3D23CF18
3DA80AFD
BD94602B
BD74E966
3CA120B7
BDEB2898
BC2E4DA5
3D017CEF
3D1A935A
BBDC4235
3CBF5B86
3D09608D
3CAAFB57
BCE6A669
3C5E6468
3AC5B000
BD700961
BD182CEE
3CB55024
3CFAAB6B
BD8BFF45
3D588BB0
3D166A62
3CD43C34
BD2D4886
3D6F09A3
BC37EDB1
3DA1B54D
3CC80987
BD02693D
3D99F4A2
3C1F17FA
3CD7883B
BCF63736
3C10AFEA
BCF8E2D6
BD515446
3D939DFF
BCB9B2A3
BC242468
3C699D66
BCF62996
BCFA7E2A
3D11CF66
BD88687C
3D94A336
BD7C1BBF
BD2B48D3
3CB51B6C
BDA34123
BD9F5606
3A9BAF6E
3D17D9BE
BD640404
3CF9EFE0
3D75DF04
BD41F62B
392CE600
BD25306B
3C8F1BE0
BC14D7D8
BC937434
3D977D15
BCE481B5
BCA75BD4
3D644BB6
3D342BA2
3C6E4CA8
BCCE57D6
BC5711E3
BD9F0480
BC888714
3C9D7E94
BD0C5AEC
3C1922E0
BB30C6E2
3AB8FF40
BD555406
BCD89980
BA0C7E80
BC06F10C
3CA2866C
BD85C696
3C561502
3D26B53A
3D763868
BD2288A0
BD0FB000
BCA63F94
BD83F41E
BB981300
3CFC05C0
3BA7FFB0
3D4B0F2A
3B414600
3CE087F4
BD662440
BC7E9C68
3CB1CA20
3C21B640
3D5EC8FA
3D8A423D
3D8CDE29
3C16C118
BD16D166
3C700058
3CA1D54C
3D43D4B6
3DA6327B
3CB6D38C
3D44A3A2
BDA42696
3C6EE7C0
BD67009B
BD9D55D6
BD809586
BCC1B4D6
BC841CA0
BC5DB6D8
BD3A8556
3D968309
BD523786
BD564D5B
3D1554D0
BDA616E8
3DA5A4E3
BBDBF750
3CEDCCE0
BD8BA7CB
BD5A4E26
BC12A818
BD609326
BCF94EC0
BCBA94CC
3BFBD0D0
BDA39568
BD2C81A0
BD5019DB
3D8BE9F9
BD65196B
BCAB7A76
3D51AC06
3D4E35B6
3D0F23DA
BBBFD400
BC5C4E58
BCA01194
3D80C731
3D536576
BC377218
3D15EAA6
BD9B2846
3D2E80F2
BD7EF070
3D64E092
3D85F3FD
3DA5E513
BD0804AB
BC656068
BD66297B
BCE7170C
3D489852
BCD09C36
3D8DBC01
BD52819B
BCEFF50C
BD4550F6
BD784480
BC8DE3D4
BD1B9CB0
3D718252
BD792C66
BD8D69F0
3D010980
3D274BB0
BD6308B6
BD882B80
3DA06E05
3D9E7641
3D90B41B
3D28E15A
3D8514CD
BD39E05B
BC8E8D60
BC74CA98
BD9340A6
3D82DE7B
BCA0AAAC
3D9439BB
BC0AD380
BD3DD210
3D122BCA
BD368C00
BD6516B6
3A2F0280
BD467C16
BCE3324C
3CC11794
BD3C2596
BD1B91EB
BCE5E000
3DA64FA1
3DA81B35
BD4337AB
BC9B2B60
3D9C58A5
BD4CAC20
3D856939
BD9D2B18
BD92B198
3D5C8496
BD88C818
BC18FEC0
BD0B9B7B
BD9743D8
3E06968D
BD8F6DC7
BD86ACF4
3BA9498F
BCE0695C
3D8649C4
BD486061
BD6C3FF9
3D77F652
BCD24BCE
3D83009D
BD4C9C65
3C19122E
3C539ED1
BD1E0DA3
BD97AAD3
3D970E15
3D34D4CC
BD2775D1
3D099A70
BD16035B
BD3ABC08
BD5173D7
3D235833
BBBB49FA
3729E350
BDA3652C
3D315DC0
BA436F5E
BC064D05
BD841307
3D3B78FF
3D9098D8
BD75F2C8
BCAFAFE5
BD5A2A77
BD739F98
BC5EC388
BBEA9F17
3D2AC461
BDA20371
3DB5E141
3D4196F1
BD15EA77
3D0783FE
BCE8CBA1
3D3476D4
BC407028
BD5001B0
3D8755B9
3DB6CFD7
BD2E627B
BD829D71
BBA719DB
3DC50843
3C676102
BD7275F0
3DA0172E
BD18B314
BCD02B91
BC92ADEE
BD9BB8C3
3D3F7F76
BC1C1F54
BD116DD6
BD6F1D30
BD580A70
BD126306
BB957750
BD288B26
3DA7EE4B
3D85DECB
3C3D3840
3C20D4A8
3C3F6AA8
3D609FC2
BBF58450
BCD36180
3C70F440
BDA36793
3D5285F2
BD937CCE
BC4B6028
3D000940
BD9EBEC8
BCC68716
BC0FCF98
3DA0DE53
3DA5E281
3D993639
3BB74DD0
BD14D2BB
BB6D8AA0
3D260A3A
BC8A8AF4
3B8CD030
BD642B46
BD96BDE8
BCBD0E80
BCED57AC
3D9BC9D9
3C9AE380
3D8CEFEB
3C8F3814
3D1204A6
3CB3D50C
3D7404CA
BD6BBDF6
BD076616
3D258B70
BDA4752E
3D1DFEC6
BCB05FF6
BD80B816
3CF4B060
BDA2513E
3D91268B
3D5F8CF2
BC260158
3D384A6A
BD7EF2AB
BC334168
BD587CB6
3D1202E6
3CD3E554
BC5ADDC0
BDA36563
3CA2B1E0
3C03BA93
BCEAB234
BD12BBAE
BD261DA9
3CE6FDA2
3A806F40
BD1342E2
BD668D1B
3D87FCD4
BDA368E1
3D1696C0
BB19AC31
BD517F20
3CAE7581
3DE269F4
B92B78FC
3D1D1FC8
3D113120
BD9E25A8
3D7F38B2
BD6AE0E0
BCD4EE13
3D9C17AC
3E08E727
3DD452EF
3DA12BF5
BD92D4B7
BD63885A
BB9A0EB0
3D654562
BC5A46D8
3CF7FA22
3E095F29
BDA81818
BDB10258
3D4B7E66
BDCE6A59
BD348E44
BD967D4F
3D68F90E
BBE039EF
3CBCE517
3C74B7EF
3D899BD0
3D884847
BD219296
BDA095D1
BD32A702
BD2227E8
BD2E0E5B
3C698656
3A53D62B
39F4F383
3CB2CE8B
3D68B2C5
3D902AC6
3D11CE50
3C670AF6
BD35EFA1
3DAC313F
BDA41EAF
3D24AAA4
3C9235C6
3C59A1E5
3DA38DBD
BBE654B0
3C7D50A2
BD11238C
3C5557C0
BD836026
3C55A273
BD5DDABE
BD385232
3D3CEB25
3CEC0D94
BD93F8ED
BD0635B0
BD9A3950
3C843F9D
3D19B2C1
BD323220
3C86E4E6
BCC4D720
3D399BEC
3AA1E540
BCA38252
3D8097CA
3D93BE9D
3CCE2DC9
3D7AE5B2
BC37BED8
BABAFE00
BD0D2EBF
3C4BE0A2
3D836D6D
BD965DF1
BD9A670D
BB1D1200
BD7AD460
BADD7CCF
BD02F116
BD955B17
BD720A6B
3D9CB81B
3B19E426
3D176010
3AFEE6C0
3D2E5646
3C47A0E8
3C825261
BCA8BD0E
BC017728
BCE4ECB6
3D54511A
BD44BD10
BD28EAA0
BD08ADB2
3D40903A
3AF5C6C0
3D56C872
3D8F35FB
3DB1FA96
3D9320D1
BD83AAFE
BDAC37F4
BCE3D2D6
BD9E912E
BC957ACC
3B8735D8
3D249940
BC2338DB
BBE35E30
BD960286
3D93BF0D
BD858A4E
3CD1B694
3D388C04
3BA646D0
BD08ABA0
3D5AC835
BD815114
3D93B36B
3D866CB0
BD153BAE
3DB009BE
BD40D556
BD717436
BDA158B6
3BA10780
BB38D107
3DAD8BE8
BD90B036
BDB531FA
BD92766A
3BD89150
3D475D76
3D8C2C09
BDA9EBE8
BD08FA36
3D7D7F86
3CF5FC25
3D57CD56
BD1EF356
BD65BDC8
3BA87C50
BCB1A6A1
BC9F11DE
BD8582CE
BCC87A84
3DA9C4BD
3D0C269A
3D4D909A
3B4A68A0
3D2B463A
3CD52BB0
BCA6EC48
BD5176CB
3D7267A2
BD7047EB
BCE75B54
BD9F4828
BC015B40
3BB09C34
BD1D5ED4
BCCC1016
BD36E192
B84C196D
BD46970F
3D568DE6
3CC16CC0
BBD1A8B0
BC002AD8
3D5BDA54
BCF28CB8
BD9F9BE0
BBF83E7D
3D304A7D
3D831238
3C21FDF6
BB548FAA
3C36CEF8
BCAB495E
BCD893A6
3DB241A4
BD365DD6
3C8EB3E1
3CEC24F3
3B9A6668
BD65C8B0
3D5DB8E1
BA0A1241
BD901240
3D79B492
3C23E2A5
3CAF41D8
3D47CB0B
BB25CC07
BC3C2FC0
BD7E8224
BB16215D
BCF32717
3CF47B2F
3D7EFC58
3CB2D2BE
3D8D38DD
3B8CF25E
BDBB0C71
3D62BDFB
BD2E8625
3DA75B51
3D6CF3C4
BC80D5C8
BC13ACFB
3D4A9551
BD43F4B9
3CD1CE12
BD3651A1
3BEF4FE1
3D99DF3E
BC4AD122
BD2C0BDE
BD96F366
3C630DF0
3D60DEF5
3D7B12B9
BCEE0CF2
BD644CEF
3B9A6EAD
BDA03763
BB1CB378
3CACAA01
BBF4BAE8
BB9C878D
BD5828CE
3D094E7A
3D4ECEE9
3C4A831B
BD7C6B2F
3CCD5513
BD219685
3C6281C0
BD4E66F1
3CB573E7
3AAE460F
3CDC6850
3CAF97B5
BD8BFD8E
3DBEA459
3C1A40C5
3CFAACDE
BC7FFC7A
BD998BBA
3DA115BE
3A0E6801
3D98CBE1
3D2AFC88
3DA0E55B
3D76A557
3B1C88C9
3C7E256C
3C3D4193
BDCC5720
BD048F8B
3CCFF3BC
BDAC9BAC
BD2ABCB2
BD441982
3D55D052
3CCDBBC6
BD86A24E
BD7666BD
3C2A06D1
BD741832
3CF90BE0
BDB9E3E5
3BB42150
BD010C7B
BD68E49C
3C8CB6A4
3D15B9A6
3C297D28
BD9E6F26
3C0826DC
BCA9EA1B
BCF120B5
BC628580
BDDD3AE8
3E042F8D
BCF244B4
3D8D6263
BE278CE9
BDAA2838
3D3F0AC2
BDE8D482
BC9D7C67
3DDA81F4
3D0A14C2
BDD2A493
3D2A063E
BD8BDE70
3CBCC033
BD8EADC6
BC5301D7
3D8D57F5
BCB9C276
3D2AEDF2
BD0965EF
BD6D4650
BC8B5D07
3C2CAFE8
BC80848C
3D2883A9
BC8BF780
BD11AB12
3B1FC97E
BD3B93EB
3DA7B90E
BD8C9D96
3D827781
3D3962D6
3C57FE18
3CC9E881
BD82BA94
3DBF8169
BD9B7477
BDA2CF46
BD77CF16
BAECC200
3C566AD8
3B7B6EA0
BC1EFF80
BC1DEE68
BD610816
3D704726
BB337BA0
3DB88583
BD8E89E8
3DC73A52
BDBB5F49
3D93D31B
BD1ED9EF
BD326E96
3D8578D9
3D2A7680
3CF13DF4
3D5523B2
BC0AB011
3CD429C9
3D2EC5F6
BD9F0540
3D9DA186
3DC88EB7
BBFE35ED
BC674818
3C7BCDCE
3C4E9900
BD688886
3BDFA5AA
3BDA982C
3D2474F3
BCFC8780
3D3AC6F6
BD364810
3D26B90A
3BF6F734
BC944154
BD8D9F08
3C500DA5
3C8E88F6
BBDE1BE9
BC09950F
3D3FDD5D
BD3012AB
BC6379D4
3C9131C5
3D9E418F
BC81DA99
BC46913C
BC2D191A
3C9C9868
3DC8E3FE
3D549E3B
BD5F1B38
BD0367BA
BCB00AE0
BB0DE4C2
3E004897
BDBF1858
BAA46539
3D810E48
BD3EFBAC
BD949086
3D40F222
3D22CA23
BD2BEF62
BB24DB21
3E2336BC
3C007BF6
BCDECEB2
BD9DD62A
3CD697EF
3D2BB5D3
BD04A361
3D2933BB
BD005996
3C868879
BD862304
BD9317F5
3C9E1568
3D461D59
3CF3BFC7
3D59B0FA
BDA0F21B
3DA4C931
3D103DAB
BD04A45D
3D3540F8
BD26469D
BC950815
BDB4D1EB
3CB2E6E0
3C8944F4
3D325B50
BD6D76C0
BD9EF5CA
BD0BA491
BCB66CDD
3D687770
B9951300
3D8A204B
BD9F3205
BD45FCAB
3CF9D9F4
3DA16311
3CF2BD93
BBF51950
BD099647
BD0BC5DB
3D95ED41
3C8E3EDD
BD20AD1B
BD62D549
BD35E6BD
BD960704
BDA554A1
BD77F7C5
BD924B93
BD7273CB
3D631EEA
BD48F328
BD81FD1D
BD8BAADC
BD196CEA
BD8AF80E
3D9E46A9
3DA9AA05
BD8B9BB3
BD98EEE6
3C2C40D8
3D7EFBEA
BCDD2D41
3D04F3E6
BCF14AAB
BC716F5E
3D0E481A
3C9D3525
3D77A00F
3D8927B9
BD612F3D
BA100580
BD8BEA56
BD11A7D6
3D8132F9
3CBDCB34
BD5B6B20
3D9A796E
BAF09EC0
3B7408A0
3D1926EC
BD5C4E2A
BD09333B
BD0E46A0
3D6AF566
BCFAEF00
3C91B36C
3D3F0DD3
3D615D4E
BD81FCF0
3D8C034D
3D9941E1
BD8EF048
BD8FACD0
3D984395
3C94E540
3D89E0E0
3CEE43AC
3D16FFAA
3D948481
3D60F042
BD1F8236
3DB3304F
3D3D51A2
BC163C98
BD0F6A83
BD302E3B
3CBC1B4D
3D4DD3B6
BDA7EBEB
3D929C94
3DA1A58D
BDA1A638
BD45D4CB
3B4D0100
BC3E05D1
3D210FC7
3CDB96CD
3D8944DD
BD6AB09A
BCEFB2A0
BD75811B
3D54365A
39246600
BD1426A0
BCC44DD6
BC8453F4
BD0E55A6
3D367FE6
3D41505B
3CD3DD00
3BB75785
3D632C8D
3CE738EC
3D43FE1A
3D86CA21
3C1BFA68
BD72BF96
BCF6E920
BDA8CA20
3D77DC06
3D73C1F7
3BEC75B0
BD9CB016
3D70800E
3D9C435B
BD3F6FE0
3DA69831
3D6AB065
BD2CD0C0
3D991439
BD88BE94
3C9EFEF4
BDA29710
3D42C372
3D3C0AF2
3D83B56B
3DA7CF25
3C63B080
BB4D72A0
3D8FA31B
BD7C117B
3D659CA2
3D9C9E79
3D1CA130
BD3B2C30
BD6876F0
BD056FF6
3D7EAE46
3D8BB031
3D71D39A
3D1799D6
BD218DD0
BD864070
3D473006
BD914CF0
BD0A8330
BBD5B230
BDA0BF9B
3D0C5C70
3B123B00
3D3E8D66
BCE5A86C
BD06D940
BC92878C
3D2D34F2
3D534806
BB959B80
BCC3DB80
BCA658C0
3D20E496
BBA886B0
BCD6EF36
3C4D8CA8
BD88B58B
BD398F90
3D4FFDF6
BCFEA100
3D961141
3D69DAEA
3CF3E194
3BC6AED0
3D4A1B12
BBAFD2B0
3D941CC1
BA8F5D40
BC38E958
3CC80F14
3C3E5798
3D90EE29
3D21908A
BD0B2510
3DA2637B
BB80C730
3B501B00
BD41FB66
BB814B30
3C28A6D8
3D947FA9
3D6877B2
BB0F54A0
3CFAE2C0
3D94DF3B
3C0D68D9
3BA026C7
BD821A18
3D88CBA1
BC8F68F2
3CAC9A76
3D8B70F5
BB5421E0
3D3E0EBB
3B6D76CE
3DA3CB95
BC8CA997
3D36FA25
3DEB731F
3B0E4A95
3D1E1972
BC56AFFA
3D897EAC
BD87BBC4
BCF49AC0
3C64EB57
BC934CD4
3D147150
3DAACF6D
3CF75371
BCDB816C
3CD4583B
3D0A6971
3D4D7E98
3D58402D
BBE69E86
BC043083
BBC832BC
3C33091F
3B6FF061
BD40C996
3D8B4253
3C99EE5B
3D6EDCDE
3C50AAAB
BC31FED4
BD2E46AB
BBE4074C
3C9640F8
BCAC079D
3D7F760A
BD9D3A02
BD9F4942
3CCD9AF4
3CD4AAA7
BD94C41E
BD1335AE
BC4168FF
BD1EC3A1
3D3E386C
3CC09914
BD605C6C
BB14F476
BC856277
BB6DF718
BCA98FEB
BD9ADD7A
BDCED714
3DD351A8
BBD13650
3BA0AF61
3CE6DF37
BD87CF56
3D96C414
3D2D3B5A
BCC64BA2
BC04EE72
BD8A48A8
3C6B5F40
3D80C320
BCEB9AE0
3D92BCB0
BA4A04C2
3D17CE3E
BD8F068D
BA84FC0A
3D63ECAD
BB9F1D2B
3CD8C094
3D5A461D
3BE390F0
BD405EC9
BC932066
3DAF8D35
3C6D6380
BD574305
BDA2068E
3D89DFFF
3CF2DC0A
BD68ACB0
BD5AC390
BD810B8E
BD72F3F3
3CED4895
BBCBB077
3CA6DBA5
BD4962D6
3C91F456
BC14A9DA
3DCB3A9A
3D3A29FE
BCD3CBAC
3D74B0D1
3D96BFA1
BD87184C
BBB8EE75
BDB15DCC
BD9B0086
3DB75731
BCB8FA4E
BCEB6888
3D74BB43
BC90E82D
BD951B66
BC234A98
3C603BD0
3D893E83
3DC5F88F
3D3A29D9
3D181557
BD902D99
BD276CB0
BB15E500
BCAE7B40
BD3AEF36
3C7CA218
BC69A100
BCE8CA16
3CE1B400
BD8A818B
3DA38015
3D2B776A
3D19F6F6
3D8DCFC9
3D06E716
BCD26536
BD136F10
3CCD62F4
3DA1E53D
3D3596F2
3D9791D9
BD113B06
BCC5E520
3CF8A260
3CF943EC
3D44AC1A
BCE50E16
3D23124A
3BF33E50
BD52024B
3D4EA092
BA4AB280
BD570826
BD8E9F33
3CAC83A0
BD89DD28
BD033E10
BD4EBC70
3D7BCE92
3D818821
3D2BE59A
BD152F9B
BCC888B6
3D72E5D6
BCB4EAE0
BD98D4E8
BD905510
3D094726
3C32A4C0
3D01A400
3C801C34
BD3E7DE6
BD97D138
3CBC46CC
3CDFD6D4
3D670862
3CA92CA0
3DA65E19
3DA65A4B
BD052876
3D5B90E2
3D36E756
BD7934A0
3D096FB0
BD7765FB
3DA4FAC9
BC139F3E
BDAD49EC
3C88E103
BD4B4939
3C021A00
3C9A0FDE
3DA77692
BB93533C
BCC28C10
BD897D98
39BC77A4
3D413150
BD985B06
BAC0B820
BB443214
3CA4DA37
BBE5EF7E
BB140CFC
BD95C0B8
BC8BC576
3D449D06
3DA0BAC0
3CBC455A
BD8468A9
BBE76D24
3DAC449C
BDA3EB6F
BD4F2357
3D2234E9
3CE59D14
BD4430C8
BD5C70F7
3CB7B88B
BD5D70B1
BCB11EF1
3C815282
BD1A6427
3D1A58BE
3DA7EE61
3D6F049D
BC0F181A
BD227744
BC724F77
3CCBC08F
3D578274
BCDCAC27
3DA402D7
BD75147A
3DA0B374
3D58355A
3D43D4F5
BC202135
3D7D1BF1
BCFE543D
3D1469B8
39A184D6
BC0746D8
BD4B39B2
3D216FFE
3CEF7F58
BBD69AE8
3D480D3C
BC98D781
3D29E783
3DD39556
3D2A0A99
BCAEE934
3D175712
BD369A21
3D90376C
3D7A03BE
BCCA7BB1
3DABF353
3D6E0EEA
3C55D2EC
3D736F94
3D2EEDDD
BD111994
3DECE41B
BC220CED
3CB2728C
BD82AE87
BD4225BC
BD2A1494
3A650C00
BD942BD4
BD653A12
3C75F63A
3C9CC63F
3CFE8218
3B41C952
BDDAB231
3D0A4C7B
BCDAC9AB
BD8D9029
BD90F602
BD9E9D49
3D69A31E
3D5DE6E2
BD8A7CF7
BDAF520B
BD8F35FC
3D401B0E
BD80D98E
3D5313A8
3D4E92DE
3D7A88B3
BD5302A3
3D15652C
BD3F04ED
3D889B1B
BD6649B4
3D3E0218
BD91D94B
BC1246C4
3D4063C2
BCCF4AF0
3A04BD30
3CCA435E
3D659E77
3D5C9262
3D997BE7
BD39A458
BD810D31
BD97C36E
BDB519BB
3C08B6B1
3CE92B40
3D83BE09
3D8A114D
BD5E0376
BB585900
BD891318
3D8EA325
BD627400
BD4C556B
BD8503A3
BC3962D8
3D1F17D0
BD55BA90
BD8B1CE8
BC723468
3D38AF16
3DA0F951
3C640040
3CFE7474
3B34B060
BD0E9040
3D9D2E5D
3C8B43E0
3DA20C11
3C88A9F4
BD5DD066
3C6A2D18
BC9FF4A0
3D5FDD82
BDA3E028
BD3D2FFB
BCDC7216
3D5794CA
BD9A2490
BBE95FD0
3C3DE0D8
BC62F298
3BE1DC30
BCE970AC
BD93A5B3
3D65DBE6
3D4675E6
3D32B502
3D74F3E2
BD2843C0
3C87938C
BC6DAE18
BD3E180B
BD4D71B6
BD8EA96E
BCD9036C
3D806CA3
BD52A4C0
3DA6C8F9
3D96B635
BC3C3140
BB827150
BD5362FB
BC4C6B80
3D462F66
BC6C58D8
3BFAC950
3BAD73B0
BC35C968
3D52D15A
BDE07754
3D7C85A6
3DCCAE07
3B60B76E
BCD4D3AE
BD15A5A7
3E1A60E9
3CB3DD4E
BD351CC6
BCDE7967
3D19168A
3DB72786
3C28F290
3E13B95F
3B0BF2AA
3CC89F65
3DDF8861
3C4096AF
BCDD859D
3D905586
3DA2F545
3DA7E595
BDBC5A16
3D6BC7E4
3DB06B6A
BE0795F0
BCE0A190
BD79B0E0
3BF403E9
BCA9F482
BCCA292D
3E1C5A8C
BC1A3D38
3C9BC1FA
BD25593E
3E26E311
3D1000E0
BD0E7575
BD8FFD50
BD1E8B93
BDAB060D
3D1EE6D5
3C32C1DA
3D97DE70
3C2DF2B4
3D2F4D77
3D6855A6
3CA82531
BC2139B7
3CBA07B4
BDACE269
3DA47F59
BD67E88D
3AA41D65
BE1B70E9
3D4D17D6
3D506E46
BE04E7FD
BCEAC026
3D220AF4
3D4DFCB4
BD1FD56E
BD46E5E8
BE56E5F4
3D006CB0
3D037D06
3D4B4EB1
BC72BC0B
3D901883
3D669E92
3D40BD12
3D855E41
3C766DC9
3D2BD6C4
BAD15F40
BC9558DF
3CC9EB60
BCB46D42
3D0B0209
3B4CAF04
BD07D70F
BD545128
3D94B41D
BD1FB8CD
3CBD2680
BC4C7CB4
BD8372C2
BD40F235
3D812113
3D8C352D
3D8986B1
BD051CF6
3D33E297
BD7E2CAE
BCD383E7
BCA83C0E
3D197765
3C2ED898
3DA7B3EA
3D00DC4E
3D3B0926
3D683C11
3D7983C2
BC73B7A8
BD3E5561
3D207820
3D9427D9
3D96F94B
BD5384AB
BCC57B21
3D7EA3F2
3D7577E8
BD6D3770
BD2F5BCB
3D91381C
3D992210
3CB9BBCF
BD99EA9E
BD1BF6B0
BD40D446
BD33C8E6
BC233D55
BD5D695F
3C478298
3B8DF5CB
BC3C9398
BD8B1270
3D8EF97D
3D6B8C8F
3CD714CD
BBCE596A
39D7ACDC
3CB31410
3B9129D0
3D65B727
BD404796
3DD695B7
3C1EBFF8
BC4B2B4B
BD172FFF
BDA79E30
3DBEA4D3
3C920792
3C205732
3D8910B1
3D32D337
BBC4E38B
BD2EB111
BD6E315B
3D151975
3E2B06F4
3DAD42F9
BD86E827
3DB67E23
BD27E590
3A7ECCA4
BAD8DC61
BD9F8CC3
BD102141
3AB35C10
3DE4E752
BD70838E
3CF7F068
BCBA442D
3D899D56
3D8FAE29
BDA598DF
3C857701
3B63EF86
BDBF8E50
B9DA4879
3D78A097
BD26437F
3CF10011
3D45ADB8
3C3B3844
3D6B024A
3C24CAA8
BD2D5DDD
BD53BB14
3BACCB11
BDC6F24B
3D319A85
BD84F1A3
BBE93950
BD65D780
BC809D87
BD14E59D
BD08CC72
BCA15161
BADBAD49
3E317F62
3D44772A
BD63B270
3C8CAC53
3D749F10
3D5BF7C2
BD7D56C2
3D744910
BD03FF03
BC370401
BA704101
BD015300
BD1066ED
3D82DDFD
3D443C82
BCE65D77
3BCEACE4
BC7DDAE8
3DB19909
BDA4A348
BD8AA53D
3D90C681
BD3C4235
BD282702
3CCA7150
BD5E6D11
3CD759AC
BD97C8D0
3D01E890
BD863B78
BC89E989
BC859232
BD06DE17
3D9488C2
BC9CAE00
BD96844E
3D103689
3D4C7CEA
3C995643
BDA0079B
BD1CAEBB
3D69B8A5
BCA8A02C
BD5177BB
BDA7BCFB
BCB3A620
3D13DB50
BB7E1621
3D418036
BD330866
3D130940
3D9023F2
BD89250A
3DB65A21
BD5F6087
BCC1AC00
3D72B206
3D71BC3A
3D24CC17
BCE2C92C
3D3F78B6
3B26BC5A
BB6DB660
3CD768A2
BD47B646
3D8C7BCB
BD49DBC0
3CB8CCF1
3D8132CB
3C6565D8
BD7AEA16
BDDCA90A
3CA11A0C
3D34F858
BD96B4C8
3D91446D
3AF27168
3D0CED3A
BCAB4D02
3C6074DF
3C0D3E58
BD2CFEF3
BCA441A0
3D52C982
3D928099
BD49E976
BD59283C
BD2FB6E6
BBE5D12E
3D3B9F0E
BD2C1C27
3CDA45A0
BD16A9D6
3CE64D54
BD98F4D8
BC369400
BD70FADB
3D061704
BD67B4C6
BD6B3CF0
3AD177D8
3C85DB2C
BD65B463
BD8053A3
3D765466
3DC46390
BCC35940
BDA12E68
3BDD7B50
BD9B1AB8
BC69FC98
3CE5BDA6
3D9A0399
BD3138FB
BD50B0A6
BD3AC6A0
3C25A671
BD89A973
3CD5AFF4
3D93763B
3D1497FA
BD76B920
BD152E10
BCA867CA
3D3400D9
3D38C902
3C11D458
3DA125C6
3CF930F4
3C958A4C
3C2F9268
BDA11F33
BD049E96
BC8B8C60
BC811A40
3BF56ED0
3C3C40A8
BBECC400
BD1358E6
3C999D00
3D8300D3
3D07EC9A
BD89E903
BD2F65B6
3D2F4BB2
3D169D4A
3D092BFA
3D8CAC19
BCAF6F80
3D5AB922
3CAD8AE0
BDA9E6F6
BB682760
BD4F416B
BD9A2F66
BCF8A6A0
3BE9CB30
3D93207B
BD55B8EB
3CD2BF14
3C95DAC0
3D1E1390
3D8A2483
BD1C4BB6
BD6FD2F0
3D6E4AE6
BD080F3B
3D068DAA
3C91F9CC
3D363BD2
BD0DB18B
BD603A9B
3D554866
BD118756
BD49EC86
3C3B11A8
BDA0EDA3
BD68BB60
3D2F19A6
3D6725E2
BAD70AC0
BD9FBB1E
BCFD112C
BCBE79B6
3CDA2FEC
BC8CF4E0
3D2A2EF0
3C501558
BAEFF800
3D3E25C6
3CACBCA0
3CFDE6AC
3BB82980
BC6F1C54
BD2A638B
3CA96164
BD828FCE
BBBC5400
3D3CB50E
3D85A309
BCF71841
BDA3945E
3DA22CEA
3D434282
3D7D8764
BD4C1AB6
BDACFA94
3D6BDA90
BCEC1733
BD1797B4
3D9EB1B3
3B78C660
3C8EAB3E
3A821600
BB5B9299
3B7D0388
BDA86F35
3D4AEDDD
3D7F4923
BD9FFC68
BCDD41C0
3D101A21
3D9047D2
3D554446
BD428322
BD0D2750
BD53D400
3DAA8BA1
BCA273EC
3D10551A
3C4055D0
3BA764AE
BD9A7990
BD3D9449
BAC94000
3D2BFE62
3D244160
BAF19400
BC301258
BD2601E9
3D976BC1
BB89FC80
3D46AD92
BD912FAB
BD7B4360
3C5537E8
3BE8FA2B
BD883A73
BDA94720
BD720330
BD70BCDD
3DB3C246
BD2C404A
BCF4A621
3D289E98
BD6038C0
3DBEBC30
3C2BFA98
BCB378D6
3D64D312
BD4A5CA0
3D9CA989
BD8AF443
3D9F7D51
3CBE876C
3D689F12
BD3711B0
BD92ECB0
3D6732DA
3DA53341
3D826C63
BC71D600
3DA6C383
3D6FCC0A
BD902153
3D5D39D6
BCB5D700
BCAD27A0
BD3FD556
3D3033FA
BD7BF136
BBEB0CD0
BDA37AA8
3D935955
3D41854A
BD84E670
3BDFB3D0
BB99F7D0
BC8A6774
3B29C460
BD92A13E
BD88101E
3D6F04F6
BDA86E5B
3B26CB60
BD5C6E9B
BD00EF16
BD851C3B
BD422F86
BC96770C
BD6E96B0
3D382F92
3D9B4855
39B20000
BD16F7E0
BD9898F0
BD94A9C0
BD134390
3D0D4D76
3C01F1D8
BD5AB68B
BD9847A6
BD035826
3D5C971A
3D3C45B2
BD07BD5B
BCC90B80
3C4395E8
3C9E314C
BD27C25B
3D3E9302
3DCD59CB
3D878F4C
BB254868
3D9F9EFF
3D607AA2
BC9D324E
BC499BB8
3CF1EFD3
3CD1F697
BD95B003
3D15CC98
BD0EE708
BD35C609
3B69289B
BD17D61E
3ABD12B5
BD093ADC
3D5878D3
BD4CA4A2
BDB8959B
3D072E66
3B289FB8
BDC47375
3CCBD229
BB79CD3D
3C614C62
3D9C599D
BCFD939C
3CF0C220
BDB62A82
BD2884EB
3DB632F4
3DC07D52
3D43417B
3C6223A3
BD8A1107
3D512C76
BD434032
3CDB4853
BD6D9D0D
3C09AC2D
3D4EFC5E
BB65FF38
BB4BA118
3D84593F
3D40D757
BD9917D6
BD832F47
BCD7827C
BD34A070
3C68161A
3C608D48
3CAF659D
3D12467E
3D62A282
3D5FEAD0
3C274CA8
BD412DFF
3D20A978
BD7D5420
BD1EF1BB
BD8FD24D
3CB1FA20
BE15A2D8
3D2B5210
BD82CC4B
BD957419
3CB1942D
BCF8C14C
BCDCD6AB
BD43FBDF
3CAAE59D
3D8FD859
3D058ADF
3BC2F350
3DB2CB58
3D969E93
3D960166
3DB96A3C
BCD53A20
BCC9F1E9
3A5B3DFB
BD3D0D10
395D5C9D
BD478C26
BD84689E
3D2C1159
3D8EBEB4
BD7FA224
BC1E13F4
BD9267CB
BD165F59
BD1235D1
BC780697
3D9C6C36
BE0E3AB6
3D92E6E2
BD573E4B
BD07DCB6
3DD6F5E9
BD87A49E
3DD8B7A8
3CAD6614
BDA426AE
BD82BF5A
BC1872DA
BCDE06CC
BD9C14E6
BD4C8F96
BD411ADD
3CA56680
3D540F8F
BD861532
3D19419A
3B6C29B2
3C8FF616
3D6BA3BA
3D644C04
BC1E3BE5
3BB2D950
BCD4876C
3D759292
BD360B08
BD4F1001
3D042231
3DA18DC0
BC211537
3D6D08FB
BD9D4189
3D14D39F
BCD2FB0A
3D040588
3CA1C380
3D9BB2D4
3D25906D
3CF9A77D
3D29ED8B
BC2121F7
BD06D62B
3D25FFF0
3D952FF4
3D977CC5
3DCEB472
BCCBE063
BC968320
3D96CB74
BD9A4FDB
3CBF1552
BD8A7AA8
3DC7928F
3DF152DF
3D820939
BD4B71C8
BCF21E9F
3D2C4429
3CBA2114
BD65420C
BD4C5CCF
3C82640B
BE3743FF
BC9C6E69
BD5B6BE0
3C85C520
3BD6D85E
3CF59880
3CEB4627
BC8882E1
3D9D76BD
3E29DB3B
BD25CEC0
BCD5F356
BD52D0BB
3D64330A
3CBEDCEE
BDA7D3AB
3C989E6E
3CA25645
BC8C002C
3D5301D9
BC90F3DB
3CE996D4
3CE9F132
BCC83DE5
3CE48734
BD8F76B0
BD637249
BCBCC994
3DB3BBFB
BDB37B15
BD3EB222
BD81EF40
3E40D092
BD19EF16
3D546DBA
BD8922C2
3C6DFBD1
BC9E85B4
BD9A4C3C
BD1033CA
3D4800EC
BD8A82D1
BD9A2023
BD44486B
BDAF25BA
BCB7BC80
BD984B98
BCB3E216
BD4CAE55
3D8C9223
3D5C988D
3C074CC0
3C53FEAC
3DA560BD
3D5E3A5B
3D025E51
3C836191
BD866796
3C92E94C
BC1018E8
BCC6846C
BC6E1087
3D7C1547
BC28159B
BC9A96C0
BCEA9315
3CE4462C
3CEA45C0
BDA2CEFC
BD18FD2B
BCD594E5
3DA6F5F5
39BD3D00
3D8006B7
BB9CDD50
3D34C0BA
BD8CDD68
3CAD03C0
3D1460DA
3C078238
3D117130
BCFA6ACC
3D8888D3
BC5AED33
BD654CC2
BD3DCEBF
BC9FAECC
3D7F4C92
3D4D0E2A
BD3A0740
BC507AC9
3CAC0094
3D8B971D
3D150FDE
3D0980DA
3D8516B1
3CCB8EEC
BB703560
3D5CE5B6
3CC0B094
BD87710B
BD9BE1BB
BCA32520
3D7C8B22
BD9CA5DB
BD97039B
BD6352BB
BD12AFDB
BDA17CAE
3D8390E3
3D1CE3D0
3D988BE9
BBA89450
BA87FCC0
3C4E8A00
3B05C660
BC8E5CCC
BCB1F6EC
3D843E11
3D692F02
BD0BA956
3CB1500C
3D3809F6
BD25AF20
BD9052C0
3D6A2B62
BD5B7B66
BC1742A8
BD40C376
3C99AA74
BD5E5A4B
BCFC5056
3D9C03F3
BD979B46
BDA56D43
BB5DC700
3AAF7000
BD89268E
BD7CF5F0
BC845260
3CEC56F4
3D1C9606
BD83E59E
3CD402F4
3BA9FD00
3D96C1DD
BCAFD4CC
3D849CFD
3D6670DA
BD9738E3
BD1ED3F0
BD96EDEB
BCFB0F96
3D55ED92
BDA63790
3CE4252C
3D63C7BA
BDA5D190
BD6FFC60
3C951334
BDA62348
BD350276
3D926401
3D1A5C1A
BCDFD9C0
3D71D872
BCFAC30C
3D9F0341
3D826F11
3CFFD9C0
3CBB530C
BD5EB1DB
3D7D0EF2
3D7E38BA
3CB7D374
BDA8087E
3D4A5B02
BD9C7C8E
3D5B0C26
BCDC454C
BD017FEB
BC2D8CD8
3D3112A2
BD1E91E0
3D7EC8C2
3CB9964C
BD5DCED6
3D353F52
3CAED680
3D130F46
BCDD03B6
BD548E5B
BD3A9796
BD5E5680
BC8DC72C
3D87471D
BDA1F1E0
BD87642E
3D81821B
BD9DB5F0
BD1395E6
BCCB76B6
BBF4DA50
BD8D864E
BD7D23D6
3C7FD800
BC86A5AC
BD2E95E6
3CBC6974
3CE1D9A0
3C4E7F68
BB56CAA0
3D965F4B
3D2E888A
BA409980
3D0CD24A
3D997AD5
BB20EDA0
BC90810C
BDA05AA0
BD40D6F0
3D97FC41
BD2C10AB
BCBA0B20
3D49A0DA
3E0DD928
BD19F2EE
3CB019B2
3C5BF728
BC3205F0
3D092171
3D02B2AA
BCC6EBEB
3BEAFDA2
3D244DD5
BBC3740A
3DB15AF6
BDAF1866
3CAC0A6C
BC3DDBA6
BC80128A
3D61718F
3D231FD0
BD9BBE61
BCCB1DD8
3A71AD80
BD1E857E
BD112BAC
3C008DCF
3B7F3E68
BB15B68C
3D62577D
BD3AC50B
BD870232
BD48D65E
3D8BA3D6
3DB0CD51
BC20CB7A
BD0E0E78
BD57A48E
3C872098
BDC40DF0
BD9C6D58
3DE33028
3D7BCBFC
BD49511C
BD79070B
BCA1B534
3CAD9E8A
3CB6D24E
BD845BFF
3D167A22
3C3D590C
3D8328EB
BD069556
3CE5855C
BD702378
BDAE6340
BD0EFF25
BB953A28
BD16EB65
BD03874B
BC4A2123
BD254127
BDBF6BC1
BD022495
3C9B0695
BD465B94
BD9B412F
BA90F140
BC697CC0
BCE95EAC
BD50CEA6
BD995B33
BD5B9D66
BD465D56
3C639198
3CD89934
BD6BC64B
BD0B5650
BCE331EC
3D87870D
3D3CABD6
3CB227D4
BC987F60
3D7F48BA
BD8C6170
3BD9BA50
BD8B1590
BCC9FB2C
3C92C240
BD414E06
BD850AC0
3D0761B6
BD9070BB
BC138C00
BD8229B0
3B9CAD30
3D11E446
BC626240
3D0BE85A
3DA7E5BD
3D69EB8A
BD01BDE6
3DA90741
BD1E4D9B
BD22DAB6
3D497976
BD8141C6
BCF00336
38D30000
3D4429BA
BBBDB600
3D11876A
3CC15EEC
3D8C6D35
BCADB88C
3D86E0B1
3D04954A
BD51F01B
BD2F89AB
BD16F326
3C46C0D8
3D51E2E2
3C422E80
BC32E1A8
BD9EB1F3
3D6E0CC6
BD81CC33
3D4252A2
BD5DD1F6
3C888714
BD9B5A96
3BDCDD25
3D5385A4
BD9C4BCC
3ACC437C
3D39DB07
BC3F3EA8
3DAE8C83
BD521096
3D888999
BDD01CEB
BB65E3F7
3DD77378
3CB77414
BD1E92B2
3E28473B
BD165EB7
3CA5BB0B
BC2C3FE7
3BF89030
3D50172A
3D7245A6
3C7CBFE2
BBBA044B
BBC3C997
3CA4702D
3BD07405
3D223047
BD7A2818
BC3A8B58
BD6E0A6B
3D0C1CCA
3DDA6D62
BCADF0CB
3CBA4C12
BD26ED43
3CC9A1EF
BD48F338
3C7A8B27
BD45C4B1
BD3DAD76
BB50C9EA
BC5CF644
BCB29C97
3BB1CB77
3DA2709D
BCA661C0
BD0C5587
BD9F6610
3CED6306
BD0748A6
3D388757
3D3A620E
3CE7E5BE
3D5E1502
3D38B656
3CAF7493
3B79F6A0
3D19557A
BB914D23
3CC5015C
BD512D16
BDEF5236
3CEC4C0D
3D036960
BD5D0F86
3D5A9A22
BD022427
BD2052C1
BD24980B
BD6D6046
3C56A2BB
BC90D9CD
3D8F2F29
3D1B2869
BCD0ADCC
3D8F2A5B
3CCB36B4
BCFF219B
3DA8C1FB
BD95BCE3
3DA0B7C3
BD30547E
BCF32F6C
3D4ECA8F
3D8D30F5
3C6704F9
BCF60626
3D48664C
BD943A29
BD3356BB
3C372068
3C657268
3D308AF3
3A688F49
BCC98F5A
BD372793
3CE4843B
BC0F76E8
BD95777B
BD6F4342
BD7BA670
3CA00F9F
BBDBCFD0
BD88E320
3D3FF9B1
BD83FB38
3CC130E0
3BC6C750
3DA06133
3D17534E
BBAE2408
3C28A758
BD526D80
BC01D580
3CA9907C
BCB0E482
3D6E4791
BC93B6F0
3BD7AF50
BCDA9C60
3C091FD8
BD5D9B10
BCBF5AED
BD84E960
BD4E9D5B
3D5D7392
BD9FE19D
BD97AECE
3D423F71
3C845A6C
3C575E84
BCEB090C
BD8DC04E
3D245976
BCF30659
3D3069B6
BC2A07B7
BD8710E8
BCC730E0
3D67C05A
BD985BA3
3D7984B7
BC99CC7E
3D6607D0
3DB69E37
3D0B8070
3D881043
3D7AB7B2
BD577A4B
BCF06481
3D68FC24
3D22A9EF
BCF34B5C
BD8268E2
3CA8458C
BD2B577B
BD9D295B
BD4B1120
BD6AD496
3D9719E3
3D921168
BDA3F6DE
BC287FD8
BD6D6A47
BD99D0AE
3CED3153
3A5A71F1
3D938829
BD3D1953
BC5B8EE8
3D439BE6
BBB444D0
BC39B040
BC81672C
BD99B326
BCF5C778
3B8BAC30
BD949BB0
3C75B81B
3CE61FDD
3D7F96F6
BD3ECCC0
BDAAC333
BD642502
3CACC1EC
3D80C4A2
3D7336DE
BDA9BE81
BBC59F30
BD839150
3C866C94
3D9B7B65
3D9E99B4
3D81312A
3D2F492E
BC3FCF4E
BD9D0DA0
3C35E54D
3CFA9499
3A73458D
3939118C
3D86A25F
BD8A875C
BC00027F
3D81E6E0
3D021B5E
3DB1681B
3CA067C2
3D726ECF
3A27CE67
3CF52F6B
BD0A0D66
BCF9AE60
3D1A58A9
3CEDBA59
3D23C7CE
3DEFE358
3DC6C3DE
3D79F413
BCC9563D
3D40BC93
3C9ACC0D
3D7CA30D
BC88FF42
BC0FEBA4
3B3008B3
BD8E73E1
3CBBB9B7
3C845018
3D82370A
BD2F5FF7
BDA32ED0
3D916BE5
BD23E4BB
BD21C2EC
BC3B70BB
BCB734BE
BDB316D2
3CAE1592
3C738908
3D709DC1
3D427656
3DA658AF
BD77E96E
BCE2F1C2
BD00C318
3CF285D9
BD191FDD
BD58B63B
3DAFB773
3D851939
BDAC978E
3D75AD4E
BC87056A
BCBA111C
3D594813
3CC1FA3D
BD2EDECB
BD90140A
3BFB7B32
3C1DC200
3CA191B2
3C82CF04
BD814726
3D8A6104
BD9E061E
BCBE3D40
BD639D9D
3D4F7EB6
3DA4E62D
BD708664
BD61CDBF
BD0D9DCD
BD928DB2
BCFC9740
3D1A5323
3CB66460
BD035FC5
3E066F12
3D021F00
BDCD95CB
BD7EE868
3D4FAEAA
3B91DD2E
3D73110A
3D453547
BC9490C9
BD8003AB
3D7F5FB8
BC1D2BD8
BD6CDE5F
3D7D5EFF
BCFA98C0
3C648652
BD36ACD0
BD2D09F0
BA7F50CC
3D391AA9
BCBECCA3
BD021200
BD6D83FB
BAFB8827
BC092C9D
BD792CC3
BD43FCFD
3C9163B4
3B2DB863
BC3F803D
3D01BB28
BD21ABAA
BD5397B8
3D3058A6
BCE796E0
3D815DEC
BD1CF288
3DB95B39
BD326A48
3D1A64AF
BD49C7BA
3D14EEE5
BD6586E4
BC8C196C
3D546A61
3D4A29AA
BDA04738
3D64850A
3D2E4D35
3D122340
BCAD8DAA
BCFF56E0
3D59254A
BD6F2A1F
BD51E886
BA2D60CB
BCFB1769
3D933951
3D9798F5
3D28A2FA
BCAD362C
BD4E0346
BD3A764B
BD938FBE
39E16DA6
3D558365
BC9BAEFE
BAAFCC54
BD45EC7B
BC869514
BD863DBB
BD1E1130
BD678AAB
BCFB0620
3D001785
BB67C700
3D8C6A0D
BD74EBF1
BBBCE7D0
BD41C47C
BC6B2279
BBF666D0
3C09B2D8
3D2B6632
BD6D26A6
BCBF46AC
39A6A800
BD5E7CB6
3D02DD10
3CEF3903
BD3AA4B0
3D5BA2CA
3D880FFE
3CB8017E
BDA44F06
BB812700
BD761570
3D65E3E2
3C922740
3D715034
3D15D7D6
3CAE5419
3BE2F050
BAFC9EC0
3D95C2DD
3CDF0294
3D9A3781
3D9AF05E
3D4C5DDB
BD2C935F
3CC99D49
3C32B5A6
3D8BB08D
BD5DAB3B
3CD9B7AD
3CF0009A
3D164F7B
BD859041
3D90C5C8
3D8C6C34
3B1EF703
BD27ED36
BCBBC29C
BD1383E3
BC5F654A
BD471940
BC472B68
BD992524
3D8DA335
BC58C21D
3DDCA0C4
3C735DA9
BD6150B1
BD9E511E
3B98B36A
3B8468A7
3D8B1109
3C9A292E
3DC298EF
3D5AAE60
BD223F7E
BCC86883
3CC924AD
3D6A8DEC
3D4901AF
B9D3B8D6
BD6AD778
BD8C8160
BD2991EE
3BC2F36E
BD3D2984
3D5E0DFF
BD373387
3D47D378
BD410617
BD427B90
BD43FCB6
3C8D654F
3CC8E85A
3D1ADD3D
BD3F4637
BCA243D7
BD8A24D3
3DBE16E0
3DDA5934
3D6EA016
3D70BE9F
BD52842C
3D383E73
BC6A480A
3B71EFA0
BD3A56C6
3D03DD5E
3DA4CC09
3D08AE66
BBD81C00
BD8F28C9
3CC8BCB4
3CEE02AA
3D3CEBBA
3B118300
BDA17987
BD824F20
3C705E17
3D08E5DF
BD6BE95F
3C9B5846
BC2B4A9F
BD16E286
BD80BC5B
3C7E8A00
3D8129D7
3D936A01
BD423687
3D29DF6D
BAD52140
BD635496
BD450DD6
3D41D8FA
BD0F093B
3BC15AD0
BD85A1B8
BB494BCD
BD0B3C76
3D8FD33A
BA0420C2
BCBC06AC
3D10BD43
3D8E7570
3A11A280
BCEB4AD1
3D9A2D55
BDA798F8
3D361A86
3C3C77A8
BBA415D0
3C660D40
3D2DC711
BC44F780
3C1ECF28
3D9680B2
3D12E4F7
3CBDDB40
BCA2F5CC
BDA99358
3D9E90EB
BCEEC4A0
3D3130D7
3C1E8508
BB8E0000
BD2522F6
BD9E4EB3
3D91E159
BCC3E6EC
3D668A02
BD4479A6
BDA3E27B
3DAAA12D
BD925DA3
3D7F58FA
BD34B606
3D907D63
BD97B00E
3D9DB725
BC253B18
3D39C782
3D3CA87A
3CC7E620
BD844F08
3D52C3E2
3C5161E8
3C9DDD40
BD8A113E
BC3487A8
BD615440
3D9C54EB
3D4584B2
3D4B6426
3C60F2A8
BD93FDC8
3A9B8EC0
3D3E5456
3C4E2500
BBF66650
3D5D2B9A
3D552CDA
3D05F6F6
3D2FA89A
BB863CD0
3C9D0FCC
3D7B5A8A
3B5E6BA0
BD3315BB
3DA86B91
BD0171C6
BD8314C3
3DA91CF3
BD8FD4EB
BD144C36
BD831418
3CDCD3E0
3DA08C63
BCBA2F6C
3B96EDB0
3D0857AA
BD814550
3BF8B1D0
B98C7B00
BD652796
3DA14D59
3D349FF2
3D5ED986
BCB54900
BC82D740
BC6467D8
3C354228
BD58AE7B
3DA1E75B
BD131C8B
3A564980
3CB83C20
3D8F7A61
3D41FA12
BC4AB4D8
BB839E80
BD190B40
BD998B68
BC14D200
3D10E666
3CDC3A14
3D08B506
3DA7C03D
BCDEA500
BD87E5E0
3CF57520
3D403E5A
BCB863C0
3D98DF5D
BC9FDF2C
BBBD6ED0
BD5B789B
BD8D6616
BD2D7766
3CF7474C
3D542252
BC99B9AC
3CD4DF14
BD3A2BD0
3D63867A
BD26D5CB
BD1EC186
3D79B916
3D83FD3B
BCDF7E2C
3CED8180
3D75C826
3C066818
3DA13A4B
BC910300
BD253B60
3D5CBDE2
3D798722
BD47BD5B
BD514D1B
3D6389DA
3D3C462A
BCB956B6
3D73FE42
3C9F1014
3CA8F740
BD9E622E
3D80B873
3C048E68
3C3C45A8
3D504762
BB8410D0
BD47C6B0
BBCAC130
3C2C7CD8
BD761320
3D1D14A6
BCC4A3AC
3CC0064E
3CB1C34C
BD5ED0EA
BDA5511C
BDBCFE26
BD961E30
3D8C904C
BBC60D86
BD8CB77C
BD878832
BC236B93
3BBDBD8E
BB75600E
BD95D111
BCB29919
3C988F36
3D52C508
3D34ED9D
BC23A0F5
3CED167C
3CDCB4CC
BCB0F9D9
3CB4F8C0
3C7E57C9
3D8BE548
BC754271
BD261DE7
BCED08BA
BD3D2863
BD0E8F14
BD545AB1
3D6C2727
3D90149F
BD925C60
3B889C93
BBE96255
BD786945
BD8BF1E5
BD1BC68B
BD3D942E
BD99F893
3BE9CC50
3D019AF9
BDA7D881
BCAEE045
3D3301DB
3B9EC07E
BD9EC7D5
BD4A977D
3C20D7D8
3DB47B2D
3D756DD7
BD5F9374
BDA9360A
3B08ADBD
BB06CC47
BD73D086
3C1B176A
BD0542B4
3D9106BD
BCC43556
3D7B5610
BD5555BC
BDAA811C
3C961B77
3DA14F69
BA4C3D9B
BD9F7647
3D8759C5
3D70F382
3D2A72A9
BC5C5D43
3CB2EC47
BDAB4A9E
BCF4C440
BD13F9D9
BCD3986A
3D4CF2AE
3DB3649D
BD338285
BCEC7485
3C772F7B
3D2AE717
BD860F13
BB880050
3CFDD22A
BD148DC1
3D16B212
3B1EF02C
3D7F4E44
3D19BE9A
BD9DD49E
BD9840F3
3C04A471
3D8AF952
3D53D5B8
3C7CABC7
BD4492F0
3CC9151C
3D3AE86C
BD22D0CB
3D9D83FA
3CE06E4C
BD99544B
BDC70302
3DDED286
BC760359
3D7CC812
3B314AA5
BBAB8500
BD0161E9
BDC6A1AA
3D110BDE
BB6731A0
BD0304A9
BD874560
BC8714DF
BDC5100C
3D84AB5B
BD067900
3D84195B
3D9501C2
3D40F0DA
3CE38835
BDB601F7
3C9A86C6
3D4B5E32
3B339F7D
3D9B7913
3D3C0A32
3DA7B98D
BD0F5A6B
3D6BE362
BC33AD40
3D95832B
3CD74094
3CF6B894
3D71FEB6
BB9B0F00
BD936428
BD7B1F2B
3DA201ED
BD4BEB20
BD149420
BC7464D8
BD5E387B
BBF3E600
BCC9EE16
3CDC38B4
BD8C11C8
BAD28940
BD3BECB6
3CC8DF2C
3D795A3A
3C607398
3DA6CEC1
BDA4B67E
BD58193B
3D0377AA
3DA27081
3D996C01
BCD865CC
BC9E6974
BC2A9800
3D0CCFDA
BD815430
BDA146BB
3DA73203
BD21176B
BBC85780
BCCDFB8C
BD7E9400
BD844893
3CE61AA0
BD7C1146
BD80326E
BCECFED6
BD3F0C16
3D9A6D69
3D480F5A
BD2BF8EB
3CE97B60
3D31EF06
3C9383AC
3D813573
3D659876
3D8E6741
3CBD0740
3DA0BBF3
BDA6D9E8
BD4CD000
BC4D6168
3C8B31EB
3D4D10A6
3D98D935
BD0DF4BC
BD47DFC0
BCD4AA9D
BD514AD4
3CDEF4FF
3D57FE29
BDA5A427
BD513B52
BC8660F8
3D50765B
3CC386D1
3E1A2FBF
3CA01F27
3D55F2DE
3D1F4CBD
BD5D4B00
3CAA16C1
BD0C5330
BD5382C7
3DA72C82
BD07E50C
3D2CDEDA
3D8601BA
3C47D912
BCDF44BA
3D0D47DF
BD2D6071
BD572DD0
3BC0B21F
3DB4BBE9
BD9BDCD6
BC2E52AA
BCBABB72
BCA88D2D
3C17F030
3D2030A3
3C32EB8B
BCA1662E
BCE66DBD
BA66D476
3D83DB73
BBF8C40F
BD4CCB2A
3DB76463
3D038567
3D02A469
BCE9598C
BBC84EA5
3D6ECC8A
BC4734BC
3D72DCB3
BCF2ECCF
3D4E362F
BD44A1CB
BC85CA48
BCD306AF
3CDFBBFA
BD51BA32
BD08E453
BCC56F45
3D844D59
3AEEF83C
3C987ABA
3CB6B87D
3D06E9DC
3A2048D9
3D6FB793
BD2245C2
3B46B01B
BD3FAE90
BD5D5367
3CA56E7C
BDA22433
3D1BA708
3B0EC235
3BC1008C
BD38E5BE
3C53A398
BD271983
BD82CF3D
BCEB54E5
3D74EDAA
3CA044DA
3C673BD6
3D2E30AC
3D9904BF
3D5BC355
BD831950
3CDE2E27
BD11CE67
3D57527F
3D6CB1B6
BDC0AE89
BD8EC5CE
BCDA7C0A
3C8A1D8D
3CAC8311
BDC91E7A
BDBDF35B
3CCC0976
BD64CFBD
BCFB6C9B
3D80D463
BCCF2B03
BD72AF0A
BD27A117
BD8667DD
3D665C21
3CCF8879
3CB41E6E
BD2E665B
3D7F5CE9
BDA0FB43
BD824B95
BD734D9C
BBBBB8FE
3D010CAB
BD85945E
3D0E241F
3C5C1B61
BD81955B
BD6330B3
3D46CC2E
BB374F2A
3D909316
3BD06DE9
3D87369D
3DA3A358
BC6DA558
3D81CE63
BC1B7258
3D9C36D3
BBAFFA30
3D8CA1BB
3D77B0E2
3D9FA923
3D84B0A0
BD3F98A6
3A09793A
BD4E4924
BD593C36
3D5182ED
BCD197B6
3D009EEA
3D33CD8A
BD17482B
3A8C8929
3D1E3DEB
BD605F7C
BD31FAE8
3DA31474
3D7280E2
BD9FD070
3C66D180
BD969D96
BD7AADD0
BB855C27
BA920E2B
BD8DD460
BD9BE443
3CE16B2E
BD3AA0A0
3D3E1F83
BD6E02E7
3CF690AC
3D76359A
BD963DFD
BD072690
3D32CD1A
BB8EE250
BD0FA510
3CFBAC76
BA524800
BD67C8BB
3C9EA1D4
3D161FD2
3D82633E
3D286E46
BCE47EC0
BD0E7282
3D85D591
BD98AFB6
BD1D2A36
BC900A5B
3C839B10
3C580368
3D334956
BD643D96
3D86F408
3D972252
BC7BD6DF
3D906552
3D87219F
3D6F30E0
BD953166
3D0283DC
3CE7366E
BD7FC367
BC9899F0
3D731B6B
3DDD325A
BCDA2ACF
BCC020D4
3D03693B
BDBDC665
3D65AC32
BD27CB81
BCB408DA
3D605976
3DA39BE3
BC403B4F
BC256F42
3D547DBE
3DA27017
BC859FFC
BCCCB4E7
BC7ACA68
BD0817C7
BD89293D
3D80DE16
BD973A64
3DED79F9
3B8C4E4A
BDA1A067
3D923657
3CE859C0
3C5A717B
BDABF060
3CA7917D
BD915F38
3C1995A3
BD4D3DF9
3D2AB71A
3CC0FC9A
BD477C3C
BD8F2816
3B7E061B
3C992E4E
BB87FA00
3D7BF65F
BD3B877F
3CA02F99
3D8D8D61
BDFBA850
3CE32710
BD299350
3C4BCFD9
3D959BD0
3D7D25BB
BD508285
BCF068AC
BD8CDECA
BCF77FA2
3D8B8999
3B808530
BD70594E
BC750905
3D20DB86
BD8297C7
3C3EDF7E
3D7B9E18
3D62871C
BAD9DE17
BCBD32B6
3D8D4B94
BD859203
3D1D03DE
BCF51B3F
3BFA8306
3D16DC9B
3D9D1A88
BBFB40D0
BC2DE08F
3CE43080
3CCE36C4
BC8FC2E8
3BBB2CAC
3C9EF32D
3D6D14FA
BD4F01F6
BD043E70
BD3EF071
BB92FEA3
3C87C266
3D30AF8F
BB73DD63
BD4C9416
BCF55021
BB82EAE9
3CE78D54
3C9FCD15
BDA78483
BD974B2E
3D92D897
BD7DFAC6
BC24C758
BD6E92C6
3CF6B88C
BB906D97
BDA160C2
BD4298FF
BC166668
BD6C7BC6
BD506630
BCD05BC3
3D18428E
BCFD2E53
3D34510A
3D58F9C6
3D9E1675
BC0D38B0
BCCFB380
3D490082
BCF07DDC
BBCD72D0
BD0C0A63
3C5C7452
BCE26D26
3D8D1A8E
BD91FC53
BD4FC173
3D02FF10
3C28F6C0
BBCBB116
BD9F6DD9
3C80D2A1
3D824A25
BD560749
BD01C8DA
3D07DF5E
BD509DE3
3B0931F6
BD6C70A2
3D598C0C
3CEE2EAF
3C4EF8B0
BD6DB40F
3D8E6A13
3D87687B
3D967C03
3D937A3D
3D26222C
3C1FC514
3D7D6C37
3C8797A4
3D6D601C
BD8C090E
3CB483E7
3D08CC6D
3D833DCA
3D93B66A
BD5E3384
3D87AF35
3A6FDB35
BD9DB999
3B993167
3D63C9BB
BD0E252E
3D7BC4E1
BC58BBD9
3CFA1307
BD9FC725
BD635BE3
3DAB658D
3D621EDB
3CD12966
3C8C63B4
3D4810F9
BCC92B38
3BDCD664
3D216905
BD39AF92
3D82C40D
3B1F6FA0
3D4DB4F9
BBE0A26B
3CC827E4
3D2A134B
3C28DACE
BD7EADA1
BC7998B2
3B79FD60
BABC5000
3D860015
BC381906
3D9B5CA5
3C8307DF
3C4B3D56
BC03FE45
3D4BECA3
BD6A20F7
BD9108BB
3DAEFAD5
BD508546
3C8A7DB7
3CD9D58A
BA68C72E
BD4E7966
3D52FDA2
BC504680
3D88AC8E
3D3E925A
3AB38028
BC2AD0FD
3CA66719
3AB361B2
BD25BA0B
BD846BAB
3C597C40
3D73F486
BD1E623F
3D87C914
3CC056B8
3D6F17B8
3CF5664C
BD0D9360
3C96ADCA
3D2A3050
BCC08415
3D350CBA
BD16E12B
3D1E62D1
3C9A5C34
BDA0013B
3C82440C
3D76A396
3CE5F20C
3D875929
3D5C5F8A
3D98201B
3BE73300
3D86356A
BD6C3699
3D219A79
BD948E4A
3B4E67A0
3D7B11E6
3CAD5914
BC564F28
BC99D30C
BD1A0FB0
BD3B1817
3D9D4C83
3D403CA3
BD8C8308
3D85FD08
3D46D696
BDAFF059
BC8078A0
BCBCDA36
BDA02D53
BD255ECC
BD03EDDB
BC81BF9F
BD14182B
3D1D74F6
3DA3A515
3C74B9A8
BD80A9B2
3D7DAA5D
BDA7ADBE
BD8CE6CF
BD03FB6B
BC89F42C
BCE208CC
3CE7C82C
BD8E4D9B
BC76FB3B
3D535674
3C1C05F2
3D950708
BA282A80
3CE992C0
3D9009B3
BC8B6420
BD9E220B
BDA86B7E
3D247C4A
3DA9EC21
BC97EEE0
3D25C209
BD7035C6
BDBECDC4
BD5BFBC1
3D563BB2
3D551906
3CE89054
BD369D66
BB0D87A0
BD464056
3C76EA18
3CBC38B1
BCF9C307
3BFC9680
3D604E46
BCBD8869
BDAF568C
3D9E33E9
BD112D76
3D93E125
3D06C210
3C7EED98
BD193E2C
3D4DAF46
3D68B8B7
BC64D828
3D7A4D82
3D0A245F
BD4F65B0
3CCCB070
BCCB70CC
3D992C29
BD008646
3B6A6DA0
3C4B8E98
3CC515F1
BD5FBCAB
BC311CBA
3DA96EAB
BD1DCDF0
BD021BF4
3C9F6B14
BD86D92F
BDABBA7E
BD782256
BCB7808F
BD05EC1B
BDA91D90
3CDA4F60
3C6EB168
3D932E5D
BB699EDD
BCEE328F
BD18867C
3D156149
3D91C36D
3CC9C840
3DA053CB
3D9D57A5
BD03D756
BD7C5E9F
3CD54CDD
3D0184C6
3D92D6C9
BCA1CB36
3C2805C0
BD648C87
3C6C93BA
3D670D56
3DB46AE9
BD9FDEAE
3BDEE5D0
3BFABC00
3B695FA0
3D0B4CD0
BC2F9B2C
BD39F226
3D1A1570
3DA223C3
3CE57709
BD175D12
BD83FF50
3D21A450
BD09719A
BCF5082C
BD6CA4EB
3D85ECEC
3D8DA18A
3D771346
3D774DBA
3C543558
BCE84460
BD51AD52
3D2BA468
BD1477E6
3D7EE2BC
BCDE83A1
BC850220
BC55EADB
3C758805
BD931171
3D0E9C48
3CB8154F
3D898F23
BD89F5C0
BD3F07D6
BC888CED
3BA6E3AF
BCCCB0AC
3D4C8A04
BD36658C
3B993B50
3D901090
BD801A33
3D14C508
3CCE457A
3B4E63AB
3CE43EAE
BDC032AE
BD336F76
BD8E02A0
3D6CC1F3
3C693E84
BD6C2276
3C7170D8
BD862E19
BC6FE2E8
3C02F5D8
3D784EA5
BD7FC85B
3D78234F
BDAA96B5
BD444DBB
BD5E1185
3DA0DF81
3D845073
BBFD9780
BD6B6B60
BD968D78
3CCAEED7
BCB1B760
BC8CF380
3C181098
BC86A01A
BCBDC322
3AB15465
3DAA2D49
3CB3185C
BD1D465B
3D9B056B
3CC823A8
3C9EDFCA
BD5901DD
BBFD78D9
3C908399
3D5ABEFE
BC16E899
3DA9B6B1
3B192D00
BC9A0C60
BBB39F80
BD26F9B0
3D02BE7A
BD934C93
BB3868A0
3D617B7A
BD582D86
BD9EA546
BA7E9280
3C8BA7A0
BD87BD7B
BC30EC00
3D3AD522
3C2DE3E8
3D21AFA0
3D7675B6
BD885EE3
BD438796
BDA19FE0
BC016998
3C60BCE8
BD2F48E0
3D86BF7B
3BE6A750
BC71FC00
BCD3184C
3D517D92
3D4BE512
3C26CFD8
BD95DCBE
3CA20840
BD94616B
3D3B7712
3D191AD6
3DA3AE21
3C3CC280
3D314D92
BD3430B6
BD0093D6
BD0E4610
3D4FDA7A
3C80ADD4
BC837F34
3D1AD44A
3CEAAD20
BC2AC380
BDA70D30
BDAAA223
BD2E202B
BD12FBF0
BD3354E6
BD443A4B
3D5B8962
3D9E51B9
BCC37B4C
BD2E8D56
BDA625DE
3C7D1068
BD8F522E
BDA1E286
3D89AEA3
BBE238EB
BC18946D
3DBDBE2B
BD5EEFA5
BD13C638
BD7208EC
3DA32B77
3D904F31
3D194DF5
BCB61F50
BD53D055
3D8A3539
3D7845C6
3D39EF24
BD341900
BDD261EE
BBCEA5F3
BC9998EC
BD2A5F84
3D704FD7
BDA8697E
BD840B60
BD577D8B
3C9F9C3B
3D97B87A
BD42563C
BB834E3B
BDA1159C
BD07EBDE
3D65AAF2
BDB5C382
BD2DA999
3D8CEDDD
3D6A0CAF
BCB3C323
BD1E96C5
3D56FA84
3D2E50B6
3BD3C4B6
BCB824EA
BB9995DF
BD829522
3D7C23CE
3D3B05A3
3A0339DB
3CFB0AEA
BD0D0790
3D519BDD
3D823800
BC55FA40
BDA6DD04
3D8B9BC6
BC5ED227
BD13C85F
3D1FC72C
3CA4A283
3D8759C3
BCE05A32
BBE60933
3DAE6949
3D32E665
3C77D980
BD4F65A1
3D5B3C3A
BDB0D59F
BCC3CCA5
BC738C30
3D931852
BB7EF1A0
BCC3F3A9
3E0CE236
3BAAEAB7
3D909B9F
BDAF49FD
3C4DD018
BCBC1226
BD894CCB
3D98B38F
3C6F1C92
BD90CFE5
BC418380
3D985F22
3D41AB36
BD201083
BD2AA826
3E062BC3
3D9D87FA
3D9F5205
BE080343
B9DEE9D7
3D816ECB
BDBE332E
3D9938AA
BD9A5556
BCEB8DE4
BDCA220E
BCC89FED
3CF2D060
BAB58BC6
3E129E11
BDC73F6F
3D98921B
BBCFE37A
BD19838A
3B61CD34
3D8E997D
BD9483C6
3C168CF4
3D72FB66
BD8AA2E7
BCEED0B7
3CAC1BFC
BC69C6A5
3D40E236
BD017887
3DF23DEA
BD1126B0
BD838C22
BD913350
3D780056
BC8B8254
BD057A68
BCF5C1A5
3DA3AD11
3CB546F5
3C4E7EA7
BD5C3AAD
3E55892D
BD7A8559
BD92096A
3A8D82C4
BD23DA33
3D8E0983
3CC6B2EB
BD7EF940
BBDFB685
3D8BBA67
BC1A196C
3CA624E0
BDA44775
3BAD5B53
3D86F37E
3C91D7B3
3D9C9429
BCDDAD5D
3B000A8C
3D818AAD
BC62DFC8
3D7CB34A
BD7B07CE
BDE43EEB
BD2C48DB
3D98ECC0
BD5AA1CE
3D795D42
BD1977F6
BD246C63
BD8BEAE2
3D92B1B2
3BE96B2C
3D760CF4
3D34D8CA
3D600724
BB66F589
BDAC560D
3CC18CB0
3CFA36CE
3C01085F
3D050B56
3D506467
BD2EED16
BCFC1EF6
BD2DA670
BD69B8B8
3D9A8AD1
BCCC3FE1
BD3515D9
3C7DD558
BD29FDF3
BC7DFACC
3D8B3098
3D123FE3
3DBBF2EA
3D0122A0
3CFBE674
BD5808B3
BBA262D8
BAE9E974
3CD62BB6
BD9D5C53
3D86E950
BD96C629
BDA1BF60
3DA99909
BD821CEE
3D87D538
3D6C37C6
BCE82E57
3CC8B4E0
BDADCD3B
BBD58DA2
3B25CE43
3D9B1501
BD11C646
BD817D33
3CEE6EE9
BCF788B9
BD208045
BD846EA3
BCA5A32F
3D040FE0
3D0B06F2
3D44614A
3D0EFC4E
3D75213F
3D494624
3CA25AA4
3D94BD83
BD94746B
3D49BADA
BDA9043E
BC5BF42F
BD6D3B8C
BD9577E4
BD0329AC
3D271840
BD01E9C0
BB7FFBE6
BCA7BACC
3D3A3AA1
BC50C0C0
3CE6CF74
3D75C684
BCCED0CC
3C577ED8
3CFD8F94
3D245430
BD2826FB
BC9BEB5C
3D56C692
BB902430
3D96949D
3D13B53C
3BFEB1D3
3CFEB528
3D33BBAA
BD62C8DB
3AD742C0
BD5AA736
3D268EE8
BD436EF6
3D2EBE96
BC9565DA
BD3D1AE6
BBECC48F
3D637F06
B9EEB500
3C8D95AC
3D95AA1F
BDA28F59
3D799F52
BCCCDF71
3D2E91D2
BC8C9F01
3D6AD43E
BD1035E4
BD9F589B
BD3DE490
BDA079D6
3D6E33C7
3CCA46A0
BD74596B
B9CD9D00
3D66A040
3BFF57B0
3CB67AE9
BD604D8B
BC9C648A
BD92965A
BC8F59A2
BC846A2C
3D9E3B5D
BD01A0B0
BC5E31C0
3C8CFC81
3D049007
3B6E3FA1
3C1DC0AC
3D17ED92
3D86AF93
3D2002CA
3D816250
BD564A50
BD82DBC2
3D72FDDA
BD635800
3D391A50
BC46AD40
3DA6DD2D
BBA41C80
BD5718A0
BD750BB0
BCEA0186
BC808E94
BDA00AEB
BD925276
3D735C03
BD66DF17
BD1251F0
3D2E15BA
3DA0A89D
BC896C2C
BD84B5BB
3D3012E4
BDA6C4C3
3BC60A00
3C8855FA
BD71E626
3D9B6E68
BC465158
BD4183D6
3C0394D8
3DA5E5B5
3CADCFAC
3D35F972
BCA20C60
3D583DD2
3C206E40
BD6B06AB
BCEB02E0
BD2DF440
3D25A98A
BD9B1D40
BCB0468C
BD39288B
3D51CA32
BD15421B
BD20D796
3CC7FED4
BD2F4696
3CC09F20
3D940CA1
3D6D24E6
BD3B327B
BB0215A0
3D56AD22
BD6B6306
BD0751EB
3DAA5531
3D36850A
3D7DBE8A
3D3C67A6
BCC43CCC
3D6FE3E6
3D21EC70
BD7E2690
BCFD4A8C
3D485ED2
BC9FC420
3D2D5992
BDA6AE73
3D48834A
3D97272D
BD822040
3D66A836
3D5CFDD2
3D4E4B02
BC999F00
3C4FC368
BD319600
3D881043
3C593C80
BD878AFE
3D1A3FD6
BD833FAB
3D8E2649
3D6B12AA
BCF191AC
3D87CB2D
BD13F306
BB071EA0
BB9BD000
BD75ACE6
BD324E96
BBEE7C3C
BD9E48A5
3D884D4C
BC4C9D97
3BEB0D50
BD901D63
3D0FB556
BD1A4EF6
3CDCB9EF
BD8F6D38
BC9FFE02
3D588BF4
3D59B9CB
BCF3702B
3DAF025D
3CCEC6EB
BD20DA2A
BC1A6832
BC084188
BD846ED3
BCA64554
3B056DAE
BD042487
BCC65A28
3CBDC70B
3D34634C
BC3D2D94
3D678C32
BD9AB584
3C57F6CF
BD0EE5B6
3D9F00E9
39AD819B
BD8974E1
3B7EB9B3
3D94C96C
BC57967D
BCA3D45F
3C35E6BA
BDBBD00F
BD051A25
BD98F45A
BC1A7E90
BCC700F3
BDB06812
3B82E7D8
3DBC3518
BD62A2DE
BD4D2873
3B66B1A0
3D0C439F
3DA62C1E
3D99173D
BD9B6F59
BD0D6DFB
3CCCB737
BCFE7D56
3D12868E
BD381310
3D1F84E7
3D3114BC
3C1D8547
BD515E9A
BDA86A78
3C7F7CC0
BD7C0600
3C48B028
BD868ADE
BD242BAB
3D9B4DA9
3D6DD0E2
3D0E611A
3D0AF5C6
3D7A8F82
3C091C18
3C836654
BD367BB0
3D869C71
BD18C1D0
BDA9FEB3
3D2160B0
3D67BA86
3D8D7205
BD04E46B
BCD6A82C
BBCDAE00
3D98399D
3DA18B89
3D572E7A
3C717228
BC717040
BD2A93F0
3C1C6A40
BCD6C0F6
BD4D943B
3D265570
BCE05D0C
3C8DE02C
3D03A116
3B84CC00
3C025980
BD4AB2E6
BD3730A6
BD2E2320
BD65480B
3D8F8D73
3D2B2FA6
3D0ADC80
3CE1AD80
BD4C7106
BCF5F536
3D90465B
3CE04F34
3B8B2030
BC9007F4
3D98CD53
BD5755F6
3DA516E3
3C05F7C0
BD5A3A20
3D0D01F6
3C84DCAC
BC9548A0
BCFB1B4C
3CE959B4
3C855720
BD7ADADB
BD55EB00
3D904392
BD2DF54E
3CF02CE0
BD831436
BD8D1B92
BD0FAB20
3DBE6E88
3D854FF1
BCB15D21
BDB4420B
3CEF0F15
3DA042C8
BD908CB7
3DB75CD4
3DC3BDA6
3D3DDBA5
3DE0364B
3D86B5B4
BCF8A900
3D5F2516
BD603DA6
3DEBA6C4
3D89BDD5
3DC8550C
3DD1F252
BD4F953D
3CF37147
3D3ED3DB
3C19A898
BD058006
3C891CEC
3D8E6811
BC98E732
3D2EC2BF
3CF03275
BC903217
BD1FE3A9
BD578524
BDADFE30
3D5F15E2
BD2AF31F
3DA72C73
BD49C460
BC9F8668
BCBED5B9
BCA6048C
BC191C14
3CDEE68B
BD9A2781
3D946CA5
BD388348
BD05041F
BD5F0CED
3CF636AD
3A8524AE
3D017637
BD270FA0
3D620B38
BD32E24B
3DC98C48
3D2193C9
3D8FF1C2
BD55F9B5
3CF7DFB0
BCE962A0
BC64BC28
BD6362A5
BCAB0FA2
BD6F5916
BCD635DC
BD499D07
BD7A0FAF
3D768976
3CF9B4BC
3D390346
3D598C64
3BD99600
3D96386D
3DA4AEDC
3D29D9F6
BD739E6B
BD16314B
BD8E2390
3D98204A
3C3D36E8
3DB617C7
BD0989C2
BD7263B2
3D0B5AEA
BD159A86
B9751000
3AEAEE00
3D93415F
3C5358C9
BD9DCBA6
3BABBD64
BCCD8A11
BD061ACB
BCB4EC80
3D97D5EE
3C981AD4
3CE413F6
BD0D76B0
BD9D4918
3D9ECB0F
3C5BD2D8
BDA1A653
3DA885A5
3D7BC392
BD3CC6AF
BD04E69D
3DA77ED3
3BEBC130
BC8A4FEC
3CC7370B
3D8B118F
BC8279E8
3CF24CAA
3C842894
3D65CE32
3D722A16
BD7014BC
BC27E8F3
BCEE0F8C
BDA93FAB
3CF406D4
BBA3C00F
BCF0EB36
3D59A34F
3D1FED3A
BD44F948
BC6DE26F
3BCCF550
3C7124D3
3B518289
3D3A1732
BC678539
BC63064D
3C52DE80
3D6FE45B
BC30B918
BD47EEF8
3D8669E1
BCF1F0F5
BD47FE6C
BD99439E
BC7C7358
3D4024AE
3D76C096
3D46EE27
3C2D0B9A
3D816BA7
BC7045E1
BD22F828
BD450406
BB2FBFA0
BD4D36DC
3C33A635
BC552BE3
3BFF1F46
BD4F938D
BC651898
3C94020C
BD21E1B2
BC7F3C28
BD461100
3D465DE8
BD8C2D18
BB5A326F
3A369E80
BD2CD84B
BC365128
3D794FFA
BD381236
3D365D36
3D7F5B4D
3CB39F54
3CEC9CCC
BD0C7C86
3DBCF0DC
3D3DA9C8
BD843F6E
3D72919F
3C6108C9
BDA28C33
BC9777F8
3D461088
3D762A28
BCE5FEE7
B9254600
3D09D7FB
BC271600
3DA4835B
3D4492D9
BCF58485
BC84DED0
BC78E3F5
3BC96289
3CB3BDB7
3D2FB199
3D65997E
3CBB4BEF
BDAB44B5
3C81F903
BC71649E
3C988E99
BD4113D5
BCCC67C5
3DB2CA92
BD2E2855
3B1DEB73
3CD9C507
3C181E28
3D8C3F00
BD50AC58
BD4B011C
3D08B192
BCC33F8D
3CBAE7AF
BBE5DCC6
BD195E4C
BDA818E1
BC3569D0
3D852750
3D1302D4
BDB77D66
BD019563
3DB68353
3CDB913D
BD326ABA
BD693689
BD804351
BD48D684
3C8273E9
BD4156DB
BA827B47
BBF19A39
BDB33A8A
BD8379B8
BD3886BC
BD298C82
3D9CA643
3D9E8A05
3D8801E4
3D022B32
3D3EBC3F
BD844FD0
BB853D95
BC86E1F4
3D093649
BB1518CB
BD357935
BD9A9727
3D27F744
BD9BD9B2
3B4BE587
BCA9B44E
3D2CCE23
BD05C979
BD5E667B
BD708E56
BD8D6B0D
BD8AD286
BCC90E00
BD57B127
3CFB6580
3CF3D92C
3D81D0C4
BD8656C8
3D737EE5
BD1456D3
3D06F5BD
BD5B97DA
3CF6E44F
B9D65800
BDB2CE81
BD16CB06
BD5E09E3
BCC53223
3CF1BCD5
BC604160
BB6D90E8
BD256AC6
3D04C539
3D793030
3D7EC5DF
3D062C23
3D86D7FA
BD703C64
BD93ACE8
3BC507BE
B987DD33
3CC2E77C
BC52B4AA
3C01C295
