16AA
0912
381C
163F
3430
1050
12EF
38F0
2949
363C
1682
055A
3485
3A2D
02F8
1893
25EF
04B7
2A41
3EA7
3A0A
348C
3791
32B0
0836
356C
1676
3C51
2D1B
187D
25E6
0206
0A6A
0F9C
0835
3DE0
3728
0A32
0310
1791
167A
3F5E
0CEE
374A
3EFC
0370
0052
35A7
3B3A
259E
3C14
0F0A
1112
3111
3DB2
3DCC
1282
0150
1491
3361
288D
16C5
0118
0B78
2FFD
3DC7
3608
0887
01D7
0CD1
260C
0E25
0A63
1513
17B4
353E
3416
3F22
0B17
0372
2792
0A28
340F
3D9C
35BC
3CBE
3CB8
2A4F
0E97
0358
315E
100F
0EC5
3DDF
08A5
3E7A
3D5A
3F11
3D2C
040D
00A9
37B3
295C
0B68
011D
086C
07D9
03DB
1532
008E
1793
09A8
037F
286E
1124
0AB2
2C14
2E40
26AC
0B5B
0566
0701
0D65
2644
2858
2BC3
1732
11E8
15AF
2A98
2E48
3B94
0DB4
1553
0FDE
188A
3869
0CE0
2879
3868
059B
05BB
3DC9
2951
071C
3B97
373E
03CF
3B23
00D0
1114
0A86
07DB
09D8
379F
0897
2BC1
386C
3FBB
3EF5
2BF1
2522
16C0
187D
3B60
0E9A
1515
360F
2CA4
0596
1998
3D5D
0380
24AA
3D11
17D5
36C1
3346
3B7A
138F
0158
013F
0446
1A0C
2A11
36CD
277F
1352
12D4
0248
301C
12D2
2A72
0307
0BC0
33F1
30C0
2CFE
297F
3ED0
1353
0A0C
0C74
339F
3222
0AB3
0504
10DE
3E4B
2883
27A3
2650
18B0
3765
0A99
00F8
00D9
3C82
0BEB
3066
05A0
2BF3
0E71
3EF9
3F69
0340
3534
3602
3D3D
1491
30ED
3F22
3D69
2FD0
25ED
0F76
08EB
348A
01CA
01FA
33C3
0660
0910
15CC
3002
0F3C
2C03
155D
2E23
0BDD
12EB
11B5
0CC8
124C
017E
0169
3B4A
0369
3A88
2EF3
3167
0A26
17F8
30AD
1600
26E1
0376
17FB
1902
3289
3E82
30C3
00DE
0BE1
0AB3
2507
2BF9
39F6
295B
29B8
3FD4
017C
2C4A
39D2
0CFC
261E
2CCA
2CBA

