BD73351B
3D78CF8A
BDBF1CEF
BD822116
3DA5ACC0
3D1EB110
3C0CFA53
3D8B2AAA
3CC02E6A
3CEA2DA3
BD43A226
3DB0771A
BD1C6681
BDC24ACC
3DC6ECEC
BD5AE0C2
3DC8FEC8
3DA8A42C
3D757BFC
BDAB1EC0
3D9776DF
BDA073C6
BD89A6B8
3DC36485
BDD82905
3D38CC02
BDA1508F
BD541447
3D4BC7B8
3D63CA42
3C79CB7B
BA8D1DA5
3DA0617D
3C16CEA5
BC37B30F
BDCB6982
BDB947B0
BC92FEC0
BC53FCDA
3DB2982C
BD7C8913
3E3CA948
BDE95509
BD0D6550
BD541D43
BDDE31AB
3E033A5F
3DAA98F0
BD5E0B2A
BCA3C954
BDB76EC5
BC565F82
3D564903
3CD213AE
3D4B8F28
BD30A6D5
BD85BC3E
BCBA14E1
BD44AA57
BDBD6D85
BD8EAD5D
BCEE4708
BDC4B8BF
3CABB7C8
BB43BA60
3D619592
3CE7C3B7
3DA68D54
3D79E660
3D2AD138
BD2754E7
3D027FB9
BDD88709
BD97C4EB
BC1F4840
BD90C878
3D6E7190
3D57BE76
BD57F130
3D417D28
BCA24B36
3DC8BDDC
BD923329
BD2D53C2
BDA9B378
3DB06C53
BC7C5D30
3D28C43C
3D82EA6E
3D1261EB
BD07DC41
BDB9ED36
3DAD77F7
3C9B1C4F
3D9AC281
BD2C533C
BD6FE160
BD9C4F8D
BD8E986E
3CECF225
BDD5AE23
3C8AF704
3CA72063
3D091589
BCD8DE61
BE2CA006
BD67EF91
BDCBCABD
BCABABE8
BBAEDB97
3D7F76B8
3DF6D8D8
BDD62505
3CEEF942
BD9E1FA9
BDA136A2
BDBED20B
BDBD88B0
3CA9CA18
BBD3312B
3DAEE267
BDCEAA58
BDB91D59
BD725359
BDF74256
BDFFD0C9
3C43DFFF
3D327F8C
BDC25057
3CF948AE
3D83862A
3D71187C
BC44F1A8
3CB5852C
3DE2EF88
BCF04788
BDFFC8C1
BC949295
BD270673
3D41F68C
3D2CA976
BD3CDB57
3DC0BD71
3D8FA553
BDC6DFAC
BD61C15D
BACA3EC0
3CAE6F20
3DB5463C
3D72125E
BDAF8ADD
3D9FFFDA
BD0B995E
BD7DE378
3D28F904
BC137530
3DA911D0
BDEF1742
3D111D78
3DCE3229
BD0F8830
BDCE7E74
BC9A3B20
3C950F20
3DB5DF34
3DC60F4A
3D234F28
BD148C3A
BDC2A2B0
3DC3B85E
3DCCFC16
3B9D6440
BD15C22A
BDA35701
BDC52D26
3D97E79A
B97F2200
BD9F8065
BD8B8A4A
3D2977B0
3C987068
3DCAE122
BA2A4A80
3D507B38
BDB432A1
BD4B01A0
3D2E6B70
BD4E8758
BD82BCF0
3D8304AC
BDC69080
3DC80024
3BF70F10
3DDA4664
3DA86204
3C4BB9CF
3DC6854C
3CEBBD38
3C9BFE35
3DA3C10A
3D87EF1D
BDBDE957
BD53A1F8
3D26E4B8
3D9461B8
3D742E29
BD01394E
BBB91BBC
BDC2B8C0
BD3456E2
BDAD116E
BDB87BD5
3D9ECFA7
BD83BFE4
3D9565F4
BDD6A6D5
BC628004
3CA6F5E8
BD8F96B8
BB1F7E80
3C3AD3F2
3D860558
BD42CFEC
3D6773ED
BD1999EA
BD06CAAA
BD8653A8
3DACCB77
3C816FC8
3D1F948C
3DC873BD
BDC329C8
3D35D6D1
BD37351D
3C85772C
BD4438FD
BD1E3E86
BD46110D
3D8CC738
3D807395
3D177F05
BB65F780
BDB129EE
BDD088B0
3C9CA147
3D8E14D4
BD8D39A4
3CCE9407
3D9DE85B
3C1CE709
BD38E29A
3CD9E278
BD8735FF
3C35D971
3DB44518
BD8AD663
3D14F23C
3D37099F
BD01EB11
3B8DF4E3
BD936D0C
BDA81C05
BCF7EC40
BD57DFD6
BDB6C536
3D886444
BD026CC9
3D303348
BC3D7A73
3DC1338C
BD23C160
BDAFB30D
BBFA1D6F
BDBF747C
3D2B838F
3CC39F7A
BC51E176
3CA86345
3C108C58
3D62AF4A
BD3CA793
BD22A13F
3DAE6A24
BC609098
3DB3D1CF
3D932423
3DB61858
3D6DE16F
3DB08222
BAE1F300
BD6854A6
BDAD3350
3D5A66CC
3DAFD548
3BD568A0
BD2CC8D6
3C7C4C90
3C8C377C
3B9EC9E0
3C68B228
3C3EABE8
BDCAEB81
BB1F0680
3C37E970
3D6EC148
3CF8BBB8
BB063760
BDBAD764
3DB902F0
3DC82C76
BD9F1827
3C8985A8
BDBF9548
BC2FE010
BD350A3C
BD154A66
3B6010E0
3D52B664
3D2983A4
3D7A8014
BC0FC878
3A783708
3CC96EE8
3D35F51C
3D81FE1A
BCD78B00
3D61615B
BD4E076C
BBA0F5D3
3DAC2509
BDAC9E74
BCEE5278
3DBCBAD6
BDC4659E
3D22C234
3CE2E9E8
BDA94B0D
3DC9E854
3D408CF7
3D557A0F
3858DF8A
BCFDAA4D
BD5DC5A3
3D8DD32D
3CC7DBD8
3C932A2F
3CEB03B7
3DCA9EA0
3D7997C7
BD35DDEE
3D2E9744
3C393A3A
BDC940F9
3D50AF2C
3C9D8F70
3C0876D0
BDA48072
3D617068
3D7626BC
3D88F8CA
BDC55507
BCA81E5C
3CFBC148
BDCFF96C
3D3E2E44
BD9A0A66
BD25E22B
BDB5C6DC
3D788614
BD0AB240
BD8E049E
3DC17C7A
BC2B3038
3D78763C
BDA301FE
3D947BA8
BDC11C58
BD43FFDC
BD12BA10
BD8E20C0
3D852476
BD9A96DD
3CEDB410
BCCC085C
3D4114EC
3C215E88
3C96D04C
3C272BA8
3DABA47A
3D9EBA3E
3D0AAEC8
BDC92C52
3DB49220
3DB475B6
3DC1A9FA
3D84EEB2
3D07CFD4
BD076DE0
3C96CABC
BDCAC753
3D2609AC
BD4E01CC
3DA19618
3C652F68
3D9CF4C2
3DA0C964
3D963EB8
3C8E31C4
3D3DF7BC
3A7B2E80
3C572720
BCD1C11C
3C8B4D74
BDCDCB63
3C54AC00
BD99EDB5
BD29BB11
3DADB04C
3AA0D5EF
BCFDB80E
BD5276C9
BD94E70D
3D088601
BCC49562
3D7F3ACA
3E72D4B6
BCA886B7
BBE11CC0
3D88F929
BBDC7677
BC67A119
BDC7BF09
3D11CBF1
3CA52110
BD072CBC
BD6E3BEC
3D93FFAB
3D4F941E
BD8BD497
BDC7A146
BD88C881
BCEF421F
3D8FD6B6
BDC6E75B
BD1519B5
3CCE0AC7
3D7F6138
BDE1B453
3D219CCC
BC7FA010
3D51E684
3CB45134
3A3B4700
BD1BFD10
3D08C064
3D0EABDC
3DC152CC
3CA034C8
BC46D8B0
3D1F0E80
BDA21F71
BD1346DA
BDA8EB7C
3D891DDA
3D1AD664
3DCB8570
BDCF1043
3C8F43B4
3C6934D0
BD84D546
BC422EE0
3BB83630
3D2DB3B4
3D92680A
BCC53544
3D8CA4BC
3D034670
BD46F39B
3D982BCE
3DB70D2A
BC1A10EA
BD1AEC99
3D6BB057
BDB33DB8
3B6C0AEF
3DBECF54
3D8AD98D
BDB3B94D
BD2A8CA7
3EA37331
BD9E1A5C
3D9CC032
BC9EEBF4
3D68718B
3D23EC89
3D95B112
3B9A0155
3C802DAC
BCFB341D
BB801104
BDBA835D
BD8BD488
3C6BEF20
BDBEECBC
BDC82172
BDE11C84
BD97AE7B
3D79A24C
BDBF8FE6
3C6E3010
3C6C8810
BD22E1BC
BBE4E2E0
BDBF006C
BDA00B19
BD20BE90
BD65924E
3CBEF880
3D81111A
3D84E3D4
3D760374
3DB5B3C2
3D452368
BD9C2900
3CD4B208
BCF43464
3CA07410
3CFFB3B8
BD1B4448
3DB7208E
3D507554
3C15DE54
BCA7DAFC
BD56335A
3D3FD388
3D311F30
3C886918
BDC1261A
BD7A8619
BD961EE6
3D1AD260
BC3ED850
3C846A3C
3DA56AB8
BDA750DD
BD1AAF9A
BD766B1D
3CFAA768
BD5F3C76
BD5074BD
BDDD6E1F
3DA8FF14
3D4A051E
BDC7AE38
BCBED318
BDAA211A
3D8F5DA0
BDE3A486
3D96D1BA
BC2BC622
3A64B377
3D85CE9C
BD70AE85
BD99A1B9
BD8A9B8E
BD6156FE
BDA6DDEE
BCB3F7CC
BD82A98E
3D5C55B5
3C658D98
3DB41C10
BDC6DF45
3D5C2593
3C8B4A6E
3C9FE9B6
BD73C003
3DC1C780
BD992756
BC42BF98
BD525EA9
BCA19470
3CB04A50
BD89C226
BDC096D6
BB96F8E0
3D090674
BDB5A630
BB1F6060
3D354914
3DB2E6CC
3CF6B018
3D35BBF4
BDA8C2FA
BD383AE9
3B123780
BCBEDF4C
BDAE84E8
BDC7F818
3C21F9B0
3D8EEBC6
3C877504
BB964CD0
BDBF3494
3D3DAF68
3C52B058
3D8155BE
BD45394B
3CD60C00
3D2F03F4
BC267838
3D1854EC
BD923997
3DA6874E
BDAE97CE
3DB625D8
3CEFC7D0
3CD26B30
3D91620C
BDA3CF65
3A80FB00
3D13D9D8
BD89FAF2
BDCE1530
3D2431A8
3BC6ED80
3D884DB0
3CF67508
BBB32BB0
BD89778A
3D9EE9FE
3DBA2316
BD34B9AF
BD814DEC
BD93034A
BD6684F5
3CBFD6C8
3D909DD2
BDC43B4C
BD0C303E
BD09ABC6
BDAFF489
3D9A3E70
3CB13814
3C4D6160
3DCB83C2
3C2B8508
BDA3E37A
3BF71FD0
3BB031F0
BD715B42
3DB0D6B8
3D4F2A14
3C97AC8C
BDA8D05D
3D67B59C
3BEBE410
3D8DF6A2
BDCF8356
BD925965
BCE755AC
BD3659F8
BD857FFC
BDB6E6D4
BC9B8F80
3D00BB30
BD73DEDD
BD5D82EA
BDB33039
3D467ABC
3C52AF50
3D1ED058
BDE0E829
3CAD4BF7
BD998DB1
3CC10240
39523802
BD947E76
3D0C027F
BD8AF501
3D96551F
BCCF590E
3D25B540
BB92A990
BCA44BAE
BD85A02F
3D63D9E8
3E05978B
3D1E9041
BDCA0163
3CB76A47
3E1A134A
BCBE34B0
3D47EE03
BD65738F
3D1C898D
BCBAE8FE
BD595FAA
3D60F43E
BD9F56B4
3CCB087F
BCD7146D
3D9B7BDF
3D90F5CC
3D883568
BBEC3E81
3D84942F
BDA5449A
3D5609AF
3D065C2C
BB28DA0B
3B802A37
BCDC1688
3D1D5278
BB8A6D11
3D578724
BDA2DC3F
3CA166DB
3C9E7CF9
BD13CDA3
BD84DFB7
BDB3EB51
BCCE56DA
BDA1C340
BB6B494B
BCE0EF1F
BC8E29B4
3D6B4A83
3CFC1902
3C27BC95
3DA71395
3CA8031C
BDA853A7
3D9F1E4D
3D8D3E2A
3D0E3379
BD5C02E1
3DB7ABBE
3DC9361A
BD8C0744
3D496400
BD8DB7E4
BD44292B
BDC2ED81
BD32EA73
3D113470
BB61E400
BBD8F970
BD8A9839
3D74C798
3CFF2170
BD00FD16
3DC71314
BD3500B8
BD8779A3
BCAF604C
BD2E928F
BC91A3E4
3C8BCE00
3C15BA58
BD0E0276
3AEE1AC0
3D36214C
BCBDE4BC
3C21EA28
BD9E4748
BC367520
3DBF439A
BB16BC80
3D493F96
3DB7D0CF
BDB40B30
3D90FB90
BC022298
3CA69DF8
3D8CBDB4
BD8D1103
3DB8ED41
3D31AB7C
3D36927C
3D42CB4A
3C801CDB
BD965CD1
3D95D353
3D5080F3
BDA83774
BD180E08
BD6BEF3E
BCCDA0A4
3D20A624
3A04A780
3D8183A7
3D812F70
3D692B4E
BD63EA38
BD99942A
BD9C3658
BC053FCB
BC7FE117
BD8649C9
BDEEBFC6
BD4C72EB
BDD88A28
BCA533C5
3D6C2C84
BD14D7DC
BD48159C
BDD13A11
3D6474DC
BC3ECD1F
BDC0CAD3
3D491764
BDD16EB9
BE3551F0
3DE09361
BA5964D2
BDCA85C2
BDA62C7E
BCD10AEA
3D3D9603
BCBCB7D2
3D53998E
BDAF8E90
3D75ECBA
BCD0BD5E
BDB641A8
BD77D7EC
3D19F6E0
BDF2E4F9
BDDC5A1B
BE14CA26
3B23EC26
3CD638C0
BD18D0F4
3DC45B7A
BCD5D948
BD445804
3DBBD9EE
BD33E2BE
3D60AF04
3D09DDB4
BD95BB05
BCDAF758
3CC33198
3DA64D86
3DCF4470
BBCF7FA0
BD8EEFC4
3DC8CBCC
BD8D271E
BD863A6D
BDB7059D
3D02C620
3C6D9868
3D8C73AE
3D24CFC0
3D26074C
3CC30F18
BDB83F8B
3BFDE150
3DAB4ACA
BDB99F87
3CAD2208
BD84E9BC
3D4FCB10
BD2AE2CC
3DA091CE
BBCAFE90
BD57BE7C
3B4E46E0
BD242CC1
BD96F8ED
3DD64DBC
BD8D39D6
BD9636FD
3DB6D5AC
3D48B46C
BD6E969E
BDD0544C
3CB96DAE
BC81F620
3DA8C3D8
3D804448
BDC997A0
BD273BC2
BAB899F9
BCC1121C
3CE31AAD
BC604935
BDB362DF
3DA674A6
3DAFD8FE
BDDFAD16
3D38242C
3B01B262
BD459169
BBFAA6DB
BAD8272C
BD9BE1EE
3D102127
BD2DFFD6
BCDA4DFC
3CDFB1F6
BC65AACF
3DC3E3CB
BD4D5D07
BDA5D913
3D6E85CC
BD806AA2
3BCB0E56
BD3F98E6
3D18352E
BDD054DB
3C1AD70F
BD0A6AEE
3D18F0FD
BD178C6B
BC4C2A7F
3D163868
3D32F947
3DA7A6B9
BCAF7D12
BD88FAEE
BCC5C348
BD834652
BE213EED
BDAE1808
3DA61850
3DB41210
3BDAD338
BDB6407E
3DAF08A8
3C4002CD
3B9E6D00
3D65A7E9
396CA529
BD8DD0ED
3C07B5A4
BD362EDF
3DC9C022
3D2FAB35
3DA70838
BDAA14A7
BD8B449A
3DC8B0DC
3D974AC0
3DD34EA6
3DBA6E52
3CC8FFC4
BB34236E
3C859C38
3DB649D6
BD70AF49
BD4D7E3B
3DC99894
BD8977FC
BC059C6E
BD91C3FA
BA736906
3C662E2D
3BB78F30
3CB01ADC
3D618440
3D99FA06
3D021D9C
BBBAB4E0
BDA124B6
BCFBA9EC
3DAD1C90
BD13BAD8
3CA11CB8
BD268268
BD430B9A
BDA361B0
3C737C78
BDB73EC1
BD6ACE8F
3C9A2DB4
BC857618
3D83F2B0
3D777EFC
BD610316
BD6B0910
BC649F7C
3C781A08
BD4B8077
BDC041F8
BD7E2E78
3CD4A038
BD49337D
BCC59F4C
3D628AF0
BD88D74A
3D94CF03
3D5D6B7C
BD9119AC
3D5C4E90
3D02D0F8
BD9FD030
3D89941E
3D3CBE05
BCBA1DA2
BD883FEB
BCB41674
BD6B657B
BD99B83A
BD15C302
BC2303F1
BD84458C
3DBAAE46
3AED4180
3C765C0F
3A8EF840
BD7C78C0
BDC22218
BDA4E1B9
3CED59C8
3D8221CE
3D8DF0C4
3CBD2EF8
BDC09C7C
BD6DB1D8
3D3F84FC
BD456ED9
3CB48264
3D202AAA
BDBCEBAA
3CB22A75
BD87D276
3D23449C
BD18BBA7
BDB07F3D
3D9BE871
BDB2B919
3D80523E
3D6008F8
BAB979C8
3DDE5524
3C463220
BDA1C68E
BC913ADC
BD1E6897
3C6339A2
3CCB5EFA
3CD50818
BD8A13F4
BD507996
3CD101FD
3DA0FE72
BD96D07E
BCDAD846
3DA471FE
3CA8B241
3C813EC0
BC8093C2
3D68CD29
BD6EE765
BD8F07E2
3D8519B6
3D1EDFCE
3A6840D4
3C6AD1A8
BC56F7F1
BD98FB67
3D309230
3E2B3C4A
BCE921DE
3BC364A0
3D22EEC2
BD33A68E
BC438EAF
3D895A01
BCD39A67
BBCC189A
BCEFDBC6
3D34634B
BD846FF4
BDCD813A
3CE0EF28
BC7976A1
3BC1F445
BDCC476B
3D61036B
BDCB2750
3D36F623
3DA2C9FC
3D0E5743
3C7C8BA6
BC27D7F0
BD837D77
BD8B6EB2
BCDAAEA3
BCA7A230
3D97E74C
BD8A9608
3DB1AFB1
BC8E0ECF
3B8E2C70
3DBFDAF6
BCFB1D2C
3C198D9E
3B13F682
3B22622B
B931CDFA
BD93483E
BDA331CF
BC7FFEAA
3B2A3721
3DC0DFEE
3DC74DD5
3DA693C8
3DB622E8
BB9176C4
B9ED3BB4
BD2541A9
3D404970
3D5751BD
BC6CE8AA
BDC7698F
BD4463C7
3AD05DDC
3D8F8E3E
3D80EB06
BD64FCF0
3D460486
3D5FCC58
BD07705C
BD2932DB
BDD71E2F
BE3D4190
BDA7E765
3DC391C6
3BE95411
3DCC072E
3E444B1D
3E597E87
3E254A82
BCA1DF5F
BDCE60E6
BD5F3F23
BDEAE13C
3C0F9E23
BD90112A
BDB0F00E
BD7B7BE9
3D4043AE
BD840BF5
BD18188E
3D1A72B5
3C55F8CA
3E2918E7
3E73F446
3D50C25C
3C97A532
BC7186C0
3D2465E8
3D353C58
BCD6C110
3D595999
BC917904
3D595115
BDD922AC
BD91BF48
BCE65E04
BC41E7FA
BC05D694
BD723C63
BD54AD6B
3D576347
BCF94328
BD29E841
3D09EBF2
3D65D5C4
BD99470B
3DB2E3E0
BDBC9261
3DA62DF6
3D3E73C9
397B7C00
BDD0383E
3C3A9988
BDC11705
BDA4CF96
3D93231A
3D7EFC4C
3D943518
3CFE1D70
BD4EEA86
BCD037B4
3CD8E208
3DB23588
3DA1EC2A
BB3EFBE0
3A5BF800
3D46BF20
BD2F3AE3
BCD84844
BDC40B99
3DC92AD6
BCA47B24
3CB857AC
3DC96F46
BD867D33
BD0AC4C0
3C1E2DD8
398D5100
BD1F5F2A
3AD39D00
BCED9220
3DCCFD8E
BD64D444
BC68FC28
3DB65A46
3DA7CAA0
3CE6E800
3DCEF938
3D10C880
3D928C02
BDC07779
BCC015E9
3CAB1978
BBCE2B30
3DB527CB
BD9C12C8
BC31C7D6
3D974C98
BC933A80
3CC06BE8
3D8C7F63
3DBB3FFB
BC9626EC
BDAD65CD
BD995A49
BD10E841
3D00F5C9
BBD1E1D5
BDAED28F
3DA2BFC1
BDA3D5B6
BD1EEAD8
3BC6847F
BCF4B374
3D771B3E
3D977BC0
BD1BA7B4
3D0CFE1D
BDBBE71B
BCDC4B5A
3DA23878
3D571B4D
BB612A51
BD53849A
3D973F30
3DA7B53E
BDC34482
BD3C687D
3CB6CA02
BD94A529
BDACC3FA
BD24CC06
3D880247
BC8750B3
3D90C882
BDDFC397
3ADD872A
3D238800
3BA7815B
BD7D5BF1
BB963070
3D85DD8C
3CA6D194
3D9A9724
3D4D7D9A
BDC711C5
3CE6EAA9
BD6994C4
3D5EDE71
3D798220
BB9978F0
BD090E84
3D1250E8
BD7773EA
3A71157E
3C716AD1
3D3D3BFA
BD93B712
3D9896C0
3DAE5D2F
3D88060F
3D93C370
BB335CEE
3DC85CFE
BC253CD0
3D15B4EC
BBFF27F0
BDC465AB
BC11205E
BD8F16C4
3D8F5F96
3C01F271
3DA3D13B
BD8F0B37
3D8F7DF4
3CCA96A3
3C67154D
BCA504DF
BBB154BD
3DB28A1E
BDCE1CB7
3D86FB8C
BB3B4499
BCA1117E
3D54C6F8
BDC0DD62
3DC9253A
BB0A8680
BD40733A
BDB4EBFD
398BC300
3BFF4F50
BD9C8CAA
BCBEA1E8
3CE0C238
BCF1BBC4
BD9EFEAD
3D8C9944
3D86C6C2
3D226A00
3D82CFB8
BD5F75B1
BC1476E8
BDB4D480
3D81D9D2
BCF95CEC
BC2A8978
3D51146C
3C1F3540
3D591D0C
3DBAA0FA
BDADB663
BDD066DC
3D9737EE
3D9E3738
3D047384
BD05FC14
3D9E7305
3CA2B5BF
3D1F8A88
BD0C46EC
BD9C38E6
3D58857D
BD5BAB1A
BD7C2F3C
BDB9019C
3DCC9DF6
3C361288
3D67C9E2
BD297CE0
3D6D578C
BBF7502D
3D6AD90E
BD66F39E
3CFB76D0
3D4AF304
3D31C5D9
BD5BF13E
BDA96DA7
3C5BD4CC
BDDB159F
3B3B7756
3D5B17C6
BCA22A00
BC62B917
BB412458
3DDCD2F6
3C95EFB3
3CAF9B7C
3D4D2C90
BD4776DB
3D3A8E94
3DC4ECEA
BD63CC21
3DBD8158
3D29FD68
3D14BB84
BD85D82A
3A6B2680
BCF8FA70
3BB6DEE0
BD256A24
3D9B50A4
3DC4F4C2
BD6BEEA1
3D363FE4
3CE93780
BDAC01E8
3D87B452
3D718E78
3CF3E058
BB9828A0
BC18D8A8
3D021034
BD99AF22
3A42C100
3D278288
3D23FB9C
BCBA1010
BC3139F8
BDC72F97
BD3EC57F
BD06DD00
3DCDBD6E
3C2B2828
BDCF30E5
BDB7C1A6
3C1542E8
3DB5D128
3D8BCBE4
BDAE0810
39D62A00
BD5D091A
3D64ECD4
3DA9BA7A
BD986418
BD59731B
BCA6C514
3D4A3E0C
B9CB7600
3D5F2F58
BC85C7B0
BB71ED40
BCC17F94
BCEFBE44
BD8EC13A
3DBE5970
BBFAF3D0
3DBF24F6
3C99CF40
3DB3A554
3B618340
3BD678CD
3DA9879E
3D022FA8
3C82E3C5
BBD02DC8
BDA70EBE
3D13B932
3CC72F21
3E05A82F
3E892D8C
BB8F98AF
3D0E4F6C
BD934925
3D4E1CB0
BDDC6D47
BD7E203D
3E31EBAD
BD24550F
3CF27D7A
3CE91418
BCD6A237
3D8E37E3
3C429058
BC8A71D1
3C825FA7
3E28D4A8
3D947EA1
BDCA2F88
3D2EAB27
3E43A7CB
3E369263
BD420670
BDCF8E4C
3B54F100
3ACDD7C0
BDB22EFC
BDC3E553
BD9BC09B
3D6B0D0C
3D45417C
3D591F8C
3CFE80A8
BDC8AE1F
BCD1DD04
3DCB7F0C
BD7AFC7E
BD585AF2
BDA674BA
BD8485E8
BD84704C
3CC6E9B0
BD7587CC
3DAAC722
3DA6ED84
3BE65BE0
3C7E3D48
BC87C904
3CE8E530
BCE03500
BCAA2248
3DB252DC
BD10A482
BA803C00
BB181640
3D379EFF
3D7E1899
BD828624
BBFC88D1
BD354E85
BD486AC9
3E36356E
BB9D0632
3E46DD61
3E628CBC
BC8F59F4
3DA43516
BC9ECAE8
3D84157C
BD765950
BD9DFDCC
3DF4C7D1
BDD4B388
3B855E0E
BDC02A43
3A74695A
3D07EB62
3DAD6022
3B3B1F1C
BD82EADD
3E340BB3
BB532219
BDAC77FA
BD871F00
3E1C9A6B
3CDBE24D
BDA7A150
BC7AAA50
BD6A19A0
BCAA0F80
BCEDA9DC
BDBE9668
BCC8A80C
BCE0B568
3D3CA574
BD27A8FB
3DC08180
3DAE4B0A
BD402843
3DA1FBB4
BD2A2D7A
BD404FEA
3DC52B8A
3DB4BCEA
3D5B4C8C
3A311280
3D46F1B0
3D76BAD8
3DA2FA82
BD53411D
BDCB4396
3D9D683A
BDCFD5E8
BD9E7098
BDB3FE0E
BDA0E580
3C7083B8
3D7021A0
BCFC8420
BD09B99A
3D40DE22
BD9CC78B
BDCBBED3
BD856F48
BB516780
3D354AD6
BD952112
3D6E5DC7
3CDBAF9F
BB06FB60
3D8499D6
BCE27E20
3A595623
BD827FA8
3D9CCC8F
BCCE36BB
3CE0E4B8
3DB1AAC0
3DFC2B28
3CEC2A78
395B2800
BDA0535F
3DC130D6
3D803D06
BC8D2761
3DB937E0
BDB49373
3C03C148
BDE0016E
BAEFB610
3C425CFD
BD148804
3CCF23A0
3CDD4120
BD0E2B8A
BC6C7498
BCE6B6DC
BD73862B
3DA7774A
3DC56296
BD346914
3D8765F8
BD338FB7
BD4D8DA0
3DC43878
3D9AFEA0
3C8FCBA4
3ADC6C00
BD878CD0
BD53E6DC
BDC332AA
BCF8FDF4
BD411CC7
BC785FC0
3D3BF9DC
BC94B2E8
BC4EE5F0
BDA0C9CD
3DCE5004
3C9C58E0
BD80B196
3C4DB1D0
3D2954C0
BCE54BD4
BD7C7ABD
BD1BBDD0
3D55D8E0
3D05E2B0
BA585380
BBF62380
3CDCD078
BDC7DE52
3CA7B2AC
BD84A394
3C74B7C0
3D6E2CB8
BD9D31D7
BD745A14
BBCC8880
BC0729E8
3DA7D70A
3D8BEBA4
3D40C5C4
3D870952
BDB7F52D
3C3E9298
3CB948F0
3DB978CC
BDC4B2C0
BCD94ED4
BD847732
3C950830
BD20E692
3DA97A90
3DB119B8
3CB47048
BD0D1F80
BDA37397
3CAB4844
BD1889C4
3DB0229A
3D180498
3DC802FA
3D99EBC8
BD14CB60
BC889FC0
BDB03072
BD8F48EB
3D1D20A8
BD0AFA14
BD945ABE
3CEC2638
3C9F0C58
BD159844
BD9AF774
BD3755CF
3D332AC8
3C67E450
3D7DD5C8
BBC30890
BCEED1BC
3D6BC29C
BD55089E
3D4091EC
BD7BF2EC
3CDE7888
BDAD80BA
BDF40B11
BCF6172E
3D1E77D8
BDC3BAD2
3CA7BA67
BC99BD08
BCDA2B4C
3BE63EB9
3DB39153
3BD74EEB
BCEF3CAB
BBA508D0
BD12F356
BD5AC466
3DC53F64
3D00560A
3D95D32E
BD12A1F0
BD5E278D
3D884610
3D9E206F
BDCDDE03
BD9CAEA4
BD4DCBF1
BCFCA837
BCBFC4D6
BDDFA4B7
3D3FE938
3D5F0F56
BDD78701
BD9CB4AA
BC4DFD6F
3D43C2A0
3DD57F6A
3DA78B87
BC84C9F0
3BBD3F41
BC4165E8
BC15467B
3DA4FF47
BDC24129
3C4E7A04
3D8ABB7B
3D271FDC
BD9B725B
BDABC173
BD9BD757
3D92B40C
3CB9675A
3D11C8F9
3D6A8214
3D3FBC3D
3D62A3DC
BCEE4620
3D92898E
BDC6D5CB
3D87F807
3D6CDBC8
3D001C1B
BD0127BA
3DAF0399
3DA663D3
3D1486FE
BC9FBCFC
3D4F9828
BDBAEC20
BD983B00
3D275F98
BCDE08B8
3BD424B0
3D99A6EE
BDCE3C78
BBD20620
BC697890
3CCB1A30
3D92C212
3D70DBA0
3C573E30
3D2E8C20
BD6D3462
BD0C3ED0
3DBC6E8C
BDCCBE2C
BD88DFF7
BD604FB2
BDC2357D
3D2A2A80
3D357518
BD9E2B96
BD545DC3
BDA7BEEA
3D9EC462
3DA94B6A
3C7D9B50
BD5DF86A
3C083BA0
3DCFB09A
3D7492CB
3D51A96F
BDB5B087
BDA06AB1
BCF0E1E8
B9CD5035
3D97995A
3D23F658
BD8280CF
BD8414D9
3DB08D0E
BC828171
3D3CEAD9
BD568D35
BDC3F58F
3D82F5BA
BC94B44C
BD33A6EE
BDA3BEB9
BD7A23EB
BCE787C8
3D73A92C
3D23A617
3D87C25D
3D9A2C1C
3D23A516
BCBAF414
3D9CF3B4
BD435132
3D9FD5A7
BC09181C
BDBBA1DC
BDDC71E2
3D1262F5
3D45B406
BCA3F74B
3C87AEE4
BD923451
BD5BB0CE
BD5A989E
BD48B25A
3D69CD96
BCB5F714
3DB0ED55
BDBD9534
BDB46F50
3DB9AD21
BDC90FC3
3C3A4EB2
BD0A9F48
3E1ABE53
3DA2DD54
BD9489CA
3C9E2FA0
BD9D5A7F
BD800927
BD97DCFF
BCFB009E
BDA6787B
BDB06576
BE1AF01A
BD2DA46E
3DD9FF70
BB93DF00
BD2178FA
3D47B070
BDD02E92
BC462B48
3D308AC4
BCAB69A4
3D81DF04
3C520598
3C31AD18
BDA700FD
BCB93CF4
BD878886
BD8B53B6
BA45EE00
3CD55078
3D487B98
3D3356B8
BD6F998C
BDBDEAD0
BC5A1B68
3D9C827C
BD254342
BCF43258
3B3F0EA0
3CDF9E38
BDBC40F2
3D9D0B90
3D43F974
BBCB4E60
3D7E1FB8
3C0C0A20
3D605FC4
BD62356E
3D9BD490
BD83F4FE
BC6DF288
BD86CA45
3B948F36
3D9E5EA0
3DBD9F04
BD56EEF8
3DBE9BB4
3DAA8C7C
BD9FA73D
3D2D74EF
3DC19526
BBB52E12
BD0CF4FB
3C7473C8
3DC2EB15
BD7631E3
3D56AF81
BB4B360B
BC818C68
3CAB58EC
3CE2F707
BD795E25
BD7DCA50
3D6C41E4
3D61C947
BCA8E748
BD0DBF08
3DDE6A8E
BD776482
3DB661F3
BDCDD5D9
BD5B9F3F
BD96B029
BD147AE8
BD807DB0
BD6E2C73
3E1C115E
3E1B76B2
3D0C3E01
BDBD8E4B
BDB255B2
3DD8556A
BDB86F4C
3D376F37
3D46988E
BD3E780A
3CFDC8AA
BD1D9802
BDA6B617
BC544E76
BCAA0168
3C247BD2
BDD7AAB7
3D7A34A6
BCF8C7DB
3BA62800
BDE98C4C
3E661604
3E3A4FE9
BDDA1FBD
3D4D5E60
3CEC8C37
3B786AFB
3A5AA591
3CDD8F73
BA81DA00
BC870186
BB413108
3D4DB26A
3D96614F
3D198444
BBE0C460
3D331F72
3D37A704
BB326DA0
BD27405A
3D868962
BDB58E66
3D364ED0
3C7B9211
BD20691B
3C8922CA
3D3FD064
3B37ED01
3D525614
BD37DDD0
3D8CBB2E
BD849D5E
3D31D310
BDB0DF8F
3DBCD360
BD3689A0
BCC9915C
3DA75DA0
3D78D7A0
BC908494
3D13FF28
BD9E1926
3D8441C8
BD7BBC58
BDCC7E9D
BD725A0E
3DB8FA68
BC998B1C
3DC8F66C
3D5C679C
3D5F1038
BC6FD698
BD01BAA4
BCEBA474
BDA71F56
BD8B6E66
3B186300
3CD996D0
3CFBD120
BDA18519
3C4E0948
BDB9A6FB
BD8CD8E3
BDA98B57
3D2CADC4
BDCC3555
3D9177A8
BD42F406
3D913368
BCD533AD
3D601980
BD45A1AD
BC9DD3EC
3D8BCD64
3D895603
3CC90E00
3D106B44
BD98C122
BD454879
3B3F5820
BD9AB87E
BDD105E9
BC501870
BC243065
BD8FCEBC
3D8BB238
3D9E8436
BDE3514E
3DB14A10
BD183598
3D888D3C
3DA1F2B4
3D108F2C
BC2EEFB8
BC7C83C8
BD2EED79
BDC22BD7
BCABB6C6
BC3DE2A0
BC908FD6
BD66C2A7
3DB25381
3B1F41CD
BD16F0C8
3D9A4B09
3D5D0760
BBE28CAE
3CC1DA34
3CF7DD25
BD5686F1
3CFE4BC6
BD9E3C87
3D61A4AD
BD1DA561
3D68D40C
BDCDE586
3CEC5FF0
3D92EE9C
B9461D09
BD76B363
BDB5EAC4
3DA7893D
BD444874
BCE4CCE2
BC818EE7
BCAFCD90
BD1E8E47
3D670C30
BD3CF390
3D498713
3DBBE1C4
BD0BE21C
BD55FC9F
3DD182E7
3D42BDA3
BD15DD6D
BDAE3BE3
3B318BE0
3DBD3117
BC09F0FC
BD92B773
3E05312A
3D2CCD46
BCE3459C
3D1C7BB6
3A41782F
BD256B7C
BD49A6C9
BD93B2AA
BDD5A282
BD530ED9
BD9E48B6
BD2A24CE
BCADCD28
BC7484B8
BC8C103A
3D8B12D3
BDACAA25
3A20CA84
BDB13C5F
BD7F6792
BD891EF6
BD08D8EF
3DE22233
BCD09A0C
BCF8B0D7
BDAE7F61
BA0B2B1E
BD772E69
3D302580
3DE11CE7
3D645E3F
BCC6CD10
3D9ED9D3
3A43C800
3D4123E4
BD94A9A1
3D55E7C7
BD5CC132
3B8E1FF2
3D9F7188
3DA34762
BDD1401D
BDB28EF6
BD50BD71
BDB542A0
3D7D4B00
BDC3C7D1
BDB334E2
3DA3517E
3DA9943B
BCEF2E9C
BCA41B3E
BD4F0E11
BB6001F0
BD8E3A3A
BCDD8435
BC7BEC5A
BDDBE661
3D5311FE
BD1A3540
BD2EB205
BC63853F
3DB8A5CA
3E11E5B6
BC8430F3
BC961B1E
BDBA4308
3D1307A0
3DB2261A
3DDEF74F
3E4D45BB
3CB3AC01
3D78CFD5
BD8C4F6F
3D22AE59
BDE17109
3CEB18AA
BD02C5D8
BDD8F680
3B20D9A0
3D9B45E3
3D68E975
BC00EF80
3B8ADCE6
3D94F779
BC9BD50E
3E0AA70B
3CC8D130
3D14398A
3DAE9438
BCF5DDF0
3C59C970
3CBF02C0
BD1C6BAD
3D8D4040
3D453309
3D877062
BB8408F0
3DC79C6A
BC8503C0
3CEF8795
3D6D968E
BD5CC29D
BD3F9371
3D937C90
3D9CDD2E
BC9CBA39
3DC9D488
BD837D1E
3D7E70FC
3C4F3ED0
3D89472A
3CEB3845
BD6A7E77
3CE706D8
3BAAA160
3D872FB5
BDBC03B9
3D46B572
BD5FB90D
3D32E9C4
BD6271AD
BD1ABF24
3DA3E5F6
3BA79C80
3D6E8CA4
3DCA1296
3DAC18DC
BD8E5912
3D9AB816
3D46D940
3DA4854C
3D9792C0
BDA3E4E1
3DC61FEA
3C263408
BD9A86EA
BD48EBD1
BD8872E6
BDB48DB8
3DC18888
BCBE15EC
BD765B38
BDA5DE8E
3D59012C
3D974CFA
3C375D18
3D8C392C
BCEB26EC
BD3D38E2
BC9D50A0
BCE2633C
BD5BC600
3DA1F8DE
BDB5AF26
3C1BB730
BD45F789
BDB50EAF
BB8E3CC6
3DCC5198
3DCCD4D9
BDB4E318
BCC50CE4
BD95EF6D
BDA0F5A8
BDA9363C
BD93C1B8
BD9B43E6
BDAFCF6A
3C204C89
3D953FCE
3DB90BAA
3B4A1E2D
BD352C25
3BAEB7C8
3B31EDC0
BDC443D4
3DA42E27
BD93D943
3D8ABB3E
3DB61708
3BE326CA
3CA3F57E
3D84A252
BC997C01
3D741C86
3D872CCC
3D83BFDE
BABE9C40
BCACE1EE
3D3559B3
BDB5C6A3
3D12E596
BDB7C68C
3D40ECC0
3D364120
BA42A51A
BD4E8738
3DABD0D4
3DDCBC47
BDB82913
BD160F1F
BB421C7D
3D0B3DFF
BD8B1B09
BD4BAC1F
BC132943
BCE907A0
3BE9BE0A
3CDE934B
3D2B56D0
BD333BE9
3D3D2FBD
3D95C6EE
3D22FC43
BDCCB6ED
BDA3A0E9
3D054556
3D5C08F4
BD488CA4
3D7C2CD0
3D93085C
3D970AA6
3CA21695
BCDE11DB
BD310D4B
BD939E76
3D38B0BA
BD140469
3D82879C
BC4B7512
3C949336
3DAE674A
3DACA573
BD6AE0F6
BD8C6772
BD1ADBF9
BD2DB93E
3D994A0B
3DBF7638
BD0B5220
BC3B3681
BD2267C1
3B0FDBB6
BB865CAD
BCF317F2
BC4CB4E2
BBD15CB0
3D7FDF14
3D691730
3D988598
3D9FD69A
BD0D507E
BC5451E0
3D3AC4E0
3D6B2BE0
3C801CA0
BD5E54E2
BD83F838
BD7F6165
BD8F9A0F
3D7FF7F8
BA57A800
3DA1DDEA
BB893820
3D3A6A14
3C12AA48
3BC3A520
3D7CD13C
BDB29FCE
3BF052A0
3C0E1D10
BDBC5E7E
BC377288
3C04DF70
3D74569C
BDC46831
BD3728ED
BD4283AE
3C377600
3B85B4D4
3D47826A
3CA2466C
3B7CB2A0
3D1CCF44
BDA8D5B1
BD0FC99D
3CA13C7C
3DA3A6B0
BD2559D7
BCC31778
3D11ED85
3D308ECE
3DA18D3C
3D4B83F3
3D8803C1
3BD42E40
3D09E70F
BD80D252
BD7EAEB6
BD5FFB6E
3DCB13E8
3B29FF70
3D8D1A50
3D4561A0
BD0446CD
3D59B670
3CC3F5CD
BCA4EAE7
3D4C27CC
3D6804B1
BDB15980
BCCDC1C8
3B7F1900
BD876169
3DBAEB80
BD9F01E7
BD8867D3
3D712600
BD21FB8A
3D9C4F4A
3DAF48DA
3D5FC830
3D632AE0
3D82E826
BD4870AE
BD3881BE
BD93A747
3D8DF31A
BDD0EBDF
BD356A95
BD4B9B34
3C51AAD8
3C4C3F70
BD9E80C5
3C486430
BD698A48
BDC49F2B
BC870A50
BD8D7718
BDAD3AF1
BD5ACE52
BD357397
BDAFA393
3D1E35AC
BCDE061C
3D683B08
3CDE84A0
3DA5FB8A
3A890240
3D8FBD14
3DBD2958
BD8526E8
3D8AB88C
3D73BCF4
BDBC5FDC
BC861AB8
3DB7B0BE
BBAC9190
3DB05858
3DB0B80C
3DC13138
BDCB6681
BD95AA21
BD8F8332
3D5BE308
3B631340
BD69AFDD
BCA2F4A8
3D56A5BC
BD73F57E
3D8B31DA
3D9322CA
BDB7BC37
3C84D2E8
BB3EDD1C
3D9743EA
BD695419
3C231393
BC8380E5
3D1BDAE4
3D887C69
BDD16FF0
BCD2A0E1
3E33DD9F
BDDB581B
3D5A2D18
BDBEE1B2
3BD26684
3A665A9A
3BF551BF
3D23AB27
BCF17DB2
BDB2D2A6
BCEE2CD3
3D96CC31
BD768B89
BD414A2B
BDB87573
3CD0169A
3CADE287
3CFB9CEE
BD206978
BDAB954A
3DCFCFE5
3D260038
3CBBFAD5
3D2A0E7C
3D71EBAC
3DBD18D8
BC5723A8
3D83E3B0
BDC7784C
BDBA5DDD
BD9B61BA
BD94EEB4
3CFA82D8
BD2E618B
3D463CDC
3DAE549E
BDBBF52E
3D596B44
BD610C55
BD2AD4E3
3CA11AE0
BD8C4DE4
BB4A97E0
BCCC0AF8
BDCA50B7
3D1ABBAC
3D3A3728
3D415EB0
BDC44A71
BD91D148
BD6E5F7A
BD86F202
3D00021C
3DCAE054
BC951368
BDD61A01
3E656F10
BD8D1338
BC8A3D95
BD9E1CB7
BD4E47A2
BC253D8A
BD0A79EB
3E347EC0
3E563AB0
BCF4A0EC
BD656D89
BAD10FA0
3DF3D105
BDD95404
BE5E580B
3E17DC6F
3D95A56D
BD9A7F67
BC9ACEFA
BB38211A
39422018
BCC4C224
3D0CC259
BDE2B4EC
3E1C6A67
BC9257F3
BDAC391F
3C7A0D0A
3DF3E1BB
3E60E560
BE45A51D
BD9CD950
3DBFCC92
BC7A9DD8
BC05EAA8
3CFE7DD8
3DC6F26E
BD3D61CF
BD24E2F0
3DBD4750
BD724832
3D5718DC
BADD7F40
3D9EA1FA
3CD59D48
BDACB39F
BD4486C3
BCBFDD38
BD617752
BD924632
3CC86BE0
BC6EBF10
3DA793FC
3C4F13C0
3D91D03C
3B479100
3C30F940
BC1D94D8
BD4A6D7C
3DBA4B30
3C8B1E9C
BD6C583C
3D297DFC
3DA159BC
BD59F0B6
BB328080
3D2CBE2C
3CF46CC8
BDC70A7B
3DF15F46
BCFC3B00
3D83DB85
BD26426C
BC0016B8
3D41BAB8
3D5EC6A8
BD63A93D
BD7F79B2
3B2FB443
3CAE33A2
BC800998
3DBF7F76
BDE8D25D
BDC19655
3CAFF3F8
3C54A9C0
3D8721BC
BDA075B7
3D1A954B
BCABAB44
BCC3DF28
BDC9E00A
BCDA8A48
3D818059
3C96E9EF
3D813240
3CEBC8E0
3C09A9F0
BB377480
BD6BA2B8
BDC51A41
3D5C7D84
BD813080
BCB2B64C
BDC59D67
BD5AAD89
BDC7DF30
3D01AF48
BD75DEC1
3C69AD20
BD93DBD7
3B8C7A30
3DB83C8C
BD98205D
3BC13860
3DB63C00
3D871E48
3D875C48
3C286AB0
BCF240E4
3CEBD248
BD3C6957
BD9B1738
3BE8CD80
BC664480
3D01BA5C
3C70CFF0
BDA800D5
BC317888
3C46C2C0
BC931FEC
3DBA9150
3DCDA1E2
BDA8577F
3D8D97EE
3B754280
BDA02628
BCB94814
3C342408
3DBA84D6
3CD4C290
BC3F3358
BDBCFA2A
BCE1B29C
BC711EF0
3D456FF4
3CAF4E70
3D85E6E4
BCF81BD4
3CFFA290
BDCAEC76
BD10B5EE
BD594C45
3DBE6B08
BD3D8292
BDAB4C22
BD2A889F
BD538C7C
3CCB5C08
BD510569
3CE1DCD0
3CD986E8
BBC38780
3DBD301A
BD03F7A4
3DC769FC
3CE4C848
3B3F5060
BCB49CA0
BD610FB3
3D5219C0
BAF15280
3D81E33C
3C314168
3D626BF8
3DA07E70
3C986744
3BFF1E20
BDAB2EAA
BD1C57EC
3DC8E406
BB61BCC0
3D1149E4
3D8C5DB0
3DAD97A0
BD426AC0
3C3FB010
3D7E7DB0
BC7C7578
BC9ABCD8
BD605E58
3D5234FE
3D0505B1
BDE6144B
BD4D9203
3D0B8FE0
3C09AB28
BD1BFEB3
3D916334
3DD235DF
3DDEBA22
BCEEF183
BD996FCA
BD0504B7
3C783768
3B88ADFA
3D5CB765
BDB7DE11
BDB71E19
BCE19814
3D05D0EB
BD4DBA60
BD50F0DD
3CB54618
BDAF3E92
BCFFF2A8
3D80174E
BDA590C2
BCAE1344
3C5D5882
BD5898E4
BDB10C67
3D45EF69
3DB23948
3D8CB584
BDC55CDF
3D5DD961
3D676BCD
BD5C2BEF
3AFBC412
BAB75D90
3D446904
3D6548D0
BD8D9965
BB164340
BD650DBF
BCFFC746
3D8EF3C2
BDD80E35
3DE08A68
3C8EE983
BC973A32
BC7AF838
3CB0081C
BD61551A
3C9F7D2C
BC137DB7
3D320D9C
3D899325
BD917F2F
3D87912C
BDA105E7
3D949FF7
BD979484
3DC10592
BCBEAD88
3CDD7A08
3CBCDA18
BDCCB793
BD101FAC
BBA2DF70
3D350BEC
BD60E1F4
3D98E526
BC7C3B68
BD884152
BC8E3684
BDCFD643
3CDAEBE8
3D236588
3D1D15E8
3C8EE5C0
BCA51CC0
BD927998
BD4BB1F0
3CFC6338
BD6D6215
BD993C46
3D90C98E
BD1AFBE4
3D8512DA
BDBB30AF
BD1C8FD4
BDBEFFAC
3DBF196E
BC986D98
3D552128
BDA5AB8A
BD92AE1F
3D23FBDA
3B881372
3DADEC6A
BA1A9480
BD6E4816
BDC84306
3C751339
BB8B7D0B
3D285D20
3D960162
BC7916B1
BD9548BC
3DB8AFE7
BD962F99
3D8DC5B0
3D87764C
BD4F7515
3B338DA4
3D72B8A7
3D9B780B
BC92E83C
BD53FDE6
3CFCED96
3C83CBCA
BD45A05C
3A511D00
BDCE5883
3DBB2418
3D6A47B2
BCF988B4
3D6C39F4
3D5D723A
3BF5FA48
BC255509
BD810A82
3D031E74
BD837E0F
3D28C7B7
BD946BF5
3E176021
3B81E605
BBB18870
3C804385
BDD0221A
BD9E5EF7
3DAA659E
3CC1CECB
BD647127
3D9842AA
3D834487
BC86E5F7
BBB9B041
BBF898A0
BC0400AB
BCC47D09
BD629CD9
BD6FC244
BCDC880C
BDC3EF00
BB19B431
BA8B53AF
3DE222BB
3D3FEF68
BD1D82D6
3D8B6C1E
3CCD23B0
3DA5E276
3DA7D726
BD74CC8A
BCEB6DC0
3D8CEDF6
3D2E1A88
BDBBF03A
3DB92D0A
3C39BCC8
BD9B6EF4
BD61034D
BD6074BF
3DBEEEDA
BD8C7930
BB9D7ED0
BDAC06BE
3CADCCB0
BCE9FE2C
3CE70E60
3C010830
BD0E3B62
BD9F02A4
BD01E79A
BDBBE1DD
BDAFF709
BDA70274
BD4B86A4
BCFD96A0
BDB03167
BB4EF36C
BD9972C0
BD2A2B21
3CA1175C
BD3CE2AA
BCF2EC10
BBADD523
BD903AF0
BD5A083D
3D9073BE
3DC124F2
3D0334CB
3D32EBD6
BD99F8A8
3C168DFD
3A12590C
3DBD9F8A
3C7F693F
3DB3793C
BCBB1D38
3D8C8016
BD2B5731
3DB1BE1A
3BF45AC7
3DAF5755
3C2BA9BF
BD5EB2EF
3CE944E2
BCCC8729
3D7DECFC
BAB10AA3
BCC2BD53
3D63FF7D
3D895978
BDBB8966
BD7CCB07
BDB23684
3D9F2910
BD1BC8FC
3DAC072C
3ECD29DA
3D875664
BD1E3DDE
3D6ACF98
BBB913EC
BCD2220B
3DB0CB84
BDE25DCE
3DA95224
3D4B9B8B
BE009800
BDC5B0C8
BDC01265
BD26F3F9
BDA34CEB
3D0FBA3B
BCDCC11F
3D837E57
BC9E2820
BDB2CB8C
3BC2EC32
3DD32C86
3DCB8E8D
3DB32B2E
BC9ABEF5
BC9B6B8E
3D3C5A84
BD8FE1F9
BCE4508C
BD9B796C
3C713A41
3DA0DC8E
3C9BD904
3DA01421
3DA70128
3D49F968
BD89D843
BD9B5FD3
3D56EA03
BDACB720
3C11EE29
BD8E33CD
3C92AB43
BD0E62AD
3D53D0FD
3D39D86C
3DB81A55
3D15A7A8
3D4E1555
BDC6DEF4
3D2D846C
3BAD0A63
3CCEB60F
3D8C5E73
BCD73009
3CEAF710
3D820582
BCE2E17C
BCE7EB74
3DCDABC2
BCB937A4
3D155EC8
3CC06F10
BC111B88
BD223154
3D37A7F0
BD98E4B8
3D4F543C
BDCB2B17
BD2F84AD
BD31DCC7
3DAE8706
3CDEF3E8
BC8E7D18
BBAE8C70
3CCC6BA8
BD0C806A
3CC9C4D8
3D0E46BC
BDC0398C
BCD27BC8
BD88E9A2
BCE7E71C
3CD64710
3D26C344
BD698963
3D986D2E
BC21C6C0
BD88D294
BDCB7673
3C99783C
BD4FE911
3DB28C32
3B67204E
BC445F30
3DABE08D
BDD58D6B
3C3A01C8
BDB24999
3C3B2A78
3CE6F636
3B06D640
3DD263AF
3D8A7641
BD8C1266
3CF65610
BD27DFB9
BD806D28
3DAD86CC
BDAC7100
BD224C59
3D55D158
BDBC53E8
BBC752C0
BBCF1E40
BD8D0E0C
BDD75936
BCBCB8D0
BD75A4E1
3BF94340
BC40DD1F
BD9857D9
BD2EC578
BD9E2EF2
3D1E52A4
BD5FE777
3D5743B1
3D0380FF
3D007F0F
BD75AAC5
BDABB69C
BB5867FB
BDBC2568
3CBF92A0
3DB8B08C
BC541ABA
BDAF9683
BCECD73F
3CAA710C
3C460392
BDD005B2
BDC82E5A
BD8D1BB7
BC030B80
3D959D3E
BD2A3B54
BDBDB514
3C95E2BB
3DD131E5
3CEA1B8D
BD8367E0
3D83B35D
3E141C09
BDE8DB17
BD9D0746
3D2CD8DF
3D323620
3DD5BFA4
BD4B692F
3E0A5AFB
3D7E08DD
BDCF241F
3CD10980
3CF8D8A8
3D4BD14C
BD63C019
BD32BFB8
3DE4F89D
3D382702
3C750B34
BD89DBDB
3CC47616
BB794941
BD0DFD20
BCF87A36
3DB0D62A
3D8771E3
BCD868D2
BB82E9F0
3BEAFE1A
3E18F212
3D576A63
BD8E81BE
3D316BF4
BD9CD09F
3D2B8F61
3BEA95C4
3D6DBB44
3D5C0DE0
3DAE54EB
3DBF386C
3CDB9476
BDB6881A
BD9EA3F4
BDBF6546
3D537B7D
BDB7E8C5
3D83DEE6
3DB55723
3D469A18
3C9C754C
3D585D29
3DA46A52
3D70ACE0
BCD6F9E2
3DBCC7FA
BD7AD9CA
3A37F89B
3D23B0A5
3D22E4F2
BD1E582C
3DC01EAA
BDDEF14B
BDB2131A
3D070989
BD87E499
BD2997D6
BC8937BC
BD222CB0
BD1067E7
BD19D7A4
3CC9CA5E
BCF2BB33
BDB7C173
BE99C56A
3D041B0A
BD871304
3D63EC2B
3D9D1B82
BCE02A5A
3CF7C84B
3DE8153B
BD5B7396
BD904F6E
3D251F9C
3CA163FC
3DA937C4
BD9974E4
3D7CD7AF
3D137CBF
BDB27608
BDA52759
3CD4E840
3D2C8828
BD131CD8
BE074F1A
BDA1B9B8
BD1E49C8
BD1610A4
BC3F9140
3C904D15
BD30F186
3D5C0758
3D021E47
3D652750
BD48BF45
BD364919
3D62AD48
BC046638
BDB72ADF
BD321061
3DB52204
3DC840A0
BD15C076
BC3FEE00
3CE97BE0
3D9ACC4F
3D9F2F00
BCE85980
3D629D48
BDBE7008
BCC338E4
BBE37DF1
3CB90BDC
3D89A836
3C061728
3D4C8ECE
3D89A4AF
BD33EE88
3D48EFAC
3D250688
BD943777
BD8A485F
BCAB1874
3D83C29C
BBE04050
BA5A5B00
BDC5772A
BDAAE99A
BD6B788B
BC00E770
BD8EA45E
3D5BB924
BBAA97F0
3D92A956
3DC5198A
BC9FDF00
3D9513D4
3CD281F4
BC2A27C8
BBEA87A0
BDB5398B
BDBFDFC6
3D4F3040
BD09A4C0
BDCB7206
3B43B300
3D4FFFEC
3DAD70F2
3D2D6968
3D3A4D26
BCF60CD4
3DC4E183
3D704270
BD5AD3B4
BD1FB7EE
BCA8469C
3D64CE14
3D746871
BCEABDF8
BD2640A4
BDBDBC67
BCE9C510
BD04CBB7
BCCDA36C
3C860C20
BD8D08A9
BBE37625
BD7CEBBC
BCB93357
BCD0EE8F
3D9ED6A7
3D717634
BDB3907A
3CC28529
BDC320EE
BBE8C5B2
3D9A7FA6
3CDD1C88
BDC40734
3C9B613A
BD6F0050
BDA7508E
3B0CEC20
3DA790FD
3D601BBB
BC75FC7A
3CE1B418
3D443788
3D3ADD24
3DB32E91
3D38B135
BCE3B1A0
3D8DE1CA
BD8599E8
3CB0D527
BD48074F
BD508821
3CB1CA9B
BD6FF4A6
BCDFF8CC
BD090443
3D5CABCB
BD1E890A
3D8C0F31
BDAC4F27
3D01BF81
BD8D96D2
3DA1FF98
3D7F86DB
BDA48AD4
BC5425FB
BD573FEE
3D94CFD0
BBC3B844
3D3B3C14
BC294126
3CFDB990
3C279596
BDA44A9B
BC0D6F88
BDA35054
BCDF3F4D
3C957AA2
3D22B966
BC982901
3D2DC07C
3D788D92
BD808E49
3D5962B8
BC1F760F
3BC3FE33
BD257247
BC10DCF4
BDAF9AA1
BCCC4F1F
3DBBF0BD
3D068758
3D00BFFF
BD6F2912
BD787693
3D93A1ED
3D8B9FFE
3D094E4A
BD4A342F
3CE36CED
BD243A0A
3D4CC774
BDB6407B
3CA01008
3D284530
3D31B158
3C9CAEA8
3D60D5E8
3DAEA4A0
3D7018A4
3D6401FC
3DA1F7A0
BDA36E7C
BDBF1154
3CF2AF48
BDBA4509
3C89B9C0
BCDC10BC
3DBB6A6A
BD851404
BD217780
BD83701E
BC537620
BD496729
BD7B1E67
3C711528
3DB705B0
BB8AF9A0
BD2A2084
3DA87576
3D08286C
BDB4B386
3C0039B8
BD2B11B0
BDAB2EE5
BD1E0635
BDB5F423
3D99898C
BD626758
BD8FB0A0
3D921921
BD749366
3DA6080A
3C9E7D9C
3DBF384E
BBC61B2D
3DBE8D10
BBD93BD0
BD97930F
3C2DE9CA
3D7F2F68
3C12D65F
BD79403F
3D859CBA
3D63C668
BA65BE00
3DADCD3E
3D685457
3D871ADE
3C688204
BD90DEDF
BD999488
BD672083
BD93E26E
3DAFA7A9
3DC07A4E
BDA9A22D
3D807B7E
3DAC94C0
3C86CBB4
BD41AA77
BDC146B3
3C97C270
BD136F9A
3C3D65D0
3D9911AC
3B30A820
3D8158F4
BD6F2587
BD75CAB9
BDBF1FC2
3D00942C
3CEDD518
BD0316D4
BD3D4ABE
BC0AB4D0
3B13D300
BDA1BDB4
3D82A576
BD5C9DDD
BD392B7F
3D9D65D4
BCF3F698
BD8DC927
BD350696
BD2EF04E
3CB41938
BDCAA66F
3CE99DF8
3DCA44B8
3DB0E264
3DCE8B3C
3D5618A8
BCC56548
BDC1569C
3DCE7650
BD87B06E
BD3FCBF2
3BE96740
BC995EAC
BD0FB6C6
BBD4AD00
BDC5687F
BDC33221
BD960232
BDA17ECF
3DC91B3C
3D485F28
BD872CAF
3CFCC7C0
BD0DC7AC
BD4AD4E6
BD711201
3D91F8BA
3D8AC3B4
3D11C024
BD50FA08
3D769644
BD1BF258
BCC3A817
3E136AF6
BD2A12DD
BDEB4B52
3CD3AC93
3D065FF4
3C2D0C4B
3D96B59C
3DBDEC7C
3D6421F1
BD0D1CC2
3D77E660
3D9035D3
3DFF0E1F
3D67358B
BC9C889F
BBEDCECA
3CC73F1C
BD0BF099
3CB896A5
BCA2EE60
BD90120D
BD54B50D
BDA20262
3D1F9C42
3DB71B52
3BDAD6BE
BD25CC5A
BD4B2C19
3E26DA27
3E1A3AD3
3B59391B
3CA7CEB0
3D9C06B6
BD1213C0
3D66D67C
BDA5821D
3DC688E0
BD6FF6AE
3DBB2EDC
BD5943D3
BD636C5E
BDA21004
BD04666E
3D768078
BB0D8120
3C6C1560
3D6B71AC
BD931C14
BD9E5343
BDBA50F3
3D416518
BD7AC9F8
BD5A337E
3DA85336
3BEA2780
3DC555AE
BCCD7EFC
BD954C11
3D4554AC
BDC08A9D
BD009AE0
3D106A70
BC33DF28
3BFDF362
BB0C2732
3D50EBE7
3C9EF867
3C28260E
BD228D43
BE268211
3D7938C7
3D878C29
3DFBECDF
3D58B949
BBF18C90
BD1446D2
BD85A8C6
BD82EDBA
3D9B31BF
BD549FFC
3C872CCC
BD900BEF
BD83DE8D
BDEB35E3
3D97E209
BD8FCD4B
BDB96F63
BDE5C67F
3CCE657D
3D4CEF9E
3D822F1E
3C866A1F
3C9AADB9
BD835719
3C8F3FCE
3D938F02
BD9F3214
3CF46D98
BD75FDD5
3B1E2CE0
BDAB8E93
3D8D878A
3D5CFE70
3C947EB4
3DAEFD4E
3D806DDC
3D0C0744
3DC4B2BC
BDB6290E
BD7D6D0F
BCC56BD0
3D1D0658
BD97B92A
BDD0260C
3D948D26
BDAD4621
BD1906F8
3D98B294
BC4979C8
3D19BBAC
BDBC7A55
BDA9F6C6
3C3AC1A8
3DBEDE6C
BD24BC55
BD889E43
3CDA6AD0
3C3384D0
3D80EE5D
BC0AB488
BC931390
3CD4B348
BD7A0C6A
3D64AC2F
3D39EFBC
3D37E44C
3DAFD8D8
3D30679C
BD9EF33B
3D172728
3CDE9ECE
BDED4661
BDE48409
BD3CDB71
BD2425E4
3D9A81BC
3D96D1B0
3DB7AD6A
BD569FA4
BD9EF2B5
BB88DCE0
3DC16164
BD89FCAB
3D8FFF90
3D93E5B4
3C85001C
BD866139
3D7B5F53
3DC8C7A2
BCF9FA4C
3DAF44AE
3D075718
BD5D6108
3D811894
3C967000
BD9FF7B5
3DC7557C
BCFC1410
BD8CF6AD
BD9537B8
3D5BA8A8
BD8A2288
BD089488
3D283368
BC079858
BD9BF75C
BCF79768
BC5B9398
BDA8B047
3D6DC478
BDA45B17
BD84A08C
3C998B44
3DB4E6E2
BD7EDCDE
BD5D5EDC
BD11E4B2
3DB92EB0
BDC29C5D
BD4E9F47
BC1EB8C0
3CAB4D04
3D0E5E60
BD28F848
3DB958B6
3D6CE05C
3DB1E352
BC1EA6B0
3D7089AC
BD53D872
BD6ADF3F
3B9F4430
3D7BD3BC
BDBFEB37
3D0AE470
BD8EF136
BDA0650E
BD8BD9D5
BC264998
3CEEA3D0
3DC613E8
3D5A37FC
3D968006
BC1F1088
BC029418
3D2A76C8
3D9722A2
3D36C320
3D7FB024
BD9C3D53
3D9AAE92
BDA643FB
3DB37F16
BC8160D4
BD79F9DE
BD980400
BD0734F4
3D90FC7E
BDBAC2C0
BD813FA5
BC7BAC20
BD84ADB0
3D442DEC
3CD7D5D0
BBE9CE20
BD881D24
BC1B6818
BD82C966
3D998D84
3DC99BEA
BC96E468
3D626F70
BCE222C8
BCE469DC
3D32D580
BDA04451
BDCAFEE9
3DB5712E
BDBDC3BD
BD29BDC5
BAE7CD40
3DD01356
BD63D0BF
BD88BB50
BD884FEE
3D08B21C
3D2A84BF
3D262C79
3D41C0F1
BD6C778F
B9878300
3E0112BA
BCDAA3EF
3D82FA13
3E0076E3
BDBA527E
BD86577A
BD5B6D29
BD2E8C09
BD3347D7
3DA344F8
3CB37A01
3CB100B9
BDCF35C5
3D895B74
BDE77BA2
BD0A2944
3D425E44
BD606DA9
BCA2AC96
BD8D31D7
3B94D4D3
3D2E6440
3C55137F
BDACEE3E
BD195CD5
BC2E74AC
3DC97DFE
BD8C3744
3D6F56D1
BD3C1F5B
BD477827
BCC85680
BD3B39D9
BD9C44EA
BD07250D
3C9158D8
3D2EFE91
BD72D01E
BD0DC466
BD850013
3D9AB3D2
BD756699
3D01E504
BDB42D46
3DC33DCC
3DC8DAA1
3D9DFB67
3DBF3894
BD8B9294
3D482107
BDD5D5B0
BB9C8579
3D477B6A
3CA1B85C
3D21D488
3CB55AD3
3DD2E44F
3D9B9201
BCD86660
3C3B7F18
3D9853A2
BDC70E9D
3DBDA512
3C26DC70
BD00D978
3D0126E8
3D079138
BCB94170
3D5E7B00
BCF15CCC
BDC805D2
3CA71E3C
BDB0B156
BD440E0C
3DB3DF18
3CF7AFD8
3D1F6E6C
3D97FDBA
BDA5F220
BD1B1C3E
BB8AA410
3D98F30E
3C467B50
3D993078
BD8C3816
3D6330E4
3DB8EA78
3B1D14E0
BC3FFB98
3D0FB75C
3CFD51B0
3DBF4E45
3C7B7633
3D7BDAED
3D9BE8CE
BAFA6C00
BDA8C333
BD0B5D63
BCEFC686
BC14E155
BC2EC970
BD7804F9
BC8E5081
BC15D1C5
3D7DE80C
BD05C1D0
3DB8FFFE
3DA624E8
3CF8862B
3C5CF7DF
BB206020
BDC63D26
3D8BAAA2
BDACE4A5
3A05552D
3C51BDC8
3D987904
BDD0A07F
BC9DA58B
BCA1C3D6
3D13F8A7
3D386CC1
BCAD4A52
BD22D0F9
BD44896F
3D28A73C
BDD31C9E
3D4E8900
BD913A6E
3B8B4858
BC21F77C
3E38A532
BD7FE73A
BDC1D49E
3CE8F3B7
3D691184
3D9AFFF4
3D066BD5
BDDA582E
BC73C941
BDB67C97
3D9166B3
3C839794
3D4A40D6
BD454A29
3D43BC80
3D7EF6C9
3CA9DA6A
3DAD7BCA
3C9CE8A0
BC8D7F84
BD364384
BD3EDF71
3CACE586
3CF75F28
BD1F2F7A
BDC8FC1C
3CD5A290
3D999F1E
3D8D6186
BD696FD2
3DA5A842
BBA6BAC0
3CB9957C
3DB64416
3DBD647A
3DB11178
BDD0C3FA
BC641A18
BDBEDCCA
BDBD73AE
BD78F588
3D9F59AA
3BF8B010
BDC90579
BD192F7E
3D59F998
BD58CC01
3D736B68
3D1DA6A4
3D582150
3DA18F1A
3CA25478
3D264840
3DA54972
3DC5CD84
BD909A7D
BD4FAD15
39D6B016
3DCB2A12
BD89ABB2
3D00100C
BCBD398C
BD3EE63A
3D1C2C43
BC4C65D5
3D80126C
BC91BD80
BD9B78B1
3B9965B6
BDC0A9CB
BC8D1259
3DB249EF
3DC70542
3DA2969A
3D33F68B
BDA06640
3D563C58
BD88AAEB
BDB0C0FE
BDD0D4CD
3DC594C0
3DAB2CA4
BB156440
3D9037E9
BB980F9D
3A6C286B
3CCBF8B8
3CB1BA89
BE0ACED0
3D8DFF87
BCDC20DC
BDCD94E4
3DC45706
3D5F9EE8
BC3139BB
3C8CE5A2
3E0536BB
BCEAABDD
3D83FFF0
BBFB3524
BDB8E72E
BD143A32
BDDD16E0
BCD54078
3D7F5CB0
BC58987F
3D1C2760
3DA4BF20
BC86AB07
BCDE619C
3D9D1B2A
BD72F788
BD68CD92
BCA33256
3C940408
BDFB05A8
BD7E03A4
BDAE3E72
BE030A42
BD9CDF56
3DCB7FCF
BCC5953A
BC52EAC1
3DB9EC01
BD584120
BCA16282
BD26A08E
3D831029
BDA6F731
BD305848
BCDE6380
3D53F451
3CD31146
BCB5B35C
3CDA0550
3D70AE0E
3DBA78C9
BD8A9B75
BBB31529
3CA28EBF
BBA9F68B
BBF65000
BDA29247
3D6DEA9D
3DA8B8F3
BD024D69
3DC447EA
BCF05092
BC0E14B9
3CD1A5D0
BD5C5B0B
3D0E17D0
3DC1FCCA
3D1AB7F8
3CF572E0
3DC567CC
3DB075BC
3DCC4B30
3D97D1F8
3D92CA5A
BD7F0CE3
3D21921C
BD47CF44
BC421E08
3DD0B16A
3CC6FD98
3CFDC5B0
3D8F6BC6
3CEFCF28
BC766FF0
3C37C688
BD7C9040
3D81D2B8
BD4219E4
BD2C0689
BCE3A208
BB1FE8C0
BC437560
BC0089F0
BD43DE0D
3D8943DC
3D065EB8
BC0466E8
3D1C56B8
3BF53007
3D58310C
3C5E38C8
3DA29D12
3DCEAD4A
BDD6AEFF
3D9B2810
BDCC490B
BD252874
3D9C6374
BD46205C
3D253F28
BD9BE511
BC8B8FE8
BD14D4A3
3B59B6CD
3C10B4C0
BBFD72B0
BC8F53D2
BCD539DC
3D190134
BD626DDA
3DB19578
BD251DDA
BB285980
BD971A0D
BAEF2680
3D14B6BC
BD641738
BDB4498E
BDA5D432
BD74E148
BDA2D4D1
3C5FF1F1
BDDBDA0C
BDB4686E
BD4A535B
3C9B3341
3D958CFB
BCD58781
BD27E22B
3CDBF9BC
3D47E4E8
3D8CC32A
3DDA54C7
3D86DBF6
3C7F5DBC
3D935478
3D73803E
3C9F70F3
BB7B6568
3D1E2F0F
3D91A3FB
3D90AA1A
BD86F638
3CF12D52
BD78CB67
3B5C12A2
3D943A7E
3C22BF22
BD9338F2
3D22ADAA
3D5F05A1
3B9B64B4
BDABB415
3CE33D57
3D47ECB5
BDB0F0CD
3D1922BC
3CDA5405
BAA837BB
3DD1E505
3D2F46D9
3D948B4B
3D9BA5FA
BCBA3D45
BDA1F2CF
BC81220C
3DF59789
BD971021
BD7B1430
3D7D7F7E
BDA5C5F7
BD8FB3C6
BD5B361A
3D083AB0
BB6526DC
3DAE0BA7
BE1469D2
3D38F795
3D8B7948
BC82D1B3
3D1D996E
BD80BA44
BD9C59B2
3DB33E62
BB8D2FE7
3D26F0BD
3CA8747F
BD9E1474
3D65BC4C
BCC58F9F
BC69A76C
BD9B5758
3DCA7D18
3CCF5900
BD39362A
BD7BC216
BA11D61C
3C1A6201
3CD410BA
3D8DD41F
3DA9EBFA
BD2D7696
BC3BF207
3C900069
BD9C985B
3D72A624
3DCF4D9A
3D5D4B04
BC4E3B74
BCD9CE0F
BD8B4048
3D9657C4
3DA38EB9
BD6311B7
BD4801CD
BDB82393
3E853F37
BDEBE0F5
BAA6C598
BD96D5A1
BD80E59D
BE91EA28
3CEA1D42
3E2BE929
3CF6009A
BD549B94
3D528AA8
BCFB92C4
3D33B8CD
BE95677A
BDFD5D4C
3E580FD1
BDA4B3FA
BD671539
3DEB9A6A
3BC1B98A
3D3B4424
3B9B9070
3D999601
BD8C1A1B
3E24BB0C
3D506FB2
3D9EC1C4
3D9B7224
3EA7FD45
3E793E20
BE213427
BD0B62F2
BD64F356
3C95C914
3D949F0C
BD97B390
BDA81C5A
BD09E7CC
3D903D24
BDE4B97F
BD8F6449
BD81D69F
BCE7320C
3D01D604
BD1BFF68
BCFE0C13
3CFB8A94
3D830C58
BD3E38C7
3DC28634
3D9CCA91
BD07B6CC
BDC071B5
BD9E8ED7
3AB55FC0
BDA09166
3C904F16
3B187620
BC745F58
3BFA6A30
3D8B0D54
BC65B197
BD328875
BDC297F7
BCD34994
BD01B44A
3DB71E84
BDB1BB3C
BDAFFED5
3BD2E810
BDA6DF45
BC605A80
3DABA1A2
3DCD4666
3D8B061A
BD529578
3D772C10
BD9B1912
3D774448
3DA07F46
3D3D543C
BB827B80
BDB5CBA2
BB7B1BA0
BD5C6D0D
BB59B740
BC6E3428
3D96E998
3D27DA54
3D8E44A0
3D87E52C
BC133740
3DC228C4
BD86ACC6
BD9AD611
BB2235C0
BD0DC270
BDA80CC0
BD8CB4E0
BD6D95BA
BDC73F7D
BAF4EE77
BBEA0F4E
BDB94468
BD8CC8BA
BC089E20
BD7FA1AB
3DA54F14
3D2CE746
3D1528CC
3C6AA679
BDB75F5F
BDAA11E7
BCB24F61
BD8C93DB
BCFB6E6F
3D7F6C86
3DA76370
3D89C6A5
3DADDD63
BD0EBD90
3D79F5D8
3D61BB4C
BCF5F3F6
3D8FBEE8
BCB7A5A3
3D8A6A15
BD1FF8C4
BCF4E9EA
3DB6CD67
BD02CFBD
3D2605D8
3D4544A4
3C6434ED
BD9073E8
3B8FE425
BD7B3FAD
3D20386C
3B9E48B0
BDD14AC7
BC942C2B
3D535144
BC9B8D88
3D99D44E
BD55E257
BDA61936
3D47FC35
3CDE7FEC
BBAD14A3
BDC3AEEA
3A17BACF
3D98F59A
3BAB4DAB
BD433229
3CEB2F08
BD1B8DB6
3DBAE21C
3DA703AC
BD926BE9
BD00B930
3DC81225
3C31B0F0
3D6FFBD3
BD899A4A
3DCF8BA4
3D4ED560
3D0E03E0
BC4DE498
3D48781F
3DA442EF
3D793474
3D9B6F84
BD71EEA0
3D002D84
3D5E7A9E
3DA50EBD
3C7BC1B0
3DC05B3C
BD05D3D4
BD26112D
3BF5282F
BD84C532
3D8D8E86
BC8942C7
BD0B5CB2
3D2E32E0
BC373E98
BD3FAF07
BC334652
3CF86E71
3D37D4A1
3D17CAA0
BD837413
3D931A86
3D52BFD8
3D3942CC
BC0AEDB0
BCD1692C
3D133EF8
BCA282D8
3D9FF932
3D368F54
BC83D7E0
BC99F3E4
BC5C9E48
BCB7C17C
BDBDE7E1
3A5D4200
BDA0FB19
BD998AAF
BD7BFC56
BCA868F4
3DC4E178
3C4725A0
BBB46B60
BD9D3886
3DA185F0
3D2D9BA4
BD94A6A0
3CDA2218
3DC2CCCE
3DB959D8
BDB76F0B
BD1080D6
3C98F605
BDB4B84B
BD00F976
3D6C7778
BDC80D5F
3DB84B89
BDACB9BA
3C583239
BC893C6C
BD270897
BB1127A0
BD60E0DC
BB1D55EA
3DCE1F4E
3CF38F3A
3D885D35
BDC6DE25
BDC541C0
BDD38BF2
3D325FF5
BB5520BB
3D2AD9FC
3D8A702B
3DAC7C51
3D81D68C
BDD17842
3DC617E4
3D9BBFAB
3D9200A3
BDAD4FF4
BD9915DD
BD9A354B
3C1404E8
3D75E880
BDC2E3F0
3D86E4CA
BD96F8FF
BB5AE9E0
BD99D3BC
BD779D5A
BC38E1C0
3BD102A0
3D88D180
BDBC9CA0
BDC4C3A4
BDBF0715
BD8123B4
BDC81DC7
3CEC7C28
3DAD5186
3C083500
BD6D75CE
3D23BD18
3D1AAB38
3D2E45C0
BC76CA78
3CC10A10
BD9D3F7E
BD8944F2
BD3F9F17
BD4704E7
BD38A6D7
3C2E4700
3D8C08B8
3CC9CD88
BD645D5D
BDA11D33
BBEFFAD0
3DA30384
BD876574
3DD0FAC6
BD9A26D3
BDA6B933
3D74AC64
BD797325
BD265BB3
BDB21D47
3C8F93AC
BADA3D80
3C13AF90
3C75C168
3D00103C
BD82C42C
3B7F3400
3D8D23BC
3D763CB4
BCFB1778
3D856A86
BCE5DE08
BD934856
3C0E1858
38D59C00
BD982536
BCDDAC18
BDA27A5E
BCA22777
3B2F9EEA
BDA43CE7
BDEDF371
BD624FAF
BD914836
BD89889B
BD711CD1
BD152BF1
3DF36EA3
3D8FCE94
BCB66DB8
BC889C81
BE4A718C
BDB0CF40
BD8594AD
BDDD1AF7
BDCD4657
BD871DA9
3CBE4E75
BD3D4DD4
3D95DCBA
3C116BA8
BCB4EDF6
3D81A917
BE5E846C
BDA0A38C
3CF06398
3D252563
BE148597
BDCD4643
BDCD7C99
3AAB1280
BC95AD60
3C879E68
BD82DE0E
BD7308DD
3DC9CBC8
BD255CD3
BD0ED510
3A823F40
3D937220
3C710670
BDC1FD74
3D8F21E4
3D9FD3F8
BD82529A
BDC0016E
3D94ED5A
3C941088
3D965F2C
3D8373F2
3CD9C250
BD320FD5
3D871E64
BDC51AE4
3DB438B8
3D3E6370
BDACFEAC
3D032298
3CC76358
3DA5AB60
3CF41860
3D58CA78
3D5BFA36
BD9C9A77
3D11E1CE
BD4FF73B
3BC2875A
3DAFEA7E
3DD85C44
BD622369
3D7EA6A4
BC886867
3D5DA1A8
3D811C06
BD9FEC87
BE493DB1
3D3AAC7E
3DD77D3F
BE224033
BDCA9152
BD78B529
3E08E3A9
3AB995F5
BC201FEE
3D3CDF8C
BDB81F46
BD4A1CE0
BE4316DA
BCF977F2
BD9C5AD5
BD0E7EC5
BE648FB9
BE30F818
3D580BA5
BBADED30
BDB2A50C
BD538D54
BD66B7FD
3D6A6FC4
3D40B444
BDC5416F
3DB189E0
3D4EA350
3D1AFCC4
3D656E40
BD89EFD5
BDB21A7F
3D097D48
BDBCC259
3DB8094C
BC5B19D8
3D05D5D0
BD824DF5
BD9562E0
BD40D3F5
3D464858
BD51BA9F
BDCDD549
BC09B5F8
BD9BA1DF
BDBA58A8
3D5E5274
BBF36930
3DB113E8
BC3BE028
3CE91758
3889BC00
3D00EDFE
3C8A32C0
BA3E1C00
BD70D278
3B94E9D0
3DCD3312
BD0330CE
BC29848C
B9BCC277
3DA78310
BDC58867
3DA2F516
BDA544EF
3D9763D2
3D0CEE1A
BD9B8042
3DB5D338
3D5E63E4
3DB2639B
BD805264
3DAA5798
BB943320
3DB09B3A
BD3C7034
BDF26E7C
3D4052B8
BD2B8799
BBD8BC30
BD906494
BBD368B7
BD204DA6
3D73CD48
BD8C7070
3CF33118
BDC1C5E2
BD8A9680
3BD8EF10
3CCA9108
BDB75718
3C6EC410
3D93F6BE
3D526560
3D888FC8
BDB2B90D
3CF1EE48
3D919476
3DAD2B54
BC8044BC
3D96BA20
BAD70900
BDB403DC
BDC1D16A
BC6CD200
3D40CCF0
3C5AC9B8
3CE97228
BD68B32F
3B557EA0
BCA5CBCC
BDC26924
3D8EA894
BD8248F2
BCFF0E78
3D7F4A60
BD810C00
BB774500
BD5B9649
3D31CDCC
BB2DA3C0
3D5F9B60
3CD1EE38
BC8511F8
BDC919F9
3D1F18DC
3CB56124
3D7E06CC
BD6DFF97
3D300D78
BDB67862
3D88964E
3DC01122
BDC7998F
3C6DF078
3D7F46F0
BC67C358
3D729034
BC9FBB10
3DB8D868
BD19E93E
BD236229
BD94384E
BCBECA60
3CC1BD78
BD00E696
BCE877E4
BDA3AD5E
BCB4DFC8
BCD81478
3D2FE518
BD94B392
3C7EEFE8
3D6D8C44
BDA7EBF6
3D2109E4
3D0394F8
BDB8C10F
BACF2EC0
BD88CF54
3BCFF9F0
3D59AB50
3CE6AAF0
3D47F76C
BD60EE26
3D7BC04C
3C9BA7D8
BB318700
3C3F9E18
3D4D39C8
BDA27D40
BDB0D0CC
3D1747C8
BD1E9596
3D946BEC
3CD45F90
3BAD3310
BD942897
3D82CB6E
BC9AC38A
3D8C6D18
BDF8ACA0
3CA9F6C8
BC9FC6CD
BD7EB60F
3DE6ADFE
3D30B0B9
3C3F3820
3E0D26C8
BD0EF2DE
BDB55005
BD6581E1
3DA810B5
3DBF890B
3DAC7BA2
3DAD676B
3DBF6973
3D627230
BDD14979
3CBDE211
BDDE92D9
BD065146
3D8776DA
3D93A560
3D230E22
BDC6C556
BD19714C
BDCC4E3B
BDDCD4C8
BCADCE8D
3DEBDCAD
3D24B4E0
BD2CFECD
3CC56193
3D0343BB
BDC341C2
BDB957B0
BC6CE4B2
3D40481C
3D7E7E44
3D9DE30A
3C3AB2AF
3D904CA8
3D5B255B
3D9B5439
BD8A42EA
3C5422B7
3CFB2F81
BCAA05A1
BD82BDA1
BD330902
BCD0B683
BCFACEC0
BC334FA8
BDC59BE5
3DB8B6AA
3D4514E1
BD8C1F7C
3D0B14F8
3D0C2F53
3DDD8765
3D3F7ABE
3B8C4D1B
BD130A06
BCD61604
3D1D3D48
3D874AB4
BD993E09
3B2283C0
BD329A06
3D0DF8B0
3DCCEF46
BCBCB448
3C878AB4
3DAB7A5E
3D219400
BCA2FA28
3D68BE20
3D6E0830
3D7BB6F4
3D9BD3FE
BC638000
BDB0C5C0
3DC43CF2
BC993D8C
3D967130
3D528F80
3D8563AC
BCD53B98
3DB8636E
BD08884E
B9EBA900
3D718FCC
BDB8C566
3DD0D6E8
3CFBE8B0
3D1C33FD
BD3E186F
3D62E350
BD0082D2
3DCC2CD0
3D0CEC33
BD49AA6F
3D57E130
3D880CBA
BC59EB08
3DD03D9A
BC6FF5A4
BC8FF53F
BCC7B4B0
3D9462F0
3B8D8AA8
3DB36D2E
3DA330AB
3DA07654
3D8334D0
BD2C9B31
3B180020
3D4CBAA6
3D4ABC88
3D03EE06
BDB03129
BC0FF238
3DAA1EDF
BD783FA6
3B25E5EF
BD8C152F
BD7D86B5
3D78201D
BD3139A1
3CC9AEE7
3CF9716E
3D6C56A8
3E09BF38
3D1F7AF2
BD57653F
3E2C17B5
3D46B0EF
BD1F8C12
3D094A26
3D1B41EC
3DDD8E6C
3E073C3A
BD8B95D1
BBC65D1A
BD181C72
BCC4B0A8
3D1D306F
3CF9E03A
3D0B4E80
BD3EFDFD
BDCB477D
BCCF1C8E
3D997D9D
BDA13C74
BDA6BFFE
BDD0ECD3
3D3F9E7D
BDA9FFD1
3D5ACBEC
3CD69C10
BDA33558
3D925B18
BD4010B0
3DAD4360
3DB5FE9A
BD8BAD76
BD9A0393
3D7EAFFC
3BA28600
BD7F3272
BDBB01C3
BD6D91AB
BDD06547
3C722278
3BE12890
BDBFE552
BD0919C6
BC8CCECC
3D3339C0
BD8FA70F
BD514D9F
3D012B4C
BCA2FA78
3CA90A10
BCCDFE00
BDCB68E0
3DAD35BA
3966A200
BB91E500
3D89B132
BBC59210
3DDF3566
3DB8B95E
BAF872C0
BD560798
BDB9E2C6
3D90F433
BD3044CC
3D545071
3D8C341C
3D7FBD5C
3D9986AA
3CE3C1D0
BDC106E8
BCDDE7DC
BD73EC60
BCEB5A83
3C8F943C
BD4F8B03
3CCDF2F5
BD516B3F
BD52FD3C
BD3EB925
3D569E75
BD0C34C3
BC208125
3C1A14AE
BD3A0D5C
3D606795
BDB6BE46
BBD9D2FD
3DAAFA95
BD914248
BD4E9D7C
BDCE0FB1
3B6FDB96
BD9AD8B2
3DB1AF62
3E1AE227
BD4D4253
BCAB90C0
BD4756AC
BD9E0D6E
BC7D2730
3DB16F23
BE8955D1
39B0D156
BE693D6F
BE8F88FF
3C86550E
3D97DA71
3E40E616
BD65CD45
BDB29C2E
BD912D65
3D99F126
BC274A8D
BE31F66C
BC7E7495
BC5C1520
3BED7820
BE3009C1
BC012F93
BDFE252C
BCF763B8
3D831863
BC1BCF53
3C851C09
3CAE16CA
BD2B84BD
BD4D56E6
BD802FE0
3DBCE833
BDBD53A6
3D8C4186
BD9CC4D0
BC351E49
BD82DBB1
BCEBE394
3DA1B474
3CD59431
3D2020B4
3D976DF6
3D129A2C
BDA9C0AA
3D869D29
BCBCE388
BD0E2B40
BCA1F7ED
BCED3281
BCF5DE45
BD5B3132
BD9B0DA8
BD919ABD
BD3E7036
3C9A817B
3D36616C
3CAE53A8
3D3A8D18
3C3E89D0
BD07F5E0
3D902FD6
BD4A1625
BD1E9470
3D1D94A4
BDB07914
BAFE7B80
BD269C33
3C4ED2C0
BC7B4070
BC960CCC
BCE6300C
3CE872D8
BD9B51C4
BC8C812C
BD404F12
BD9D0169
3AD39800
BDC8702E
BDCF1F6E
3DCAB584
3DCEDCB8
BD8EB5F6
BC352830
3CE009F0
BCAC36C8
3D2BBB70
BD7D2CD0
BD92A7E1
BD467BB0
3DA134E0
3D88901A
3CB073D0
BD079418
3DB47B1C
3D1B7BCC
BCD6BD37
BD863F11
BD8318B7
BD9E49B8
3CD64060
3D51DD40
3D9D5466
3DCDA48A
BBCD50C7
3C9EBDC0
BD8FB291
BDAAA446
3CA138AC
BA8BD5C0
3CC9A1C8
BC7C9898
3DB2780C
BD8CCF96
BB7D24E0
3B069AA0
BDB70D00
3D7DF219
BC94E400
BC7208BC
3D285BC4
3DCB373C
3C2B9CF6
BBAC6660
3CFD178C
BB96F6D0
3BCAD93A
3D53B92E
BB8283BA
BCCB4235
BD2ECC69
BDC1160B
BC9CD691
3D9A0803
BDCB36B9
3D1E820D
BC1B3E58
BAED50AA
BBAD93D8
3D501E59
BDAEA8B7
BD07441B
BD962776
3C991F46
BDA70B93
BDC3D1C0
3CAE0A4C
3C686518
BBDF5BAA
BD9A406F
BD8C78F4
BDA7CD23
BD96AE0D
3D9711A9
BDCB3353
BDE63C87
BCF436B9
3D7EF0F4
3D8F32AA
3D69EEAC
3CAC46B3
3D959665
BDDFD130
BD41A409
3CA287ED
3D3BCD69
BD958B4C
BD5DA1F2
BCC90A29
3D989673
3D2D4159
BB46018F
BDCBE641
3D3CA6AC
BD365F47
3D2DD74A
BDAF0ABA
3A4AA812
3C70F6E4
BD6CDC7C
BD96914D
3DA9C203
BD4E878C
3D999EC5
BD945A3E
3CA7F6A7
BCF89F72
BCB770A0
3D098D90
BD094D36
BCC03B9A
3D2D860B
BDB3F3B2
3CACCAC0
BDCFC37B
BDCC4C35
BD8BE45A
BDD1953E
3D19B361
3C2B5B50
BD1303DC
3D36F93C
BDC58F8E
BC992CA5
3B98064E
3DC3F458
BDC97995
BCEECA98
BD0590C6
BDA007D0
3CBF88E9
BDA7CEC2
3A47011E
3D935B5F
3CF98962
3DEE434E
BCFD7436
BE0F5324
BBBE3219
BDC3244C
BD4C9772
BC8CBCE0
3D8EB71D
BDCC488F
BD25C0F0
3DFB180B
BD1A33E3
3CB3AE34
BD0B63E4
BE179536
BDCBAFB2
BD447734
BC933E16
BDBF191B
3D2E48D4
3DA3416E
3D58FF24
3DAC4C0C
3C270358
3B83145C
B75C646B
BD12A858
BBEB3ABB
BD50E79C
BDB1CF64
BE34AFC0
BDA26BB8
BCCB3923
BD9971DE
3CD76B7B
3D99314E
BDB7BBE5
3D9AAE5A
3CF456A0
BC4C1954
BBAB6EB0
3C2038AA
3D513AD6
3DCA856A
3D1B3ADC
3D104C18
BD08DB64
BD9D9612
3DA56597
3B18BE79
BCE31278
BD13700A
3D042EFD
3C5F54D0
BD904A58
BB2ABD20
3CE738F0
3C1EC878
3D61D07C
BCA562F8
BD984804
BC1F92A8
BDE7988D
BD1070F6
BB159B75
3D87FE58
3CAAC83C
3D9CD8C0
3DB0684C
3D15E314
BD34E1FF
3D1A1430
3D2F666C
3DB2B73E
BDA77BB1
BC307448
BD31602F
3CE7D5C0
BDAFE79D
3D8EB4B6
BB90ACE0
BCA5B364
BDC77D50
3DB02876
BD4FE833
3B87A360
3DB75F38
BD9FDF7B
BD94ECF2
BD1DAEC0
3D9AE55C
BD507D1C
3BA04760
BD546E11
3C55EB08
BA6FE700
BD8A1F58
3C344A50
BBA249E3
3D1B94B5
BDD45584
3D9BA296
BC4BB260
3DB6220C
3D94AC81
3C70E9F7
BC9867D3
BDC1F023
BDA13DB1
3C1C9ECA
BD374C36
3DB187EC
3C12C672
BCFF9995
BDAE47C4
3C9A4186
3D9A6012
BD8C278B
BBF87677
3DD0640E
3D9B414C
3D97032A
BDD39305
BDC31D5A
BD8B5836
3BDEBC0D
BA389C52
3B3FE844
BCED7C2F
BD41DB12
3DD7988E
BD6D8BBD
3BE2BDB2
3BCEBEF0
3D096BAC
BCE5F2A9
3DAE9628
3C4B0C14
3D0EB393
3D4FC050
BD27C9BE
BD1F86C4
BD1E5A50
BD4604C7
BC0007F3
3D69061F
3D368720
BC531C65
BC7B8B0C
3C046FB8
3CEA866C
BDB76C7A
3C3D1C78
3D6DDF9D
BCCCF87C
3C6B37D8
3D887B86
3DBC2A30
BD2948FB
BD87F60E
BD3909BA
BDC51AB0
BCD93EA2
BD39BE2A
3CE3AF38
BD46A267
3D57C830
BCB5AA2C
3AC790BE
BCB54915
BD9E2147
BBB22667
BD9AE2F4
3D6B5D01
BCB9912A
BDA5763C
3D10BEFD
3DC5931F
BCCEC91C
3ACAFC24
BCF7EDD9
BCEEB4E0
BD3A02C6
3DB9567A
3C1A0093
BD42A292
3D87E05B
BD95B479
BCC62E98
3D8187F0
BC47FFB3
3D531AE7
3C99A993
3CC68DA0
BD99B84E
3DA54744
3CB11504
3DB36F62
3DC3D338
3D8FA4B6
3D9991DE
3D636A0C
BBB3B5B0
BD877BD2
B8F78000
3CEB6DA8
BD2F2723
BD932312
3DAA0FE2
3DB464F8
BD0395CA
3D8FE7CA
BB8818F0
BCA502D4
BD7F90A6
BD4D56E5
3D285ED0
3D421D20
3C4AAD98
BD035AA0
BC42B820
3DBD02D0
BD281242
3CFA3260
3DC68292
BD5C3DD9
BD447B56
3C1D0667
BD677DB5
3D20D468
BDA320AA
3D90462E
BD1BD6E6
3D92F87D
3CC77D3B
3D10B458
3BBEDEA0
BC75947E
3C425988
BDC11216
BD71CC45
BB141382
BD9A490E
3DB1C662
BAB9BA56
BD76F976
3D872D0A
BD8F4D70
BD447A52
3D80D8A7
BC914F01
BC7D2B10
3CB3819C
3D8F20FC
BD4E4D23
3DCC2A05
BD9B5C06
BD4367E4
3D03590C
3D418F18
3D17BE60
3D2FB6E4
BCAAD46C
3D1365B4
BD8124E8
3D5AE268
BDB8CD31
3CD9A430
3D8507EE
BDCAD794
BD0B09F2
BD16B68E
3CB9E9B0
BD89C154
3D6D5258
3DA87F94
3C314208
BDBC14BA
3DB2881A
BCA5112C
3DBC717A
BB97AE20
BD044C6E
3D9A9CD2
3DB37854
BCC77948
BDAC2DDE
3D2F4F34
3D983FB2
3D7BC3F8
3D09E780
3D430BDC
3D129EE8
3C92C3B4
3DD00CFA
BDB17FF0
BD756764
BD242AB0
BD2002CA
BDA1AE76
BD7AE2B2
3DA42526
3D291DF8
BD6C2CAE
3D9030AA
BD868D43
3D63EDFC
BD77ED24
3D90B4E0
3D311A4C
3D2479B0
BD5B2907
BDA61D40
BDC507F9
3D8A5160
3D063620
3CBAE200
BD8EE82E
3D797B50
3DA08372
3D319944
BD92A476
3D2112F2
3CEC5247
3D8CA1AF
3D1CF65C
BD48E577
3D7FE47D
BDBE4292
3D7148FC
3E13FE54
3D976243
3C00A808
3D22B22C
BCB3C0EF
3CE32F25
3D64D865
BE0408AA
3D1E0B58
BC07F725
3DC58E12
3D807C3A
BDDFA18A
BD7990FF
BD6B638F
BCF7EB54
BD72BAA2
3DBF0DBD
BD44CB1E
3D39B273
BDF2A3C8
BE325C04
3BD21CFE
3D251CC0
BD781ED8
BC0646E8
BD6FDBA8
3C9F1CB8
BD7AADFB
BD6EE140
3B85DE30
3C056970
BC8E0338
3D138860
3D8B7DCA
3C93ADC8
3DCD58EC
3AEB4EC0
BC110060
3CEC9940
BDB79D4A
3BB20040
BD9600EC
BDB40B5C
BBE4FD60
3DC90878
BC98709C
3CBEADE8
3CF50800
3D09B5E0
3D043C20
BD4B6874
BC493788
BD6477F9
3D991502
BD9AF3FE
3DC7BCED
BDD7BAFC
BD117D2C
3D43661F
BDB1335E
3D1738AD
BC14BB71
3DF3BCC5
3DF3E402
3C896DE4
3CFE0A00
3D83EE31
BB9BC2A4
BD0FFC26
BD9AB2CA
3DB2C171
3D71DFC2
3D6B0A42
3E580C1D
3D8D522D
3C67A571
3D97E9DC
BD0DBF0A
3CD9FBED
3D84FB61
BCB6A5AD
BD7E8F25
BBA3B6AF
3DE7A412
3C613B01
BDE28351
3CEA07D0
BD1B2562
3D96C73A
3D59A814
3DC8BF44
3D4A37FC
BDB635E4
3C9E2D14
3D895192
BD310E8F
BDCC65ED
3DCB77D0
3D9D7850
BC8A33E0
3DC474F0
3B250720
BDB4C8A6
3D3063E4
3D9BE5B4
BB6DB300
BC84F6EC
3D1B45B4
BDCEC66B
BD71445F
BDC83898
BD83C332
3DC925AC
BD9D4F73
3D2D550C
BCEB6744
BD077348
3DB4BE8C
3D321868
3DF5B135
BBBEA3A0
3C9FE124
BDC9FD58
BDD0BFA7
3DE667A6
3D230584
BD987198
3D09F284
BDAD3B25
BDBE610E
3DA10A7E
3DEB5C7E
BD92E3D3
3D78FB18
BD12EFD8
BC50F370
BC2EF790
3D6FA666
3D759E7C
3DA5C426
3D1941E8
3DC164F2
3CC02B18
BD937A8B
BCD3B2D0
BCA0C1E0
3D751A5C
3D832705
3D836C2B
3D6E3C81
3C452928
3D38B0C4
BD875D72
3DB1E574
3C3F5398
3D895482
3D84EE24
BD6CAEFD
3D91D9D8
3DCC299E
BC65A410
3D446D30
BD8349F0
3D348490
BCB4AEBC
BD841D31
3CB29F88
BD1248CC
BD01CEBA
3B862400
3DB62218
BD0F5902
3D37CB40
BD71B11E
3D91F548
BD433FA0
3CCBA360
3CDFBA58
BD2C1A97
BD07491C
BC7266E0
3C812704
3D8B446A
BDA39583
3D40A63C
BD62FCD0
3D94CA9A
BDC7A619
BDAEC6C7
BBCE7E70
3CA6C720
3DC7CA58
BDB52007
BDC4FE19
BDCC1AC8
BD8A2E38
3DB5BF0E
3D0B1010
BCAE40FC
BD9A5292
3DB489D0
BD7B2BAB
BD1E1B16
BD5C7980
3DA13A38
BD6E3301
BDA61D18
BCE3B464
BA47E500
3C7C06F0
BD5B858C
3D76A894
BDAE83B2
BCDA5BC0
3D5AC5A4
BCA3C430
3D83C3B2
BD92FE60
BDBA235E
BD92C7E0
3C59DC70
3DAC7642
3DC80890
3D0F9DF8
BD06A342
3CD25930
BCF617F4
BD72D525
BC294848
BCB60BD8
BDB4A4D0
BD81DDA3
BCF28048
BD79C40E
3CED4BF8
3CF8C568
3D2AAC70
BD691CCB
BDB86AB4
BD9F83E4
3D9092BC
BD80C848
3DB134F0
3D2F95A4
3C068268
3B93EA40
BCCCD0EE
3D4823C2
BD664FD0
3D109151
3D6A028A
BD8FB196
3CD0A4C4
3DBEE6D2
3DEC3155
3E258A0C
BB179BEB
3D6E6504
BD9D6691
3CF7DB27
3DA9F47A
BD0675DA
BD551C55
BD67C342
BD883298
BDE784FB
BB8C36E6
BD7E58A8
3DA3D282
BDA22E72
3C1B399C
3D8DDFB6
BD25C9FA
BDC5F473
BD5CC58C
3D80FD10
3DB78A84
BD98683D
3CFFDD08
3D8C4F10
3D9BF6C0
BCDF1E13
BD0291ED
BDA3E2F0
3D5B833F
BCFE5086
3D873466
BD8D3F09
3DA68C6A
3DCFD640
BD6D846A
3DD0B62D
BB74F3FE
3CDC8257
BB4F4A91
BDBAB71F
3D0AEA80
3DBF8092
3D1967AE
3CD00CC7
3D88F946
BDCD53C7
3D9260C1
BCDFF6D4
3BAEA13E
3C0A1550
BC3C332E
3C4AC794
BDD03231
3D3E42DF
BC30B460
BDA61CCD
BD885A1C
BDA7C5D4
BC4255A8
BCFAE35C
BD4D19C2
3D9F236E
BD8AA20C
3D8A3800
BDC6F1EC
3CA667BC
3D4E363C
3DBBA918
3D84A4A8
BD14CEAC
3D9A5A7C
3D6DCA7C
3DB0E828
3D7B3D68
BC657A88
3D22BB18
BD88440A
BD373033
3C7803D0
BCD39B08
3DB2D4EE
3BBAD8A0
BD9190D4
BA7C4280
3CB88684
3DB6FC7E
BD6C29ED
3D6ADFC6
BCC539E0
BDA4EFBA
BB9CF710
3C780F20
3DB87FA7
BDB61A70
BCFE4055
3D7B7951
3C93EE24
BDC033DC
BD54FA64
3D533EFD
3DCDB25A
BDADE4D9
3DD5626C
BD1751DE
BDBAA876
3C6BCC3B
3D751BB1
3B019018
BD41CFB1
3DB6611B
BD25751A
BDA579DE
BDA6907C
BAFC4DC0
BCADF0A5
BD09C2F6
3DB67920
BDA8E923
BD163F96
3DF61091
BDEB6A73
3D2401E5
BDA94DF9
BD33C2CC
BC522A47
BC8BF31B
3D24D054
3EA1856D
BC88A38B
BDB56049
BC11E815
3D27EBF3
3DD04FF3
BB2F5317
3DC6CC50
BD114F70
BD93BD90
BE057535
3C85FEFD
3D00BA0A
BDB8F680
3DB2DFEA
3DACCA5D
BD12D15F
BD0B1C80
BD9B0817
BA5FABFC
3DF9DF00
3CF8D1D3
BD84B376
3D971B0C
3DC18BA2
BD3D4BA3
BBAFC550
3CDC5570
3CBE9730
BDBAA885
BCABAEE4
3BBE7F50
BDA48AC1
BD862A56
3CCC7440
BBF0FC70
BD5B6BA6
BD5B0A83
BD918EA6
BB6A9760
3D330F98
3DCE85EA
3DD02FFC
3D887C2C
BD95B73B
BD600E33
BDA2F7E0
3DB0EAFA
3CDCAA08
BB84C420
BDCD1DCA
3D45E73C
BD9105A8
BD85C73C
BDAAB4DD
BD070972
3D9A2C0C
BD9B7DB9
BDCD1385
BDCAB48F
3CCFCAC0
3DC7D09A
BD28AE7F
BCB0CF9B
3D773C19
3C9788C8
3D4AF824
3D9D4ABC
BDCDB256
3C594FE8
3D73860B
3DCD2B99
3DCD3FD8
3C98E851
BDD31E34
3DA012DD
BDA9A86F
BBE21C50
BDB26D9B
BD0F2D81
3D5C20F6
3CB58A0F
3D0B92B0
BD324326
3D9E4213
BD956974
3D2222CE
BD037E6C
BD44EEF9
BDE468C1
BD695C2B
3B5124DE
BA254080
3E110EAD
BD99EFD0
3C6D6051
3E7FB20D
BD9ECFF5
BD1AE858
BDAC0B8F
3C06723B
3E0066AB
3D141184
3D7C781C
3D7A65DA
BDB4F7ED
3D7312F9
3CC8810B
3DB99C80
BD3C72AD
3CFB1856
3D27F6A9
BB970E25
BC35BD43
3DBE556E
3D74297F
3D9B15A1
3D72EC6C
BE148623
BD0DFE8E
BD2A0428
3D19A826
3C292A12
3D8AF693
BDA4A60E
BC631190
3D5B3A0C
3C4F872F
3AC5C070
BD791D83
BD9D991D
BD83F6C9
3D1C498B
BD017DDE
3CD8ABCE
BD9170EC
3BE85499
3D77525C
BD0225E9
BCB2BA9F
BD11514D
3DAA8244
3DC08A5C
3DA641D5
BDCD833F
3D78C019
3CF56718
BD1E5B9F
BCC3199C
3DA9CF22
3DBA05AD
3D880F94
3C410C98
BDCD9B02
3D424A0C
BD84F0B4
3D6810BC
BDAACB1D
3DBAA308
3BF33700
BD9F71B6
BD67C9BE
3D1E3CF4
3CBB3A98
3D87575E
BD82BAE8
3D6FFC8C
BD01BF3C
BBC79620
BD4B9AD9
BD9C6DB7
BCBED8C4
BD9D7E70
3C8B2D90
3D8B5108
3D48BD48
BD3B7732
3CB0EC18
3DAF7B38
3CA68D9C
3D74305C
3D977F3E
BC5F8448
BB3FF880
BBAB0843
BD6A0BB8
BD64943F
BC0A8AE0
BD56F4B5
BD27BBFF
BD428642
3CF4F7E1
3D9CF8CA
BCB5E70C
3DC6A4F8
BC7392D0
BD998525
3B50D6A0
3DAD1C91
3DA6454E
BCF7B6BC
BDC460A4
BDA9D1B2
3DB5E430
BC8517D8
3D235C6C
3CA10708
3D1C1F20
3D7ABA60
3DB5733C
3DB04F86
BD6DE4AC
BD28EB2B
3A510100
BD9D1C06
BD7412FD
3D8845C5
3CA6625B
3D2E9B23
3B392B4C
3D64F758
BD99F1FF
BA9017ED
BD9245A9
BCB31C3B
3CC26AA1
3CC227A0
BD6E1B51
3C5C03B8
3D940EE2
B914479B
BB274332
3DA2C7F4
BD8487B5
3D7693E5
BDC72D6A
3D86E74B
BD9D6DCD
BABDB440
3D183F72
BD8BB563
BD2677CE
BDA1D0CA
BDD2325E
BC908A82
BCC92C67
3C57B36C
BDF82075
3E0AB43C
3C67705E
BB53E73D
BCB95ADC
BC8A6734
3D3631C2
BD868720
3DD670CA
BD618A18
BD4B3E0A
BDC727B2
BD648B03
3DD1B66B
BD06D880
3D39BAEE
3C221B5E
3DAAA1DB
BC654766
3DC6D835
3CD9CBED
BD3AEF7F
BD15B46A
BD284808
3D78E94B
3E068A5A
3D812664
BD6BC6CC
3C97F5D9
3DFBC7A8
3D4A98AD
BE048D86
BD0D3E7A
BD61CCC2
BD8DB50C
BDA2E2D5
BDBDAA7D
3CA52320
BCE963FD
BDBEFD15
3C280700
BC36171F
3D777E04
3DA162B4
BDA1DFBE
BDF620BD
3C8FB5CF
BD27274A
3D9EECD4
BC867A00
3CCFA47D
BDC7F9F7
3D8A8703
3D27853C
BC8570E4
BCA3A5E0
3B39F8B2
BD7A642C
3D381B59
BD8E9258
BDC7850A
3C062A27
3DA78009
3CAD8B62
BDC3768C
BD562D19
3D8A751A
BD8B28E8
3C2FCB10
BD7F22BA
3D292F7A
BD6161A7
BD6AEB6D
3E059F9E
BC8614F6
3D360B68
3D806D7B
BD542494
BD5FB29A
BD9BEEEA
BE18C5DB
BD99380A
3DAB48EC
3C70D7D2
BDB0BA26
BD3B5476
3D57EAF0
BDD63797
BD880292
BDE6367B
3C9A9029
3DAADEFE
3AF89A3F
BDA8D700
BD8ADA74
BE441171
BA30E480
BDA90DC5
BDAA3D87
BDA5D1FA
3D1C0E78
3D96E770
3CC25691
BD4CB5F1
3CBB2A73
BD9FE050
3D487AB0
BDB4FCDA
BD291D17
3C5BE0EB
3C8D4AF3
3B4F05FC
BDAB8548
3DCBC8FE
3DCFB6F8
3C736572
BCB63490
BDC59496
3DB7DAC8
BC924920
3D0EE980
BCC29636
BD9B5264
BB8F7290
3D10F664
3D3485D6
3D49C670
3C96A96D
3D868CFC
3CAACD88
BD3B3057
3C83BFE4
3D02BF1C
BD811B5C
3DC0C916
BDC6F2EA
BDCFB334
BDC48A42
3D6C6EEC
3D414108
BDC4FD52
BDBFA459
BDC9E865
BDC92C8D
3DBD85EC
BD5847BB
3DAF26A6
3CE88360
BD73430A
3D8DE6F2
3DCF395A
3C9E1878
3D4E8060
3D88CA68
BD7B925F
3D8E5134
BDBAF4C9
BD5DC041
BD8A39C4
BD34FB4F
BCB01540
BDB0CC81
3DA1075C
BD676D2A
BB73CB60
BCC84C98
3D4A6473
BCEBB14F
BD9E3DBE
3C72F765
3B393DC0
BAF71F00
3D8EBB99
3D8DFEF1
36844000
3D29037D
3D0378B2
3D2586E8
3CF1F861
BD9A180D
3D67C790
3D274325
BD835019
3D4053D4
3D18A396
BD8F5FC1
3CC3007E
BC147ED8
3C024FF0
3DA1226A
BD8BD31E
BD0509B3
BCC96DBC
BCB18C10
BD86081D
BDA9D5A4
3BE02040
BD734492
BDB6151C
3CC2E307
3D0AFB7E
BD32B0E3
BC544950
BDA5FFEB
BD54E65A
BDC05059
3CE0A2F0
3C7E5968
BDB21E1C
3C3BC188
BB8CE234
BCB60711
BC759649
3D9858E9
BC963774
3CEEE07C
3CCC0D96
BD93A455
BD42B13A
BC9A84E8
BDBB6D8C
BD506A69
BD407DAE
3DD0AE2F
3D0E329C
BC3AB316
BDCF5A9F
BDD3552A
3DBEA79A
3B20C600
3C82C47C
BD8EA668
3CF53EF1
BAE77ED6
BDB6E897
3DC7D428
3CBA8D8C
3DA27442
BDB0FD3F
3D8A0DB1
BC936BA3
BD4711C8
BDCDC703
BD0D0E41
3C89ECD5
3CAA2F23
BD138296
BD2F9577
BDC26CE2
BDCB9F89
3DBAAE3F
BD0F36A4
3D5A6F1C
BB2376D0
3CCD6FFA
BAA1253E
3D878444
3D971258
BDBED796
BDC35581
BC8D10C8
BD803F7E
BB498C00
3DA6AE96
3DB0BE5A
BD9BB832
BD8B9AA2
3D6A30AC
BD49CCD6
3C969C18
BD95FE89
3DA1A454
BDB31BA8
3D7436C4
3DB535DE
3CAB9728
BD09D50E
3D21F464
BDCEEFBE
3D741794
3AED1300
3D9A9044
BD8DA4CE
BD205C2C
BD5B337D
BD71C0A2
3DB82772
BD7C691C
BD8B87E0
3D038ECC
BD1E8039
BD8A92EE
3DA61B08
3CB04440
BC41AFB5
BC21F9A6
BDA333E0
BD62C0FE
3DA5ED24
BD48402C
3D025B98
BDB290D3
BDA10B74
BCDF97BF
BCFEEBB0
BA7A6A80
3AFF4AFC
BC91DC29
BCCED3E0
3C7FC41F
BCB20CB8
BCFA69BB
3D6963C2
BD785B2A
BD5354B1
3CCD5F40
BCE1840D
3D48C5D4
BD0978CC
BD02B340
3D279464
BD446719
3DC947A2
BD679C7A
BDAED1F0
BCB8A5D8
BC9AC0EC
3C5A7508
BB9F8580
BDB33F39
3D332690
BB098620
BC35E3E0
BDD036F1
3D92D48C
BC3E6530
BD88E0EF
3DC788B8
BD4AF1F6
3C7114A0
3DA3FC94
3D84A5A6
3DCCF764
BC6354A0
BC5B08B0
3D9ACA8E
3D66F39C
BCCFC8A8
3DB6DAFC
3D69DD54
BD9CC722
BC564180
BB9BA470
3CAC5448
3DB9DC0E
3D93D034
BD08EB76
BDA01650
BDB97969
3DC1972A
3D546B30
3CFE7C90
BD3205BA
3C3FB148
3D05A024
3D7E6F48
BD5BCAD3
3D5CD4CC
BCC54B1C
BD0492AE
BC0DB218
3DA2BD8A
3D8419E0
BD02E6A0
BDC47C77
3D1CEA40
BD931299
BD6BDB91
3D949314
BDD0A81D
3D2A1AA0
BB86E210
BD9AD8E2
3D8EA04C
BDB77431
3E043B9C
3D182652
BD4438F8
3C6ED5A8
BDA628B1
3B99375D
BD3487B0
3D1286CE
3CC77DC6
3D75D4D2
BC2489D8
B9D8F487
BDE38EE7
BCCE51DB
3D71DCE9
BBF58139
BDAD1EE1
BD0EBBC0
3E63B664
BDE3C977
3D08C306
3AE41A40
BDBBF7A8
3D3C2EAE
3DA08434
3CCCB6D4
3BE779A0
BDE820FD
BBF494F4
BDBB476B
3D9893D2
3BF1F300
3D696B88
3CA5B704
BBEB8C20
BB8D9A30
BD27DF75
3CA5B4A0
3CDE59A8
3DA4A9F0
BD934DCB
BDB41D08
3D623E8C
3DB762F6
3D1C70DC
3D800F28
BD84E896
3BFD0D40
3CA0BCA0
BCA057D8
BD8EC958
3DB94562
3DB70E20
B971D000
BD9DE61B
BD4838B3
3D847456
BD93A87A
BCFC0958
BD977418
3C2A54D0
BDC018D3
BDB560EA
BDA001FC
BDB6A83B
BDEF644E
BB70B6DD
3D2D95B4
BDB936EA
BD90C00D
BD9B82EE
BDDB2DBB
BDCFF3EB
BCD916BE
BDBFE430
3D841A2D
BD075377
BDA3F664
BDFA9AB2
BD5D09AA
BDB8A0C5
3D8C0510
BCC4BF87
BC847D0E
BCF21C89
BD477AA2
BC9F54E3
BDE8D566
BE375FAC
3BFEBECC
BD9363C3
3D2E8AC3
BDA39CF4
BD56C016
BDC89060
3DB50866
3DBA28B4
3DCBA3AC
3DC1D66A
3DA160B0
3DCDB772
BB84AEE0
BDC4D366
3DB42600
3DB08C08
3DAC6E72
BB079340
BDAA9D7A
39DDDF00
3D554324
3B5C7580
3DA58B40
3A952E00
BC0CA610
3C9356FC
3D946714
3DA1D520
3CC51068
3D411B60
3D9B80DA
3DA68570
3C48B710
3DBB8194
BDC409D3
BD44E02B
BDC6973D
3DABBC22
BD92647B
BDF9BD16
3DC568D4
3C0450E0
3C71CAE8
BD88F362
3CA174F9
BD2F0F20
BD2AD23D
BDAC6C4D
BDB2F18E
3C40B468
3C9E6500
BD460CC4
3D26CB23
BC80AD81
BC9D31FD
BD4194DB
BD86504B
BDC9602E
BD14F6BA
BCC14748
3DBC7AEE
3D3606F0
3D6B9884
3D216A73
3DB2BD40
3D893356
3AC23880
3D942C10
3D7E03F9
3B5C8797
BD959879
BD0AA0AA
BD9B61E7
3D8AAFA6
BCD7CA94
3C324CB8
BDCE4CEA
3CC3EAB0
BDA34526
3D888E02
3BC897B0
3D515A4C
BDA3B72B
3D82D3FE
3D87BDDE
3D14E6DC
BDABF604
3D2629A8
3CCF0498
BD436621
3DCE9D26
3C831B60
BB5D35C0
3D1C4160
3C0BBE48
3D6415F0
3D83E322
3D955418
3C056440
3DD0D870
BD9AEF54
BC7F9450
BD24D295
BCE38A80
3C5F41C0
BDA153C0
BCB718FC
3CDE26F8
3AD22880
BD50FF8B
3DBC33B4
3D57A560
BD8B8A84
3D6C9110
3D5E9A84
3DC35680
3CFA0038
3DCB40B4
BD8E3B38
BCE5C1B8
BD17BB66
3D036794
3C89ECE4
3CA198A0
3B821400
3CC3B108
3DA036AA
BC9A6A7C
3C32BB58
3CF98460
3D79D7CC
3CD85118
BC8A2808
BC715278
3D527A38
BC7BE280
3D001FB8
BD9C116D
3D456774
BC815AA8
BB927790
3D4CD694
3D96DA74
BD717379
3DC0F826
BD8F7A10
3DAD5218
BA921D40
3C0335C0
3D257134
BDCAA3B4
BCE60180
3C516868
BD7DCDDE
BBB960D0
BD66E3B8
3D3DF24C
BD6C5802
3C59C308
BCFC854C
BDC88E44
3D254C04
BD57580A
BCC81C44
BD7C5D6C
BDA8B56E
BE000834
BCC3FD1C
3CD95E2B
BD6FA915
BCC84820
BD61A560
3CCC9C47
3D544F67
3D814FD2
3E1030A7
3C44BFE5
3D52DBB0
3C2B027F
BC4A8288
BD9D7FB8
BD030ED3
BD27A4FF
3D6691BA
BD8E66F6
3B8C009A
BDD37734
3A5119FE
BC61E890
3DC78BC6
BD6C7377
3D90F973
3C988635
3D4D1924
BDBCBC33
BD86D631
BD65BF44
3DAD504C
3D01B1EC
BD97BB55
3CA2423A
BD80E795
BB91FE08
BC84F2B0
3DC2EE84
3D149A53
BBBB45EA
3DC7A1F8
3CC8D37D
BDA40DE2
BB59A543
BCC012FF
3D72607B
3D8B596D
BDB41269
3CB0A392
3D3ADDAB
3BC9AE7C
3D46C6A6
3DBE9BAD
BDA3ACE2
3B09F180
BDA4F6E3
3D714D4D
3CB4FAD9
3D8AA318
BCAFD33A
BDA4CAB8
BD26F47A
3DB218C4
3D9745D6
BDC231E4
3D33FA80
3D44386C
BC6A1588
3C56DEA8
BDAFD2BE
BCA36F88
BD997550
3D8FFA02
BAD3C900
BD8A1BD2
3D9F6002
3D4A0B58
3CA2FDE4
3D743410
BBBDBA50
3D3E1DD4
3DC773C4
BCC03C64
BD3C11BE
BD62D523
BC585AA0
BDCFDBED
BD205C2C
BDB4354F
BD56F276
3D23CBF8
3C478BD0
BB35B080
3DA1E4D6
3DC8523E
BC4BA120
3DADCC3C
3C8C3AC2
3C5CF008
3B0C7680
BD628801
3D568257
BD18133C
3DA1552A
BD996F64
3C83B1DC
3DC78A76
BCE53CD1
3D9BB777
3CA7CD1C
3CFC1D49
BD3C4158
3D951F9E
3C7667AE
3D005B95
BD90DAD9
BCF242A8
BCCA36DC
BC195C58
BAB1CC94
BD522A35
BD34110D
BD897382
3DA93F9A
3CE7E53A
3D91D526
BCEFF684
BD349234
3DB7D6FD
3D324446
BD96015B
BC3DBB82
3D674CCC
3D111C54
BD76327C
3D8F3DCD
3DD19458
BDC8E81C
3A304C80
BCE1DCF5
3D805C06
BDAC8D40
BDBF08E6
3C380AF0
BD488AF8
3CE992CE
3B1E29A8
3D8F86B9
3D44551A
BCC86C08
3BAD13F8
BD3FC1AE
3D88CCD1
3D044160
BC457A38
BCE9F9D4
BD225F36
BD2FF0A8
BE028FC5
BD71DA33
3D831BAC
BC8F0BD4
3D1ED780
3DA38070
BD4F7FDE
BD9BB744
BD848994
BDBFDFA5
BDB40E5F
3D84EB9A
BD7E3B61
BD619AA2
3CFE44A8
BC916020
3D458B74
BBFC8030
3D4F7778
BDAC9112
3CC08DF0
3B69D7E0
3D89AB74
BDBD378E
BBF8EDC0
3D9A2956
BD94C661
3AB6E540
3C6B6E00
BC656580
3D78183C
3DC334B2
BDA3BAD4
BD4CC2C7
BD82CB9B
3D24A7A9
BDC6A9EA
3C81AE74
BD0F5422
3D11A805
BDA756BB
BD1F3764
3D1DE286
3CD52600
3B8220E0
3C31841C
BD521DD9
BDA33633
BBCDAE7A
BD03F1C4
BD240886
BDC2BCE2
3CEE453A
3CCE2BDC
BBBDA783
BDA9B550
BD3EE82F
BDAAA07E
3D9EA1B7
BDBE1D82
3D56FE20
3D849796
3DCD3F29
BCD7C859
3DB11F0D
BD871063
3D7C6F06
BD9F1234
BD1A7812
3DA93B49
BD3DD1F3
3CAA45AD
3C759635
3CF291C1
3E91350F
BDFF34D8
BD102C06
3D866679
3DAAC743
BDB22702
3D8FD3A2
3D898BF8
3DBCE10A
BB1BFBF0
BD900298
BDBBD4EA
3CFC5301
3CBFF1B0
3C4924E8
3D81A782
3D25AD7D
BBBEC62B
3D9FB8A2
BD5D28A2
BC3C504A
BDB25E8B
3B2D5F15
3D6CE3DC
3D769A10
BDCB8AC0
BDD95B74
3D961062
BC46F0E0
BD379974
BDBBD5F6
3DA70301
BD5C8973
BD31AA29
BD0E3170
BD28C1AC
B9CDB5A1
3DB07158
BDA84027
BDB042BA
BD15565E
BD907F40
3B7C2C22
BD057278
BC81A46B
BCBAB24C
3DAABDEB
BD8E57CD
BD85F5B1
3C9FCC2E
BDBB9A75
3D89FEB5
3D22C13B
BCAA01D6
3B9005D3
3CF28BF8
BD9EA77D
BDD09ADC
3D643574
BD895BDE
3CEC90B8
BDA8643E
BD151638
3DCCC40E
3D5099F0
BCAF6404
3D91B562
BBDD5E60
BD75CC76
3D94126E
BDB8F4B7
3CA7F728
BD0340C0
BCBF3928
BD5CF448
BD1FE3D2
3D738484
3D7B5D40
39D98200
BDC4677A
BD6C1DC1
3D3283C8
BD58F37A
3C21CB08
3D9078C2
BD65D9E0
3DAC2364
BDA84278
3D42DBC5
BDB44F9E
3D37A1AC
BD83B857
BBAB34F0
3D72CBF6
3D776F4C
BDA8313F
3DB691EC
3CB9BFBC
3C76B8E8
BDA17EE6
BD813E0D
3D816C7E
3DA375A4
3D462B04
3D30D69C
BC4369B8
3CCC300C
BD2400C4
BD9D7C80
3DC485E8
3D31E8B0
BC07AD28
BAF9B040
3D1FD23C
BBB7F3A0
3D941F5E
BD9E8C6C
3DCEC05C
3D26944F
3D14EFBC
3D6A5ACD
BC25D02E
BD5714DA
BAA201D4
3CFE48D0
BD30864C
3DAA96B5
BDA4E57C
3B6C5173
3D3CDF52
BD50899C
BDBB20D3
3D691B8A
3C959858
3B745FC3
BDAE6E8C
BD9B2BA3
3D81101A
BD0E66DD
BCD28393
BD2A9444
BCF31C98
BD33C01D
BDBFA0E8
BDBBD518
3D529241
3D677F50
BCD9D2CB
BD88129A
BCD654E9
3D160F08
BBEF68B9
3DE973C4
BD880FED
BD5A4721
BC250B62
BD41AD94
3DA3AE29
BC0BDEE0
3C6CE9C9
3E1A6C30
BD7683E5
BCDC0258
BC8427F9
BD00FB1F
3D22A442
3D8B5A0A
BD739232
3CE56F91
3D259BEB
3DEDC291
BD1036B5
3DAC9C66
BDAED704
3D70434B
BDD30FE7
BCCAB3DE
BD63F3A7
BDC8EFF3
BBBC8B44
3D3A3D72
3DF73571
3C2246A4
3DAE47CC
3D63BFC9
3D976D12
3D58789A
BCD692C8
BC81F4B8
3D89C1AE
3D8A684C
BCB5C199
BD90C760
3DCC905C
3DA24154
BC2B560A
BDB06E5D
BD4C1B71
BCE800E5
3D62F7F9
3D9F6D90
BC58397E
BD9A23CC
3D4C444F
3D567489
3CA38198
BD56EF67
3BF1C962
3D10A7A9
3D8E2C93
3D8379D0
3DC4C623
BC8CDB9F
BDBDD344
3D81FD73
3D67BA0C
BB477A5A
3D71F557
BD9D76C9
BDACB013
BDA11BC5
3E0D44A2
BD7AE347
3D87D1DC
3D1E6844
3D69A4D1
BD87DF72
BD2A164D
BDE34BB6
BE35BC22
BE619BDB
BE608E90
3DA5A40A
BC5F96B0
3E3AE69C
BD6F9B07
BD6BE2D3
3D7BC038
BCC8B109
3D694243
BDAC0764
3D207A3F
BCFADD14
BD696829
BE2B3C66
BCE544EB
BE292FF3
BDC0EC46
3DA4497C
BA16CC00
3CF1D5E0
3D9D55FC
BC93B628
3D4F7C8C
BD57322D
BCFC94C7
BB7B7327
3D285DB4
BDB6B6EF
3D8DD964
3D7D1B8E
3CBE2ACA
3CB87DA7
BC3A4AB3
BD1E2848
BC85C3B8
BC264154
3D5F33F0
3CCF5286
BC9F3B98
3D808FCE
BD47883B
3D24B34B
3D265F40
BDB7A98D
BDBEDCAD
BDE354CF
3D9CAC6B
3D50D4EC
BDC35DE6
3C6654B8
BD4FD47A
BD78B35F
BDAEDBC7
3CD479F0
3D8868BC
3D8C930A
BB8D5910
3CBB52FC
3C0BB4B0
BBFC1740
BCF781AC
3D06D128
BCA8C198
3CA9DB4C
BDB96F82
3D385868
BD9CCFFA
3D115724
BD54EE35
BD930146
BDAFC5B4
B8047800
BDC0BCCD
BCCFD0EC
3CDFEBF0
BDCE5D52
BA94E7C0
3C7932B8
3C469F70
3D0C4F64
3D60DE00
BC903F50
3D99266A
3BC17F01
BCA2FF6C
BD5ED31B
BD96B496
3CC955BD
3CC561A1
BD972B95
BD1A6230
3CD834F0
BDA1508F
BD5B5DF7
BD5F33EA
3D568B41
BDA2F553
3C9B0998
3B8F7236
3CB82BA0
3D157C23
BDB8673F
BD427295
BC437118
BC253EA0
3DC64491
BD0565DB
3DCFFCE8
BD85811A
3ACCA358
3C95DC93
3DAA865F
BD382A26
3CF660BD
BD5E2651
BD71F8BC
3CCF7C90
BD396AB9
BD83BA83
3DA49C4F
BDC69210
BD554CD7
3BC406E0
BD7B991B
3DBDC59C
BDBF944B
BD96FE9C
3B6812DC
3D97A233
3DC12F64
BD0536B1
BD19EC2B
3D073294
3D658529
3DA50E74
3D9AF9DA
3DBA3765
3D19E9C3
3D39B29F
3D95830A
BDA03874
BD685807
3DA827D8
BCEE2E85
BD0CE350
3C0141B8
3B8EA386
BD7F7E8D
BDB8AEAA
BD292670
3CA46017
BD8E5231
BD81C1BC
3C8E7702
3D16F756
3DC95F16
BD5D5070
3D83B4D6
BCA92F38
BDCCAA61
3CA94F9A
BDD0A6A1
3D1E43F9
BB995074
BD9A8096
3CB75733
3D2849DC
BD4DAB93
BDC57076
3BE0B4DF
3C1702D2
3D2FA054
BDB129D6
BD002F7A
3D2C8511
BD683844
BC370140
3DA618F2
BCCE80FC
BCF53124
BC857FA4
BAE30C00
3D63AB44
3CFA5FC0
BD98A13E
BDA7554A
3D049260
BD930B2C
BD9028B0
BDB03ABB
BDCC8B6C
BDC6D42F
3CFD6A70
BDA38A70
BD64EDB4
3DA75B6A
BCAF1228
BDCD4EC1
3CE12FC8
BD7854BB
3D2CFB68
BD4F0BB2
3DB7080A
BD8291F8
BD4B1DCC
BD0236E0
3CA9F2D0
3D814A14
BDA42653
3DC0DFB6
BD34F424
BD115BDC
3BAB9E40
BD52F146
3DD1F45F
3DB5A4ED
BCE2A393
BCF60B42
BD293E0A
BC8B34B4
3DB5A0F6
3D756332
BD5974FE
BD8C4DE3
BDBAA73E
BD402737
3C1993A4
BDCBDE4D
3BD1142B
3D983D97
3BED3270
BCFDF5DE
3C75B071
3D723EDF
BCD1E7DD
BD022B24
BD1C1A45
3CD15328
BC3FC99B
BC478A88
3C4BC218
3D0A4C48
3D5082C0
BD834B40
3C3F4DE0
3DA41A04
BC6DA268
3D67AA28
BD3E2872
BDB8D622
3CDED3A0
3CD1BBC0
BD58AF74
BD8A7DCD
3DB59C92
BDB0C868
3CEE16E0
BD8BC77A
3DB87A7C
BCF15260
BBBD7000
BDC37BA0
3D6C3364
BD8C8BA6
BDC898B0
3DCCE03C
3D47A530
3DA1A090
3BFF54A0
BD841F32
BD486DE6
3CCCDDF8
3D608E84
BD1ADC9C
BD6082BA
BDA869BA
BD1AC7F2
3DC2CEB8
BDCE68B7
3CA57C20
BDB5E42A
BC8D9B20
BD8F286A
3D90B350
3CAEAD60
BBB48C70
3D880018
BD7F4455
BDD1022F
BCCE6668
BD2C260C
3DA32426
3DA87824
3D5BAA80
3D462214
3CF7F7E8
BDB8A406
3DAA6E92
BDCF6802
BC47D808
3C7994B0
BDC9B6F2
BDCA9D8E
3DB2B76C
BD8AC272
BD49C572
BD43CB04
BDD20E1F
3C7E14FD
3D808C5C
BC68C6F0
3D62C4A9
3CA3B09C
3E33E237
BDB59235
BD2A0374
BD7025CD
BE0F61D5
3DD9D4B4
3E1E8AE7
BE294CBB
3C9E6035
3D78AAFC
3E0D060F
BDB830CD
BD967DBB
3D58E058
BCEA144E
3DB38710
BD169F1F
3C590F3D
3C0B81F8
BD5EAE6D
BD90149D
3D3964F7
3CE575C3
3D29D724
BCA7CF9C
3CFBC6F8
BDBA85F6
3D890B08
3C6E1DE8
3CA8DC24
BC2F0798
BBC9AC50
3DC5E9E0
3DB53940
3C857D4C
3C30E9F0
3D817D06
BD807F86
3D94B6CA
BCD1DC90
BD3DB6E7
3D51FFA4
BD72652E
3C903ACC
BD4B9696
3C2111C8
BD736EB9
BC0F0900
BDB3A9FE
3D733D04
BD62363A
3CB45BA8
3D2BD29C
BCC7F9E0
BCB89A28
BDCAD3A0
3E0661B2
BCBA3E59
3D036D3F
BCEB2CA4
BCE88D1C
BDC8EAC6
BD812CF7
3DCBC64A
3E21AB59
BDD6958C
BBABF2F0
3D6D9357
3D9A3A2C
3D83F5E9
3E80B69D
BD5DBC4C
3DC3E4C1
3DB31F6B
3D810878
BDB96BA0
3D78FF01
3D608174
3DAEFEF8
BDD45715
3D8199AD
BDCEDED6
BAA3BFC0
3C0328F8
3CE3997C
BC3A978B
3E86E90B
BD22D544
3DA503FE
3C164E88
BCEE7F94
3C257668
3DBE6EF2
BD875592
3DC46B1A
3CAA49C8
3B54A6A0
BDC088AC
3BFEB950
3C00ECD8
3D80C75A
3D1007A8
BCC71B08
BDBF1FB1
BCC943F4
3DCA2234
BDC3CBE9
3CC95598
3CFCF778
BD566655
3C1E4158
BD63FCA2
BD96FC9B
3CEFDE50
BDC40545
3CBECC50
3D98A590
3DA9266A
3D5FF5A0
3D260504
3D963113
3C8FE7B8
BD2479BC
BCD6FAD4
BD99792A
3D64383E
3DAE5C08
BD8A02AB
3D478862
BC99B084
BA658300
3D006130
BD0711CB
3D991AFE
BC7E1C8F
3D477154
BC8E983C
BD944654
3D908D52
3AE55CC0
3D8C63C8
BD588AEA
3D32307C
3CB94284
3D2A5F91
3D19D578
3D017FF4
3D215C04
3D6DA2F0
3C96D244
3C3F5729
3BE6C2F0
3D0150A8
BD1CA028
3D14F158
BD10B0E2
3DC9300E
BDCB6F5E
BD96DE5B
BCE253C4
3D2900C8
3D82C904
3D8163CC
3D4D5648
3D564404
3DA0D838
BDA70672
BD316114
3987C100
3D53D458
3D3CD75C
BD96292F
3D960A3E
BD52DA5C
BC088070
BD3B27FF
3DAD474E
3D1D3868
3DCBCE80
3C86415C
BDA96DAE
3D138064
3C1FF408
BD05420C
3BB0C960
BD9E43FA
BDCE1A27
BD8957D0
3D3D351C
BCAB69D8
BD18F882
BD804709
3D30E514
3CCFDC60
BDAF32AB
3D9EAB68
3C8D4D18
3D3E0378
BB69D640
3D4BAC20
3CFC42F8
3CE3B320
3C0CD380
BBA93430
BCD18598
3DA18172
3DAC66FC
BCA9436C
BD1A3C4C
3D86E3B2
BD6CB326
3CB9E654
3DC5FF38
BC8D8978
BB0452C0
3CC51A38
3D02B5A4
3D5590AC
BDC29DC1
3DAE6204
3DB77402
BC026260
3DADFC50
3D459830
3D4DF96C
BD6C478C
BC275CD8
BB4B38C0
BD5864F3
3D8FD0D0
B9D8D800
BD4F6DCD
BCA4B20C
BCB00ED0
3D5FADB8
BDA03CA0
3D930044
3D87ADFE
3BEBB970
BD9F6022
3C8AC274
3D9385F4
3DBBBA4E
3D96DC96
BCBACC6C
BC087758
3B4CC4C0
3D60B40C
3DAC052C
BDACDCE2
3C8AAEEB
3DA31923
3CFEB378
BCA56B1C
3C53ADD6
3D9408D4
3DBDCD66
BDD7B7BC
BD1EA864
BD5CCFC0
3D1D4187
3D91206A
3DCFC8AB
BC4D7BDA
BD8A8DA8
BD23C397
BD5E3CDE
3AEDE2F1
3BDFF649
BDCE5164
BD80D70C
BDDABFEE
3D375504
BDC36A79
BCBEC1E4
3CC023CF
3DCA6072
3B357FF0
3D853595
BD990A43
BD883645
BD4818E6
3B049C60
BD3A7125
BBF0D6E0
3B134361
BD11DD18
BBC1D12B
BD6FEFE3
BD28B343
3CEE4110
BD8A4C80
BD9AE8B9
BD6B75E3
BDCBC079
BDA4BF27
3D4152EB
3CFB666B
3D37F983
BC8ED636
3D720F93
BDCBC4C8
BD075E49
3CF14DF6
BD9A0BB7
BDAE2242
3D91D8C8
3C7DCD92
3B1C3050
3DBCB9BD
3D8B5F0C
3DD07D88
3D196350
3D47E1E0
BD1DD88C
BC151C88
3DC10A38
BDBC53E8
BDAF8104
3C5B1090
BDCD8E4D
3D3546BC
BD4FE8C3
3D99533C
BD253A95
BD217B26
3D3115BC
BD287682
3D1C041C
BD3C1A72
BDA49340
3DBFA33A
3D485B44
BDBEBC4C
BD42FF6E
3DA4BE7A
B965DE00
3D1AFA34
BD024184
BCB821F0
3D9832C0
B97BF800
BDB017DA
BD9AA302
BC6B3D61
BDB8133D
3D45E070
BC7041E0
BD8DB7BD
3DD33FE2
3D281135
3C370BED
BCF3CCF4
BD0285A4
3BD3B710
BD603348
3DAB42CE
3C65C158
3DA39C42
3C42076F
3D72BABC
BD603858
3D4CAAEB
BAF0D4F5
BD9282E8
BD96D3A7
3D06541B
3D32F62A
BD8980B8
BDBB21C4
3C380890
3CD60365
3DB0B7AC
BCE979C5
3D6E11CA
3D6E4ACB
3DAED22F
3B25F21D
BDB9BE5D
BA52868B
BCC4DA6C
3DE34482
3D46B48F
3D9D5911
3E028392
BB57B350
BD2C84A9
3CF64345
3E016FDA
BE144B93
BC6C22F7
3E2A2E78
3C2FCF71
BDDB3E28
BCAA5C94
3C350984
BD10EA20
BDA23045
BD5D779A
BDB073CE
BC46F4A2
BDC6C01F
BDC30E9C
3CBF4550
3E14B149
3E10C0A8
BDD31783
3D964094
3C0C74B0
3CF49B78
3D7F3B00
3CD464D0
BDC5E9AE
BDCB3045
BD330B3D
BD1C3CE0
BCD4CB54
BDAF0D57
3DB30E8E
BC879E28
3DB01474
3DCD2B6E
BDA48984
3C500F20
3D7C4DAC
BD5CADA8
3DA4E270
BD4C32DE
3D83563C
3C988330
BC4D5588
3DAA4512
3CD6E740
BCAD2DEC
BD97C7AC
3D8BA606
3DCC887A
BD206EDA
3D484970
BCAFAAF4
BC3E9DD5
3C9AC43E
3D371A54
3CDDA498
3D44DA18
3CD577F6
3D221ABF
3DA95A37
BC5EE291
3D993A7C
3D57CE14
3D6CFE08
BC808DF0
3CF0FDA8
3D1750FA
3D89A755
3DADC5D2
3D7BF271
3CD0C84D
BD91FDA3
3CF47707
BD84C4E8
BDD3F26F
BD44AB5B
3BABCBB9
BD60FC13
BD5E6C75
3CB9E575
BDB8EB8D
BD2FC26D
BD1B26E3
3D92D2D9
3E2AB09E
BD59B15C
3CBBF797
BC2B5F16
3C5F9330
BC8AC364
3DBDFDE2
3E80669A
3EACBFD3
BDC36F0D
BCA93B50
3D993CFA
3D5E1449
3D879075
3E0004F5
3E3C62EB
3D1A9B1C
3C7470EF
3D8B065D
3C87B624
3C56C728
3C4FB570
BD5EFAB0
3CD7657A
3D95B7BA
3C986D0F
3C0E7C28
BBD9D556
3E8D28FC
3E005710
3E404E7F
3D2F2EA4
BD3BE2B6
BD47BE3D
3C916FD5
BDB96C4A
BCB554A4
BCB692B3
BC90E2B3
BD59387C
3C8C9699
3D16D627
BD4278D6
3D859EC2
BD808D2F
BB1D8380
3C7F3F3D
3D50A4F5
BCA7A24C
3DB068CA
B9F8EE84
BD3BDC40
BD15145B
BDCE85E4
BBCC66AE
BD27C3C5
BD98006A
BD9B81BC
3D670E48
3DC6C1D4
3C26ACCA
3DC75780
3DB54139
BD37818A
3DB39958
BD9FDBBE
3DA77ACC
BDC61094
3CCEB5B8
3DC45B28
3CA7FBB4
BDB94F52
BC781FF8
3DBE38C4
BD80C345
3D944596
BC28C898
BC2C47E0
BBBE4AA0
BDA9F7C1
BDAB1360
3D5163E4
3D9248FC
BCBC272C
3D241654
3BF6FC40
BD699AC3
BD89FBFA
BD2124CE
3DBE5E7A
3D8F47D8
3C6BB1C8
3DACE7E0
3D8A7D0C
BDC3A657
3D28648C
BD9EB29D
3B960170
3DA9C124
BD0713E2
BD9B8FAE
3D18FBBA
BD36AD9C
BD2685EB
BDE67A9E
3D571FB4
BCE5DFE0
3D0C3904
3DB3106C
3BC1F330
3D85D92D
BC462BAF
BCE595B8
BDBA590A
BC56B4E5
3D04C7C0
3DA39B40
BDC243FE
3CB28A50
BC234B30
3D8FB2B4
3DAC3294
BAA9A080
3D2455B0
3D68EBFB
3CA665CC
BD3A716D
BC9DEC44
3DD80496
3DAF2569
BDA1492A
3D1642CD
3D932E42
3D1FB92A
BBA51004
3C110B2D
BDACD3BB
3DA71073
3A3C6300
3C42E433
BDB17562
3DC523F0
BDA6B097
BD8C7EEC
BD34B345
BD6DC3CC
3DB80A96
BCDB11DD
BCD2DC1E
BD938E35
3D86A4C7
3DAC714E
BC5C325F
BD96863E
3DA6335C
3CF654A6
3DB290B3
BDA9F895
BD88E054
3C45258F
3DE82CE0
3D8EB2D5
BD69C9AC
BDE7BAAA
BDC888BA
3D9EDDF0
3D500FCE
3D88D713
3DA8D708
BD69FB46
BD87B96A
3CAC6CB4
3D3EBFED
BD0603D9
3DB7428E
3DCC891F
BC868FE5
3C816ADA
BDC0E3E8
BDE16D3F
3D8DABE3
BC8E4FAC
BBBDF9D8
BC8D5DDD
3D4C2356
BD7FB3E2
BDACE447
BDA9396C
3CE1C9AB
3DA979D9
BCA85749
BD93A81E
BD00345C
BDD5EFE5
3D551844
3D317508
BD0A4ABC
BD65447C
BC1F5BF2
BD3CCE8E
3D69E9EE
3D1AD9FC
BD24D8A7
BDA9B31A
BBC2DFA7
3C7A7144
BD41FFC5
BD983CD7
3DBF6D84
BD0C8EC1
BD506CF7
3C1C8B27
3D8CF2EC
BD2E13D3
3D3DAE04
BD92ED9E
BD5D218A
3DBA4882
BCC94C1C
BCAB3EF1
3D05987D
BDC20C88
3BA15E57
BCADA890
BDE03D06
3C200A6C
3D88E832
BDC305F4
BCE0AAF0
3E005288
BD9E7A31
BD984FF0
3E7123C1
3D00C788
3CE89118
BD6D5DC9
3D7B3536
3E1533DD
3E38B30D
BC80BF0A
BD0C6433
BD691280
BD96BB19
BD412452
BD8682FF
BD920872
BC9A728D
BD4A779D
BD34A426
3C97C91E
BD30EFD0
BD7DE71B
BDD5CEB0
BE08257F
3E2BCD8C
BD45BD63
BAB3EDE6
BD49E77A
3DADA2E2
3DB3723E
3D973B56
3CC06A6B
3CB93300
BCF9533A
BACC9CB0
3D179D70
BCB08C74
BD87BEE3
BD3AE1DF
3D5B6261
BD02CDF7
BDB9F48C
3D9CEB16
BD85908B
BDBEA5B8
3CB35430
3D5D392C
BD0EB588
BD93D84E
3D8A4E3E
BD88F339
BD261B80
BB627140
3D02E5D0
BD3E7EDE
BCA21CDA
3DC60E9C
BD28793D
BD2FA1F1
BBF674F0
BC0F6220
3D06DC5C
BD12A5BA
3C1B0708
3C91AB30
BDA7A3EE
BDBD1595
BDCDFB51
3D7D0B78
BCC7D2BC
3DA4B97C
BDBF18D4
3DBECAA0
3DA90F80
3CDF7440
BD8A8118
3C87937C
BD99C425
3D8D00B0
3D0273B4
3D519BE8
3D9A0F18
3DA5161C
3DBC2308
BD6832C4
3D25BB28
BC1C8C80
3D8DCF1C
BD966C20
BC274308
3D1ED1C6
3C977F27
BA703AD3
3D8341B4
3D51E774
3DA960F3
3CCAED46
BD8E692B
BCE46AFE
3CAE0E5C
BD7053A8
BD4056F5
BC90D792
BD2A4048
3CBD4250
BD4E1CB3
3D8138C9
3D271B0C
3D67FA08
BB4E699C
BDB1A090
3B8B69E0
3CE9E710
3D5DFC6C
3D38B301
BDAB20D6
BDCE3148
3DC1A406
BC959761
3D092C90
3BC389BE
BD835B98
BC48ED26
3D83DD93
BCC91067
BBEAA680
BD57A2F4
3DA64533
BD707AC2
BCCEDB17
BD902AA4
BD6367C6
BDCD6FB5
3CE01479
3C62362D
BD39AFB8
BA7E458E
BD05CA50
BD73CF87
3D2ECFBB
3CFA5F96
BD1A6CD9
3DB5A82F
BD185B1A
3D5E7DB4
3D5E41D8
BC63F751
BD1FB01F
BD911855
3D286DC5
BDB12274
3D946E80
3DDD0991
BDA0E73F
BDB31051
BDD3C463
BD0405A1
BCDF7FD0
BD864C5D
BDB3AEE0
BD40AC2A
3BA012E0
BC89E010
3B7E5D68
3D756808
3DB86A22
BD03A795
3D8FA3FC
BDB106E8
3D8DE125
BDA53B70
BC78777D
3D9C46A4
3D87D10C
BDA87AE6
3A914280
3D8709EC
BCA1ECA2
3DC7CDC3
BD440501
BB01EDA0
3DB66841
BCEB54F2
3DCA214B
3D8FC50D
3DC80ECA
3CCC0D00
3DA4054E
3D56AB24
BD8E48EC
BDC9C528
BBDD87D0
3CAF8EAC
3D4EFD5C
3D9AE1CE
BD8BF7F1
BD13A598
BDCE99A7
BCF08D80
3D8AFBC8
BCA46948
BD137B30
3D8FD7B8
BD354B2C
3DB83A5A
3CF8F5B0
BDC48330
BD83DE9A
3D803016
3DBC2B74
3DC2D4CE
3C21FB18
BD9C3FE7
BC521F68
3DAE2C96
BDCE2D36
3C363E38
3DB6504A
BD8278AC
BD4AAE30
BD126A32
3D0F1A10
BC350048
3DA06CB2
BDD8C08D
3BB67E5E
3C56FA83
BD81561C
3DCD1294
3D59A9D8
BD93D714
BB7F7140
BBC5A09C
BD4C3EED
3DCB4062
3D13F6B8
3DA0ACC5
BD8CDE79
3CF9DBE8
3D291274
3CE0ED8D
3DC2E88B
3D8FD141
BCFC4B1A
3D7E8B80
BDB4FC19
3D55EC5E
BCF0170C
3DCA09DA
BDD04D47
BD611CE4
3D9654B6
3DA05A9E
BDAD2088
BCD295A4
BD21BE1A
BDCC2E4A
BC66B680
BDB42627
BC1310E0
3D2B0084
BC190250
BDAC4B9B
BDBC4087
3D6F9F48
BD03C55A
3CA9F6C0
BD2C0E1D
BCF04BC4
BCC82804
BCDE3888
3C07C678
BD51C275
3DBD1F30
3CE0C130
3DC258EE
BCD2B098
3D8D7AC8
BB834EC0
3D99ED16
BDC93350
3D0CD3AC
3C93A7EC
BA511300
BD8CB9F6
BDC7550C
BDA27A9C
BCAA8BE8
3D6ED0A8
3C11FD00
3D7B0CB0
3DA3896A
BDAFFD05
BCB25840
BD48897B
3D822B66
BDA9A3F3
BD2571FA
3DC6A266
3D633E44
BC732C10
3D222B34
3BC65AF0
BC803204
3D9D0BC8
BCEAC8DC
3C9B1C04
BD9CC93D
3D0BD330
BD66CBEA
3CF41DB8
3D25861C
BD09A958
3CDBBFD6
BC7BBCD2
3A5BE36D
BD341E71
BD25D196
BDAB7799
3E0B68F7
3DA62EF0
BDAB09E4
3D33072D
3A759C7B
BD6089B1
BD8AEE5A
BD837E8F
3E33B3CE
3E5BE69E
B9EEA744
BC8629BD
3D847A01
BD12DF7B
BDCDB271
3CD33A5A
BDA2B4D6
3D31E107
BD4B6B88
BE32982C
391A0A33
BDCE33A7
3D96A7EF
BDA959E9
BCE24430
3E3D6FE1
BDB1D12E
BC8E0348
3D762D38
3DA5647E
3CEED660
3D940684
BDB63519
BD88B882
BCFE823C
3DCF1250
3DAAA084
3C8D0488
3B1A6F20
3DCB4DBA
3DB25720
BD3687A4
3C3170F8
3D3E5440
3DC9BE04
3DB3310C
3DAEC4CC
3D8BD088
BD79CA8F
BD944A9A
3D846E40
BD1618B6
3CD91218
BD0166EE
3CC05838
3D8207FE
BD538275
BD0E6C18
BDA256B9
BC87DD89
BC277FF4
BC96ADBF
3D3FF5F4
BC145CC8
3DA3FED0
BC4777B0
BD730210
3E4D29C8
BD72CA83
3DA48344
BB287B75
BCEB7338
3E56C0D3
3E92B56F
BDB461A1
3D130AFF
3CC0FB19
BE793F65
3CBD5A63
BDDC540E
3D8352F8
3D9B8132
3C5E20A4
3CA570D5
BD844098
3C99A8F8
3D7A9C86
3D5B5CC1
3D7EAE27
3E77F59E
3C17A678
3CAC5448
3D950FF6
3DC5F69A
3D4F0058
BD2014F6
3DA0CF70
3CD4D900
BC660038
BD9C232C
BD83D62E
BD4322F2
3D4AAA34
BD8BA083
BDB75BD8
BDCC6662
3DC93D82
BDAFA063
3BC7AF00
BD4BD497
BC7DAC10
3BADCCF0
3DBC727C
BDCD1FEC
3D8E9510
3DB5447C
BCA2448C
3D6DDE84
BD052FC6
BDAF02DE
BD383E34
BC3315B0
BB5A1740
BD075420
3D61D944
3D384C98
3D8D2B84
3D42F948
3DC0C175
3DC91654
3C876E90
3DAB56A5
BD538571
BC971F08
3D6ACD48
3DBF7DB8
3B980F35
BDE7F2E9
BD7BCF51
BD7B2D8F
BD7B1A8C
3D0C2058
BD23AF45
BD515FAF
3DCB9C4E
BC96B23C
3D04EAA0
3D987469
BB7BDB80
BCEDBF4C
BB15E680
BD44E984
3D44CB8C
BDCF4917
BDA373F2
BD11A932
3CF9EEC8
3D5D5670
3D9D1E3E
BD6E6BE7
BD56E341
3C851CA4
3DB8DABE
BDC48A2E
BDC94A12
BCC8B394
3C15E018
BC325CC0
BDA96A3F
3DB805B2
3D3DC240
BD8326FA
BD6D57AC
BD9A8C88
3D7602BC
3DBBEAC4
3DBE0900
3BDCA7E0
BD801E22
3D435584
BDAD70D8
3D2FC1C4
BD5D963B
3D469624
3CC9FC70
3CA09DF4
BDB5E06A
3DCA085E
3C68C368
3D5A9230
3DD090DC
3D246D68
BD5A7CF4
3C266DE8
3DC4CC72
BC00A5D0
BBDE0DF0
3D10F470
BB5AC2A0
3CCE9E08
BDAD2A72
3D4E73F4
BCFEC5D8
BD81E8EA
BD762901
3D8C2CA8
BD892176
BDCD29CF
BCDC55AC
3C85ACE8
3BBB14A0
3D54A8CC
3CCC50C8
3D758D70
BD1FBA62
3CCEAE10
3DA0973E
BDBB7F14
BD878226
BD3FD2FD
3DAAE3B0
BCD1B0D4
3CE60628
BDC99EB8
BDCBE7F4
BCD021F8
BCF87100
3C9E2BF4
3CB53584
BD8EB376
3DC73E98
BD63AC63
BC5110A0
3D2FE1A8
3C226D38
BD83B4CE
BD80F72E
3DB5DA50
3D7702AC
BD05FCB8
3DB23B14
3D9A002C
BCACC860
BDC12285
3D1192F8
3D568BEC
3D99D578
3DCD41C8
BD49E6C3
3CAB623C
BB0E5766
3DDFD6FB
BD88FA7B
3D257226
3D67E352
BDC78239
3E05539F
BDB64038
3DAE658D
3E41809E
3BEE5477
BC1FB2E8
BC07838A
3DDF6535
BD782E09
3DE23C13
3DA15117
BDA16D44
BDD65F32
3D147EAF
BBFECD4D
BCB4F5A7
B9E86500
BD810450
3DAD0808
BD1FDFF5
BD97BBCD
3D64E2FC
BD60BE98
3DD99F01
3DD0891F
BD2A360C
BD006144
3D9FCD8A
BC86C1EF
BD54395E
BDAF3007
3D0AFE1C
BDA31A93
BDC5A954
BDAFADE6
3C8CEC18
BC98E765
BD785439
BCAC4366
3CF494C5
BC5F7785
BD92AB9B
BDA75C2C
BC32C39D
BD549BAC
3D1A51BC
BC2AFDE6
BC845610
BD704F73
BBDB5F9F
BDAF63A6
3C0AB3BC
3DA53AE9
BB2F5960
3D182162
BBF59E15
3DB02292
3CDB1F8E
3CBDC090
3DA09370
BD1D26DA
BD8889E4
3CFDAEB8
3D19CA2C
BD84C539
3CCB7900
BDC26CDE
BDABE206
3D164318
3DC24B26
BD17A69A
BD696E92
3D127390
BCBAE7B8
3D1E3F74
BD072584
BD19F6C4
BCEF1DAC
3D0E869C
3C900908
3DA25582
BDA0B7F7
3BC7A4D0
BD8024B8
3DC14636
3C198908
3DB349BC
BDCB8993
BB4E4060
3D71F90C
3C0BFEE8
3DB44B84
3D8BFD41
BCD03F26
BD352218
3DB40808
3CC05793
3CBE4897
3D10F11B
BD98E918
3B9BF920
3DBA2E98
BC6F9287
BD9F224E
BD3C211B
3C6EB7EE
3CBC97EF
3C899228
3D77A4E7
BDA5FB37
3D7C83E9
3CCB99F5
3A6C0B80
BDB4E4EE
3D2D4B02
3D74F1BF
3D8514CD
BC3F3530
3CE17990
3D903A25
3D8EC14C
BD0D571F
BDBE1AC4
3E108D0A
BD98E0D9
3BAEEB4E
BC9F55B4
3D89C642
3D6E8949
BD996396
BC9EA2B6
3DDEC02E
BD50235F
BDB56A85
3BDF4057
3E047D0A
BD04A8EB
BE028B43
3E1FB18B
3DAFF33C
3DAFCE61
BE8C9288
3D27AF60
BD89F3BD
3D92746A
BDCA511A
3D6917D0
3E1264D5
3AD6DB11
BBA13DD0
BDC17571
3D047852
3C3F53FD
BCFE32AD
BCDDA550
3C46C770
3D7ACD6C
3D4ECD84
3D87222C
BD86B971
3CA1D97C
BD92A697
3DA6D932
3CB2914C
3DA1EA24
3D2BE5CC
3D29A770
BDC03927
BD3A4C96
3BF2EE80
BD395F93
BD16238E
3D9FC098
BDB02E20
3CD2D7E0
BCE2C538
3DAADEA2
BD2CA9A2
BC9D0334
3D889548
3D35F0E4
BCA3EDFC
3C88FA70
BD9AC128
BC934630
3DC93364
3D4BFB44
3CD979D4
3D43678B
3DB0F4FA
3DB8DDB0
BD94EBBF
BDBA0FB1
3D715DB5
BD850C0A
BCF21D6A
BD816B3D
3D34BC7C
BD81ABE1
3DB509BD
3DC53592
3D2D903C
BDAC7173
BD87F5CC
3D0CDEF7
3DBD0CC2
3D5C6467
BD80D7C1
3CCBFCF0
BDB7BB23
BDD49586
3D9A472D
3CBF22D6
BD8E2190
3CFE52F3
386CB3B7
3C5FE7F0
3D5B214C
BDE356D2
3E37A6B8
3D07447E
BDCCC9B7
3A9E381C
BDC6F1E2
3CF36C2B
BD6BA4A0
3D1C4802
3EB0418B
3C21BF7D
BD68C5F0
3C9B9F99
3DA72386
3D7956BB
3DD214C2
3E079515
3BF82694
3D86DB9A
BEA3D446
BB4923D8
BCB1E653
BD592A15
3DAD60AD
3CB79F79
3E25B816
BD45D2F4
3B6A4820
BD32CA3B
3DFE7061
3E4C93DC
3DCF7C0A
BCE10774
BD66EA8D
3D0CBD1C
BDD660B3
BD60C956
BD462A91
3B947F9B
BD89EB0B
BD0BB9EA
BC4A36DF
3D002E32
3D9B67D6
BD65F952
3CCCB50D
3CC6C8B8
3DB11321
BC1A9DA0
3CAADA1E
3D0411EC
3B721819
BC9491B3
BD8D61E6
BC620A20
BDA737A8
BDAE545E
BD516563
3D6F6D25
BC085EC0
3DCA169E
3DB6F034
3DA19DB1
BCEFFAD5
BDAC71A3
BDABC7D5
BD552F94
3D171A80
BDCA3F60
3C98A7AC
BDAC26C6
BD3B9187
3DB3F83A
BC6BCD88
3D5B578C
BDABF8DF
BD6AC593
3D976CDA
3D822D96
BD6C96CD
3B2B6F80
BA2C2900
BBCB36E0
3DB62AB0
3DA7AB64
BDB93CCC
BCC23558
3D88C7D0
3DB56C2E
BD6A07FF
BD826D8E
3B5200A0
BC341558
3D860088
BD139ACC
BD23F902
BD5FA4AA
3D323760
3DADE794
3D992434
BD4D5CC3
BA3C2B80
3DD39116
3CAD81E0
3D2E4CC5
BDC16D26
BD37A592
BD607704
3DCC0F64
3AA44027
3DABFCF8
BD93F7EC
BD3CDCF6
3CC82708
BDCF568E
BDE61677
3D861E72
3D80004A
3D53FD04
3D8A0ECE
BCDDC9A4
BDC1C252
BDCB50F1
3DC41402
3CC14230
3D193C14
BD93DE8B
BCF0E4B3

