3CCE4F4F
BB9EEA1E
BB0C0640
BBD3308B
00000000
BC0259CA
3C231684
BBA0CD2E
BBC7EA85
BBB7FEC8
BC524642
BB48648F
3C010B62
BBD73890
BC62500B
3C8BCC31
3CB11783
3BBEE9D2
3A42D317
BC67ACF7
BC07677C
BBA926B6
3BF38E04
3C943C10
BC91558F
BC39DDE7
3B934AA8
BBCB3696
00000000
BC1F083B
BBBEC4F6
BC3D539F

