BCC048B7
3CA9CFE7
BCD46949
BCCFAFBB
BC96F90B
00000000
3D46B42E
BBDFE787
3CE532D3
3CD5F5F2
BCE41E73
00000000
BC468862
BBF178A1
3CC5FB2D
3D00E35A
BB16920C
BBCCAAC8
BBC6411B
BC4AD5A5
BCA27816
BC7E2AF4
00000000
BB887231
BC37A450
BC77EC33
BBE91C18
00000000
BCDC549F
BB1A99B8
BC22B3CC
3C1E83C6

