122F
E8F4
E522
104E
FE4B
0CF4
D732
1616
FF88
1990
EF04
FBE1
AFD0
BCC4
0E89
1A07
F23A
0DD5
0E79
18D7
03C4
0CCE
D88E
A5F9
C2E3
04C4
C494
EC83
1154
FFF5
E7F8
EC46
1C0E
EC7C
B373
1995
0152
105B
E3F9
F51F
120A
FD32
FD98
06B9
CA92
CF18
0C24
F866
0FF3
EE4A
E97A
0446
E848
E95C
BAFE
C18E
F6D7
0B77
C7EA
0956
ECC6
F3FA
F56B
F97D
28A8
09B0
E409
F01A
F27A
E6B6
133A
0C82
EAA5
171F
F691
F70B
C64C
FC5D
F6A8
1C43
1F8A
0E50
FB51
112B
FB90
0082
FAB2
BFC3
045C
FA9E
E3B6
EB16
F65B
198F
13DD
0620
1F3A
F877
F23E
0270
18E1
1845
E2CA
F446
E686
0B41
0977
F4FB
CADD
D6FF
FFD3
EB37
219F
E508
E8A7
182D
FE37
1047
D808
C7F8
B78F
FEA1
B818
EF8D
ED1E
0C20
EF2E
10A4
1B10
E79E
FABA
15F5
FED1
0DC8
E9CB
FF2B
EBCF
0CA8
F9BF
EB62
F547
E881
0E56
103B
1442
09AE
0C97
0CC4
EE8B
F9C1
0117
C8EA
E3CA
17EA
D47C
F1E9
17E3
E76A
00AA
F50C
1472
ED8A
F7BE
FA93
0B8E
F362
1E68
F566
0F5D
029B
F4A3
F24F
EC50
006A
1475
1D57
00A2
1DEB
E8B3
0DF9
E787
0FC5
33C6
095C
01EB
0233
215E
0FFD
E785
164A
1268
F999
160E
1979
E174
FE5D
FE5E
02D8
F82F
E8F7
06D4
0ADD
EA0D
FB5A
DEB5
02C9
EA9D
2371
059C
3148
F345
0137
0D54
07F5
0F50
E185
1D5B
03D0
04C0
E6C4
EF01
0FDE
0A06
E66A
26F5
EBD0
DE98
0057
EC3E
FDCB
184B
F84B
1009
F5BF
135D
FC03
DCBB
EC51
0420
0E2E
2E29
2A8A
012D
F74A
EE7C
F806
0EED
1469
3B40
1037
2D94
F4B4
F6EC
EFFF
F9DB
FE60
F2A3
0540
FBAB
EA39
0F41
F7BC
F083
E7FF
EEA6
E9BB
0984
ECEF
35D5
0956
0997
1B42
F5E7
F3CB
1685
1850
1184
0488
EA1E
5A55
09B8
F8D2
555D
F71D
1671
110B
117D
0ECA

