15CC
0772
FD75
F7DC
0BD5
F912
E8EE
1197
0AD9
0E9E
1135
1687
02DA
02C8
FB7D
E94C
F8DD
05D6
F4D0
095D
E6FF
FED2
FEF5
F9C9
1848
F354
EBE4
F6E0
E9F3
E5DB
0537
1568
0E66
0C12
07D2
0F40
F033
EBEF
F895
E95C
E703
F746
02E7
FF17
022D
F942
EE9B
0A3F
18AF
EEEB
0CE2
129C
0BBC
0F2A
EA21
0F3C
0766
0436
F39D
1658
EB6C
E6CE
1523
EA79
052A
092F
1802
FDB1
FD9A
041B
F7B8
F3EC
1317
EBB8
F54F
003A
18D4
E8D3
10A8
FE74
F6EB
0EE9
1876
194D
E691
E6A9
0372
F87B
E75D
FB16
06F9
FE04
0A0E
125B
F984
F9B5
02C2
F960
0752
FF40
0619
FC16
06A4
EB62
FC54
EC2D
1160
0632
EAA5
FFFF
1805
0137
EC94
155B
E765
0908
EA65
096E
EB0D
15F2
166D
08FF
F753
F7DA
ED71
FC46
1117
1730
08CE
02F2
12A9
001C
E682
0308
FAC6
ECBA
FADA
F59D
EEBA
18B3
064B
18EA
FBC9
FB94
1366
0456
F81D
EC2A
01D9
01B4
16F5
F7D0
19CB
0400
1130
1398
0973
0B16
0736
EF2B
F8F2
FCC4
1675
EF5F
0706
1561
055B
03B9
04B3
F62D
F081
0632
FC4D
FDA2
0142
14D0
FB82
F9FA
14A8
F213
EB12
F084
065F
06E5
051F
E81E
03A8
EADE
1082
1709
03D0
FEC6
F91A
163E
F2B7
FCCA
160A
EAE0
1212
1517
ED4C
F6C4
1771
0B7E
06D6
07A8
06D8
F1A0
05A8
0252
FE23
ED70
03AD
EF4C
F653
15DE
EDBD
0D9E
04C6
F3C9
08FE
F6C9
EF05
035A
07D4
0C55
05D9
003B
F987
0FCF
17F3
042D
063F
067D
042B
F5AE
1454
FC8C
050E
1122
136C
0256
1775
EA8A
F7FF
F8AD
F1D0
ED3D
1931
09FD
04D8
F696
FA11
1427
F693
0464
EA9F
FDA0
FA65
0AB4
1744
EB2D
F560
FD83
E829
0DCB
0F51
15A3
FB90
FA72
FD56
F8B7
18B2
1710
06D4
FFBD
E795
F57A
0A59
17EC
EC11
F6FA
0179
F8BE
EFFC
10E2
ED6A
EEC1

