0779
01E1
0C20
24AE
2781
077B
260C
0572
366C
25F5
2BC6
08EA
2D93
0BB3
26DE
00F8
30B1
3529
1738
140A
0844
0181
0899
2820
0BC3
0929
329B
164B
0654
3A05
3E4F
3BFB
34C9
036D
2D98
2532
00E0
3849
17E3
0992
35F9
1459
29CF
00B1
2AAF
00D0
2D4F
26CC
35E2
0ADF
33E8
2ACE
02D6
321D
27E1
28DE
060E
32D2
1789
0224
1195
3A97
3087
2E9F
2F05
262F
196B
0EAB
2D80
3EA4
0500
1041
2620
1261
0EFC
2A14
0870
289B
0B30
0F87
146D
23E0
1189
24AF
0D8D
12DD
1190
169C
2760
30A3
38C9
0D6F
0CED
2CC0
0E96
33DE
3B8B
39C2
1247
28C3
10F6
2DE8
38FB
38BB
0D63
2C51
1990
01E5
38AB
3316
2B31
12D9
2DC0
3C49
15CC
03EF
02A5
248C
042F
0909
174D
3321
13AA
02B8
25F1
346E
3FF8
3A6E
0F98
3C98
31A7
0213
0076
0B40
2A65
364B
097E
0406
2CCC
0E03
2DBD
1749
2A84
3C0A
112F
31C0
0238
0016
3D2D
2671
2827
0474
3BB7
0432
023D
0556
03CD
111D
3175
0467
2BCA
0278
3CEF
3884
07A0
063E
0B0B
0A22
3F37
3170
35BA
2E8F
36B5
1797
0091
053F
33D6
3FDC
307E
39BA
123A
099B
0EC2
37C4
19B4
2983
3637
277C
1093
2387
3069
1207
0D8B
0CA0
3533
3688
2CCA
0C37
2E72
1777
3D89
2D88
38E4
299B
0F32
2B32
17D3
2CC0
3D00
3431
2DE4
305B
33E5
074A
3358
375C
12CF
075B
02D0
12A2
089E
313E
3945
0886
13B9
2E7B
1015
28A7
390B
390C
33DC
067F
0500
0EFE
30E1
3AF3
3F59
248B
2DB8
32B6
033E
0150
0D3A
3C25
3677
0F46
37D4
2FBC
2B1E
11F2
19D6
3633
28F7
01B5
0DB4
0E65
2EC0
0B47
0209
328D
024E
3941
06D6
083C
04FE
06DE
1618
3E48
2DF5
0435
051B
2503
2A12
11A1
384F
331D
0E79
09B2
14A6
0050
346B
10D9
16D5
07A7
3023
3C91
3082
15E5

