B7701A74
BC85FEAE
BBD17D94
3D3A4C61
3D2AE749
BB9BBDA6
3D8C4C22
00000000
BC7C377F
00000000
BD06301E
00000000
3CE54BCE
3C5173B5
3D0E9734
00000000
BA643963
3D3FA6E7
BCA40066
3CE07198
BCBBDAE0
3CB4C0EB
BBC219C4
00000000
BCB86683
3C9B0992
BC2C649F
00000000
BC810B2D
BC4943BD
3D3C2A49
3CC45F5A
BC4B864A
3D523880
BC03274E
BA788645
3D7B713B
BC9831CB
3C11786D
BC84E22B
3D3C5EB6
3C8A69D9
BC1D6FDE
00000000
BC846E3B
BCC30232
3D1B48C9
00000000
BBB5ECAE
BC8431AE
BAB41E63
3B985B0B
00000000
3D8F5C7D
00000000
3C1FA881
BBBD39F2
00000000
3B215AA4
3DA53ACC
BD628300
BC0D15FA
3AEC8485
BC928B90

