3E35BE34
3E1F9D23
3DF4BD8A
BE363D56
3EB132AB
BE756828
3CF6DA54
BCBFF480
3D568C60
3E845077
BD055332
BD5B2A62
BDF15AC2
BE7D9979
3EA76892
BDA33AE8
BDB5A439
BCC2F43B
3DB13C38
3E0103E3
BE745300
BE7E77E0
BC803DE0
3E394D0F
3E84BEA3
BD04D50B
BCB1A706
3EA69C42
BD64EA80
BAAE6600
3E4B2E08
BE6A2779
BE0A26CB
3DD42CA1
BDB83107
3D2BD0A2
BE529541
BE44462E
BE734999
3E10A9B4
3C7F1E80
3E3D84EF
3D90FFD1
3D6686E5
3E110CBB
BE3F1594
3D85D95F
BD9DFAB9
BDEBAFD8
3E2B2C2C
3E5C7378
3E6DE338
3D52C3F0
3E816538
BE5751EC
3A095A6D
3CE20644
3E548AE2
3E6DD47F
3E797124
3E669D30
BE2133FC
3B0ED02E
3D65B829
3EA55FEE
3E2FFC47
BE8F565E
3EBA6CAE
BEB45914
BE23C734
BE7E125A
BC603FB6
BE647F48
BD806605
3E44E2E6
BE18E3BD
3EC4F76E
3E5E4EEA
3DBA16A8
3EE4797A
BD739037
BE10B228
3E216F54
3E49D6F3
BE5DA432
3E2757B3
3E091C84
BDBD83A8
BDBB1743
BD8BDEBF
3DAFA1F2
BE42FAAC
3E44EFD2
3E72AEDC
3E8A1E67
BCB2B02E
3CEE1B79
BE64C187
3D527CE3
3E618489
3DF6CF4B
3D897E28
BE1FAC95
3E0848EE
3E155EF4
BE0AE5DF
3E5475BD
3E7877B4
3BDEB50A
3E5F503C
BE4F00B8
BE7ED613
3E049808
3E6B7F13
BD7042B0
BD874D58
3E3F769C
BE3FF489
BDCE0EA0
3D604F90
3DF07002
3C251F21
BDE17450
BE075917
3DC8A712
3D2BE980
3E46DEBF
3DC49FAD
3D883D86
BDD21820
BD6A5933
BDCF7FB5
3E22BEF4
3E48761C
3E74CF80
BDF6D860
BD923090
BDD7F001
3E7A2BF8
3DE75158
3E36C077
3E3BDB9C
3DBB6948
BE4BC24A
3D512B00
3DB8723B
3E0A3C84
BE1CD4D8
BE5DCC2C
BC57AD40
3C7438C0
3E43BD90
BE452E9F
3DAA08B0
3D68E892
3C767A8A
BE26BAF0
BD8AB448
3E673612
BE061EFC
BE240893
3D4188B0
3E81D3FB
BD963EA3
3E425318
BE748E0C
3D3422F0
BD913309
3E708FC4
3DA5CD56
BDDA7661
3DD4FB54
3DD4FA00
BDE75518
3E6182D8
BE48DA26
BE0E5F94
BCAA6DAD
3E29D718
BE0FF84C
3C0894F8
3C841600
BE090374
3E5C803C
3E34AD96
BDEC4EFE
3C9C016A
3E5EB438
BE3EE97C
3E331F40
3E8090CC
BE49332F
BC874C55
BE71BAED
BE87E191
3E98A7A0
BE9A45E0
BE2B8F37
3A299536
BE83ABBD
BE43C110
BE014D2C
3D1D67FD
BD9C1D72
3EA984F2
BCC65154
BE8A401D
3DC71BA1
BE72B8CE
3DD70EEE
BE34EFFC
BE24ED4F
BB7122CD
3E685C26
BDF050E0
3E2F3956
BEA34738
3EA041DD
BE8E5B60
BB4588E9
3E51786F
3DF7DE88
3EB095DD
3D18C797
BE03B5CD
BC8FCE80
3E42416A
3CBC3D25
3E613917
BD701AC0
BBCDC280
3DB22C78
3E6CA510
3E35C8D6
3E64B7A4
BE406118
BC10F640
BD80CCA0
BCC84900
BD8883C0
3DC625B0
BD3AB580
BE47EA70
3E5C66DC
3E5FCF64
3DFD0538
BC1DA2C0
BE4DDAD4
BDA56DA5
BD0B2C72
BD39360F
3E42B53E
3E4BB1C3
3E64BF04
3E602CE9
BBB97393
3EB00F17
BD0C5D57
3DF9C4B7
BDBCF16C
BE3925AA
BDE5A818
3DCE59C9
BDE5B7D6
BE1CE0D0
BE59E93B
BE080754
BE966989
3D8C9AB6
3E2ED5D9
3DD96513
3E8759AF
BDA2D404
BDA25267
3D4AC380
BE7847FC
BE15F193
3DFBD52D
BE3A3108
BE48E07C
BE824142
3E0E27D0
BE3BDAA2
BE37DC83
3E35839E
BDFD9CE0
BD821E4C
BDEC756B
BD861FE2
3E48DD10
3C48A58E
3E120089
3D22DFF3
BDBEB7BA
3E513822
BE75947B
BDCD9388
3E1A94FB
BE0A40E9
BE5B5146
3BB72CEA
BD297F40
3C881346
3D3E43D0
3D8EE598
3D94326A
BD316B90
BDC6DB50
3CB0FAAC
BDB9D485
BE0B7484
3E14DB28
BE5274E1
3E614FAB
3E34BB32
BE150414
BDD278E9
BE7865B4
BD887802
BD64510B
BCB4F2F6
3E5FD744
3E72DF20
BD787083
BCA2E7B7
BB5BF900
BC3E1D40
BD4CA580
BD2169F0
3E0C217C
3E5D7938
3E0F4C18
3E269D17
BDAE5540
3E786B54
BE1C524F
BD739660
3D1EB055
BE3D619C
BDDE9B10
3D7089C0
3E1F6668
BD79B620
3E7E0A50
BE089BC4
3DCF6BF0
3C1A4524
BD6D60F9
BDA6F7B8
BBF2CF80
3DCFBB71
BE43BF1C
3DD0C4B6
BE21CBCC
BD020B6B
3E82D23F
BE6FFCAB
BDCF45A3
3E92558C
3DDF68DB
BE2B8D80
BBBBC408
3D9807A7
3E5D8FDC
BDD7BC1A
BB038EE9
3DB4EA2B
3E577894
3DAFE9C9
BD439979
BCE82540
BE324B56
BE7CAD39
BE32A1FE
BE050028
BE4D75F4
BE41C6ED
3E6A4B47
3E019832
BD346182
BE7E5977
BE39E7C0
3E3D8AC2
BE244B6B
BE324812
3E5BF740
BE70CCE9
3CCFB3F4
3C12194C
3DF0DFA0
3D96E9AD
BE4E60B0
BE38B738
BDBEDE68
3D8BBB60
3E7C9A56
3D8CB73B
3E359600
BE64CB18
BE241A42
3D90BA00
3E143272
BDFC5650
3E530A18
BE1771CC
3D579110
3E140B40
3E1FAA54
BE6BB394
3E2550E5
3E75CDB2
3E14B506
BE323064
3E1B8AF4
BE60EEF5
BBBCE2C5
3E98216A
3DDEC4BC
BE4A3715
BC300967
3DAF67C5
BE721F82
BE56253D
BE4905FB
3E28C5E4
BEA23FDF
3E974E8D
BD9EE2F6
3D31FAC9
3E330B18
BE4E38E5
3E501822
BCCAF4E0
3E3BBD35
3D410510
BCCEBFD6
3E388001
3CF3B4E0
3D0F9D70
BE83EF09
3CCCEBDC
3DF5AE1C
BE997175
BEA4CF52
3E426344
3DBE4850
3E02BADA
BE35B475
3D9A47AB
BE4FFE45
3D35DD74
3DDF5983
3E016653
BE601822
3E5EEFF0
BE5C95C8
3DB5CC18
3E72096C
3DA1A646
3E170447
3E74B838
3E4D4705
3E8BC925
3E107E04
3E3B8D4D
3E274D19
3E14081C
BE595D9D
BE02BD4F
BE49FF76
BE0A0730
3D44D045
BCAC3E20
BE2134A9
3E1574D3
BD5D6DD9
BE004124
BDEE9430
3E18155A
3DAE093B
BE0310B1
3DE9982D
BE4E8752
BD06EBD6
3D6B8795
3DC19057
BE2A9EAA
3CF04568
BD6D4F00
BDCD6AE9
BDD19F97
3E83F8EB
BD1DBBEC
BCE0EA20
3DC0858E
BE335A76
BE241BB0
3E2B527F
3E2EE3D8
BE2BC92C
3E047128
3D8AF496
BD114EE0
BE56B966
3E10670D
3E034C80
BE61A229
3C97A77C
BCF3D53C
BC4FB8C0
3D9E3BB0
3E147305
3E23A8D2
3C039DD1
BC25B398
3E624981
BE39E48D
BD9A6210
BE22BC92
BE0FD55D
3D390130
BCD3D995
BD9F284B
BD476C64
3E6EE005
BC87CB16
BE4A1B8B
3E80E848
BD857421
3C198F3C
BE013A9C
3DD2FABC
BDB24DA8
BE6C2AC8
BE77D098
BD491789
BE0EDF76
3E34C7E8
BDBC9129
3E88803C
BDADCBAD
3D6C6D90
BB89B590
BE5B08BD
BDE12AA6
3DBC8213
3E642BB7
3E2FA12D
BE7896D3
3E388849
BE6D7848
BDB42ED0
BD6EB2E0
3DB3293C
BD623BFD
3DD4D48F
BE32D007
BE518E0C
BDD27938
3E0A70A7
BDE85930
3DFD3410
BE6ACBEC
3D230240
BC575A10
BE078A66
BE5A2790
BDFBBDCD
BE4095A9
3D2F07C0
BE17B82E
3E4F3F92
3E729510
3E24761C
3D9C47B8
3D353110
3E354EB0
3E1D19C8
3E6860FB
3E1B9376
3E34BE0A
BDE9BCE8
3D03F112
3E65D680
BE2EDF8C
3D862850
3E55A344
3DEE3617
3E6606FF
3E4B81FC
BD377AB0
3E5379F0
BD12D050
BE1454C7
BE6B0198
BE775DF4
3DBA32A8
3DD2F6C0
3DE5C408
BE0AA458
3E04AD3E
3E4D8E41
3D9D328F
BE019DA6
3C209C80
BD44C920
BE2604A3
3E343F40
3E0855ED
3E78B820
BD944EF3
BDD4B1A3
3E658EC0
BC0C4500
BE77AF4C
BD1C57FA
BE2DF60C
3E0C5E2B
3E66C185
BA8B7E8F
BD8CD5A1
BE7D4D18
BDB5FA50
3B957B6D
BE7BCC78
3DDC1978
BDD7B7B0
BE21CFA4
3E5657E0
3E21B538
BD888668
BE27F6EC
3D22052D
BDDFF1CF
3E47FBA4
BD96E9B1
BDDDD90E
3CD85BC0
3E62BC13
BE137378
3E44C604
3D1F8EE0
BDD23E78
BE4FC62C
3DF68E20
3DC0AF60
3E1C19A0
3D8D1150
3E79D1C0
BDD8B188
3CA03460
BB8AD400
3E031FC0
BE6AE204
BE594564
BD68AC00
BE5DD820
BD02A8D0
BE5EAA08
3DC8B3D8
3C11B980
BE08B5C0
BE793BC0
3E187894
3CAD5580
3E60AB20
BE153A14
3E4EDBC0
3DE7A338
BD5D1580
BD1958A0
BE72BF20
3E8C8821
3E0732A0
BE98740A
3EBC23AF
BD622F1F
3E5D9F4A
BE554EC4
3E45A225
3E547E80
BE23AC1E
3DEA7374
BE1804D3
3EC95B15
BE112656
BE897666
3E9A5029
BE3D97DC
BE520122
BE43397C
BE7C5916
3E4C78EB
BE687AD3
BE69B294
3E1EFD00
BE09807B
3D50DEBD
BEAFEE10
BE6A8B67
BDC682C8
BD874BA0
3EB50AC3
BD299F9A
3E8B0A18
3E86B320
3E528C6A
3E91658A
3DD8D289
BD95AA11
3E3FBC55
BC74F590
BE3D4FC8
BE519A39
BE38B3EF
BE0287EC
3E326EDE
3C9F13F8
3CA7781B
3E4D16D5
BC9F9C37
BB2B3661
3B685A00
3BC26ADD
BE3229AE
3D0F6801
BE0886FC
3D812C09
3DCFA127
BE053ECA
BD3D5C31
3E599845
BDF53B30
BDFA2798
3D8085AD
3E0051D9
3EDB26E6
3E326E21
3E00FCC2
3E911336
BB1AEBFC
3D0E9401
BDD972B9
3E27AE7F
BE1C852C
BD340114
3E31DA79
BEBB1C7A
3E3D4EA7
3E2718D6
BE5F6E85
3EA53534
3E533C25
3E512948
BE78E014
3E144F97
BE4089FF
BDA943EF
3E009FB8
3C7133BB
BECB42C3
3E10F40D
BE4232EA
BE23C92D
3DD5CFF4
3E28FCA8
3E84F4E3
3E2B0D0C
3E1BEF80
3D228CA8
BD9E0F48
3AE6D0C5
BAB292FE
BD5BB9D9
3E0B9D9C
BE5ECEFD
BE7067D4
3E0F9A09
3BE20E65
3D81D53F
BDDC512B
BE6402DA
3DDF6104
3E5A7EDC
BE65139A
3D861E12
BE7E55B0
3DCA0186
3CF3AE3E
3E61D1EF
BDBF7A98
BE4B160C
3E62860B
3E8D1D86
3E12A928
3E88FB57
BDE06FB8
3E0A80E4
BD1F8E27
BE110EB0
3D391EC0
3E8476F0
BCF56332
BDAE1AE2
BD11E008
BD182D60
3E9BA252
BD67D8A0
BE3181E0
BD2CFF66
3E46FF43
3E90D5E5
3DA50774
BE44580D
3E7AB25A
BCEF7C95
BE522252
BCB34124
BE732B74
3CBB0BE0
BE3DE848
3E0F7678
3E603C2C
BD0FAF9A
3E5B4691
BD186E9F
3E912BBF
3E4F2EC3
BDA05A68
3D6FBBB0
BE0B7B56
BD8E0E67
BDB16CE2
3BD54900
BDF3DFBB
BE26F5E6
BE455EA4
3E365DD0
3E482F8C
BE321638
3C71B580
3DEB7028
BE220D38
3E1EC6EC
3D3F734F
BE0668A8
BE14B0D4
3E29FEB7
3DBF9310
BD746AE6
3DC6F208
3CF70EE0
BD9FEE60
BDE63C48
3DBF9938
BD362CB0
BD825098
3DCB23E0
BCA2673E
BE061EDC
3E020E24
BE062A78
3DB41E34
3DD8D228
BD1EDB6E
BB4CEF8A
BD79D4DA
3D6D0E83
BE6F522A
3E57FC10
3E21F9E2
3E6DB468
BE158F98
3CD80C9A
BE63FD48
3E58525A
BC3E63C5
BE406C58
BE2B2A01
3D07205E
3E60FA70
BCDF15D3
3E5C7C78
3DAD43E0
3D10EB20
BE37376C
3DF54E30
3E512D34
BE24E8F2
3E42F978
3E1BD9B2
3DA9D48B
BD5CE420
BE639420
3E107F55
3E2C8D3C
3DDB87CB
BE335D34
3E1A7D61
BE45F9A7
BD75BEBD
BC694B40
BE432784
3E43C2FC
BDDFBB78
3DC1F4CF
3D858A60
3D8A3104
3E5DD7C6
3C1FE700
3D9742E0
BD7F3406
3B8ABA80
3D4AE7A8
BE348FB8
BD6F4540
BDA4E8BE
BE79E679
BDBF3CD8
3CB8ADE0
3E61BEF4
3E2D9208
3E786716
BE564016
BD695210
BC94D960
BE4DF7AB
BCB30960
BE48845E
BDC185BF
3D87469C
3E5A88F1
3DD8DAAF
3DC4A8B0
BD104310
3E1F03E0
3D8C17B8
3E06E1FD
3DE62BFF
3E51BC21
BDCFA350
BD6C0A10
BE5219C0
BE6F303C
BE6FCE18
3DC671FF
BD389E50
3D61C980
3E7279CD
BE6DCCB0
3D4B8DE0
3DA866DD
3E246D35
BDD768D7
3D5FE89D
3E372016
BDDB4B99
BE1F3A48
3E22AC9B
3DB75063
3DDA9934
BE5907C9
BE22FABB
BD82DB3C
3D1BE1DC
BE3747F0
BE70C27C
BE7CF04A
BE3232D8
3E404F07
3D6CFB25
BDBD8088
BE0BA8F0
BE378FC4
3D94A260
BE30321F
3DEE4A60
3E5E5C93
3E2329D4
BDD4B738
3B24401A
BD608940
BE503B8C
3DE7CFE0
BDC58E8C
3E2B5AAF
3E053156
BE509214
BD98ED69
BE7E32AC
3E3DEDBD
BBCFFAF5
BC58A13B
BE3B8ED7
BD5758BE
BA889675
BE4D7ADE
3E38FC3C
BEBAA0F4
3E1CE9C0
BCF5B580
3ECA5F1A
3F0435DF
3E9ECDF3
BE8632A0
3E0FA27C
3DBC0155
BD331A9A
BD277A9A
3C6A412B
BE288404
BE609670
3ADAD49B
3E46126C
3E0CDCF4
BDD1B059
3E18C621
3D539192
3DD0262E
BE8996AF
3E71B12B
BE21BBFC
BE6225ED
3DDCD9D8
3DC2DE3A
BE186720
BCC0A84A
3E8C0195
3E8D5403
BE0FFE57
3E86B424
BE79CB5D
3E14D004
BDCC1D9A
BE46A269
BC574326
BDE91745
BDF697B9
BD4C2596
BD5204EF
3DC783B3
3D8258D6
BB6D7200
BDBCE976
3D602DE7
3E4514EB
3D2D2380
BCD7F7F6
BD0B19E9
3E77B337
3CB5E98C
3E9F8C00
BBA78CCE
3C9C32C0
3E742329
3CE1E235
3E665E67
3E1FB4EC
3E69B940
3E2C087D
3E6069C8
3E038950
BD2012C6
3E760838
BCCAA9A0
3E67977C
3DB55AD0
3E4769D0
3CB788F3
BDDF1578
BE0518A8
3E2DC5C3
3E39C8B4
3D3A7022
3E6F7BB8
3D03FDF0
3E072900
BE150570
BDBB8C48
BE41D734
BE2A6A40
3E644C84
3E3A626D
BE1A5D4E
BDF40798
3CF3F700
3E47E01D
BDE22328
3D866FC8
3D2B0625
BE3D17F1
BCB2FD78
3DE7DF84
BCF9E2D1
BCCE4642
3E0CCF98
3E724788
BE4D5CD6
3E0FA129
BE4C43FE
BE1EABE3
BD4E24F0
3CF59B7D
BDC9B22C
BD6D57A0
BB82A4F9
3E6F4F4C
BCDF36A0
BDA66F59
3E4A9DED
BE51C4AC
3E1C758B
BBA9CDE8
BE5D752E
BCB5DE1A
BDB489DC
3DA4B9FB
BE323070
3DE04519
3D0306A0
3E16A71C
BE5344D2
BCF096AA
3E5888DF
BD06AC49
3DAD3289
3E848D1A
BC17301C
BDA6BFE8
BE4B4B28
3E83C761
BE971D04
3E570600
BE03718B
BE269DB9
3E5581A0
BE873F21
3E5E86F7
3D905170
BE531E36
BDE6C7E6
3D82CA8A
BE0044A0
3CDCE368
BDD087DC
3E9F0515
BE08A8EF
BE19026A
3D8302F2
BE41C4E4
3E4C35CC
BD94953D
BD8E4C78
3E5F692B
BE27FD39
BDF37B85
BE3FD13B
BDA9DA40
3E6F7D92
BB5AD100
BE502C74
BD5B3280
3E16F413
3C855300
3D92EB59
BD2B7E60
BE570039
BDC22561
3E03765C
BD3E1027
BE3CBEF4
3DE41778
3E614AE0
3E265108
3E7534A0
BD9CA308
BD4FE9A0
3C1D2328
3DD6E380
BDF9284C
3D0AB7F0
BE4E9344
3E42BEBA
3D94B0A0
3E1D6DEC
BE1671F0
3D78386D
3E5064B0
3D184213
3CC8166E
BE59DEFD
3E2AA0B3
BDBC5F60
BEB0DB81
3C09D2DA
BE6CDD81
3EB90913
BE2E29A0
BE14A47F
3C034F95
BE264DA0
3E62B457
3ABD6C00
BE6657D4
3C8F240A
BDDEC22A
BE4414E0
3DC1117E
BE94ECEC
3E2C5A30
BEA954CA
BE21E9DD
BDFB4DDE
BD24EFA0
3EA5B401
BCF65541
BCD54FEF
BE02F991
3EBFAA05
BE108356
3E8C41FF
BDF14159
3E9C43A8
BDC07B1E
3DCB1180
3E991E2E
BD8F621D
3E26B730
BE96E261
BDAF8AA3
3D833973
BE7B120A
BDF8EC59
3C898E00
3DE7E1A0
3D827672
BE6C9944
BDB1A060
3DB5C6D0
3D10845B
3E8EA783
BE431A1A
3A570C4A
3EA4C55F
3B06EC5D
BDB3F730
BDD99F11
BE24152F
BD3B80EA
3D3442CC
BD05C717
3E120C6A
3DA1F629
BE5A1EDC
BE069A6F
3E6787A4
BE093620
3DC4938A
3DA00B5E
BCA45741
3E0B24A1
BDC16650
3DA4AD2D
3E2F7C88
BCB8E720
BE32F250
3E4546D0
BDBC3AD0
3E3C93EC
3E14DBFC
3E415074
BC2068C0
BDC24168
BD20BAF0
3E0D4D4E
3D92FB30
3D435065
BD97D818
BE6715A9
3DD594C8
3D9F7F75
3E9532D2
3D82FECC
3E5F9A24
3E80FAB7
3D15BEFD
3E7F2119
3E2F16C9
BCB4F5A0
BE8B1483
BDD73ACF
BE19063D
BDB25371
BE871C97
3D9A0D1A
BE540AFF
3CE8B4A6
BE29435F
3E5E7358
3D96D110
3DBE1DAD
BDA748E2
BE7ECB8C
BDECC49A
3E455A77
BE90DFC3
3D44E0CA
BBC771E5
BD9D7CD6
BE097644
3E273118
3E1BD991
3E506C63
BD495232
3E07EDC1
3E16CEF5
BE1FF786
BE5A655C
3E810AAE
BDF89E80
3E13955C
3DFA5D88
BD22D563
BCA5A481
3D6F168F
3D83C2D7
BBF07C6A
BE13F32A
BD3D37E3
3E7731C0
3E291F40
3DDD4690
3E35D97C
3CFBF3E0
3E116D5C
BDD87F78
3C9FA67F
3E751CD1
BDA8E73C
BA96AFC9
3E4EB3C4
BE7A5FA4
BD968BC1
BDCC13A8
3DE112F9
BDD321EF
3D9DE92B
BE09EB98
BE6634B9
BE67B610
BE52EA3C
BD187590
BE6F3CCC
BD8A50A1
3E7B22E8
3DA87AED
BD292E97
BE1B299C
BB7F8D38
BE434739
BAAC0200
BD31174C
BC9B9E20
3E081E40
BD3606E0
3E286968
BDE05BB8
3CB0F9C0
BE5C2EAD
3E53F46B
BD46C3DA
BDA14EC4
BDCBE4A8
3D90CB10
3E37DE61
BD219330
BDC0F1B1
3E4CC294
BE32E872
3E55B360
3D5ED8DD
BE3FEF0C
BD581FAD
3DEB5CD8
3D8B5D00
BDA88130
3E53D354
BE4F7C40
BE2E78E4
3DFA2090
BD491840
BE4BBF88
3C388B40
BDF6C962
3DC8C380
3DBE6AE0
BDEFE010
3BD93D80
BDA62A28
BD491C80
3D757994
BE117CEC
3CBBC7E0
3E45C024
BDBE7500
BE6DEA4C
3D5B2179
3E543584
BE164829
BCEF2BF2
BDA49886
3BB978FE
BE2DCFBC
BBE73980
BDB612D9
3D81FB70
BCD22EE0
BE5FD7A0
BD4E48C0
BDA12752
3E56C3C2
3E3F10D4
BE428A43
3CA7BEE4
3DC5C220
BDECF439
BD9D1CA8
BD3E9A70
BE0A8EF0
3E5CB084
BD090800
3E621338
3D18E1BB
BD4AF727
3E496F2F
3DEA1A36
BE610604
3E7FC93C
3E47DB69
BB77F800
BD2421A1
3DEDAF70
BD240ED0
3E1063D0
3E073A0C
3E05313C
BE0F8C14
BE2839F8
3E3BEAF8
3D0CE7F8
3874084E
3E47E567
3D900819
BDD4F010
BE1513E0
BE452700
BE024A78
BD97835E
3E513CB8
3DD18E78
3E12456C
3DD10E60
BE123EF0
BE31AFB4
BD7A6960
3C605657
3DEF5352
3E4B1FD7
BDA3B481
3B9C3700
3CF7153C
3E1A2A0E
BE2C9B65
3D83E799
3D8A1D2B
BE05BE0A
3E001052
BDFC5F60
BC262D9C
3D06C91A
3C72EA40
3E8AEA2E
3D5B4F4F
3E9124AF
BE84F5A6
3E380EFB
BC2FD5F6
3D8A9E54
3D167AAD
3E3E91D5
3DD39230
3DC31368
3DADD30A
BE6FEAB8
BDFCEA58
3C4A3DF4
3E62D71C
BE77A4F8
3E9F3E94
3BB703B9
3D1A1DB8
BE6AE140
BDAC993E
3DC8CA7A
BE817412
BDF77605
BE440BA5
BE0C1011
BE09734B
BE05BFCC
BE3B09A0
BE19E392
BCC397A0
3D0D3179
BE49D02F
BE49D906
3CEF1FB1
BE26664C
3D4E3EDD
BE23B0FB
BDB2497B
3DA797CF
BDC92A08
3E1F2941
3D4A9C9C
BE407DA3
BD328440
3C910BA0
BE45749A
BE6B8F66
3E56BE05
3DE0C240
3D62F206
3E27234C
3E0BC865
BDD4C3A3
3E6D2435
BD5C07ED
BD055376
BD85FA73
3E007B0C
3D9EC000
3E289EE1
BE181D64
BD4C5D00
3E2F1169
3C18B86C
3E684175
BD502615
3E632C48
BDC37FF6
BE064A26
BD9463A8
BDB18F8D
3DA807B8
3E61DCDC
BE4EEC38
BC947E00
3D53F2B0
BD57A1C0
3DEC4B0D
BD937301
BA15383B
BE3A2A2F
3C29F000
3E04E684
3DBAEE8C
3E02794C
3A4C8000
BDFEA0F0
3E34FF1C
3CA626E0
BE6A5814
3E3E0458
BD07F160
3E54D9B4
BDC83B10
3D3BDAB0
BD93C660
BE7A09B8
BE107D44
BCED6DA0
3E4FA338
3E3F0CF0
3DD269F8
BD5E3FA0
3DF07868
BE59925C
BB835D00
3D551830
3E5011C0
3E59EA98
BE7ABB3C
BDF987E8
BE29D148
BD714970
3D42DBE0
3CC15760
3C8A3EC0
BD914210
3E1DB455
BDB95610
3E2071F2
BE97A7EF
3E7A2DD0
BE19438C
3DD6A441
3D909FDA
BE30C978
3E96E08E
3DC2D402
3DE78036
BBF6BC33
BE83B52B
3E488C5F
BDA6CB53
3D8789B8
BC715A39
BE685FCC
3C83DBF7
3DF5286F
BE0B78BB
BD8B6628
BE3B3AC7
3EB34C8E
BE33A01E
3EB04EE6
3E533FD8
BE59A5B1
BE70149C
BE86BC56
3E50E27A
3DFFD987
BDDCE4B4
BEA823FA
3DCF357F
BD757EAC
3E513022
BE195CF5
3E64B0DD
39F28800
BE50F7B2
BD794004
BE507555
3EAD1EA8
3D87D801
BD991211
3ED45435
BE4EFF05
3E3FF581
BDE85978
BC47BB72
BE351D7C
BDC2D2F6
BD008550
BE3BA1F2
BE8F131D
3E1BF3B0
BDC2BE88
BE38A7F6
BDBDDBD2
BE571638
3D45211D
3E251BD5
BBAA5CCB
3CF3EE44
BE553D4C
BE0BDF27
BCBE4816
BE423381
3E51A8E9
3E54F8A1
BE744910
3DDE221D
BE768C3F
BBD2A191
3E6D874F
3E5AF590
BE14E811
BE0F1704
BE3D241C
BE169CBB
BDEE9BC0
3D8C5ED8
3D7A1081
3D6FA541
3D353450
3C128119
BE6AE729
3E673BD4
BC76EB8A
3DAF4C23
BBC6ACC5
BCD19DA0
3DBDBB22
3D4FC5B8
3E6C87C2
3E25E694
BC1FA45C
3E0F966C
BD38636E
BDD11218
3DD84836
3D9AA275
3E524E34
BC771A3E
BD73BA56
3E4F45CF
BDE25F43
BD957CC0
3DED7E21
BE384923
BE1E7F7C
BD6E344A
BE2D795C
3E0D6B0C
3DCA8E52
3DF2A400
BE74371C
3DA8ED30
3DC3542D
3D84799C
BE34BA21
BD28F7A9
BE76905E
BCDC3320
BE427F0D
3E066683
BEA37BD2
3E9629D8
3DD3ECC9
BE0FE9CC
3E03B85E
BE217A58
3F06FBBC
3E00E7F4
3D09C870
3DE2D397
BE922F37
BDCDAA48
BEA11B48
3E01D09B
3E76F103
BDC7A1CA
BE07E308
BE0DCEEF
3D94AC60
BDC64AE8
3CEAD1C0
3DF90528
3CC00B20
BCAF7080
3D832D15
BE9EB1F3
3E829022
3DD717B7
BE379E84
3E766114
BDCB3CC4
3DA0B934
BE0B1F5D
3D932F48
3DCAED71
BDBB4CE1
3D0896D8
3CE6AAA0
BE37CDF9
3D7CAFE0
BE31A838
3E22D404
BE0B52BC
BC93B340
BDBFFBB9
3E759CF0
3DDE64C8
3D4CB8FF
BDE00DD8
BE494D2F
3E694A8C
3E6D2ABC
BDE90D08
3DD7FC88
3E5353EC
BB74F200
3D8EA646
3DCB53F2
3DA9B22E
3E684BDD
3DB837F8
BE5223A0
3DF6AE4C
3DA9D8B8
3E271B90
3DF679F0
3E2D2478
3E00B504
BE7F5834
3E12FDAC
BE6F0608
3E75F3B8
BDA713B8
3E0DE078
BDDD3EE0
BCAFD7A0
BD600ED0
BDA7C610
BE003558
BE3DCD98
BE7967EC
3E351E30
BD01AEE0
3D743A10
BE2A0D60
BE754DE8
3E420414
3D8FC538
3D59DD50
3D4BFDB0
BE1E0630
BE26FF44
3E584FFC
3E7148D4
BE761978
BCF35100
BE296C12
3E132601
3E9D1278
3C39E924
BD880D49
BD74F09E
3E929F92
BD00CFEE
3DE0C1F0
3D9BCF36
BDA69026
3E8CDEDC
BE0BF214
BE77A719
3DDC911F
3E0F179A
BBF62FD9
BDADBA0E
BE44E490
BDC59B3E
BE4DB5F8
3E0DB979
3E425364
BE3F768C
BE008B48
BDC60050
3E89D439
3DA4B3AD
BE5D0E95
3E4F5630
BDECE168
BD224DB5
BE553CA5
BD6CF7AD
BE1BA0CB
3E630C92
3EA53EA1
BE3E03B4
3DE298D1
3E3C4D38
BDFE3AC8
3C4ECB5E
BE8DFBD5
3C254227
BCC81787
BE5B0BF9
3DE7C252
BE1E287E
3E0FCD0E
BDD91903
BD072CC0
BE1A8C03
BDE1CABE
BDE2CDD7
BDAF2798
BDDA8931
3DCFE5C5
BE3AA45C
3E0E8159
3E80DCB6
3D757D3C
BE4B45F8
3E33CF79
BE289EA5
3EB1CDAB
3CF87A1C
3DBEF62E
3CEF83D3
3D050C21
3D760510
BC9BD8BB
3E49E5F8
BDEFC0F0
3DAF7315
3E6A3101
BE8EF68A
3E0F7BD8
3E182ED3
BD10B3EF
3E43B1CC
3E59714A
3D3F4CF0
3E2553F4
3DAE83B9
3E03322C
3DBA2AB0
BD44D480
BE70F873
BE8A56F0
3E494BFE
BE807B8D
3E2B86E9
BC47BE00
BD7FCCC0
3E8B635C
3C05100E
BE0804F8
BD6B3A76
BD2EAD0B
3E65572E
BCA8CB92
BDA8E248
3CEA5075
BCC58FCA
BE425928
3E6F7A6A
BDCDDB16
BDD29492
3DD43212
BE7633D0
BD936FBD
BE19D72C
BE09FDB8
BDCF8C5D
BD6EED30
3E5E5D60
3E0DF301
BE427480
BD941958
BC873060
BE187C14
BDE1C1DF
BE32081B
3D451898
3E48E166
BD2D6EE0
BD3B4C09
3D05181F
3E030162
3E64DDCF
3E3DA138
BD978D4C
3DA51E10
3E2EE1A3
3E47C57A
3E06116F
3E0F0E60
BDD54928
BCCEAC51
BD06D941
3D493260
3E455103
BB4ABE9F
BE380269
3D6407F0
3C0836B1
BE757AFC
3E153A4C
3D95BF80
BDBBB880
BE601344
BE35662C
3D3852E5
3DA1494B
3C313926
3E4DD914
3E307DCC
BD2BBB20
BE491006
BE6680C0
3DD72FFB
BE58B16C
3E14A00A
BE53AC40
3DEA938F
BE2E2E28
BE2AD91A
3E539BD3
3DB3E0E8
BDEBB3B0
BD405B27
3B47576B
BDA471AC
BE355BD4
3CD84479
3DD63210
BE5BD2F0
3E1412B2
3DBF4608
BDA2AE20
BD12025E
3DDFDDF0
3D408660
3E015758
3E400062
3AF2B640
BE37B6FD
BE05032F
BD72F7AD
3CA63EC0
3C8441F8
BE54ABC3
BC579A70
3E73B1C1
3E4272F0
BD6994AD
BE17503A
3E217D0D
3E733094
3DF423E8
BD3F5470
BE9236DD
3DCCA79D
BDEBEB27
3E89DAF3
3D89BD7C
3CA4CF49
3E023DFE
3CFCE09C
BE195400
3E3CF784
3D2A60C0
3E49A1A9
BDEE2FA7
3D7B8A70
3E5314A6
BE994010
3D623A5F
3E5B4EE1
3EA2EA95
BD25F886
BC741F40
3E57C147
BE13782B

