2601
F711
0CA3
0400
FB63
FA8C
0563
1533
0027
15F8
EE2C
EAEF
1602
E891
F5E0
FA3E
F00B
E7BE
30A0
08B3
EDE8
0B7C
FDA0
F11A
14D8
106E
E7C8
F0CD
5B3C
0C04
4308
1732
36B3
F634
EF2C
10D6
E9F4
E7DD
F343
062B
07C4
0C5C
F948
100F
0DA5
FF9E
EA2D
E0A7
EA4E
1294
7A69
3A23
E72E
0EA0
EC6E
FA9C
1257
090C
E604
FFDA
4573
0A5C
38C0
1FF4
2D23
0705
0D2F
0FA3
FC4F
05AA
10FA
F368
1799
116F
0C74
ED10
14EE
0A14
0C4C
F12A
FB4E
E508
7E5E
1AB3
EE6D
DF2B
F4A8
E986
133B
E710
00CF
F69E
4069
03E5
3387
2012
1D9A
F23B
EB12
F8FF
FF27
07DA
08EA
ED7B
ECEB
0B2E
FFF2
0A6D
F283
296D
030E
1434
148B
F9DE
EF21
F98A
0A6F
22BF
17BA
08A5
EE7E
2031
12CD
016E
43EC
FA5F
38F8
1590
51F7
0D0E
07A8
EF34
1445
EA15
E936
EC3C
0C3D
EDFB
EB02
10A7
033E
0824
0FC8
F425
075D
0756
5AE3
3F38
F7AC
1A0C
FCAA
1035
F4EC
00A3
198F
113E
5FEB
E2BC
2DBC
3F79
6DAA
03AC
FE38
0852
1729
1921
FEF9
F28E
F217
1885
0B39
02E0
E76E
F812
FB85
0972
1649
E048
58F3
1C93
E83C
F3CA
E8A4
EFFC
00EA
0D46
F1BB
12A8
77D2
001C
5D0E
3649
037E
03DF
ECD1
1802
11DF
1965
F1CF
F55A
F3DF
0C6F
ED3E
172C
064D
15D8
F0D3
F8FF
0E3E
17AE
12F5
34C3
0246
1BB4
1412
17CF
FA80
16B2
1754
F7B9
F233
0AA0
FF23
1FD0
1064
FE44
163A
1679
FBB8
DB93
EB72
FAA4
1331
F161
F75C
052C
EA5C
14A6
E6B7
0ECF
07DF
1F10
47D4
3BE1
F6B2
07ED
04BD
FE3A
EF92
E454
194E
FC63
1172
F8CE
C7D7
3673
2840
F508
0665
1285
0BE0
1994
15C1
0867
0217
1666
00A7
0A20
11DE
1204
E601
EBA7
059D
E9A2
554F
1175
097C
E3F1
120A
F126
F87D
0BD0
E7AF
E973
3C42
E9C7
3177
26E3

