EAD5
1486
E6D1
04B6
F06E
0477
0312
EC1F
FA17
E862
1062
0B7D
18BE
11BD
EA65
F380
E608
11E9
0A1C
F6D6
FE7B
E763
F3EE
F09E
0554
0407
0D07
F471
04F6
0DC2
F8C7
F4C9
056E
05C4
F5FD
F2AD
FB05
0A2C
0486
F03D
EAA9
F5FE
E671
087F
0A8C
E580
045E
F544
E7DA
0856
068B
FCCE
F33A
125B
01DC
EDC6
12F4
EBE7
E89A
14BE
FBE1
0F78
03D3
F571
104D
F793
FFE9
FD27
0B0B
FE6F
026B
10D3
02FF
0529
0E17
0B47
0193
FC21
115F
FC00
F2B3
0120
33A4
0786
16F9
F23B
F221
EA0B
ED48
F637
FA79
11D4
E206
1442
F2C9
0F7A
F87E
FFCE
19D3
E873
10E4
FD3C
071F
0D2A
E9E1
F967
F058
F2E5
E912
F39B
09FE
0559
0319
FFD7
218D
1B89
1ACC
F72E
141F
F2C0
0CC1
0F5E
EACD
EAF7
F815
E78D
00FC
F502
DC43
F0D7
E9AF
0661
0175
0C7B
F780
FBA9
0E0E
1877
1742
1019
174C
E516
1804
09BC
16D8
FE03
2150
1580
FC83
F7C8
05FC
1648
FF4A
ED2B
F2F7
FC35
DD25
F167
D6F5
F7D6
EC35
08CE
1937
1104
FF98
158F
15A5
F984
1330
00FF
0D5F
E743
0161
09B7
1908
F8C5
0064
0F07
1D8A
0640
0A67
076D
0B69
F8C3
E8BF
0B4F
FAC4
E8E7
FD6A
13AD
25B4
F5BA
D37C
F87F
F2E0
0616
F134
F803
0AEB
F37A
F46B
FB83
F0DE
F21B
F77D
E5A5
E5FE
1851
06D3
1271
5CC6
1C8C
0333
0D32
14FA
0940
104D
CF9C
0269
E5ED
B79D
09EB
DA1C
E01C
F3EC
E640
FBBF
FA97
0EDA
EF5F
0FA6
FFB3
E574
E9A2
0ADD
1761
EB1A
EA91
FBFD
08BE
1921
10B5
4B89
DF87
E446
F6A1
F674
F43F
08A8
E832
F674
FE65
F381
1263
E1F5
D55E
0E8A
0072
189D
FC3A
E83C
EA79
0E22
0BC6
F9BB
08B0
0E37
F5BC
EC5A
F7AD
E8BF
1544
0E58
18B1
03B8
C4C4
0920
0995
E691
06A3
E8E7
22C0
E6B7
EDA5
F25A
0FB6
0736
F956

