0398
1848
FFB6
FC78
0062
15FA
0704
EAFE
F973
039B
FACE
061F
F56B
0DD1
F730
1477
E99A
1494
F77B
ECC1
F3BB
192C
F245
F0AB
0880
092E
0A14
E843
139E
FD64
0CDF
042F
0E1A
EEE6
0FEC
034A
0087
14A5
F568
1114
EAF4
F317
F56F
0972
E818
163A
0507
0B67
07C0
1373
0949
F386
E879
05F8
009E
01D8
EE48
01D3
05F4
E7D9
0136
0E11
11EA
0F05
0A3B
F599
0FBA
0716
09B4
FC81
0CA4
E68F
F290
F8AD
0090
EF52
02F9
E80F
0F81
03F5
F0BE
FAC9
16C2
17C8
EECD
13F8
FA46
ED31
128C
FBF5
02D4
0B49
1446
108C
F2E3
EE76
FFD2
077B
106B
FD6A
E9A9
0539
E812
F652
F7F2
F778
F56A
0A18
FBDB
F77D
0BE9
0F82
F297
F44D
FB16
06D2
01D9
E801
03D0
F93B
16EB
1602
037E
F980
16EF
11EA
ED53
FEA9
F9F9
F5D8
F017
069A
F9D9
F042
ECCB
0A59
0F13
15E0
115A
F056
06C7
075E
F44F
016F
EBB4
ED52
0F26
19E4
F31F
FFD5
F210
10B7
F9CF
0E74
E897
06D0
06DE
0C41
F023
16C7
FF7C
ECA9
FF3D
ED2B
F7AB
E82E
F3BB
03E4
1856
FB07
F8F9
FC5C
FBF6
E6FF
ECDA
031D
EA17
FE16
06C8
FF0E
18CC
F4F8
12E1
08F7
F506
1190
FE78
EC2B
0B98
F2F7
1362
18F4
090B
08EB
E7BC
1228
04C7
03B8
15A9
16DF
0D13
F792
156F
F226
FCC0
F8D0
FC76
03C5
FE77
F9FF
089F
FDB1
04E2
0D74
E815
0BD9
1174
EFC7
0E1D
EA6D
EF15
17E3
FB3D
F282
EB5A
14C2
E86D
E7CA
FD9C
1538
EA9B
EBCF
1388
EB04
E620
1426
048C
E54B
086A
13D6
F840
E9FF
F2A5
0C02
0FEA
EED2
1125
0BC7
FA2F
0C7F
F5E9
FF39
F918
145C
F3C3
0DB8
F320
1148
F8D1
0132
EB8F
FE61
F0E9
0D45
0CFD
EF0A
ED38
15DD
00FA
EF05
0D7D
169E
E8E0
1295
EA26
FDB9
F77F
0324
0551
E7CB
F406
F76A
F1CF
04BA
E8A9
FE22
ECB2
EFA8

