3BC3
139C
0299
13FB
3F78
1391
2D03
1529
26CA
148A
0233
2A68
2FCD
0694
35E1
36CB
3B63
3864
0B76
05DE
017D
2DDD
3D44
1279
0B40
144E
30B1
1075
38E2
0BFF
116D
3AC7
3973
10C5
14BE
0F02
38A1
0EEA
2B62
3918
37C2
3C78
06EC
148E
094C
37BC
28B6
2A1B
08D8
09B1
2E3E
09FC
39F8
2BB9
1705
308F
0AB3
2D4B
1221
09BB
3619
27EB
2AE1
1587
25B3
1136
2D5C
2D3B
18F4
163C
049F
362D
302D
1386
191F
0ECE
0C85
3E34
0E13
3D18
3BCE
0044
016E
0054
2FB6
3AF7
2E29
112B
2E6C
077E
3BCB
0A76
15D9
0F03
0A6D
0331
05A3
3730
170F
086E
11F3
3905
11EF
3E5D
27A1
3538
0093
124A
382A
2F49
12B4
045F
01BE
3951
05AA
327E
3C4D
25BF
0210
2771
1620
0E11
0E8E
1162
08FE
3C9F
2EC0
13C1
2D45
0747
2681
3626
3721
3D56
3781
2BA0
3C02
348B
3C93
056D
3FA0
361E
34D8
2C47
0A93
0B50
0C20
3CE5
3339
3C5A
2B88
36FC
3A1B
1554
1113
1806
2A17
0B2D
00B0
2DDB
0A17
07E6
02F2
287C
0F42
3857
3C78
0C30
0D01
16C6
00FB
1619
29C1
1300
02D6
0071
30C2
3F6B
1263
0B3E
13B6
11BF
0CF4
0268
157E
2DD7
3843
1504
00E4
160C
3150
2CFE
29CA
12F9
3BDA
3D08
3FC4
2A22
3BCD
09FE
03BA
0236
3C89
00BB
346A
0422
2CCD
2D1A
08AE
03B4
0789
2D99
2E3C
045A
2D2A
0E16
3FE6
2B03
3824
025A
1368
13BD
0CFC
1182
1812
11E9
2BC8
2B2B
2EE0
10DC
1953
152E
032A
1756
1638
125B
1320
107C
1906
3CFF
321A
03F1
3834
14A3
01D7
33C4
3C70
2CDC
392A
3EFF
2AE7
0898
3D47
01D8
2965
180E
3531
0F8A
3DE2
26E6
12D3
2BFA
0AA9
293F
292A
2C97
35FD
31B9
0BBD
3940
34C2
26F1
084A
3B79
3166
267E
0BFC
3DB6
1244
3A5C
0F4C
03EC
151F
0153
3A4D
2DDD
3684
2FB0

