1E679
1E830
008F4
00B0A
1EEF1
00FE1
00376
00215
010C3
1F5BB
1ED76
00A1D
1EB95
00859
1F52C
014C0
1F3C4
00B97
1FE94
00ADD
00947
1F6AF
1EE16
1F848
1F3C3
00CA4
1F0A9
006CD
005AC
00538
1F9BD
1F6BB
01088
1F1EB
00653
00510
00432
1EB45
1E8C5
0009D
0120A
1FB71
0051D
1FFC0
1EC01
1EEF9
01532
00928
1FB47
1FF8F
00DEC
00F81
1FC30
01680
0127F
1F29C
1FE1F
014D9
00BCC
1EA44
1F97D
01133
004AA
1F3A0
1FBB1
1F399
01589
00D0B
1F8B6
00E1F
00E94
1E704
1F96C
1FC73
01691
1F313
1E96B
1EC9B
011A0
1FADF
00308
0097B
003ED
1ED4A
1FD79
1ECD3
1EDB4
00C0D
1EB63
007F0
1ED78
1ED89
1E7C3
1EDC1
1ED60
00433
1EE85
0084C
1F6CC
1E8FD
00DFC
004E7
1EE3F
00B38
0004A
012B1
0130A
0125E
1E66D
00434
1FD8E
009B8
01232
1F2FB
1F657
1F481
0029A
00C2A
1FFF1
01113
006D7
00F77
009C4
1ED3A
1F001
1F6A9
001F2
00F82
0080F
1F15B
011C1
00A85
00859
00E43
1E909
1FAAB
1F217
01198
1ED87
1EE6D
1FAA4
1FCD7
1F30D
01731
1FD30
016BB
00402
00B64
007FF
1E7D0
1F53F
00CA1
01733
1EF46
00299
0022E
00D7E
1FB62
1EF79
0121F
1EB75
1EC8A
1F6E8
00790
00B5B
016D6
1E84D
1F784
1E7DF
1EB81
1FAA6
1E898
1FCE0
1EA88
1F49C
1F509
1F95A
012D9
00298
1EF39
00292
1EB4E
1FA1E
000FE
1F3F5
1EFD6
1E7B3
1F340
1EFD2
00224
00D2C
1F187
1EF14
009F4
1ED72
004E8
014DC
1F659
00A58
1ED7C
1EFA9
0046A
00623
00E59
00627
00652
1EAB8
1F02A
1F893
002A2
1ED41
1F46A
1EA79
00F11
1E87F
1E848
1F6DE
00F5F
01322
1F819
00806
0062E
1FE7F
00021
1F5C4
1EDEA
00D67
00A89
004CC
1ED32
1F769
1FD30
1F94B
1F14B
00491
0171C
00CBF
1FC9F
1FB67
010EB
1FAA3
01331
1ED6C
1EF09
00C7B
1FB2E
1FB32
003EF
1F857
009FA
00AEF
1E67A
012C6
009DD
1E950
0162D
001A6
1F6EC
1EFCF
008AD
00DFC
1F5EC
1F6C8
01063
0006A
1FAD9
1FFE8
00C9C
1ED15
1FED1
1ED32
1E6B3
1FB31
1E66A
1E8FE
00778
01149
1EA1F
0073B
00F4E
1EDE6
017A4
1EF89
1F78F
1F388
1F811
0102A
00D8D

