3E1941F9
BE3E9DD3
3CC86DC0
BE42BCE1
BE211221
3E5868ED
3E1136CB
BE7F2CAB
BE8229F3
BCCF3EE0
3D68F03A
3E181B4E
3E0BED75
3D8670CF
BCB83572
3E0307BA
BE10A22D
3DB4ABDB
3D9412BB
BE45A263
BB94617C
BE716CF8
3E30D5D4
BDF427D1
BD58133E
BE26F010
BE0CAB70
3C1191D0
BE0DEE4E
BCBF7457
3E360A33
3E3087DB
3DE8A7C0
BBDE5A4A
BD830E55
3DB30715
BE7655F0
BE04B0CA
3D1DEF55
BD25A65E
BDC17CA5
BE7A8D98
3E5A47E5
3E2FA023
3E2E2B6B
BDD74D81
BDEFD2EA
BE7593A8
BE5F05D6
3EAC9920
BE1EE406
BE3FA89A
BDE46343
3DBCAD4A
BE7D4334
BDD9769E
BD9B83FE
3D9CFF91
3CE290C8
3E4F0631
3E6B7510
BDA7A2EC
BDA10E27
3E6C8AD7
BDA7C470
3E133CB7
3CCA5520
3DF8842F
3E7420C4
BD9620BF
3E1CBEE3
3E16B2BC
3DA6352F
BE0A1880
3E6F806F
BE0846FA
3DC6DE70
3B850775
BE16DE50
3D7BE19E
3DBEB3B4
3D9EA0FA
3E603E6F
3CC7EA43
BE5835D5
3DE45CA0
BE1F8CBC
3AACAE5C
3D7CF196
3DA88379
BE4BEFC3
BE3C77CA
BE7273FA
3E5FDD41
3E3FCEBF
3DBADF9B
BE36FFC3
BE152276
3C40C70C
BE39B922
3E2F6874
3EA56543
3D436280
3E9CC472
BD657D7B
BE6FE110
BE00D55F
BDDE07E5
3E34344B
BE2347A4
BC856A79
BE45D3AE
BD81495E
BE0AA0FB
3E23DCF4
3E84097E
BE0FB273
BE4598A3
BB8F2280
BD00F11C
3E28C418
BDD63FF1
3E34D2C9
BDA1E561
BC629164
BE237A98
3E13C324
BE1DE7B9
3E465126
BE666728
BDD0201E
3E86FFB1
3D951C08
3DFF04C1
BDD4AB60
3D17EFFA
3E3485FC
3E5066F0
3E8A2F74
BC666100
BE13F627
3E49A3D0
BDDE1A10
3A2ABA2B
3D1AF680
3E83386E
3E0256E1
3E7FB7EF
3DE67F57
BE1FBE65
3E654AE8
3E854DCB
BD540E9C
3A839600
BE7DFBFC
3DFFB5C8
3DA7ED5D
BE6B3904
3E9E0DFE
3E601D04
BDACE948
3D275284
BE806862
BEA349E9
3E44C4D5
3DC50536
3E5D6FCB
3B97413B
3C73815D
BE2214FC
BDE1BF3D
BCC50898
BDECF2DC
3E64D1B9
3E09AA2F
3E07479E
BE013CA8
BDC0AF20
3C5C66CC
3E8295F0
BCEAC1D5
3E1E89EB
BE74D184
BE3EF3E8
3E51391F
BD919C91
BE1E56B8
3E2E2077
BE4A4749
BDDD6A0C
BDFC454E
3E2EDF2E
BE6BCAEA
3DF36840
3DB219D8
BE4BA4B7
BD8900B2
3ED334C0
BE64C0DF
3EB3DCB3
BD4CE6BD
BE0AFA80
BE2541C7
BD9C3AB7
BE0BE107
BDD816D8
3E6A9036
3E220256
BE61CDD6
BEF037CD
3DDDCE03
3EBAFAD1
BEE0D137
BC6706F9
BD572290
BDF66928
3EF5124A
BDEBC2ED
3E5C5BB7
3E75BC73
BE2CC48B
BDBD1C2E
BE0C774A
BCDF79A0
3DAF8900
BDACF250
BE65224C
BE459934
3D6AE370
3E6D39B8
3E181B04
BD19EA80
3D6D81E0
BCF0A840
BE344144
3D2800E0
3E7549E0
BDF97138
3C308A40
BE0E8694
BAD19600
3D120B40
BE45AFB4
BC169300
BE5BCE6C
3D80C570
3E197E64
3E4343D4
3DF62198
BE2107D4
3B62AF00
3E6DCBB0
BE6AA044
3E45B6E8
3DE05EE0
3C095800
3E5D304E
3E1E9FA1
BE447540
3C195EA5
3D6F3383
3D41AD4A
3DAC18E5
BD3189AE
3E2617D6
3E095EB0
BE560183
BD781BAE
3CFB3565
3D1E4D83
3E59315B
BD0E9D76
3E29EC47
BD05EB87
3DE62230
3E32CC0E
BE61B0F8
BE4C1BD8
BCB09660
BE2D9BB3
BBAD244D
BE2B19D5
BD6DBEC3
BE7003BB
BDF80EF6
BE44B32C
BE3AA27E
BE2A5D4C
BDAD27B0
BE5A8B4C
BDFDB3B0
BE7FF008
BE048118
BE0E3FBC
3E505828
BE56E3BC
3D2D5B30
BE701EA0
BDC56F88
3E79F01C
BB24CA00
BC9CC1E0
3E7AF344
BC9C9A60
BE39E380
BAC9D200
BD1A8F80
3CFECD00
BE2D567C
3DFB22B0
BE330000
3DEB17D8
BDDB6500
3DC8B6F0
BE403308
3D3F1500
3E5978B8
BDE2ED18
BD808310
BDEF99D0
3DD4BA3D
3DC4259E
BC75ABC1
BDB37903
BDB14104
BE2BA97F
BE7DD4CD
BDFD93AC
3E7001DE
BE23FD04
BDE83E14
BDA9DB25
3DA89C97
3D38EADE
BE4C3604
BD67FF08
3E4219B4
BE3F0705
BDBBA99A
3DF33859
BE1FD9E0
BE1065B2
BDB1E9E0
3DD73386
BA8FFD2A
BD1F3525
3E36ED09
3CCB7C52
BCB11320
BE375E1A
BDDB23CF
BCEF9DA2
3D515A80
3D4839E0
3E30A7BC
BE550D44
BDC338C0
BE432240
3DA09AF0
3CD10620
3DED9B68
3E656954
BE02C5D4
BD8D5740
BE1B42B0
3DB6DF98
BDAEECB8
3E72F810
BDBFA390
BD6E34B0
3CA0C100
BE371120
3D69B5A0
BE3936DC
BD8FEE28
3E21AE9C
3E30CF20
3E28D648
BE193920
3E04484C
BE6DB5E4
3E0062F0
BDAC5750
3E22DABC
BE874325
BE7B52A5
3DEAC934
3D682584
BDB9DDA2
3E3F0E44
3DE2B573
BDB7442B
BB82E200
BE5DA64C
3E54257B
3E38F3F0
3C9EEA92
BD4AB153
BE08DCA2
3E4EB752
BD5066A5
3DC240C9
3E606851
3D95EB75
3E53D2EF
3E54AAD8
3C8B5E40
3E3F0CF5
BE2A6F3B
BE64154C
BDA67756
BE7B5DC4
3EB19B58
3E6AAD36
3CC23009
BE06805A
BD0667FA
3E0B6760
BE2F35A8
3DAE8C0D
BD8555F7
3E967BC7
3D994787
3E9E1EC1
BC5B1A3E
BE02DB48
BDA34E78
3E4DB078
BE467B53
3DBE9A70
BD45FE54
3E008082
BCD8A5E6
BE5805B1
3ED0E99A
3E9FBC30
3E176691
BCC57283
BE4751D0
BE441EF9
3E166425
BE20C381
3D85A010
BE22F095
BECE433A
BE507322
BD83505A
3E48D95C
3DDD13D2
BE61F4C1
BE222ED4
BE304927
BE0C2CB1
BD9CDE2D
BE194AD1
3E4379B4
3E1641AE
BE66D6B0
3CBA6D52
BE04451E
3E9445EB
BDA1566E
BDC7C469
BE71878C
B8DD9C36
3E65FFAB
3D9FBA2D
BDC9561F
BD8661F2
3CC33360
3B111800
BB8C98E9
3E2B9267
BE0774DE
3D0EAFA1
3DA6CCE5
3E5E3E82
3E1F2286
3BCD2453
3E3D56CC
3D22ECF0
3DA1FC28
BD892D48
3E6BA6C4
3E4A3274
3E2C95FC
BE3D6FAC
3E48F4C4
BBC42880
BE236638
BE51E0FC
BD75ECE0
BE0D6E84
BCD77BE0
BE5028F8
BD3E8500
BE173BF4
3C531700
3E2E26A4
BBED5880
BD79B590
BDCCF780
BD978608
BDEFECE8
3DA0D520
BE580AD0
3D0999D0
BE7F9ED8
3CF74D60
3DCCC558
BD443550
3D015390
BD9CDBEB
BE5F01B6
3E2B962D
3D3AB04F
3D08F19E
3E56986F
3E459AD0
BE1FFEDC
3E6B7618
BE1F45F8
BDEF869C
BDB7450C
BC247F2E
3D934B89
3D3F61C9
3E30071C
3DA86412
BCFD87AE
3DB1F75A
3BD8FA82
BDA420D8
3CF6CA40
3E6BB188
BD4992CD
3E415C64
BD4481A0
BE3375C5
3E10D236
3E11DBCB
3E744576
BE8400C0
3DD61DF9
BE91066A
BE5BC37F
3E09512A
3E0166D7
3D5D0554
3D4AC519
BE80B06A
3E3FAEA8
BE61905F
3D9A26D8
3E20A92C
BE5CFD8A
3E996465
3CB01228
BE1A0105
3D855DD8
3E25DCFC
3EA7F436
BE172BDD
3E0CC53E
BDB23743
3E558650
BE3A4FE0
3E6306BF
3E345BDE
BE097D3F
BE812286
BD54054A
3E8B46D2
3E16ED2C
3E1A32B4
BE1FE4AA
BE173CC3
BDC59074
3D80B060
BE60F8D9
BDCF4809
BD23CBAF
BE35D328
BD8A4AE3
BE60E769
3E4D4054
3E77759B
3DC6ADE7
3E5091B8
BE48892E
BBBC4DF4
BD3EBFA7
3D26368E
3E62C238
BDE6355F
3D28575D
BE32AFFC
3DA4E838
BD937560
BE242921
BE83A75B
3E42A828
3C457573
BE07F62C
3E035F2E
BE2848A1
BD93BB63
3E290F97
BE4CBF9B
3DAA1290
3E4B2A42
3C6FEA17
BE5E2CE4
BCC31ADA
BE750B28
BEDA8B12
3E560EE4
BD2DA520
3EA7928E
BE0CEB8C
3E8716CD
3D54A490
BE44C458
3E08925D
3D946840
3E8ABEC3
BD51F042
3C299E7F
3E5CD183
BE14A9BE
BE5CFC0C
3ED8E95D
BDA68CEA
3E779FB4
3E0825C8
3C8E80E0
3EF7CE65
3D1E1160
3C9CF84C
3DAFA440
BE5AA1B1
BE310F8B
BE290CF7
3E656B99
BC7758BD
3E529462
3DF781AA
BC8688B6
3DFCFA6E
BE417C58
BE43F49E
3E635695
3E585DD3
3E2D35DD
BCD1A025
3DD29769
BE190304
BE1E8C24
BD98A125
3E03F736
BE69B1AF
BE7B9D0D
3E10405C
BE05C695
BD15334C
3E6C65ED
3D85F57A
BDD3E0D9
3E0A5678
3D148358
3C98AF44
3DA9CACD
3D542A9F
BDB2D338
3D941180
BDF78E29
BE53C7D0
3EDA674F
3CDB6C84
3EBE9CC6
BDDC7ED0
3E0689D8
BE9B2C8B
3DEC58A5
BD9251A3
3E2EE750
3B9A0D1D
BE3B0DB9
3E5D6F80
BEBDC116
BE1A6EE4
3E399744
3D386A06
BE848AF5
3DDBCE90
3C864D57
3D19AD1F
3D56FE60
BC07C7C0
3D1920F1
3D81EF3B
BE40C5B4
3E10F07F
BE247E2C
3E41D82C
3E606A4C
3DA30CC8
BE71FFE1
BE5D0617
BD0BDFBE
BD79D0C0
BDC8D2DA
BDAA397B
BE663BFC
BAC53BB7
3DFE1836
3D20726C
BE0236A0
BDFA3CA8
BE5A2471
BE69625D
3D82571F
BE1B6278
BDBB24AA
3D8E6DA0
BDBACD38
3E7F6360
BD9234D2
BDC27DA0
3AD278BA
BE6325B5
3E4F0F72
3DA4E7DF
BE1CD8FD
BDD8DE00
3E454418
BDE6B350
BE2C7698
BE7BA4CC
3D0522A0
3D8FDED0
BDAE1788
3E3448B4
BDB652C8
3E1A16E4
BE43C214
3D961C08
BE223CD0
3E612268
BD46B080
BE6EE1F4
3DAB62D8
BDCC18A0
3E4A6EBC
BDEBF178
3E3D3A70
3D5463C0
3E5C6CDC
BD4621C0
3E28C830
3DCCD758
BE56BD9C
BD76CB90
BE787DB4
BE484638
3D43AB30
3E1BF404
BD2C2AD0
BCC8CA25
3D182EF2
3E387A18
BD9E4240
3D536067
3E627CB3
BC7E8E80
3DB56AA9
3BCBAE7B
BE7F71F0
3E1F237D
BD2FC995
3C4444B6
BDE498D2
3CEB7FC1
BE132ADF
BDC2FCD5
BE0B7808
BE81E95E
3C8F1B53
BE02E420
BDAF5DC8
3CA75DC0
BDBDA674
3DFB14EC
3E6242CB
3E5B1FAE
BD7B5D50
BE1829A0
3DCCC44E
BE06CD15
3E73C1F3
3E4A8441
3DF14FAF
3E385C82
3EB673A7
3DC5E18C
BE9C8CC4
BE30104E
BF1C0453
3D8D8258
BDB68948
3F2114A5
3E5BC4FF
3EDB5E06
3DF02C42
BE78DABE
3D80595A
BE82AEEA
3F1D7C5B
BE5527CF
BE38C019
BD4EC8E4
BE37EDE5
BE71A4D4
3EB80020
BEA70D05
BDEFD6CA
3E350FF7
BDC4B21B
3F26FC1A
BE4BCFA0
BD2B856E
BDAE9C8B
BD952697
3DEEF513
BD5DB650
3E3FA2C7
BD6C87DB
3D221CBB
3E4A4FC0
BD1D3212
3CB9EE84
3E1157C4
3BD15814
3E288FF9
3D163B51
BE2339C5
3E10FA74
3D909D73
3E2EBAC5
BE80A8A9
BDDD2498
3E776649
3E5521DC
3DB84868
3D428BF0
3DFAA10F
3D356DDA
3E419BAE
3D8D755B
3C811A5F
3B2B31B4
3B109335
3D3350F5
3D720EE5
BE702BDC
BC1C3B00
BE6BF4CC
3E70F664
3E489CB0
BD8883D0
BDE9D8B0
3E2101A8
3E149100
3D7601D0
BE2B2F20
3D1C5ED0
BE38E444
3CA45EC0
BE557518
BDDCE3C8
3E6282EC
3E389C6C
BE1A484C
3E2ED998
BCCBB6A0
BE5F9C70
BD552300
BE5F4E78
3E3A7040
3DF6CAA0
3BF38500
BCFE6720
3E5037F8
3E7B68E0
BE2B0358
BE6CE564
3C8FC0E8
BDABFFF6
3E333C0B
BE1D78D7
BE34EA39
BDEFAA3B
3E2AB493
3E0D73CA
3E4F925B
3C266280
BE1A76CE
BDE2B006
3E8CE3A5
BDCDFBCA
BBDAB721
3E01D160
BD2A6636
3E4B44E2
BE4E3849
BDCC6DAF
BC5ADDF8
BE43860E
BE6DCBFC
3E47BFFA
3CD9B723
3E51F169
BD315246
3E459395
3D990ADA
3D8F5552
BE141B03
BC0F5D2E
BD6063E4
3DDC2671
3D6804DF
BE0F4AEE
BE205CFA
BE64552F
BDABB692
BEBF0144
3DD0E654
BCC7AAC0
3D4959BA
3E5C6313
3D8DED88
3D488797
BDD40166
BE23047E
3E0AA5A6
3F0C6001
BD3AAA31
BE9C73DA
3D2F9C71
BD435AF7
3D43E780
3E70DD11
BE36099D
3E7AA1B6
BE0BE4E6
BE271738
3F1BCAB0
BDC64E05
3CD256FC
3D7AB239
BE6A2916
BDD130F8
3DA51988
BE1F7F7E
3E45BCF5
3EB732EE
3DDB6648
3E986F49
3E1DCF95
3E6FA0B4
BE612280
3DED92A8
BE8737A6
3D166750
BE6A3838
BD7B8B22
3D5780DB
BE286B73
3DF29185
3E30F8CE
BD87E428
BE7A18C8
3DE5CC48
BE36A972
3EDA841C
3E0438ED
3E496DB1
3E13DA69
3B50699A
3CB64259
3D0D5F57
3E214BA4
3D809577
BE6BF8EC
BE154284
3E1F84D5
3D456640
3ED4ED40
BDDE03B2
3E9AC5ED
BE01239C
BDEA3FE8
BECDE0C3
3D42E4FC
3D3DB2D9
BE5AC18A
3E03D7F9
BDB02F2E
BE3D4309
BEA79B11
3E664EA5
3C836D35
3ACD14EA
3DAAB7E9
BD700460
3D0B1FEE
3E9E06D0
BD6CAC90
BE5B2058
3D400045
BE9A9BFF
BE056AA8
3B4C1316
3DEEA488
BD8F1EB6
3E12900B
3E654998
3E625A83
BD4940BD
3D18F9E5
BCF3377C
BE019E6A
BE6499F0
3E16A0F0
BE64C81D
BE63FF2A
3E633393
BDA7DB0F
BE29FB3E
3E6BA39B
3E4033FA
BE4B2125
BE5684D1
3E326BC6
3E6CF7C0
3E6989E4
BE588110
3E0374E2
3CC10700
3E191308
3B43908F
3DF7E468
3E064D44
BE7203EB
3D3087A0
3D693782
BE32DE0C
3DF2D3C8
BD469680
3DDDB9AE
BDF3D5D8
3E96AC52
BE04BC38
BCF4D048
BCDDB040
BE79D948
BE8D6A89
3E0B0C38
BE0355DD
3E7579FC
3E50EB04
3D8475AE
3DB4F858
BE7C9A4B
BD0D8BFA
3DB71DA8
BE83B736
BE47020B
3C5E47C0
BCC1EEEB
3EAC79E8
3D31F8A0
BDBB8A18
BE00AEA8
BDA0070C
BDBB1888
3DEDE1C3
BE0651D8
BDA3A934
BE597E8A
BE41FBF4
BE1F4B74
3E33FC91
3E3AA96E
BC47C7C0
BDE9823B
BDA7C52C
3DEA2B50
3D4DB1A3
BE120907
BE678634
BE314FAC
3E0AFD07
3DA16BBC
BDC64A65
3E692060
BDCE2078
3D9E46DC
3E31AE30
3DFF68E8
BD3351E0
3C8EADE4
3DB10EE5
BCE5BD04
3E12AB19
BCF0FAA2
3E0C3FE2
3CD0720C
3E623C7A
BE34F913
3E40790F
BC00BC02
3E646BC8
3E678DFB
BDA79E00
BED12B87
3D389EFE
BE9D0DD9
BE689EC5
3DA86D88
3E3EC98E
BE513E9E
3D6D0AE9
BE485F97
BC950F70
BDD3435D
3D93AB43
3EC8B6D3
3DD807BD
BE6A7D62
BCC51BFD
BDDE84A9
3E72D1B4
3EED8159
BEC01C2D
BE6A2918
3DF4AD07
3CB2ACC6
3E9EC553
BDF24E54
3DF39CBD
3E0A6F38
3D11CDDB
BD0EE830
BD9954B0
3E105E28
BE05CABC
3EA9B417
3E27566C
3E580663
3D8C9738
BCC0E920
BE885908
3E390670
BDE0E41C
BE27B82C
BCA05140
3DA51795
BE472E54
BDF4188E
3E00B63C
3EAAE881
BE49F474
3E3D59D8
3E69E9DC
BE21454E
3E84F0EE
BDE83928
3D1903C0
BE3DA25C
3DF022F3
BE24F7A8
3CD7204A
BE3ACDEC
BE76B6C4
3E1A57C4
BDB9D508
3DEC6FD8
BE136084
3DEAB220
3E59CA98
BE06FC3E
3D965B38
3D00D220
3E13112D
3E0E2E48
3DA7BECE
BE68CE44
BE50AFDC
BE22A49C
BDF2DE60
3AE157D1
BDB6D2F9
BBF12F80
BE410AE8
3E139500
3E232800
BE47BCB3
3DFB0EE8
BD802C38
3E15084C
BE7CCC34
BE6D08A6
3E416BD8
3E1CC7C8
BE5937A4
3DC94ACA
BE2371E8
BD91716F
3E0B23BC
BDC3ED10
BE4E52F8
BBA0B4FC
3DE5C42B
BD553B60
BE68E694
3E9EE310
3E70F272
3E6F6133
3CE22500
BD1629E9
3DB6E195
BE7F4AF8
3E28521C
BC9948CC
3E3AB3D4
3E60EE69
3CBB279D
BCD52F40
BCCD1D7C
3BE9E15F
3E57A048
BDA1D448
BE723D5D
3E94F948
BD7DCF30
3E9237B0
BD741C40
3E0706BA
BD889DF2
3DB70BE5
BDC91C17
BD8F5320
BD7B246F
BE5B879C
BDEAA8AF
BDC3F5E5
BE7C8050
BE15C6A0
3E16DCA0
BE531B1C
3E49F136
3D9A28F4
BD7BC0DB
BC391FF4
BE77C958
3E6E7762
3E1CBF69
BE065406
3D774497
BE0E1B00
3E568709
3E4CF837
BDECA469
BC97A07C
BE6FCF93
3DA77B36
BE7DEF7B
3D2473D2
BE697755
3E564D72
3E777E26
BD81C660
3CD6C743
3E1F680F
3D490B84
3DE6CB1D
3DB3F046
3E128014
BD26F2E0
3E866B50
BDEAA834
3EC10AC6
3DFD7414
BC1A9B9B
3DE1346D
3E3101D1
3E81FE45
3E3FEAA9
3E454EC5
3E49C4D4
3D4C127C
3E41E2EC
BDFFA5F6
BB5E160B
BDCDF1F6
3E4E02FB
3E151F13
3EBE89DD
3DC654F8
BC729D35
BCA098C2
BDE8E96C
BE1BA418
3E578D00
BE82038B
3D852D88
3DF87C53
BDAA3800
3F06AC8E
BE10E390
BE5AEEC4
3BD80820
BE3CD43E
BED5A490
3D408F6E
BE28D960
3DBA8909
BE40AF15
BF0E6579
3EAA7377
3EB5F254
BECE3481
3DC2A867
BD31A8D0
BE7CF80C
3ECA6A5D
3E7F2FE2
3DD0465B
BE6AE0F3
BEBDDC82
BCF9B8B1
3E7FD9E7
3E49EF6D
3D4AB506
3DFBEC42
BD9D7B64
BE0FF4FE
BD1A183B
3DFBF45D
BD13AF39
3D35E10B
B6954E80
3DE01048
BD10D9EC
BD016B95
3E73CF1E
3C4ACC4D
BDD36D75
3E62299C
BE0CCC43
BE111EC1
3CBBC2C3
3D00486D
BE8AC64B
BE741246
3D49FBB0
3D55CB6D
BC122D52
3E4BCE88
BE755599
3DE72965
3DBD7249
BE6170AA
BDE58DA3
3E3B3016
BE368A88
3C8ED720
3E198548
BD8F1E60
BDB2A228
3D955558
3E42446C
3D79BEE0
3E6A0248
BC2CE000
BE405BFC
3D586470
3E13B0E8
3E49CF3C
3DE786A8
BB850700
BE281BF4
BD142630
3E6E2C54
BE2B700C
3CC2EBC0
3E765A6C
BDA1C4A8
3D8C5F18
BE3C5080
3E3A1F0C
3D967AD8
3DCCAC28
BE7F4AF4
3E6C70A8
BE2D8D08
3E18CFF0
BD8DCCB1
BE63E6C6
BDC73AF0
3C235CF5
BDA93F16
BE150C7D
BB318F63
BE113F92
3E4CFB45
3E4043F8
BDB953C7
3E6673CB
BDDEDFBB
3DB746A9
BE60D1A5
3E333E17
3B7D718F
3CC935BD
BE1641DA
3E1B4C76
BC138F44
BE4087C8
BE67F0FC
3E76A03A
3E603B23
3DC4CBD5
3DAD9C3E
3E3B4543
3E262AA5
3E4FBAD6
BE073749
3C07DBE7
BD672674
BD837A79
BE67073B
3E819E42
BC7DD930
BD77DCED
BE1F0E6A
BBCA62E0
BE2ED701
3D899480
3E3C6E6A
3E4BA9A6
3CC8F5F1
BE355AA4
3DA3AE22
3DA06F8D
BE2C2D8D
3E014378
BCE5976F
3E2B0614
BE8A47A2
3D88B8C5
BE619704
3DCE8CCB
BE21B5BD
3D19D059
BE6DD62B
BDED6EFD
BCFC0D4F
3E4B3749
BA5DBC5F
3E596996
BE54AB34
BE7D8EB8
BE6A2E54
3DBA5FDF
BE4D7294
3E851019
BDB80EBA
BD89CBDD
3E1EB9E8
BE494AF0
BBD821EC
3E588766
BDAAD18D
3D0EC210
3DBB2D3F
BDCF87C1
3E42C46C
BE784F43
3CAFC53A
3EBDB299
3D104A95
3E02AD9E
3E3F5138
BCA4A184
3DEBAE27
3DEF4C08
3E36D1F8
3E0A554A
3E24CC5B
BD8F84B8
BE639FFB
3DA812E8
3B98E080
BE2052D0
3B040F00
BAED2E00
3E0D4D58
3DC73BC0
3E60025C
BC01DE00
3CAE5680
3DE09FA8
3B383D00
3E0F1B74
BDC5D870
3E2DAC40
3E402F7C
3CB0F1C0
3E28D754
BC8214E0
BDE310E8
BCF3C240
BE29AE3C
BC2F9B80
3D409650
3DA1BAB8
3E1AC5E0
3DF20C70
BD75DB90
BDEB8E78
3E3F8508
BE1C7E30
3D0F1D30
3C746A00
3D23AAEE
BE125933
BDAC7FC8
BDD44FAD
3E1B23F9
3DCF8064
BE68C89E
3E2683D7
BBDDCA1E
3D1052B0
3E6AB3C0
BD0EC43A
3CF07221
BC8E0543
BD775027
BE528C99
3D2565AD
BDED2476
BE709EE8
BD900A5B
BE458654
BE021728
3DE61850
3D044479
3E50761C
BE04EB00
3E209D34
3C8607C4
3E685AD2
3E24184E
BE0DE0D3
BE07E47B
BDE27B74
BDA34E6B
BE746559
3E7E2DE9
BE417A05
BE101E1D
BDA4D9BD
BE972AD7
BE7105E2
BE6FE9F4
3EB70C1F
BCC586FA
3D23B95C
BD8180C9
BD8A48EA
BE2F5C7D
3DB12DA6
3D9504C8
BE828D63
BE8586F4
BE499601
BE250943
3DB322D0
3EA18E4D
BE571CFF
BE71F916
BD0E5381
BD8E21F9
3D8D9172
BDDDB60D
BE5497AD
BE57DB78
3E5F1160
BE542110
BE2F809C
BE2A2EA2
BE6FBF36
3E6EEF92
3E285A5E
BDEFB8D7
3CD33AD7
3E1675BC
BE3BF33E
BE32F4ED
BE69B412
3E5FD066
3E070908
BE1003E7
BE16D153
BD89A58E
3E0F931C
3D0193F4
3E5A70BB
3DFCF500
BE00AB50
3D53C9C2
3D0AC4AE
BE11A7F1
BD81BED0
BE2C171E
BE1280EB
3DC8F217
BE46B05B
3D16139F
3C79F01A
BD1A6841
3D69E591
3E55FA3E
BE473094
BDD68CD8
3E6C4B1C
BE912A92
BD6944F4
BDA2B050
3D7C95DA
BE189FDE
3D5876F5
3E119429
BDA5A61E
BE43155B
3E792FC0
BE12EB35
3DFE93CC
BEA93A1A
BD40CB0F
BE731441
3C98ABC0
3D4786EF
BDD55B07
3D4332CF
BD7A80CA
3DACF9DB
3E8D71DF
BE2C30A6
BDFC74CE
3BB90115
BE47A904
BD89AC30
BE0C7894
3DCE4200
3D0600B0
BCAB3440
BE59CB5C
3DCF11B8
BDCF3978
BC7EAB40
3D8BACB8
3E78E178
3E1383A8
3E3B3174
BE72A3A8
3E5DD4A8
BD1B5820
BDF9A618
BE5C2190
BDFCB268
3DED0630
3B8DB100
BB54EA00
BE542D14
BCA01CA0
BDB62F10
3DF30A90
BE18A32C
BD87CF70
BE453F6C
3E013234
BD990C58
BE89454A
BD212756
BDB71ACF
BDECE430
BE497290
3DDF884A
3E19A9B8
3E3D495C
3D49ED70
3E14F314
3E0CC34A
BD42D9AB
3E955643
BE5B0121
BE041A75
BD3FB40F
BDD7311C
BCF93E60
3E8258C0
3CDC70DA
3D97810C
BDB0AD7D
BE48E864
3E3B67FE
3DED6CD2
BE1077C8
BE74D034
BE8393AE
3E3A2238
3D214F3D
3DCB5888
BE3F43F1
3C4DFC80
BDA64758
BDA68C80
BE5821E0
3E64F8D0
3E0E7584
BD456D40
3DF2E280
3C09FC00
BE6040F0
3DDE9278
BDE1E338
BD648460
3E38CB3C
3E4386B4
BBB4BB00
3D8C14F0
3D0A1C40
3E755060
3E6A2868
BDBD2AD8
BDD62C38
BE4DE8C8
3E565A48
BE34C1C0
BE6D8E38
3E1B7FD0
BE6FAF10
BD2EAFF0
3C803D60
BE7B96F8
3E53AE1C
BDEA4867
BB5D0DD7
3B8FA180
BD720277
3DC604BE
BE0748AA
3E4092A3
BD7B7E34
BE1CE2DA
3DF74260
BD932D71
BE3F4ED1
3CC69F36
BE120DAD
BE8417CA
BD3C1968
3DA090AF
3EA4823A
3DA65875
3E6F638D
3E5B379C
BDAEF48F
3B691600
BD3B1EE3
BE3D71B0
3E243936
BE30CB76
3DCE3927
3E91BFBF
BE111C7B
3DDA4D65
3D94C4B2
3E1F71AB
3E06A5E0
BE1D69D6
3E1B0705
3DB5365E
3CA4BBA2
394399ED
BE14610E
BDFBC5AC
3D549350
BE3A4C13
3E385A06
3DA4E69E
BD606E85
3E51B587
3E314590
BD15B687
3E92FB2C
3D1BCCF0
3D46BD2D
3D2F40DF
BE10D1F7
BE73F7B8
BD9188E8
BE0C364A
3DD72279
BCB7DCCB
3C19A201
BE20DFA5
BD5A0EF2
3D85ECCC
BE49056C
BB2EE000
3CBEF7C0
BE262160
BE1A15AC
BC995580
BCECA4A0
BE105A98
3E076AF4
3E5A9870
3E16CDC0
BC8C0180
BE27B048
BE373C30
3E3AFE54
3E67A010
BE133A5C
3CFE7D20
BE290A38
BDCC8AF0
3D94D408
BE1A70B8
3E43A248
BDFD9458
3E3ACCEC
BD130BF0
BE7C971C
3D4A0360
3BDE1600
3CF92A20
BE5F3AB8
3C43BE00
BDC96F88
3E372D33
3E1DF9FD
BE0CB8A8
3E13B471
BE092451
BE9E0094
3DD3BDA7
BEAFDD54
BE361208
BD3DD310
3EB74E56
BE879BE9
3EF007D9
3D9AB184
3E444255
BE4F1EDA
BE5FDF2D
3F02E192
BE8F9DFE
3C00558A
3CDD1823
BE00D86C
BE059BAC
3E89AB16
3DB93910
BE39E284
3E2ED1D4
BE6AED5E
3EA0A1BF
BB11A7BB
BDFC770B
BE3B131F
3DA964D2
3E5C8F60
BE7CAF00
BE870E90
BD215750
3EF96FDD
BE1E79BF
3F10626E
3E776388
BD678540
BE3CAA53
BDFFD40F
BE57457F
BE76C024
3D7CB113
3E039B80
BD277D50
BEC51A4A
3EA95482
3EBFB854
BE8C0C6A
3E02CFF3
3DF384F0
BE804EF3
3ED2295D
BD86E7E8
3D968CD8
BBD3AAFC
BEAED012
3D3D7010
3E2A909E
BE137B34
BDD04D1F
BD5EB0FA
3DE31560
39967642
BE7C471C
3D5911C8
BCD0D25A
BE0F3F23
BD322DA0
BDA3C978
3D1A3B15
BE69A628
3E5EFEF7
BBFF3220
BD4F762D
3E164EAA
BD26DE4F
BD266662
BC7DFAAB
BE1CBD29
BDBB4601
BD311430
BE7DBA74
3CE43F52
3E144A2B
3A1CF800
BDD56060
3E78C8E0
BD11E675
BD017B60
BE09AEC4
3E2A7D7C
3E5C3C67
3E267EEA
3CD69F33
3E8237C0
BD3833AF
BEA09B28
BD176AF9
BEC5A3A9
BCDE9A54
BE57B1B4
3F09CAD5
BE0041CD
3EB87C87
3C175432
3E5DD4A3
3DA40F5C
3DEA2517
3E7EE041
BEA4BD95
BEB2554E
3E71266C
3D3E503F
3E4DA2F0
3E784AAC
BEAFA68A
3DCC4FDA
3E66C4BB
3DE7FB28
3EEA59AE
3E170718
3E144020
3E061E27
BDB1EEE4
BDF97C68
BD9449E0
BE5CCF67
BE583ABB
3DA76E3D
3D839253
BD23AA7B
3CBF64C0
BE79DB24
3D8843D3
BE746D8F
BE0DE657
BD4AF7E0
3E000B1F
3E09C77A
3DD8BC01
BC6C84F8
3E070F84
3E734CA4
3D308506
3E51C310
BE6EC12C
BE32B1A5
3DD455B8
BE270428
3E1BDD2E
BE6BA2F3
3D73D157
3D8D909C
3D64C640
BDB9C109
3C6AA903
3DDBABC0
BDEE5E10
BE1FD626
3D6A8077
3E39309B
3E5307FC
3E41A32A
3E350E7E
3E3705D8
BC480C87
3E321F4B
3DD35203
3DDCD3C0
3DFF3210
3D178864
3E2BF4A4
3D73D0EA
BDF8B399
3D7EF435
3D0902DC
BE1E33A0
3E0D42DC
BCB31692
BE310FC3
BE13CE64
3E1EEBCF
BD849735
3DB438A7
3D7C3D1E
3E951ED6
3E4684C0

