08AD
35C8
289F
3A88
0DD6
2445
2979
152F
13BB
323D
0EB5
2C61
0656
10FE
2F40
2E05
119E
3E20
0E58
16E9
3BA7
12FA
2E52
1564
37CE
32A6
3617
28E3
0477
0DFE
2723
097B
0406
0C55
19CE
2908
188B
37C3
3F7D
26D0
13EB
1891
2CC6
3B0E
3353
290C
0811
04D9
049D
13BF
04F6
26CE
2E10
0B0E
3206
15E9
1678
2641
1672
2EFA
13AE
07D3
3671
296E
0CF4
0130
037D
0751
076C
11DD
3F51
11C3
29AA
2808
19FE
38DE
2BF0
0C50
0CAF
27AB
3FF7
3B18
2460
338B
35A8
358E
3E0A
2CE3
0B42
37D7
287B
2C9F
3E44
355E
3DFD
3188
2BB2
2E3C
1159
0825
0E31
3A7B
2A2A
3373
33CD
126D
3275
1133
283E
27BC
3D8B
0D3C
2E74
2993
0C27
0CFA
2D2B
2D55
33BE
38D6
2F7C
33D2
2E52
2743
033F
2B08
384E
33DD
2F65
0E42
0659
071E
38C4
350D
31CC
338C
3ACA
12D5
0707
1435
3484
11F2
2D1C
0117
076E
10EC
040A
0996
37F0
0C3F
2A5E
15E5
3453
0CF4
3ED3
3C5D
0D76
300D
1114
37CB
325E
00CF
077B
2645
3113
31B9
10F3
2DEB
1571
3942
2B1C
1468
2872
3A34
1005
39E2
281E
34EA
3D31
2A57
2AED
3391
2B14
27B8
2928
12CF
071B
2E3A
173E
2987
0145
0CEB
040C
3BA4
1606
04FE
3D86
07E3
36B8
3BFA
2959
3BE3
16FA
2EB0
3007
27C6
19DC
0F71
0E88
2680
15C2
1346
09C8
12BB
01CD
147F
0BCE
14E3
0D1C
06C9
2A9E
15EC
0EF0
2A75
2B10
009D
2807
0290
02E8
099A
2E55
30E4
30E9
3AF0
04C0
3C27
3509
0175
1912
3A39
34E6
2F56
0573
3F38
018B
231F
0C52
18FA
26DC
043E
2C3F
1190
22F8
16FC
2C29
0AA0
3E43
0253
2743
070B
132E
3954
28C8
35A0
15D1
02F1
37D7
2775
1566
00F3
3556
0C11
3FF4
115B
332A
0786
1553
3E6A
1674
3819
1304
08B4
2F52
1472
0C20
0B75
11ED
168D

