3D373864
BB444805
BC12AE86
BCE49284
BC17259A
BC5F04EB
BB5715EF
00000000
BCE4D515
00000000
00000000
BC25F381
BBFFACAF
BD748385
BC0E0B4A
BDADE929
00000000
BD470630
3DC46770
BBF80A02
BD035656
BD1B81A3
00000000
00000000
00000000
3B5CDFB7
00000000
00000000
3D52828A
BD077965
3D13F7A7
3C6CD373

