BE3E192C
BD060063
BCFB56DB
BDBE19CF
3DAE144C
3D29DDC5
3E180482
3DAE64A1
3D497F84
3DBC0B14
BCAFDA48
BDAB9707
3E87D020
3E9750F8
BD0DC7CD
BDA9529B
3D73EBD2
BD4C3F3E
3CF6E18A
BC878074
3D8C3727
3DB55489
3D572946
BE468A8E
BE38C1BA
3CEF2794
BDB32537
3C91D929
3C0DA4B8
BA81718A
3CEC4092
3D0AD9BF
BD806C73
BD0A54A5
BD45F041
3CD3B4CD
3C8F7FD0
3C4ED6C4
BD0EEF85
3CEE54AB
BD30A312
BDBAF6BF
BDD36385
3D6AA877
3D91364B
BDAFB162
3D9E38B6
3DA433A1
3D6A6000
BDA83585
BDD9952A
3D9CE203
3D332CD9
3D112736
3DC358CD
3C75BF54
3D174E62
3BF0D0F8
3D273AC1
BB346443
3D915740
BD74FBDD
BD8A6FEA
BD237C6C
3DA93A3D
BA387D80
BDCB1019
3CB8D4CE
BC1A78E0
BCD7BDDD
3D4A390D
BC228018
BD3899F5
3D6BCD60
3C41BE80
BD8B5F7C
BDBF0BB1
BBEA2E07
BD02283C
BDC97798
BD266F4E
3D17A264
3DA66768
3C264098
BD8E2C2A
BCFC7D12
BD234ECC
3D63A368
BDC314C2
3D420A34
BDAF4D53
BDB1DC51
BDCF3110
BD347703
3D8AE400
BDBB04FA
3BF4595B
3CB37CF1
BD0AF632
3D8E9E1C
3D69E9E4
3D9081D3
3C800154
BD023594
BD4274A2
BD0090D8
3D0D0C2C
3D698898
BC66E6FF
BD8AA3AC
BD37512A
3C96D61C
3DE0003E
BC9B14D9
3C837D2E
3D9FDFEB
3DAAEFA2
3DB1FD27
3D6911DF
3D1B2EBA
3D602BB0
BDDA88A4
3DC128A4
BDAA271A
BDC4AD30
BC3C5C64
3D9E6202
BCAEE856
3D8829B0
BD140596
BDA778F1
BD78E547
3CBAB000
BD3C27A9
BC93849D
3D3D5274
3D9E5296
BD8E3F1C
3DC50316
3DB6E730
BDC51300
3DB86199
BD6A1AFD
BD791393
BD9D82CE
BD83F345
3DA83C66
BB076521
3DBB9EFA
BD3CF55E
BDCF66A9
BDA8E0BC
BC9BBBA1
BDC3F63B
BD3D6D19
3DAA9A50
3D297FC0
BD934042
3D8E4394
3D5D6E2E
3B2B38A0
BD07FC37
BE237B40
3D7ED7A6
BD867E8A
BD3C0535
BCAE7BAB
BCDDB497
BCD64606
BDBF5B5C
BDA49D9A
3D188482
BDE6CA53
3DBCEC3E
BD4C8545
3C8EFD12
BD9B74EC
3D858EE7
BD7E3EE8
3D9C8DAF
3DA583AE
3D8283BD
3DFB68CB
BE3251ED
3DA49FEA
3CEF7837
BDDB5F06
BD7431FC
BDB047BE
3D0AC8B3
3D7C0639
BDDDD37A
BD8040E6
BCE93218
3D9B2B64
3DD0BB5E
BBFF25E0
3B228BE0
3CAC6118
BDB88D77
BD59428D
3CCEE680
3D60CBB4
3C433888
3D50CAD4
BDB12EBC
BD7A1C56
3C449DF8
3CA1BB84
BD9E73D2
BDBC3880
BD97E440
3D3F2F50
3D977BF0
3C3E6EE0
BD55A3FB
BC4D8B88
BDCF9CA9
BD9DCCD8
3D3A3148
3DC89042
3D728BF0
3C939070
BDB43705
BDC0A59C
3CEFB228
3C2BC7E8
BD87207C
BD1C98C8
BD912A48
3DA99A10
3D8CBDEA
3DC6275E
BC2FBBD8
BCEE3308
BD365B80
BD70EBA7
BD8C7314
3DBFBE60
BD9F0620
3D63FB84
BC605948
3D79A318
3DA94FF8
3DC60898
BCE1FF04
3D96CDBE
BCB1121C
3CDCA0C0
3CAE51D4
BDC2F2BC
BD9AE26A
3D339CB8
3D97C120
BD9F07E9
3DA97EE6
BD7D6E31
3C327BEB
3D858E87
BDB4862D
BD79FBBB
BD5D79B2
3A1EBEED
3D2D90B3
BD47C499
BD0BB123
3D6051B8
3DA5CEBA
BDEB6E19
3D01DA67
BD975BBA
BCBD0FCD
3DD2B69C
3CD9EA81
BDA34999
BDC9AA58
BD09ED86
BDB5B507
3D900361
BC5568A0
BDC40512
BD193555
BD2613CE
BCCEC59E
3DAD3F5E
3BEA894C
BD6163FD
3D9DDC3B
3CBB40A0
3DCCBAC4
BD7E5F96
BA929E40
BD83AD00
BCF7A438
3DAFC45C
3D69E370
3BCD3FD0
BD6A10D3
3D9E300C
3D8EF8C6
3DB19B2C
BD96235A
BD56DD56
BDBCEC49
3D85B032
3CE06088
3D1C92E4
3DA45406
BD4BE8AB
BD1C3202
BD426932
BDB5B762
3DA2221E
BDD052BA
3DA93D78
BD94D5E1
BDB2C852
BD4DCC78
BDA0E174
BD5C2546
39FE4600
BC98476C
3D986B30
BC86845C
3DB7380E
BB14E140
BD8E9F96
3D89AA00
BCFDE418
3DAEC256
3D6CEF70
3CECE428
BD072B20
BD82971C
BD51F7AE
3D8316DA
3B971B30
3D033E7C
BD31B77F
3C0CD6D8
3CD18168
3DB41542
BCCE22B0
3D0FC130
BC9545A0
BDA1CEC3
3D89310A
BD8A9B59
3C867B60
3CA4839C
BD3F00EC
3D6B5594
3CB7774C
BD9B66AA
BD80F127
BD86C790
BD265F1E
3D245EA0
BDA88301
3DB43E40
3C8410B2
BDBA5799
3D8D62B3
3D746CC5
BD347FC7
BD40FF3C
3D1227D6
3D37D058
BC58B8D5
3CF6E8AA
BBC57FB0
BDACBFF5
3D1B456E
3CAB5E17
BDA5D50E
3DC0A2B7
3D4AAD35
3D0EAE6E
3D8F0104
3B928A0D
3D867F4A
BD82408C
BD483C90
BD9CF36A
BD5D4B13
BB965B80
3DC386DD
3D8A9C1B
BB8045B0
3DCF6E6B
3DB01715
3C36ACD8
3C8CAC74
3D36B464
3D7E6FE4
BDB8EBD2
BD038824
BD972916
BC33D740
3DC5F382
3CDB0B35
3C906688
BD83C472
BD819158
BCE6B0DB
BD37A510
3DAB48EE
BD7B7BEF
3BC74B1A
BD936432
3DA92A6C
3D9FBFBA
3DB5D438
BDC55E5E
BD386D8F
3CCAC05D
3D9F61EC
3D6FC645
BE0BC528
BD084EF5
3D3ACBFC
BD26EEE1
BDBB77FB
3C321F0A
3DBCFA93
BD9358EB
3D9C2408
BD65109C
BDD70E19
3D7D0C61
BDD70D52
3D8DEDD1
BC6A4BE0
BD6367F3
BC37CEC1
3CD29E36
3D299C22
BCBA5966
3C2EE217
BD5C7365
3A01B104
3D3B3F88
3E012591
BDB53DAB
3CCF4268
3BA0D521
3DC659C3
3D87F065
3DABF95E
BDB3DFB4
3DAC0C11
BD2326FE
BAA0E840
3C02AFD8
BD21F2FA
BC904110
BD237716
3D46A004
3D5D511C
3DA1DBF0
3C57E0D8
3C980462
BD3964BC
BDACD232
3A910918
3D800F14
BDA84684
BD21E290
BDBBC447
3C3E3C08
3D99C66B
3BF4C421
3D27E780
BDC9092C
3BCE85C2
BDA467DC
3D0D9780
3DCCF926
3D871309
BD85FF1B
BB4DA400
BD5043D3
3CC0A967
BDAB5F23
3D8CF6BA
BD552231
BCB834C7
BDB59B67
BD88A402
BDB4D00B
BD8AECAF
3D29FA0A
BDBE10D8
BD94CBCB
3D805F0C
BD47F61F
BCE24725
3D8F4065
BDBFEC6F
BD1349DA
BBFEBE44
3DC49A28
BC13C98C
3D2F8C87
3DDCED12
3B785C4A
BD32EE0E
BCFBDB8D
3D854462
3DA82DD5
BD748496
BD8FD543
BDCC4E70
BD438641
BD5C9670
3C9A8A60
BDA22910
BDBEBFD4
BD7F4E01
BCE44BDC
3C9C6130
BD8509CC
BDAFEFB7
BD2321DD
3CADA3F8
BD84D7AF
3D5A4778
BDCFBCD6
3DC8E65C
3D9DB750
BCAB5EE0
BC938964
3C7DB748
BDD08103
BD2F4A94
BDCB1454
BD813352
BD74E107
3D680DEC
BA95B180
3D262574
3CA610F0
BDC26C65
3D8CF53C
3DA468EE
BDA339A5
3C81F72E
3DBE41E6
BDCE04E2
BCA262B5
BDC20A85
3CBAD5A5
3C8E2AF2
BD70AE7C
3DB45C36
BC9EF15A
BDEC5E5A
BC3B7DE2
3D7AAEC6
3D8F48C2
BD3F8C07
3DCA7E71
BC00B3E8
BCF36399
3B852EDB
3C96F037
3D2D149E
BDA06728
3DB75916
BD2D6CB1
BC87DF03
BD809E57
3DBD6046
BDD21F24
BD89804F
BBEFDEDA
BE961B90
3CEAFAFE
3F02C228
3D962973
BCAD8598
3CE9DCCC
3E4282A6
BD32F24F
3D1F1564
BD8B0F2A
BDBBA941
BD4B0C9E
3EF54584
3CD4CFC4
3D9A18C4
3D21C7FF
BE0648B9
BE5124AB
3D7666FA
3D376893
3C2B11C2
BDADF2BC
3C385CB9
3EF55916
BE990459
3DB9C5D0
3EBC9410
BCBF5895
BD8F5D68
BDD2690C
BDCCF6E8
3D658661
3C57F10B
BD3CD550
3E9D55F3
3DA324C4
BB8AFBB0
3D01C0D9
3D0B376A
3D15DD70
3D0A25AD
3CD6835D
3C7B9D9D
3D9F9FE7
3E30A91F
BDE74B43
3BE74280
BD129DB6
BD465AD1
BE26FE37
3D1FF115
3CBBC228
BD7B344D
BBAC7731
BCA8B52A
3E81182D
BD38742E
3DA0517B
3E386779
BD5E17EE
3D0B9480
3B9B95BC
BDC6D4AE
3DB74E4A
3DA1AD38
3D485E26
BD89000E
3DA1C0E2
BD9BC1DB
3DB2FBC8
BD90BDAE
BDC8066B
BD26B20C
3DB453A1
BD654225
3DC01972
BD94F7BF
37EE325C
3D365C20
BBC264A8
3DB12017
3C76D905
3DA950CF
3BBE9D0A
BDB7D233
BCBEA16E
3BBE1B46
3C94EC6E
3E0259E1
3D044844
3CFF7A7E
3D14EBDD
BDB09804
BD98DEBD
BC7AD00C
BC8B1980
BD63BA58
3C42A6E7
BE1C8EE5
BD59519A
BDCE9067
3CCF8E9D
3D37CE78
BB96B1E0
BB1CA9A8
BD7B694C
BC0C42D2
BDAED490
3CE49E22
BDD636D7
3BDB5140
BDC4E43C
BD95BC65
BD78657F
BD0A9DE7
BD911388
3CBF8D15
BD3730BB
3DE7B8F7
3D9675AB
3D682967
3BC0A75D
3DD8F36C
3C53276F
3C733D18
3DB4A108
3DA8D5AD
3D97D2B8
BBAD0A00
3CF87D98
3C407EA0
3D1C8AE0
BC72D858
BC6AB528
BC17EAF8
BB850EA0
BD5AA544
3CEFB788
BDA82DEB
BC67A558
3DBAC4FE
BDC28C16
BCC8881C
BD4110C2
3A9533C0
BD83F910
3D126828
BC2ED7F0
3D2DC72C
BD06E0E0
BD452F23
BDA91629
BD935C81
3D099F1C
BD9AD7C6
3D6855C0
3D4152C0
3CEC87D8
3BD443E0
BD8D6F88
3D9497B2
BC043BD8
3D213B48
3DB5A4C2
3DC8C03A
39D58000
BD6E5157
BCC6C328
3D8641B0
3DC01126
3DBCB814
3D4BA3DC
BDAF9BB4
3D99F3A0
BD0AA958
BD7617CF
BDBCF8D6
BDA54A56
BD9986B0
3D93CA52
BD9FD28B
BD54F413
BD9A5611
3D9D3BD4
BCA2C92C
BDBEFA49
BCA771B8
3DA94D04
3DC1F00C
3DA2943E
3CD18178
3DAB20D8
3D2AA350
BD74AA6D
BD347E35
BD6C10F9
BCA5C810
3D0DC780
3DA6C3B0
3DC245EC
3CB88BC4
BDC04669
BD27FB93
3D4172DC
BCFCE7E4
3C8DA2E0
BC5CD258
3CAA890C
BCEB2428
BCEB6DD8
3DC1701C
3D340578
3DBED184
3D036868
BDB1ACEF
3D257598
BD938585
3D3C3EC0
B99A7200
BD5CB824
BDCA47FD
BD60EE74
BD1CC2FC
BD03125C
BE2C6831
BDBF5DA6
BE8B8BF4
3C797541
3DAD336A
3D9B1186
3D83739D
BD4AB843
BCDE500E
BDA9DB83
BDB91D62
3D541901
BDAD5E67
3DE93216
3CA0FE3E
3C80E7C6
BD2E48F3
BDAA5325
BDBE17E8
3DA27010
3DA7C390
BD293D0E
3E0E62D2
BE4649F3
3E14E24A
3D1299F0
BC0C75CF
3D348A62
BBE20D30
3D98BBF1
3C8B3CCD
BD5592AD
BBDB3F00
BD93CC1F
3DA7D7B0
BC0034E8
3DBB3D8E
3D9519FA
BDC1BBF2
BDA0D9AF
BD6F8CD7
3D3288F4
3CC89268
3D63D86C
BD5AF5BE
3D1FDC28
BC8D5DD4
3D5072D4
3D353CA8
3BE5E4E0
BD85B764
BD74EBAB
BC8845F0
3DB3B76E
BD8D7069
3DA3AD1E
3D302768
BD56439B
BCCFA748
3D926CCC
BC5E1458
BD2FDCDC
BD867064
BD1E85CC
3D8A3C68
BD138084
BD9F96AC
3D7523D4
3DD0CB54
BDA758D3
BD7322DD
BD11FC74
BC05ED50
BDAC1F1F
3DCF947C
3C6FDCF0
3D26C788
3D30B934
BD80BAC0
BD38ECD5
BD992178
BD244948
BD0E33C2
3D83ADFE
BDD014AF
BC6BBF90
BDBC04EF
B9EC2F00
BB2466C0
3DB25C40
3DD056A8
BD95E7DA
3C0D4B68
3B6A60A0
BD6BD05E
BDB8E10E
BE16FD9E
3D086CC9
BDDAFFC0
3D73451F
BD13B642
BD4962E4
3EB679A1
BDB0641A
BCDC38F4
3C530DCF
BDA9E22B
3D499BC2
3EBC3EC7
3ECD70DD
BDB130FE
3C9EC787
BDD348A6
BE6C72A4
BBFF4A0F
BCE3AC2F
3DAC64CF
BD972695
3B6BB814
BDD37E22
BEAE476E
3CCA8B83
BE8FFC31
BDB72747
BD3D8A74
BDB01F7E
BD96B271
3C8EE6AD
3DD0871E
3D777DF7
3D617DF5
3D09AE3C
BD816B9C
3D4EB42D
3D404226
BDD12741
BDAAD9A5
3D177A4E
3D9CB186
BD903749
BDE8495B
BE318841
BC890138
3D5C2E06
BDA2FB6A
3DA39D82
3DA23552
3D3FF96C
BD4DDCA5
3DC3EAC3
BB833B6E
3CA67737
3D15C17D
BCBF4FF3
3E11FDCE
3CB9A202
3D452FFC
BDCDD703
BDCBB615
3D5FE605
BE8B876C
3BF75829
BDBC6F48
BDBAB1FA
3D002950
3D646D65
3E861072
3CA6E5D0
BD3EBAB6
BC5E3E60
BCFB71D1
BDD2C389
3DB05782
3EAEECE3
BB82CFEB
BCE70D2C
BD58B6DF
3C43A7FE
3DBBD378
3D8B68AA
3D2778F4
BDD0CDE5
3D46534C
BE2489EC
BE171B5A
BBD830DF
BE31F9D9
3D84C2FF
BD939202
BDD07C00
3C527E32
BDC6E784
BCCCBB99
BD29D9A3
3D5572C8
3DC11CEE
3DBA2F1E
BD427FEE
3DB995E0
3DAB4621
3DC2D469
3D8F1152
3AF13179
BA95306A
3E74C301
3E1F808D
BD3954EF
BD33679B
BCE64AF0
3D643958
3CF61D9F
BCA704E4
BD91390C
3C01BA8B
BC60A0C9
3E33C6B6
BE505020
BC809625
BADDD6DA
BDCAD8AA
BD2246F7
BC4A950D
BD2C33C0
3D17B155
BE04A749
3DAAAC0D
BE916501
3B830FDA
3CC23638
BC3C38E9
3E5ACCAF
3D666D88
BD2BBB71
BD063D92
3C02A478
BDA6274C
3EA6299E
3EB4FE04
3CAF184F
3CADC9D5
BD0939EB
BDFB4697
3D8806C9
BCD18EE0
3B3BC40B
3D26AA21
BDC7AEFD
BE9E2922
BE1C699C
BD336C29
BEB5EF00
BD7A225E
3D8FCAB0
BA8E4F65
BC187A88
3C80D9EA
3D64EDAC
BDDBB289
BDCBBE19
3D649E94
3CEEBDE0
3B5EE0BA
BD1CB6E4
3D412082
BD4339FE
3D7457D4
BD8AFAA1
BD0A035F
BDBF53D5
BD9ABD74
3D999EF5
3CB8918D
BD5866F9
3D913823
BD57D66E
3D862D36
BDC7BE74
3D79C037
BB45BE07
3D110450
BD1E2DFE
3C5B5FCF
BD936EE1
3CB3529E
BD16040C
BCE3AE6E
BDA885DC
3D455B5F
3D2E22D1
BD4B9852
3CCD6100
BD13FB66
3D8B58EE
BBCDFBB6
BD869B8C
3CFA4360
3B48B000
3C9CF077
BD767BD4
BD37B242
BA530F29
3CE8C4FB
3CCD87FF
BD20256A
3DAB037A
BDB1BCEA
BD039E50
3DA5F37A
3DB9F563
3D03591D
3D68FB7E
BC59AFA5
3ADB0120
BD933E69
BCACAF34
3D976126
3D2A968C
3C46DDB0
3D6A7780
3DCE756F
3C7BD937
BD8EAE4F
3D8C8E84
3D8168B4
BDA124C7
BCC35ED2
3D86B537
3D74057A
BDC33CC9
BB4441F5
3D9B47FD
BD6FD947
3B87F871
BDB15143
3C022541
BD552434
3DCBF38E
BDACBFD5
BD98C0BE
3D702BBD
BD960410
BC07EE79
3D125CC1
BD385449
3E00B2A5
BDD66ECC
3D5D23A7
BDC12A2A
BD0F0B98
3DB3C37F
3DA5B9B1
BDB7B8B9
BDBA10DB
BC80DA00
BDBBBA60
3D87486D
BD3938D1
BD869F74
BDB05CC3
BD7CC4F0
BD2E39CA
BD524031
3D831109
3D6CE8FC
BD8120C2
BD79A542
3D123365
BC9F4E6F
BD841A79
BD05E387
3D81C506
BCEBC0B8
BD975251
BD0D7FA4
BC2820B3
BD12FE77
BD1AB8C3
3B607EBC
3CAC553D
3D6D40C8
3D80B846
BD2DA19A
3D552C93
3DC45B1B
BC250435
3D194B95
BE03BEB5
BD57E60B
3DAFC7F0
BD9DD5CF
BDC11526
BDA08083
3D8D7067
BD698CB0
3DC22E13
3AC46EDA
3D11E768
BC5AA9D7
BC46AF2E
3D22C8D6
BDBF8E25
3D90CB83
BD854323
3D6EA7DA
3C29F1AE
3D2323FA
BDB009D4
BDE9B489
3BC31CFA
BCF6D04D
BDA9708E
BCC80422
3A9880C0
3D77F54B
3C1F87FC
BD03C04B
BDC138CC
3D8658E0
3D92F748
BD52898E
BD0D3720
3D8B297E
BD4BC785
BCED4B74
3D5A2A28
3D5422D8
3D7310E8
BD826E56
3DCB8478
3D43A2DC
3D552918
3C90CC99
3DBEF13A
3D0B3660
3CA1B46C
BDA4EF04
BDC4D116
3C443DB8
3D740EFC
3BE3CE5A
BC3AE06C
3DBF197E
3D4CCFEF
BD866374
3C8CFA94
BDBE84C6
BBCF85F0
BB02A060
BC1FE468
3D994A70
BD646A66
BCE6F5BC
BBBA2530
3D9846D6
3CC576B0
BDB51855
3D7047CC
BC306838
BD825F4E
BD344D24
BDAF060E
BC4BB678
3D54D658
BD7C2CC4
BD7CBF25
3B686B60
3D0EC2D4
BCDCF16C
BC2B17F0
3DBC8990
BD649E7A
BC0003D0
BDC52261
3D1920B8
3D442234
BD89DC64
BCE954B4
3D2D3950
3D9DB944
BDC97F07
3D984F01
BDAD11E5
3CC87E9B
3CF3956F
3CC31C90
3D872D6A
3CF88857
BDC7E7DF
BCA48432
3D97EDE0
3DAA50C5
BDA8B83C
3DA57368
3DA07D47
BD93440F
BDAAB632
3D63630B
BD2B1D6B
3D420DE5
BD03D97B
3C023AD1
3DB3D0B4
3D159598
BDAAD873
BD6C04E5
BD20675B
3CC8178E
3D7D1C85
3DC06820
BCF0093B
BD7C0832
3D9F5F64
3C5D4458
BD928F3B
3DC04120
3D892ADE
BDAAE882
3DCCAEB2
3D45CEB8
BD0B9B06
BD3A5B6A
3DAC0FA2
3DAAEACE
BDB26DAE
3DB06CA4
BD2F106D
3DADDC46
BD201FA0
3DBA46A8
3D56DE14
3DB02086
BC61C570
BD28CBFC
BB212300
3D80B762
3D28DD64
3DCACC38
3DA2CBEE
BD8FA648
3C358EC0
3B83CE20
3DB54422
BDA6E564
3DC488E4
3D2E16D0
3C075B98
3BCB6F30
3D10B488
BD4A44F0
BDBCAAF4
BCD6F958
3C39C610
3DAA0710
3D3A1FFC
BD8A1792
3DCB864C
3D517618
BD2AD5E8
3DC58FE4
BDCC73C8
BD9808C0
BD0CB428
BBB920C0
3CDD98A8
BCCAA60C
3D4EEFFC
3D85643C
BD58565A
BD307F64
BDB182B1
3D3D91A8
3D4FCC98
3B883790
BD52E4A5
BD8FEEE2
BD99CB0C
3C0BF88C
BD34B8AA
BD1F67AF
3C1A2F30
BCED167C
3D6D369F
3D807989
BB68A82D
3D9BCCB5
BDBAA38E
3DAF48A1
BDB88D8B
BDB69EF6
3D806C2B
BDBF8116
3D07FFCC
3D4A1C11
3DA6028C
BDB8307A
3DA473FE
3DC16B42
BD0B5B28
3DAA5671
BDD39B5E
39A022EA
3B31FD76
BDAD41F8
3D2A0A23
3C266230
BDC709CE
BD9D269D
BC9E3A7A
BD325B7E
3DD0D07A
BBDA7675
3DB87660
3CA2EA8C
3DA9431B
3D5A5B6F
3C0B6BB8
BD1151A2
BCACF22C
3D03612C
BDBCD02B
BD957968
3DCE6148
3DA8AADE
3D28CDBB
BD8338A2
3AB8B31A
3D8C84DA
3D14C93C
3D117B07
BB81BE41
3D11A4BF
BD819FA0
3DCF31ED
BDAA872E
BD11B726
BCF29473
3D80B2D6
3DA2B4DC
BCEC9614
BD4AC2C6
BD9AE56C
3D9A51C2
BE39B534
BB7E2D23
BD957F05
3D81D409
BAC2CE0F
BCD7BA5B
3C957246
BDC7DB46
3DC135A4
3D8A8F33
BDCE2A39
3DD2AE4C
3CF43413
BDD3F955
BD68999E
3D8F8B96
3D4BACAF
BD04351C
3D552C71
3C5C3570
3DC348D8
BE13E51A
3DC6DFB2
3B50C893
3DB98F2D
BD82DFFA
BDBEF5C2
3DC2A9A6
3D51D3C2
BDB79A2E
BC6844E4
3CD14EA8
3CFC7906
BD2BB8CA
BBC24CC0
BCEDCDE4
BDAE907A
BD8B2235
BDBBAFDE
3DC03DFA
BC2E55E5
BCAA0868
3DC8B6DF
3CD0A51E
BCA40258
3C8BCF90
BDAD5D52
3CADA476
B9977300
BDBA4DD0
3DA68743
3AA47786
BD0A4522
BCF39F82
3D1F63B2
BD95842D
3D5CF22A
BDC0CC4C
BC6236D8
BDA65988
3DB995F1
3D011209
3DB6D2B2
3D851A0F
3D08B6E4
BD8EAD59
3DA15B88
BD2FEE08
BDFAC337
3D23F505
BBBA8002
BB6F64D0
BDC524F1
BD12599A
BE0BEC81
BB4478F7
BD99E50F
BD2BB850
3C1697C3
3DA3941C
BDD7C772
BDAF2514
BDED3224
BD258947
BCCBDCC1
3D8F9ABD
3E108302
BDC99EB0
3D02315E
3C165FBE
BD3C5CA8
3D21D2A5
BB43102F
3C9B2D8B
3D1B9058
3C40B1A8
3D60AD70
BD5AD254
BD30E703
BD2119E8
BDAD8C5C
3DC57EF0
BDCBDE4C
3DA41DB6
3D2520BC
3DC93842
3D061114
BD314790
BD2FB824
BDC12934
BCBC2058
3D775790
BD4FAF4D
3D0D85F8
BC951ADC
BC98A490
BDAF530C
3D317534
BD44EBF5
BD21DA04
BCAAEFE0
BD8A4175
3C2165B0
3D44289C
3D79FD9C
3C93A740
3DF8A791
3DA44A62
3BA0DD26
3D619711
BDC36114
BD8E959F
3D94A077
BD88A0BD
3CA1FF15
BA43781A
BCCCB4DD
BD487B00
BD957F6D
BDD352E2
BDC6678D
3D056A89
3ADE51A4
BC0D29EC
3D466CED
3D1B144A
BDD60F29
BDD30CEB
BD9FD1F0
BDE4453F
3DF0F62F
3D2DFF33
3D6BF0F5
BDDB38EB
3DD0476C
3D3671E7
3CFB7744
3D9DFD5B
BEA090D9
3DC010F8
3EBEDA58
3D63BFC6
BC997020
BDC9C195
3EF4D251
3D4E2B76
BDB0C8C7
3D92539D
BD42E85D
3D7C844B
3E691A73
3D3F4DF8
3C6C7603
3CD1670E
BE01CD77
BE83B3FB
BC8B38B4
BD8E0F09
BD73AF97
BC7AEFB5
3EC88F64
3EEA07F7
3DA74FC7
BD41744B
3E9BDD4C
3D5C156A
3D9C6AA6
BDA834FA
BCB93315
3C9EC867
BCA24924
BDA6C4A5
BD8C7697
BDD91D6C
3D9D24D6
3D5FB626
3E688C64
3D94E489
BD5F37DC
BDAD6DF2
BD8CA44A
3BB30B4A
BDCB8607
BDD5B57D
3D6FB9E5
BC4C4592
3D6A5FCD
3ADF4675
BD1972B5
3D1FC5C6
BDC442D1
3D70A147
3EAE6241
3D1ED110
3E3984BC
BDA98AC6
3D371301
B9665D8F
3CD20118
3D94AD43
3DBB1DF1
BDC98866
3D9AA012
BCB9240D
BD888455
3C9AA5D8
3C645740
BCC66AA7
BDC68B1E
3D3BCCE2
BD9180CC
3DA5CA50
BDBE36B7
3AB7C9FF
BDED7209
BE0D76B7
3CFE19A4
BD4C5642
3DE2A84A
3DD328B8
3C2B41DE
BCC0E347
BD399A02
3D889620
3DB71B86
3DA24831
3DDCE262
3C35B3CE
3DE28B84
BD2FE522
BD5069E5
BDC8858C
BD75F507
BD8F7DE3
BD3D7BC0
3D956B7B
BDF307B7
BD9B1077
3D888478
3B64FEC8
3D6A0291
3D72A228
3D5281AF
BDA1E1D6
3CC1AC79
BCDC75C1
BD9778CD
3D280F63
BD7F7F54
3D92D8D8
BD91E29D
3D7D2C16
BB44FA38
BDA2316F
BC9A8DA6
BD6EECB9
BDB47784
3D55EB10
BBFA0CEC
BD5E2B31
BD2739CA
BCF7CCE9
BDC83EDF
BDB0D398
BDCE2883
3D30E8C0
3C554E98
3D9BFFDC
3DCCE0B8
BDB54823
3D3CCBDC
3D462F48
BD9C8857
BDAEF6AB
BDAAE4A1
BCBF7AD4
BD7D6DDA
BC6FDA48
3CD68108
BDCF853D
3CBFFC50
3BEE7530
BCFD7A68
3C30ACD0
3DCD3DE4
3DB82E06
BCF3C4E4
BC136EF8
BD97C20B
BD65EB3A
3D6043F0
BDC0F762
BA9B2800
3D9F3F96
3DACEB52
3C5F5D18
3DB2F1FA
BD5F9470
3D3B8AD0
BDC3E307
3D00C464
3CC4BED0
BD9C56F1
BD62284B
BCAC759C
3D73C65C
3DCA6824
3D590690
3D060790
3D33D190
3C5ADD88
3CDC5718
BD4125AF
BD91CC65
3D54C9D4
3DA511E6
3D6DF278
BD770646
3D143EF8
BC0CE008
3D8471D4
BD6F5037
3C6B9208
BDB90A0C
BC581C98
3AE20E00
BD90B5C0
3C5AACD8
BD9363D0
3DAF4DE4
BD909BFE
3D25CBB8
3D8EDD34
BD90D4F2
BDCC9399
BCA8ACD4
3D92BD28
3CECCC58
3C2C03E8
3CC728F8
3CE30108
3D9A95AA
BCB6CB90
BD9604FA
BBAE5960
3D97A7DA
3D1A13D4
BD12682E
3D8040B4
3D2B3D6C
3CE3FC40
3D94126E
3D09B1BC
BCEA02C4
3D71FE68
3CC1C038
3CC523A8
BD794D00
3D2D9C68
BB484E00
3D78F7CC
3DB3C1C4
BD5A878D
3CC6D976
BE935462
3DBE5AAC
3DA4AE74
BD26DB49
3D10C0B3
3C86D8C1
BD33BA1D
BD900F86
BDDA061A
BBFCE7AA
3E6811CF
3D9F322A
3D181B1B
BDA0C5FA
3C92F507
BD907865
BD5E3491
BD95A2A0
3D8613ED
3BA85490
BE0B8DEF
BE3EB820
BC9A83B6
BD52DFE2
BE764F0D
3D1DFEF2
BD85D688
3D74A14B
BD11B157
BDCDF418
BC6DD898
3D85EE94
BB01CC20
BD492E69
BD171374
3B7C4660
BDCFD826
BD462100
BD86F067
3D2E7FD0
3DC00A28
3D45C608
3DADBC3A
3DA394E0
BC8C9E04
BDBB2C24
3D595328
BD0ADCF0
BD08A46C
3D910800
3D9C565A
3DA48E54
3D4FCDD0
BDA6F7D0
3D225DC8
3DBC4880
BDAF97B6
3CA4D498
BBA724B0
BDAB3BA6
BCB0A3B8
3DB397C4
3BA103D0
BD315E38
BD872B65
BDA3FA6D
3CA0DD54
3D59D6D8
BA157200
3DB2C190
3D244B60
3D5C9A28
3B798E00
3CBBFC38
BD7BD65E
3DA01280
BDBD88D2
3DA5F026
BD31FAFC
BD9F0995
BBA847D0
3D1BBF18
3C0AC510
BD49E542
BC504C28
BD92DD21
BCB65398
3C092B78
BC9A53F8
BD65F2BA
BBDC7540
3D97D382
3C00D440
BD882B47
BE5AE047
BCE487D5
BE63D2A1
BCB7A8FC
BD583C81
3BA9870A
3E8AE772
BDA49945
BD8E5CEA
3ACB91CF
BCF40F83
3C6E6F4C
3EA7BE37
3ED22FDB
BD0CFC17
BC83D3C5
BD814F01
BE701FDD
3D61A4BE
BD1E6E8D
3D737D92
BDBB9470
BE0D767B
BEACB171
BEA2CA0D
3D8CA9A9
BEC38DEF
3D4246B9
3DC85924
BD8EE7A2
BBA467A5
3D9D7742
BD97CDF6
BCA3A019
3D8B5792
BD18FC83
3D4FDEBC
BDC53A2F
3D25CF1D
BDC98E84
BDA433DE
BD9321F2
3D3B7E94
BCF022B4
BDF9935C
BE0FF4A3
3D97E3EC
3D77820B
3DB30112
3C867388
BD754C2F
BDC0A315
BD2688BD
3DB62E3A
3BD1A87A
BD7BE3CD
3E021856
BCAD1E0A
3E0218DB
3D419CF9
BDCEB46B
3D41556B
3D1D6677
3CFA7839
BE022109
3D8C828B
3CACA89D
BC618772
BC18DD78
3DC01C6A
3E63034C
3DA91AAC
3BA9CF1E
3D385DC0
3D0D0B87
BDCDC510
3EFCA49F
3E8F5EB8
BD917DE2
3C74C552
BD154D33
BE154638
3D16D223
BDA8F2D7
3DC3C230
3B8C6474
BE4E6C56
BDEABC55
BE87BA94
BD778AB9
BEB7F4BC
BD241289
BD618E42
3CE5C817
3D937A95
BD18E835
BD8CABED
BD258D86
BE597917
BD3C0E0B
BC66F5C8
BD4C1E63
3DFFA449
BDAC37B1
BCD4DEE4
BDB9C4B0
3D639E28
BD8A364F
3E2E3EFC
3E9CEEA5
BD95914C
BD28EF4F
BD1DA5D1
BD593858
3D795328
3DAC39F9
BC911D73
3D378A45
3DF58833
BE13798F
BD18A20F
BD8B0427
BC2DCFE2
BCA38950
3BA97F80
BDB977E2
3BF50480
BDB48919
BE6BAA76
3D24F96B
BEC6321B
BD5DE63A
BD205310
3DAEEC11
3E348E2C
3CA54F66
BDBB35B9
3D31CB60
3B884E9B
3BC6F199
3E15AC39
3E6FD7ED
3B5B4FA6
3D826DBE
3CC3681D
BC1706CB
BD532070
BDD261EC
BD32CE59
BD801690
BE25A109
BD678DE2
BD2A7E55
BD87D046
BE18E6F4
BCB92E0F
3DA5B5E6
3DB2BE46
3DAD5B0C
3D4F4F07
3DD9466D
3CC9DE14
BDC26C16
BC89FB4B
BCA9134C
BCEA7A98
3CE0A610
3D12FFBA
3D255E1B
BDBCD737
BBCDED00
BDA0DD2C
BC117816
3C80FD41
BD859232
BD06C3FC
3C85EF74
3D2A01C4
3DA2EE96
3D89B440
3C8E4B4D
BC0E12A8
3DAF92F6
3CA2FB6A
BD42C7CB
BDCE863B
BD1EFE34
3D6E6025
3CEFA568
BD7AD092
3C23802F
3B986F68
BDAB96BF
BCE33CAC
BA8AAB66
3C82EE4B
BDA282CC
BDA48314
3D52FE19
3DC01400
3A9905C0
BDB63B56
3D824C98
BD8E7BF2
BC507691
BD23B071
3C18E00C
B9B01142
3D574E78
3CD0062D
BC33DDB8
BD951BFC
BD1280DA
BD1F75B0
3CC69BBF
BDA71109
BDAC422F
3DCB5F3A
BC17AB9D
3D82DB01
3CB4B680
BD6F1B7A
BD432A5F
3C5F476D
3C7308F1
BD20D3B7
3CCF7566
BD8F9156
BD9C845C
3D913D74
3D7A3988
BC13B653
BB83A1DF
BD17B8F4
BD43EE19
3D543F9E
BD41A472
3D2800F0
3D511C27
BC3604DE
3DA0019F
3CF4B1CD
3D277E25
BD962766
3DBC99D3
3D087492
BD2FEF73
BC24C3C4
3D8951B0
3D6ABE79
BD4BC813
3DB7B498
BD154F5E
3D622BCE
3C662C5C
3CEA36C0
BD1B3E30
BCB5B61C
3CAA9862
3D158EB5
3D969BDA
3D121127
BC6C16C5
BC196D90
BD031C16
3C87C298
BD5E6D6A
BCFDAE40
3D6D7C10
3D2131ED
BD6F16ED
3D30B62E
3CCEE6AA
3DA76493
BD884671
3DC7A358
3DA2CCA6
3BEBB690
3D6F9409
BDC19FE3
BCBEB773
BD93FEBF
3DC9A8DF
3CBD2E33
3D82690A
BD469D90
BDB4B214
3CED8A8A
BDB22038
BDA308DB
3DAFB2D6
BBCF6D07
BD909471
BCDEC347
3CB55F43
3C836A6A
BBA12121
3CF5C4F9
3CA20346
3DA4C515
3D31236D
3DCE5A5E
BDAAEFA9
BBC8201D
BD15E470
BC8F8665
BDD077F4
3DB1E080
BD0BFB99
3D4D1EAA
BE2C54E9
3DB47ACE
3D6E4F01
BBADE8DA
3D9FD00A
BD3DBB38
3D5C0F50
3CB73000
BDBB9859
3D8EE8DA
BCFF6A1A
3D54ABDC
3D1E2A10
BDBA0722
3CADAA80
BDCC4612
3D87D4A3
BD0478EE
BD3CC61D
BC9E02A0
3DC0391E
3C1BE778
3D5B61AC
3D42E160
BC5CACB0
3C1AC5E1
BD0A2D17
BC666E7D
BD9AE726
3C93F0A4
3D4369A8
BDCF9D7A
BCAF7F6C
3D283D73
3CAB1A55
3CA00854
BDA9B452
BCA293F0
3D36D054
3DA47BE8
3DC0C8E6
BB2EF840
3D5452C4
BD6546A6
3C452098
3C496218
3CD94CC8
BBEAB4C0
BD49749B
BD4131C7
BCBE15B8
BD7DCFE8
BD59A7F3
3B8EDCC0
3C9CD53C
BD25A0A5
3D1493BC
3D869930
3D1C102C
BDBCC5BE
BD895DDF
BD1D29A2
BD8CC9DC
3D6253CC
3C8B44A0
BDB53375
3D951B52
3D820E56
BD9D58A9
BB6A7720
BC91FEFC
BD2D91B2
3D4497C8
3D8E1A6E
BD15621B
BD94C545
3BB4EDB7
3D87F192
BD9DB6B3
3CCEB5D6
3DBCCC8A
3D98BD44
3D9D7623
BD9CAEB1
BD814BBA
3C4A3574
3D6C4FF2
BD6F1D4B
3C6B3C6D
3C3FE54D
BD7894B7
3CF275BB
BD3D28D2
BD7D2FF8
BD2B2B84
3D263629
BD01E7D0
3DCFD0A6
BDC26A10
BDCEFCFA
3DBAC5EE
BD9C2E35
3DCC4B5E
BDB80169
3DB538E3
BDB2AC6A
BCDCAEC8
3D838D90
3C3A3C10
3D3E0C0C
BDD0E5F7
3D7A3720
3D8B7BD6
BDA23821
3D0527C4
3D401000
BC0A7128
BD43294D
3D5972A0
BD0A4ADC
BD8F0466
3CA533E0
BD9D2621
3D46A4B4
BD53C4CC
3D9C34E8
BD6968C7
3DA89B4A
3D5E2110
3DADD3E2
BDBE168C
3D930ED6
3D6168C0
BBD899B0
BD6B3FAB
3D766644
BD75C62F
BDBFBB39
3D8F4D1A
BD6FFB46
BD2FE7DB
3C99726C
3D69F628
BD0A262A
3D4741D4
BD2B0DB5
BD2AFD61
BD3EF437
BD1C3038
3D4EFF84
BD9DB7A4
3DBC7118
3D96F7F2
3D617A5C
3D44A8EC
3C006DC8
BDA6D46A
3DC8F8FC
BD3E3F01
3DBDA270
BCE972D0
3DA7F54A
BD9F49AE
3D6FC9CC
BD4714CD
3DAE3158
BD1CE52E
3DAE0534
BD5AB98D
3DCFF3B4
BC775F31
BC8F0C70
3C9D6996
3DB09496
3DBDF438
BC2882D2
BD9779A9
3A6A2000
3CBF22DA
3D558984
BDCCE761
3CBB64F8
BD7873DA
3D1ADF61
3D27380C
3D347A07
3D861CEC
3CFFC1AC
3C4D3580
3D6CE17C
BCDA4096
BD2C1DCC
BA683EED
3DBE94EF
3DB0F545
BDAF59FF
BD463EEE
3CB3F888
BD687218
3D63352C
BD829FA2
BCE4235D
BCED811F
BC6B698E
3CEF48DD
3CF62CC0
3DC189EE
BCFC235A
3DA77441
3DC6A338
BD556720
BC9E7DCE
BDB2E2CB
BD39F3C5
3D9F6677
BDA76859
3D85BE30
3BC9D280
3DC28BDE
3C9418EF
3D109E00
3D48595C
BC991239
BD3E9FB7
BACF44D8
BCF1F841
BDA48A42
3D0703B4
3C4EC25E
3DA5886A
BD98B327
BD234AD7
3DB64360
BDA07B19
3DC1B479
BC8F7059
BCB4FC03
BD770EBB
BDC3ECF7
BD1D7588
3D214FA8
BDB96682
3CCF9224
3D860A2D
BD87A6F5
BBE82289
BD21DB5A
3D3F7BD2
3C1E473A
BC77A0A1
BB41F62E
3D8E8A61
3D44E783
BBE5FCEA
3D4B34B1
BB5D792F
BDE35962
BB119FA9
3D9A9062
BDBB272E
3DACFD4B
BC3801CC
BDAB0D92
BCC74D5B
3D193EEF
3D450691
BB96EDDA
BCDDB808
BD9226AB
3CB3EC5C
3DB03A7A
3D36A155
3D44C78C
3D854236
3BFA0BC7
BDB08BF1
BDC89681
BC1E3B00
BD9F57CE
3D9FBC1A
BD97760C
3D8AF86B
3CDF5552
BC6E1C14
BCDC47D8
3D613908
BD922EB0
3D317504
3C702C58
BCBAF26E
BDA9F6EF
3D330F8B
3D88B653
BDC37693
3D997B36
3D6E3094
BDD018BB
3D4AF2FB
3DFC87EA
3C1844D4
3D1A8741
3D1750C0
3ABBB940
BC5A07EB
BD6D5618
BBC5BEAB
BD058156
BD336027
3C2FBB75
BD63B826
BBD71C31
BE1E9403
3D9D20B1
BC7FE7DF
3CB37E65
BD0721FB
3CFB5089
BC39EDF1
3D96679F
3C5C918B
BBBC37C9
3D0DC065
3DA98203
3D787FC7
BBA1CDBC
BD86BEC4
BD7D4A21
3D257FFF
3D58E75F
BDC2A69E
BD4DBFB0
BC800F5C
3C926CB4
3D7875C0
BCE16F74
BD37C429
BC963F38
BD114E28
BD08BE5A
3C8B38F0
3D3C91E8
3CCEDB90
BC85D608
3D5EA540
3DB9E54A
BD54C810
3DB95C2A
3DA53A30
3986AF00
BC863620
3D5E6E04
BDC36982
BD03152C
BC051A20
3D845A04
3DA36FB0
BDCD91E9
3DA5A676
BD9BFAE5
3CFCBE68
3CD40DA8
B901E600
3CF5AD02
3B479D17
3D6E51F2
BCD534CB
BA308780
BD7885FC
BDD7BD3E
3D6E99B5
3DAB4638
BD28AEAE
3CE9F5F1
3DB762C5
BDEDC3FA
BDEC243F
BDC3CD25
3B90608D
BD891A10
3CB1CFFA
BD939BBA
3A89B472
3D603E40
3D228CDD
BDD931FA
3D43CBE9
3DE99071
BDE0F87B
3D764865
3D8AEB3A
BDA16FBE
BCEA45D5
BC8F7029
BC9CF476
BE1CC211
3B3255D9
3DBBCA2C
BDBFE39C
3C7DB678
3DC200D9
3EFCBD3C
3DC3B0DD
3DB95710
BBC765AC
3CAA3199
3CC182B9
BDCF0EAC
3E701FA7
BD83671E
3E4E9273
3E2B9218
BE0AF139
3D597C75
3BB74FC5
BC00EDE5
BD3F078D
3EEB2CBB
BE172741
3DEC25D8
3D8C4D2D
3E23EB1A
3D861C88
3D75AE60
3D9FC815
3DBC9B92
BDDCFB65
BE0D5AC5
3C66087F
BEA50EBF
BDA6F9B1
BD8A18BF
BBD336D7
3DD59A06
3DCA6E19
3C9492D8
BDC2D83D
399D7C75
3DA162D5
BE891E8A
3DC8D3A7
BD998C4D
3CF0DD59
BCF624B8
BBAAE851
BDBA6646
3AA844DF
3D137AA2
BC18F19C
3E819D71
BE816777
3E1C88B7
BDDA832D
BE16EEEE
3BCB45D9
3D73D370
BD37D6DC
BD3AED19
BD474606
3DF18998
3D66A873
3D624492
BD41344D
BDC0E04E
BCB51589
BD8C9693
BDCB71BA
BD9CA54C
BCCD8C8C
BDC87765
BD5EA462
BD990C31
BDC658D5
3CA4AA59
3DB7CF52
3D294DED
3DB0C2EE
BD00639B
BD824BC3
BB5F1AA9
BD243679
BD144A37
3DB66041
3D9E7068
3D58D023
BD01A0D7
BDDAC2B1
3D80A1AA
BD5FD139
BDD1D8B1
BD257681
3D41565D
BDE4324D
3D971FCA
3D3D69EB
BDC4BAE0
3D381459
BE03516F
BDCAB712
3DB4C38B
3DC3E458
3C4196A3
BCAE4DB1
3DA21341
3D522FAD
BDBD7218
BD5C414E
3CEDFDF1
3D93A28D
3DB0682E
BCA10AD4
3DAD4C15
BC504AF1
BDC1613C
3DCEDE3F
3DB9F47C
3D96EFC1
3DD2EB0F
3DB720EB
3D3EFE50
BC2A5D13
3D6A6C20
BD271B73
BC934AE4
3DB5BFD2
3D8C71C8
3DBA58A4
3D15FE74
3DBEDCDE
BD357011
3C5C95D0
3D856662
BCB8666C
BDCB2052
3C6C0850
3D609D24
3DAC4A00
3D09C4B4
BD5DE618
3BEA7E70
3DB61D16
BBE72900
BD8EB1F5
BD6BAFBB
BC51CB50
3D5B7A30
3D8B22D0
3D9FD046
3D8C8496
BCA745B8
3BFA4920
3D0E89F8
3D7C5578
3D8D5170
BBFA8940
3CAE2D24
3CB75BA0
BD8C3B54
3CA8712C
3D9B9E28
BD2F5BAC
BDB3CEC0
BCF09614
3D7570FC
BD79F307
3B55DE20
3D57FBFC
3D88FD96
3BD8AB80
3DAE5EBC
BDAFA22F
BC9EAC4C
3DACA3F0
3BEC2F70
3D895870
3C477218
BDAD83FE
3D1314A4
3CC868D0
3C020170
3DB4E512
BC78F668
BDC4399A
BC086DA8
3D7C2A14
BD69256B
BD98E660
BDBF49CB
3D906AA0
3D85F1C6
BD88AE7E
3CF95038
BD4E6ACB
3D99DB88
BDC51312
3D20C540
3D1E40B8
3D88A628
3D665F44
BCC5DCF4
3D48887C
BB9F9910
BD95BE08
BD540519
3CDF0BD8
BD851F82
BD8C9A62
BD843DB9
3D697C0C
3B2594E0
BDCC8D14
3D972B36
BDC4F80D
BCC1EF3C
BD104A96
BB2421C0
3D6AA95C
3D5F814C
3D342168
BD0E8659
BC28A10C
3CAF96FB
BDCBA2B7
BD57D256
3D6C5523
BDC77AAC
BC9D27FC
3D1A0486
3C0AFD05
BD96D749
3D840B70
3E924B71
3E440582
BD672A50
BD1C8454
BCF7E059
BD5CF88B
3DA561E9
3CEFCCD6
3D9AF670
3C562B79
BE824E0E
3E471692
3D19090A
BD75C002
3CAFF1F8
3D8083AD
3D852670
3CEF6498
BD8D79EF
BD0281BB
BCAF822C
3CE1E708
3D949E9C
BDA830C6
3D9E356C
BD27D86A
3B4F8480
3CDF2DF0
BAB49F00
BDCFBBD4
BD2E3EE5
BC3E0EB8
BCE0E5FC
BC232038
3D6FC668
BCB0C59C
BDBFF3DA
BD664F87
3D9E2116
BC868D64
BD1547BE
BD6A13A1
3CF91548
BC8EAA40
BCA201B0
BCE6D478
3C9DD3C4
3DCF0FE0
3D2A7074
BDC46F91
3D4518E8
BDBC24B7
BD0023C6
BD91EA43
3DC843C8
3D4A37EC
3DB5877A
3DBD9220
BD161966
BBFDC770
BD441BAC
3D9B5260
BD7D715F
3B8EB520
3D54E1FC
3DBC1B88
3D401390
3D8EA716
3D0329E8
3D076C04
BD89AD5E
3D276F80
3DB01222
3D807B78
3DA18D3A
BD05921C
BD2C671D
3D56F630
3C8A91EC
BDC3B4BE
BD7F62ED
BD80489E
BCD62A78
BD9B03C0
BE0C0EEB
3D3DAB54
BEB06616
BD539435
BD94EA99
3C934547
3E80D3E5
3D20E507
3C8FF33D
3D646E81
BDCD6CF8
3C30E8B3
3E8605F3
3EA1D361
BD137E82
BDEFCC0F
BDCF38F3
BE70C05A
BCC0CC8B
3DAECAC3
BD1EC531
3D6C509E
BE945D43
BE934082
BE57110E
3D4ED2FB
BE7FE333
3DB102EF
B9FBE000
BC880AB7
BCAFA528
BBDDDACB
3D434ADE
3DA78AD3
3D6DEBF0
BD209907
3D6BEB30
3D8CE2D5
3C794C7D
3D92DBD4
BCC08A29
3BA5ECB7
3D9FF5E7
BD0C8F79
BD1884B9
BC9F6D5C
3D595504
3DA215EE
3D946A12
3C4F8200
BDD84B9A
3D703293
3D43B328
BC080D53
BD09823A
3BFBAE70
BD199800
BD99FB7D
B818977E
BD0CFDD6
BDBCBDDC
BDC1CA4B
BDCF591E
BD2A1F15
BE40B90D
3BEB9835
3DAB0642
3D1D9944
3D0A6EF0
BD76B4DB
3E4E1E59
BCCF70F0
3C805672
3D7E8BF0
BB3FED6D
BC6A4880
3EAD5924
3EAF9BAA
BD9A3346
BD536683
BE02A233
BCF486B7
BC281FA2
3D26DB49
3D8727C7
3D0A5F7F
BD4A7411
3DAF4348
BE664725
3D696B5A
3DB22346
BC8F33FB
3D233C80
BD98D4ED
3C4957BA
BC00A7DD
BE07AB20
BD87ECA0
BE593725
3CD3A767
3CF6FC08
3BAA1B61
3E004B37
BCC94F1B
BD8BCE1A
BC2C3026
3BCD8B9C
BBFAE1EE
3E270FE2
3DFE1275
3CEE2442
3D77A1FC
3D949928
BD3EA0E8
3DB6AE3D
3C4C44FF
3D3656F1
BBC2E6E2
BE1B4809
BE4CAEE9
3CFA39E9
BD421027
BE42BD8C
3DB8A9AF
3D5FF2D0
3DA7ECAF
BD109B61
BD6770AE
BDAC5EBA
3CA0CB1E
3E83ECAE
BD8B4563
BD2E7517
BD1D4CE6
3DECD241
3C30B14D
BC955FC7
3C8BFAD2
BDD16656
BD9C658F
3E5670B8
3E902F32
BD1B9B0A
BCF02EDB
BDF277D1
BD00F079
BB8D01D9
3CB47234
BDA4012D
BC2976F2
3E248760
3E5C2643
BEA8A913
BC8E85CF
BC799DF5
3AA6A97A
3DB0591E
BD31133F
BDA46E7F
BDA26D50
3D80AD6C
3C94D720
BDA88F95
BD5736D9
3D858E64
BDA6360D
BD5C4165
BCD3F3FC
BC2242C7
BDCC8DAA
BCE6B1BF
BDA3A86E
3D6DA6D3
3DEA75A0
3D0BD5C0
BA46F7F9
3D828521
3D121BB8
3C930460
BD0CF7F9
BDA2D77A
BB6E7999
3C425A46
3DC15C82
3D68D7EE
BCC7AB22
3D725EBD
3D5708BB
BCB71E3C
3C0D252B
BD342E96
BD8E1BD1
BB209A1C
BBE05900
3D0E78D9
3DAF5D4A
BD70E2B3
BA9C45AA
BDA76D2F
3CEA4BA0
3D3DEBA4
3CF124D6
BDAE37C3
3DCCED1E
3D643888
3D958B1E
BCE27FA5
3DCE9C24
BD7BCF46
3B72BFEA
BC47FF20
3DB87C48
BD807F8F
BC34F290
BDB5A214
3DB613ED
BCA9146B
3D923C5C
BC3AE80D
3D28FB61
BDB3E541
3CDFA3A8
BD5EDCF5
3D8AC9A6
3D8075A1
BDBEB901
BD7B04D9
BAF8BDFC
3C6B2760
BDB4823F
BCE01833
BB3FC078
3DA086B2
BD41655A
BA33BDD2
BC7BE3F1
BD827048
BD9D6D65
3D394487
BDBC60EE
3DDC053B
BD9B945F
BD1C67B8
3D06E350
3CCDE87B
3C81A789
3DA53A32
BD6E7247
BD3CF6D2
BDB9E18B
BD1E8401
3C43EEB0
3DCD2E98
3A8E3247
3CE6A78B
3D025335
BA1F6C27
3DBEAB1C
3CB183D4
3D65F5A9
3C844FB4
3D995EA8
BB588F65
3CC32970
BC485F10
3D2C8F08
BD7A3105
3C4AD930
BC8FF8EB
BD6E33E6
BB5E2775
3D8723C9
BCD02CC6
BCA9ED12
3D61B508
3D8F9CB6
BD9624AF
3B29A100
3AEC6073
3DC1D30D
3DA5BDDC
3D87B3F9
BD16A546
3D9170E2
BC95B07C
BBEA2837
BD4EB298
3D631E2F
BD730DB5
BD53D228
BC2F5AA4
BDC9AF20
BCE1E27C
BD641890
3CFB4234
BC7A748E
3C96722F
BD39546F
BCA62D36
3D14C225
3D919D04
3DED6E65
3B75C696
BC30C67B
3D953715
BC889C31
3DB86801
BCDF4893
3D89CA88
BD04C461
3D730AB4
BDFF5D4B
BE19BE72
BD90BBB4
BDD542F5
BDA1ABA0
3D96505A
BDAD7F6F
3DBDE6E0
BCB09532
3D72E770
3CA09F54
3D6DE500
3DB4129E
BC219880
BD03EFD0
3D0EA2CC
3CD48D78
BD8BA50A
3DA7D24A
BD7903F9
3DB6168E
3DB19B74
3B85B3C0
BD87F001
3CE3EC98
3BBA5DC0
BDAE63B6
BC8B5D08
3D8F7A2A
3DA2867A
BDB51D76
BDB97458
BD7E8876
3D77FEC4
BCE0928C
BD5ECC38
3C6A06D8
3CF7C110
3B95FED0
BDA50BF4
BDAEAFF7
BD014DD2
3DB22664
BD4670C9
3D332C74
3D3561C8
3B944340
BD9427C9
BDA4EE47
BD1FC222
3DA16F8C
3C9F8F8C
BCB364F8
BD11EF28
BC43E330
BD128B30
3D52A77C
3DA9DCF6
3DAD421A
3D4F4C80
BBD11E00
BD099EFC
3D368268
BC8FC314
BDC71944
3DBAB638
BCE88998
BDA827B4
3D392904
BCA71D44
BD03FC8C
3D9CF404
BD48C6F9
BC77B423
3A4148C4
3B3DFD65
BDDA45AD
BD8678E6
BCF7B444
BD98A585
BC6AC7EB
BBF3C00A
BCF80BC4
BDB59EB5
BD8D3CEE
BDB416D8
BDC07BB6
3CE9254E
BDB0F22E
3D65430F
3B582630
BD296083
BDC2F168
BDBAB6D6
3B8EEC54
3C21CE4C
3D3C81FE
3D7DD33B
3D563712
BD57C891
BB10FE8B
3B468260
3D07A6D1
3C70230C
BD432D55
3DD026AA
BD2204A0
BD8CDB3C
3DBD30B4
3C24B8B0
3D9A0866
3D32E94C
BD9E9338
3DBC3530
3D5C13E0
3D0DFED8
BD6F19B7
3CBB9B90
BC9E24E8
3DC275F6
BCD30CF4
BD870100
BCC59988
BD3FC3B5
BD2C7AA2
3C6B5EE8
3D06C084
BD50166F
BDCFDAFF
3D2B904C
BD9D770D
3DB405B0
3CAB5330
BD98ABF8
3C972FA0
3D9E01D4
3D936D76
BD2EAEA0
BDAD7ABB
BDB59291
3D316840
3D56C0C8
3BF86250
B953C000
3D8B03D6
BD8C70C2
BD58D19E
3A3A3480
BD421C78
3CE81008
BB8C9BB0
BDAF8EA0
BD7A7BB0
3C123D60
3C8A773C
3D99A940
3B13D080
BC579748
3CFB3148
3BB859F0
3D219F90
BBB4B820
3DCC8672
BC1EB6B8
3D004FB0
BAA32D80
BDB16F47
3CBCE588
BD58AE5B
BCE78B20
BDB716FD
3C725374
3B5D3F80
3D9AB332
3C34FCF7
3D26D78D
3CC64E65
3D7C7001
BC1E6FFE
BC85766A
3D76704C
BD718746
3DA7B61D
BD8B21B0
BD51AE44
BDAEFE98
BC274A57
3D4CB914
3D9256C4
BD3919BE
3C76F2BD
BC5F7F94
3CB868F0
BCE804C6
3BF2DFB5
BCA7E71E
BBE44D93
3D0B026C
BC57D780
3D8105FA
3D899A39
3DB73A54
BB6911E0
BDCEDCDD
3DBFD601
BD0BD53A
3D802D24
BD57C495
BDAAD35E
3CD98FC8
3D6B5864
BD4021C5
3D325E80
BD368F00
BDA14464
3B7DA040
BDB76B0E
3D6A8EF4
3D86378A
BD167B14
BCFAA018
BCAC64DA
3DA99483
3C6D9E88
BBFEAC29
3D0C8CF1
BCEA86B5
3CA2793F
3CC26092
BC4847D0
BD42A06F
BDBE4D7F
BDBE0B28
BD135159
BD010935
3C1A644C
BCBE9CD6
3DA52E76
BDC16B25
3E25B4F0
B77ECC93
BCCAC906
3DAB35C1
3D2E93AA
BDCCE171
BC8F040C
BC61E08F
3DBC4DDF
BD464C21
3DE6BCF0
BD5CD51D
3DBA4303
BD85B308
3DBFEE27
3B0EE7B0
3DB0A075
BD81C381
BBAF261F
BD4E9771
BD50BCAA
BD013397
3D9E58FA
3DAADDB7
3D9FE639
BDC2198F
BCF31C98
BDB5E65C
3D928BC7
BD4EA356
3D970D68
3CE4BC10
3C43B673
3DC02E6A
3B248C40
BD7DC841
BCA1D190
BD920695
BD193369
3CCF5F30
3C90A851
3D1FEE2C
3C88D638
3DAFF516
BD90BBEA
3D95A442
3DA14574
3DBC9FAA
BD302B87
BCC850C5
3D16C21C
BDA6705A
3D136861
3D4CEA58
BD1DBAB2
BD42BA90
BC44DD0F
BC1D3FB8
3D8F24DB
BDCCCE57
BE39E747
BD4CFC04
BC5E4128
3D2AEB3D
3DA1A0F4
3B9BF0DD
BD972EDD
3CFABF17
3D83E4C3
3BDEBCD6
3BF9F4FF
BCDA6862
BD4C7D11
3CAB2729
3D0E3B2A
BD2709BB
3C1A5FBE
3C8BE03E
3D762194
3D1A8865
3D8291D8
BDF87284
3E0C5921
3D96C952
3D222F48
BD078263
BD6A9C3E
BD3D1D4C
3D201514
3D53CB4C
3D12A498
BC4FAA98
3D2B5020
BDA2A647
3D07270C
BBA7F800
3DA45E16
BD9B5801
BD79D8A5
BD944590
BD55D934
BCE4452C
BD8940D2
BDB2F062
3D6C2230
3C465B90
3D4053F8
3C446F68
3D88D58E
3BDF62D0
39E6DA00
3C5FFB18
3DA2DEB4
3DA54004
3D7457BC
BD91FD79
BD2D8D21
BC8608D0
3C70CB28
BD48F597
3CAB9330
BD8C5CEB
BD450177
3C2C7E67
BD3F42FA
BDBED28C
3B7E8400
BDA9B97A
BCC42596
3DAADC0E
3D92B979
3DAAC369
3DB0A0BD
BDB5CE48
BDCAD802
3D05C609
3D9DF243
BA2180EA
3DDC3C45
BA14E87B
3D964FDE
BCD5D942
BD631F1F
BDBC884C
39D53C27
BDE55F7C
3B321CE0
BC6DA0BA
3CF63507
3D98FF54
BDCB7E90
3D965CD6
BCC044D8
BDB36215
BE54166D
BD938502
3DFC9504
BDA2DA72
3CFB7328
3C10264A
BD86F06C
BDC4D61A
3D133185
3D68F968
BDCED928
BCF7B5F2
3D962020
BEC1E291
BDDDF793
3E06345B
BD4A2933
BE6F51F8
3D00CE03
3CB55222
BD0374EC
3D8924B4
BD60FFA9
3F162361
3EA7E8DA
3DAE664D
3F009275
BCCB0305
3CBD74A8
3CA4143A
BD9A4FA1
3D4278A0
BDD671B1
3D6169D8
3CF0AF2E
BD7258DE
3D7A66D0
BD7D5CCE
BCCEB723
3D108509
BCAAF44C
3D0EC3EB
BD7B5E4C
BDCDE675
3CB0FB42
BDD7D9D6
3D847F11
3DDC4CD7
BB9BA7EC
BE3C66F5
3DB0353D
BD581A55
BD195419
3D2B2D62
3DE0DD97
3EB56515
3DEA3112
3C7BE140
3EC13E48
3DAEFF0B
3CDA5D30
BD644E69
3D663F52
3D4FAE2A
3DA13EB8
3B653CFF
BC1CC8EC
BD160063
3D3B4438
3A01517B
3D26F0C3
BDACD6AE
3D864647
BD298875
BDC4E188
BD9C057F
3D8E2855
BB1A4210
3D323122
3DD662BB
BD15B362
BD3D4CF1
3C6E6678
BC6CB273
BD9F56A6
BD9F5D45
BC90DE5E
BE09D17A
3DD16F1C
3C297501
3D537436
BD4682C1
BDB59126
3DBEC838
BCFF9B44
BD96A595
3D7FB9F8
3DA48DAA
3D4EFA5E
3DA6E6E6
BD14D6AE
BD6C8E98
3E0AFDFA
3D16E6EB
BD8DD408
3DBBFCE0
3D4663E8
3B58F964
3C916FA5
3D0A6004
3CACD560
BD0D117A
BD6C2F14
BD7150BF
BDAF4F10
BDD20081
BDD35169
BD8DFEDA
3D53DE0F
3D16DA3F
3D8C3504
BDDB9DD4
BD91003C
3C13BC1B
BDA17FB0
3DA22FE7
3D6F9550
BD9552D7
3DB48F4E
BDC3FE61
3DCB73B8
3D3D4DF0
BD60A914
3DA49F00
3DBDD67A
BDA795C5
BD1195E2
BB990BD0
3CD6F050
3AB63740
BBBF71A0
3D27FA40
BDAD0090
3DA0F87E
3CAEA5B8
BD531299
3D00EC80
3C0419F8
BCB58A60
BDCA9BC2
BCCF28D4
BD9A6074
3D92D444
3C85F010
BDBD133C
3CADF448
BD68F947
3CEFF3B0
BD96F7C5
BD4419C9
3BE302C0
BDB339F5
BD97ED27
BD990F06
3D72388C
BDD08F3D
3D0A5828
3DAF91A0
3C2BA858
3DAEB324
BD860C5F
3DBBB05A
BCD24E84
3D20B0E4
BDB3C4E3
BD53F455
BDC5E099
BD0526E6
BC892A84
BDC476BD
3D8B51AC
3D35BFA0
BCB2E5F4
3DA3C984
BD41A80B
3D109170
3CF0EEF8
BDCFDA90
BD07ECF2
BDA89319
BDB4535E
BCE53504
3DA60B6E
3DC9D704
3D9EC868
BC58B888
BDC7CED2
3DBC2B5A
BD8C0D1E
3DB368D4
BC357148
BDB5949B
BC49E820
BD90BE56
3CCAE048
3D47146C
3DC3D15C
3D4C1E4C
BDABE71D
BD33E3C9
BCB1E37C
3DB106E4
BD89FCE9
3CACD7A4
BC24DCD0
3DCD97FC
3D22238C
3DBA6A44
BCA780EC
BDB33645
3CB7A43C
3D340360
BDC9EB30
BD841872
3C45CFDC
BD4A07A0
3E0DE121
3C5B6374
3D6148D4
3D1F48FF
3E00C721
3D0FF31E
3C4351C4
BDAC0F31
BC5E4C21
3C106001
3DF30737
3E7FBC80
3D3178CE
3D75EDEA
3D7E894A
BBDCF220
BD8569C3
3D611E94
3CC87947
3CE03550
3E39EC4A
BE63E5C7
BE112676
BD4DE064
BE573AED
BDD7ADE7
BD9F6842
3D8AFFB3
BB954225
BD42DE2C
3D5A100C
3CC17ED0
3C6096F0
3D621288
3CB7742C
BD2D7579
3D966916
BD0ACF56
3D59BCD0
BD366856
3D20D010
BCA8DAD0
BD65B0F9
3DBA4CA0
3CE5EB30
BDA994A7
BD5529C9
3CFFD110
3DB681B2
3D68E874
3CC090D0
3D56591C
BB82B8C0
3D4A1E20
BD3E4660
3D9D52F8
3C7FC5B8
3C976430
3C91CFA0
3DA9BCB6
BDCC1B6F
BD8D6B9A
3D4A94FC
3C4EC010
BBB450D0
BCF92FD0
3D0154C4
3DCF7698
3BB76910
BD0255FC
3BE730C0
3D690AF4
BD83966E
BDA18D81
BC02F850
BDCCFBFB
3DC6C8B0
BDA8455A
3D832A7A
BD817FCE
3CCF6C00
3D8B1370
3B67D0A0
BDCDD894
BC5372A8
3CD07E08
BCFB8F48
3C2E3280
3C849758
BCE1C3C4
3D75F788
3DA2C8BA
BDA13C9C
BDC5E53B
BE6B32E8
3D036A7E
3ED26B0D
3CED5DBE
BD63A3A9
3CEBA15A
3E87D96A
BD9472A7
BDB323EB
3DB6D2CB
BD3585F3
3D901931
3EC19127
3EA49C6B
3ACD4BAC
BCFD561E
BE0F8B4B
BE26F100
BC03E905
3D0FEDDE
3DA62A13
BDBD3CCD
3E90AE1A
3EC0A622
BEEC849D
BDD074B5
BD73DB18
BC38B0D6
BD3CC8C4
3BBE0284
3C4DDB64
3C4FF368
BB8ADA51
BBCAA53E
BC1AB826
3DAAB470
BDC3B513
BD234429
BCB4040D
BC6E68D4
3D965B14
3D829E6D
3DA1CC87
BBA205BE
3D8F24C4
3DAF4EDC
BDC9F29B
BDC3936A
BA909D48
BD5B93D2
3D8AC7A8
BC58342D
3DB75B62
BDA1E0C7
BCABCA8F
BCE45407
3D6D773A
BD391116
3D8C0E54
3D60E45C
3CC017E8
3D52F877
BD4AEA1A
BDA7BBA4
BE6CC74C
BCD7AFAE
3EA56284
3C9DDD0D
3D41D05C
3DBC3D21
3E63E232
3D88BCB3
BD4FF92C
3D08110D
3D168EB3
BD9803DC
3E8A835D
3E4A9987
BDB87965
3B7C145E
BDCD820D
BDC33D02
BD22F8ED
BD89FCCA
BD557460
3DB9956F
3E68B353
3CBE992A
BE8F8F90
B8E52583
BE427D2F
3D60F661
3D8DFB58
BD8EB866
3D2FBBD6
BCF6360E
BE3584DD
3C777F7D
3E92310C
3D77EEED
BDCD8C25
3CE6AE94
3DAC819B
3DB98068
3B9A9D36
3DB41779
BC75B485
3D9375BB
3E8DE75C
3E47F6B8
3DAC2913
BD2FD5EA
BD13457B
BE2F1CA1
BC746810
3D9E0B85
BC1336B6
3D8F43F6
3E494A11
3EA68B45
BE86B59E
BCB23616
3E50F516
3D2E63D1
3C28D9D8
3DC93A5A
BC5ADC49
BD422E86
BDBA2E8D
3DA665CF
3ECC8E97
BD0820A2
3DC046DA
BDCAF0CD
3EA3EF48
3D0CE73E
BD74A8E3
3C50A4B3
3D5908D9
BD51DE1F
3E8BFD4D
3E552C8E
3DAC33DA
BE0EF060
3DD35B15
BD94A2AA
BD5A5E1F
BD95D53C
BDADEC06
3DAD7B65
3E4A5399
3E8483CC
BEEAA798
3D7980B7
BD17E7C3
BD3AD2FA
3DC38046
3B1971E9
BCA786C7
BD84D1A4
BD837A99
3D82F02F
3C835382
BCD93376
3A4DA480
BD4956AE
3D50E98F
3C3C9130
3D289FD1
BD9A6CD2
BC46793B
3DB561FA
3D632646
3DA332CE
BDC24018
BD72806E
3D6A5D07
BD07D63C
3C8FAD54
3CE8FF59
BD9EA8ED
BDAB3DBB
BCF44032
BDA3BA06
3DCDEF00
BC59E8EC
3D35C8CC
BC8707B6
3D40B460
BCBD6737
3D2FF9D4
3D642D52
BD94820A
3CBB4F5C
BD911F1D
3D8A98F0
BCA2BC50
3DB45FA7
3CF50AF2
3D954E08
3D870F60
3DAA7F6F
BD907FA2
3AD19400
BD3F1C33
3DBE14AA
BD356B7F
BDB2801A
B8A46480
3DCB1EC6
BD17CA74
BDCBF11A
BD3B2D08
BD8DBD22
BC235363
BD087D89
3C0D9B95
BD65814A
3C4F0751
3D761352
3D8B4748
3DBEF1F2
3D625B2A
3CCB37FB
BC32467E
3B7F2605
BDC0AC32
3D438DEB
3C49EF10
3D814C8F
BD865BF9
39E0A31D
BD10EBC3
BC7604B2
3D72D2E8
BD2FD613
3D2DD4BA
BD9925C5
3CAEA514
3CCC2463
3D95D518
3CE00174
BD9F33D0
BD1D9BD0
BD3C394E
BC8D611E
3D459781
BDE08B0B
3C733CA6
3C04CD2D
3CB4590F
BBAA14E9
BDB4CA5C
BD974DEF
BC470E4E
3CE3CC12
3DA9B88D
39C65C00
BD135796
3D720EA7
3CE0CAA0
BDCB9E0D
3DA22C64
BDCBED84
BDBE02C9
3D959444
BD1F4DDF
BD5706AB
3CAFACC4
BD409FB8
3DB2615E
3BBABA42
3D37BA2D
BCE0E745
3DA42E0B
BD0DE0BA
3DC67CE1
3D5B419D
3D85BB47
BC8A42D0
3CE6F789
3AEC7BCD
BD974A6E
BC89E2C8
3D38BAC0
BD436DC6
3D513B34
BCE773F6
3D2C828B
3CB274CC
BC2EFF12
3B5CAA79
BD2B9FA2
BCC6BB44
BDAF51DD
3C423A43
BC9DA2C9
3CD4A95E
3C85491E
3D868197
3E5D01AA
BD56A9FA
BC54D86F
3D47B12D
3C46B3B8
3CA40DC5
BCC47FAE
BC2A6946
3D97BAEF
3DAA9ECC
BD0D6227
3D114198
BE244BE2
3D3401F0
BE2FDA19
BD00994D
3CE5FF50
BC521B5D
3D8608F5
BD2F2DD6
3DC2FDBC
BD912BA9
BCF53410
3D6176D4
3DBECB64
BC4C6E90
BDB64A8C
BCA72700
BD3FC9EE
3D97ECAA
3D8AB0AA
BD9B40CC
3C582578
BDB42641
3DA1F942
BD07F50A
BD3E7D28
BD8D5A34
BD6A32FD
BD07E584
BC9AFA20
3D7DE32C
3DB0A320
BD1ADA98
BC65F120
BDACD673
3D125BF0
3D4D9B94
BCB5C464
BD3B7640
BDBC10A9
BD6335CA
3D83892A
BD207E3C
BD69B44E
BD47D7B7
BCB2D32C
3D8078AC
BD9E1DE2
BD9A2C56
3DAF7FF2
BDA8A6B5
BD5AAF65
3DC12F98
BDD08485
3DB412A8
3CB18D30
BC8AC55C
3D026A18
3D59CA8C
BD4B65C6
BDA2FBEF
3C539D08
3DC45064
BD854988
BDCAFBC2
3C99BEF8
BD1B4384
BDBC355D
BD94E614
3DC3CE3C
BD4345DA
3DC1941E
BD473FBE
BD6FF833
3CC7D44E
3D6629AE
3D3FC65B
3C59B9F0
3D71B815
3D43DA9D
BCA4B81C
3D4C4878
BD99656B
3D305D73
BDD481C3
3D4A4131
BC2319FA
BC9CDD8B
3D60E956
BD9A6F05
BCF2EA8C
BD259C3E
BC7F61D5
3D8ABF4A
BCF2DC8B
BD484541
3C2A8F75
BD6B17BF
3D17EB99
BD9DB359
BD6057D7
BBE2FB70
3CB6492C
3DC201F5
BCA6BC2B
BD077284
BD5C63BD
3D60B060
BBBAE160
BC9C98E8
BD719507
BD902492
BD26214B
BDC8FB20
BC4E8288
3D40E7D0
BD7B43E9
BD5D2F12
BD0FBF1E
BD4A021D
3DC3BB74
BD89DF0B
BDBD80D2
3D728CD4
BD3740E9
3D5A77FC
3D4E020C
3DAC39FA
3DAC29E6
3D02618C
3C80CF30
3D013DE4
3CF5E178
BBDDECE0
BDB96400
3D178060
3D96ADFA
3C39D060
BDCEB281
BD95ACF9
3C966168
3D8DBCB6
3D3060B4
BDA7EB45
BD8A2CF4
3D1FA7A8
3D38FAF8
3C844334
BA874B00
3D038C88
3D87AA34
3D3C1DF8
3DBA17F2
3A36AA80
3D7476F0
BD9C2CF8
BC5B1E70
BD8729D6
BDBC358E
3CCD7D90
3D232FC4
BD068798
BD9999A2
BD6C7B0A
3D444E78
3D8D7A28
BD218C92
3DBE1648
3CE0F350
3DA1C7B9
BD70239D
BC883565
3DC3DD22
BDA7C509
BD951447
3D853B97
3DC5988D
BD082AEB
BD6F9E63
3DCB732E
BDB0B609
BDBA3F64
3C694891
3D84A810
3D80CC61
BC96245A
3D0F45BC
3D31A24C
3CADACA4
3C43FFB6
BCF2E654
BBD48CC0
BD1B3E12
3CCD0D02
3D603A6B
BC36F34B
3C022698
BD32F191
3DA9F756
3C1478D8
3DA1AAC2
BCD80A36
3CD876C0
BDA12BD4
BC1193A1
BDCCD015
BCC26578
3C4F9828
3CC97580
BC9FA004
BD009142
BDA48B68
BCAF56C0
3D88EDC4
BD87467F
BD82E5A6
3DBA66E0
3C169FFB
3D38CA75
BD2AF89B
BABFE0E2
3D8A2EBC
3CB37A74
3C167119
BD04DD42
3CDCE556
BD921016
3BD3A4B5
BD1488A4
BC428D60
BD123694
BD7F8B23
BD37B60F
3D681A4B
3CA927A5
3D2C1442
3D865ACA
3C37ABB0
BC8B057B
3D024892
3DC750D9
3D1B953E
3D96E672
3D1BFE26
3D106CFD
3E1A8FEA
3B5396BF
B889DAF1
BDD748E5
BD2FBFC0
BDA94E2F
BCA0E481
BD1E1797
3D23A3A0
3CB7630A
3D7DE812
BD97D517
BCA74DCC
3DBA4B17
BD668B74
3C0F394D
3D3220B4
BDC24B56
BD1E83AD
3D8F96D3
BD5DB565
3D524604
BD409878
3BD63F50
3D8A5E1A
BD769A2C
3D7C8087
BC86CF54
BD51FB27
3D1D6E9C
BCD27228
3DC0C0D6
BDC1D8A0
3C89E838
BCCD80E6
3DC02068
BC11DB4B
BD5AB1EF
BCFD9850
BD3271D0
3D86B7F4
BC0DAFAC
3C363855
BDCD46E5
3D2BBCAC
BDABDA78
3CD8E383
BDABE683
3CE51E18
BD626EBE
3D83046E
BD971DAE
3DDAAE7C
BD1C0457
BE3F9DDB
BDD2B841
3D6C05E0
BC75C684
BD3DAC16
BC8D7DE5
BD6C8CC2
3D228397
3D4486F0
BD8C8FC5
BBD714F2
3D02CC52
3D872E35
3D1BC14A
3D6F536E
BD873DDF
BD5132F9
BD9DC0FD
3C8E0E18
BDB5730F
BD72E794
BD881BDA
3DBB149F
BC7D5FD8
3D4E2B5F
BD644CD4
3C88A44C
3D9FB08B
3D3F16D6
3B8BFCDE
BCA0FC44
3D4DD2C4
3D9938BE
BDB33512
3DA914C8
BC929078
3CEBA570
3D9B34FC
BD2EDA56
3CC9D5A0
BC203C48
3DB5B810
3C8F6818
BDC5F40A
BD9941AC
3DB6C352
BD6A4069
BD914D74
3D350444
3D293A58
3D72B5F0
3CE389C8
BCADEFE4
BCCDBCF0
BD427DF7
3D897EB2
3B3D0BC0
3D258D5C
3D144C70
3D42AAEC
BBA24AA0
3CEDD678
3DC300FF
BD8D7DD3
BDABCF0F
BCE17FE4
BCEE199C
BDAB6D8A
3CEADCE0
3C8AD6B7
BD0C2C97
BBA4D56B
BD1F5717
BD9E84A8
BCB28321
3D8EF0ED
BD483CDB
BBFE48D3
BD1F3C5A
3DAF2A93
BDA46BC3
3D350C28
BC904DCF
BC8D0ABA
BC86204D
BD3B5C19
3D83128F
BD63F408
3CB09DB5
3DC28DAB
BDC47F63
BDBA48A2
BD57099B
3D876069
BE07AADA
3D890967
3E058E90
3DA474E2
BD857576
BC9FE6B7
3EB5C671
BCFC44BF
BD3459A9
BDAE5C24
3DBCD499
3C82A9C9
BEBF4FF2
BEAC194F
BA134AC1
3E0540F8
3D8AFD26
BE7E50FE
3D4AA83A
3D4201D9
BD4A449B
BD0C1BD4
3EC24EE7
3ED58755
3EEAC783
3C0E064B
3EAEE356
3BA31277
3C9D3ABC
3DC51B29
BDBF82D5
3C8144D9
BD2574AA
3D4A37B5
3BF2DAAC
BD7AE65A
3D9DA556
BD6BB04A
3E7CE21B
BD9EAD66
BC0DA06E
3BFD1A43
3D5499EF
3DBA2983
BE1E7295
3C55272F
3CF1B396
3DAC0346
3E09DA0D
BCD0048E
3B06EB46
BC468F06
3C7606CC
3C73D6D3
3EB2270E
BC8B1452
3E74D93C
39B6B965
3E4B6ECC
3DA2CBA7
3D7948D0
3DA18819
3DA20B92
3D196001
3D45CF34
BD0CE691
BDBCABCE
BC8762E2
BD5C99EF
3CC77AC4
BD053F7B
3BECE79D
BBBA7B87
BD821561
3D0B4930
BD8B85AD
BD85555E
3C1073BD
3DA9848B
BC5F0804
3D825ECA
3DE48A99
BC5A59C3
BD4C60EA
3D2FFE12
BC9B85CF
BC909CD2
3C2100D6
BCF9D273
BC34B836
BDA4E4F0
BBED62DD
3DAB01AA
BD8C6C83
3D52508F
BD00F01E
BD849A28
3D025341
BD97712E
3D5D3DC8
BDB90E00
BD526D03
3DD06486
3BDA7C9F
3D99E2AC
3D8E464C
BD54F820
3DA75D24
3DABEB67
3D9C83B9
BD30F359
BD037FAF
3DD0DCC1
3DCDE403
BD5334DC
BC695CF6
3DA65D6C
3B50393B
BD44AFA6
BDB2E2A8
3D3D2D81
BDCC7194
BDBF72BA
BB190C96
3C7E4420
BD8D3F4E
BDBF43E4
3D43F395
BD592B1A
3C6208E8
3DC7A260
BD3B18A9
BCA5F864
BD8F171A
BC557FC8
3DB7AA1A
3DAD3636
BDA856D2
3DA0265C
3D28EDB8
BD8F0E80
BDB598CA
BD25F830
3CBF9728
BCD73780
3CCF6550
3D93A29E
BDA3BE8A
BD437253
3D88A41A
BCDCD138
3D46AA40
3D551BC8
BDBEC490
BC2A4220
3DCF9056
3D803C2E
3D4D9B54
3DA34FA0
BDAD0EFA
BD965025
BD149D7A
BD0AE2E2
BD1532D2
BD9C4A18
BDCA5940
3D81A964
BD02F750
BDC6F1DB
BCD776C8
BD8AE4C5
3C9449F0
BDA01DD0
3DC6592C
BB41C080
3DB24240
BBDDE1A0
BCF87868
BDB2567C
BD10331C
BD247BA6
3D286D24
3DB91A42
3CF09FE0
BDCF2352
3C8E9984
BD62D04A
BDB4B9B9
3D1AB274
3C199668
BDB2CB1A
3DAF2D2C
BD501DBB
3DC6614A
3DBC461E
BDC00E26
BCC83548
BD1ED09C
BD313D96
3DCE5C08
3D057484
BD513D6B
3DA9B026
BD6DB7A3
BD9F468D
3D9F8D96
3CFEEA48
BB35E540
3D22B7B8
3C9C78EC
3C8B1490
BCBC8F48
BC906AD0
3CFB7148
3C6B4198
BC142F58
BDB20C1B
BC891978
3D9C9BEC
3D801036
BCE31A54
3D8CD35A
BD52D6C3
BD3ACFA3
BDE5D6A3
3DABBE77
3E5FDD3A
BD1B3DDC
3D583424
3D053739
3B234979
3C800F7D
3DBE9037
BB623160
3C3212C3
3D2CA584
3EAEF315
3E29E1CE
BD66464E
BD96A02B
BDAF839E
BB1BB4F7
3DA3101D
3DAAA0DD
BCC9316A
3D1D8FCC
BDAD4ED1
3E604CE2
BEBCF65B
3C864BA4
BE0416AE
3D52CD2A
BBF63920
3CC30388
BD927695
3D4F4C6B
3DCC4752
BCB73470
3C807B18
BD887807
BD3EC727
3D32C210
3DCC7C60
3D8987A4
3CC8B0C8
BC9D2AC4
BDB0F996
BD67859E
3D128D40
BDC05E92
BCBF391C
BD5083CB
BD9B828A
BD9C308A
3C4DB5E0
3D88990E
BD45591C
BD06038E
3D290990
BD92840B
3DBBDFA4
3C0F69A8
3D0CABF8
BDA3F988
BDA9558A
BD482ACB
3CCF3070
BB967120
3DA8181E
3D9C07AE
3CDE08A8
3D5B3048
BCCF0AB8
3D26A720
3D89F7A0
3D9CC7BC
BD71879B
BD15949E
3C90BAFC
3D9B7EAC
3D88B792
BD0B8332
BC45D610
BC729E98
3CA26CDC
3D60CF9C
3D828DF0
3DC037A2
3D2F62EC
3D097E48
3DCEE4AE
BDCBA024
3CE9C498
3CAAD23C
BD6B0360
3DA2F2C2
3C7F87F8
BD445499
3D79A7FC
BC68B5D8
BDA2627E
BD8DD59C
3EDFEDC6
BD19A6B7
3D45ACC0
3D54596A
3EBFD667
3D173CBF
BCC131BE
BDA2B1DF
BD93B058
BBD3A92A
3EA48176
3E4AB517
BD0F3BE1
BE0B6B66
BD4A4B70
BE6B11E8
39965EB8
BDAF4249
3D95A83D
BDA1F35F
3E9FF1AE
3E5D102A
BF01AC88
3C734DC3
BCC70180
BC70D7B4
BD0C094E
BDAE0BD6
3DA4CD13
3D576377
BDAAACCD
3D4742F3
BDF3A189
BDCC10F5
BDB27868
BC0CDEAE
BDEA1AD9
3D316CE5
BB82DDC0
BCD9140C
BDA8EB02
3CE4BB0B
BB176DEF
3D13D687
3C9153EB
BD698915
BDAB2EE2
BDB524F9
BDDCDDC9
3D32DF29
3D926395
BCF27DF4
BE0B4E15
BCC8538C
3C4A0F05
3D88EBB1
BDCB3B20
BCB97A55
3D18638C
BB6319E8
3D9A4126
BD7F2B14
BE8479D2
BA9D0EEB
3EF754CD
3C853C63
3DCCD9D8
BA213437
3E36F3A9
3CE6DED5
3BEF686A
BC99AF28
3D44DC48
3DA5658E
3E9DA19E
3E5099E2
BDA899C1
BE242B2C
3D8618C7
BE4FEF37
BDAF074D
3B3010CF
BD5377F7
BA88C5CB
3E265045
3ED74AA4
BEF4419B
BD68A67E
3D83C155
3C77C9B3
3D857136
3A864740
3CD82FC6
3D88A1C7
BDB4A1D5
3DACE2E1
3E7B222E
BD86D637
BCF18384
3D323A2A
3E7DE7F2
BD86A6C8
BC836AC6
BDD5279C
3D5AD8B8
3D45467A
3E26C07B
3E5C859C
BD1F84F7
BD029288
3D8DAC59
BDF7B4DA
3DAFC161
BD9126F5
BBF83186
BB856F6E
3E936984
3C9744B2
BDB7BBBA
3C8CE2A9
BD30E177
3C71A6FA
BCF9163C
BC3A573B
3D5A9C1D
BD034CCA
BE2115B1
3D40D088
3E717F08
BCB701E4
BD0E07C4
BCB2961C
3EDB5461
BCE1BB74
BAA167D6
BD410706
BCD312D0
3C1C9511
3E91764E
3E2408FD
3C89393D
BD9E5698
BD4A5E6F
3CE8FB93
BCF83FBB
3D2179DB
BDD7485E
BDA071BA
3E2BB10D
3DA76C3F
BE65EB32
BDA1ADC3
BE0D779D
BC00FC8A
BB82AB10
BDAA216E
BD57BB08
BD5A1E8B
BD305617
3D1A97C6
3CDCB8FA
BBD493B3
BCED0FD8
3D7390CE
3C6B2B56
BC4EE123
3C1DAD9F
BC79DE46
3D3399CA
3DC9C15C
3B12A1D1
BDA85070
BD6C6E13
3D0CE549
BCA90962
BD952118
BDB0B619
3CFCDD82
3D037D29
BDD6EEE0
BDE56DCE
BD07A5F2
BC1A5CA2
3C1E17ED
BD574136
BDBB7231
3D2032FC
3D213C1B
BD3E20FE
3B4FFF11
BDB72672
3DB7AEE6
BD543E4B
3BF8FC9A
BCACCAC8
3D60EBFF
BBE39388
3DB3A836
BCC93DD4
BD609D64
BD817C4F
BCD8D9D0
3DC3927E
3BE60A06
3D0A011C
3DC9BA20
BD9A36E0
BD88D36D
3D729750
3C3CAFC0
BA01F392
3DB60623
3D095418
BBC848E8
3DAE1060
BC4431DD
3DC9C5BB
BD2CF428
BD1CC8B4
BDA5DB92
BDBD79CE
3CEF6161
3DD7E3FC
BC9F3F0C
3D2390DE
3D842CBF
BD1460FA
BD56B82A
3D052B34
BD850791
BCCFD407
3C39A8AF
3D6741C4
3C595D51
3ACEAE72
BD6A674B
BDB89773
3D88214B
BC72A40A
BDAA4977
BB3DF628
BDBC1EF0
BD1BAC53
3DC3EDBC
BD17E8F5
3DDD227E
3DAF6158
BCEF68A7
3D04F688
BB2D18EC
BD91BAA0
3D16D087
3CD36F08
BDCDD14B
BDC4D9B6
BD1AC29C
BD7E76CB
3D60E2B8
3BAB1790
BDB0F6F9
3DB94B56
3CE0CE90
3D234A7C
BC3DAA80
BDCB13AF
BCDD69B2
BDC17EB5
BC6E9F8F
BD3F2FDE
BACEE023
3DB37B12
BCF23444
3D849C20
3D742858
3D3AEF18
BC93EDBC
3CC02233
3DB0859F
BCEA6515
3CF41497
BCA53039
3DCA9C03
3C850060
3DA5B33C
BD362401
BD6ECB85
3C378C8E
3D9F9619
3DDD5D2D
3CB6F738
BD1E9CDC
BD2D9598
3DC909BC
3DAB0AA2
BBE0DBEC
3DA3EDB0
3DA1E224
BD0635DC
3DCCCBFD
3D6ADBB2
BC5D97AF
3DAC7F4C
BDC1151A
3D8D338C
3D5C7357
BCF502FB
3DB9CC39
3D69AC1C
3DAFC3AC
3D91CBD0
BE059AA0
3CC7D0B7
3E365993
BD9A3AB8
3C2F6598
3DC42B4E
3D695677
BD646871
BD42626A
BD8461EA
3CAD990C
BD962BF4
BDC78733
3DCE1170
BB835B8C
3CAB7B18
3D55487C
BC293410
BBC2B750
3C38AAD8
3D5DCE14
3CF5B4B8
BDA229AC
3DAD2940
3D2A91DC
BDC65FF3
3DA00888
BC61FCA8
BD3E3CFD
3DA8AA14
BDC64C43
BCA7674C
3D1FBCC4
3D30B92A
3B4072BD
BDC6371C
39990B00
BD7FB296
BCB604A4
3D879FB4
BD12EC6E
3D71B708
BC494C78
BDAA9B11
BD3F2A76
3D6EBAA0
BD571608
3C6E4C08
BD37C50E
BDCBA5C8
BDCCC53D
3D84C4AC
3DA908A0
3D1068C0
3D22A414
BCCF6B94
BDADA9E9
3DA3FC68
3D064384
3D430D8C
3D4A7F2C
BD1F08F8
BDC55C60
BD341028
3DB00352
3D222F1C
BD90C834
3DC40B58
BC987C98
BAC50300
3D86A576
BD90A6DA
BDB501E2
3C50E1C1
BD475366
BD64EACB
3D7F3C98
BD988451
BD5E850B
3C96626B
3C02E2DA
3D9B323A
BD036D36
BD1E3A23
3C09E489
3C822ACE
BD11C19B
3D9981FA
3D1B9BA3
3D99BF8F
3D85F9F6
3D501C7B
3D8B81A6
BD9ADBD9
3BABDFA9
BAB78052
3D4BC18B
BB48CE79
3CED185D
BD67D060
BCCDFC10
3D6437B5
BCC7E231
3DAB8B12
3D6A6C94
3DCB0762
BBFFA580
BCD053A0
BD6ACAA1
3DBD8338
3DC42BB8
BD1D2D42
BD0600EE
BD485BC1
3CD91630
3DC14804
BC739198
BD112EF4
BD1CF2EE
3B7FC140
3DBC5712
3D2B3C2C
BDAB2528
3DB6323E
BC0E6AD0
3CB2DCE0
BDCDA7B0
BCB802C0
3D2F58CC
BD68F2D8
3D996B6A
3D30E5B4
BDA87488
3DCCCA86
BDB82A15
BCD7A020
BCE58BEC
3D717980
3D8B66EA
3D263B38
BC3AC360
BDA73F6C
3D339058
BD77E8C0
3CCBD1C0
BDAD294C
BC8A389C
BBC41050
BDAFEE56
BDCA4620
3D567430
3D55F4D0
3D4C39FC
3D177E70
3D3BC2E0
3B7BF540
BC1B0018
3DCCC710
BC3EBCD8
BD2A5831
3DBAA1E0
BD2453B1
BD81144C
BD1F36E6
BD35D3E9
BD959FF3
3D509608
BDA71E0D
3D2E9CE5
3D2E6540
3DD4BEB1
3D035B81
BBA29520
BD80D452
3C38048B
3CC64498
BCED17D4
3D3AFB43
BAA9BC40
3D1D54E5
BDB03965
3D503C9D
3D9011C5
BDC5E5E5
3D92DD9B
3BA6CDE1
BCD67EC8
3DB0CE9A
BDCEA343
BC28839F
BDBA029C
BCB317E7
BD0D8D24
BD8B80D3
BB976147
BC8C0895
BD4AEF62
BD50F88D
3CC3A130
3DA343E2
BDC68AFA
BD9CC0C7
3C3BDB50
BB183120
3DC76B6C
3D9E8126
BDC48AFF
BC6CB5B8
3D6603C2
BD3999FB
BC648BD0
BB22BAE0
BCEEEDCA
BDBB9846
3CB13F60
3BB0FE21
BD8D068E
BCBE3AC2
BD0BCF28
BDB1F0E5
3DCEBDDE
3C6014B8
3DB26121
3DAEA7CA
BD38798F
BD14ACA2
BD0786F4
BDC6626B
BD146A7E
BDB711E6
BCE19320
BDBC6953
3DE46DBF
3C610D06
BD7D8582
BCC53459
BD91177D
BDACBA6A
BCFDAEF9
BC174206
3D16E69B
3DBD0514
BD89CB61
3D94F04D
3B3F12C9
3DCF7828
3BDBBC0A
3D1B71ED
3D796352
BD1C3C6D
3CCCEC6E
3D980785
3DA73296
BDDAA84E
BE186771
3D069FB4
3C0A7C4C
3DBCB8E0
BDE45647
BD28F34D
BD2F4B51
3CE9F235
3D94ECAC
BCB96C70
3CBF7FD9
3CB157F8
BD50B284
3D2BCDCC
BDC98F90
BDB8EF94
BC8F4E45
3BA16A40
3D71B8F1
BD8BF509
BD5066C8
BCBB853D
3DA55EB8
3DA5B1F8
BCDD5D18
3DC84490
3D847BBF
BD1DE971
3B13CCE0
3C35B0D8
3D339B04
BC3B8AE1
3D4BF110
3CF8CB2E
3C162F15
3B112597
BDCF3BBC
3DBDDB4D
BD63C812
3C560358
3C74ACB8
3D802D45
3DF48489
BDB7CDDE
3C92981E
3DC339D3
3CFC9BC0
BDDAEA2A
3D172BFB
3DA6865A
BC63351D
BD95C27E
3D140120
BD82AD44
BC992A41
BDBBEDF0
BDD87B1E
BCE75702
BBCA707B
BD7DD2D5
BCD2EA50
3AE2E325
3B98DB89
3DBEAB63
BE10552C
3D8FAA4A
BD1C7742
3CA7E1BA
BC1F727B
3BA54CC1
BC137BF0
BB157716
BD77B309
BCC3B4C7
3D3CC328
3D2CD164
3CB84FE8
3D04D290
BD7EF070
BD7A2FA7
3DB24A4E
BC8FA480
BC76ACC8
3BD55E60
3CFE64D8
BD17CCDA
3D140858
3B344E20
3D317EF4
3AC8D780
BC88EA28
3C90F268
BDCD299B
BD73D896
BD908127
BD13EC04
BDAB6061
BDCFCE8E
3C5982D0
BD429916
BD975B76
BD0FD08C
3DA852F0
3C8DB1E0
BCF925DC
BDBF0F04
3D94F364
3D8CFA97
3C810BDE
3D87682F
BB9A94F0
BD6F8202
BDFDBBF5
BCC0BAD8
BDBEE459
BD8D2FF4
BD9AA363
BDAEAC43
3D70D922
3D2208F0
BBF26E9E
3D707068
3DD6BD6F
BD3A03C6
BD7856A4
BB14EF1B
3CE0F29F
BD4B9935
3BED0994
BD45DFCA
BC1DFEE8
BA0DB877
3D4E5ACA
BD872444
BDAC3FC1
BD91A978
3C24CED9
BD315FCE
3D3DC7FC
3968D93C
BDE555F6
3D0F753E
3D81632A
BDD2D36E
3EB1E74F
3DA5404B
BDA7B44E
BCBD2BBD
3DB679C3
3D7BB283
BECF6C24
3D172694
BDCA75CD
3DEC5353
3E63B3CF
BD074B3E
BDAEEF52
3D931E83
BDCC59C6
BC90BE75
3ED8B35C
BEB9C63E
3EA7A441
BD7810CD
3D0D4695
3D09CA06
BDB284B2
BD0ED72D
BC81A8A9
BC338CA0
3DDD9B4E
3DABF156
BE09761C
BD27D9D1
BD8E7C8E
BD923A33
3DE49FB0
BD5ECF56
BD9806D8
3D974C7F
3D823F99
BD159ABD
BDB8DC7B
3DF34823
3D881D87
3CC81E6A
3D849D33
3DFAA235
BDAA1A42
3D33E795
BCE5032A
3D9C7915
3E8D95C3
BED1CB54
3E08FD45
BCC8AB2F
BEC2FFD1
3D8EE0EA
3C512AE0
3DC8069F
3D61750A
BDAD43C7
3DDD4DCD
BBD7A812
BD48BC8C
BD8FA834
BDA7AA2E
BC7C0C06
BDBE1935
BDA76BE1
BDA97225
BD0F92C1
BDA0C6A4
BA8DE76D
3D8C946E
BD525319
BC1B2ADE
3D267CD9
3DD219FE
3D2E1DE0
BC0F65BB
3D9DB4E9
3D89DAF0
3BAC6103
BDDFEA61
3DA0AC87
BDD53935
3D91D24F
BDCB64E3
3C954127
3D87CAF2
3D951B96
3D34D2DC
BDA892D2
BD1339C4
BCC80F72
BDAB54FD
BD835680
BD111CAE
BDA7AED8
BD435CCD
BD77BE63
3D17258D
BD4F7E72
BD64B379
3CEA4F59
3DE6407E
BC738151
BCB09C6B
3CEDB6E1
BDADA393
3DB095BB
3D943A4B
3D8DF959
3D78FCD8
3B9FA1B1
BDDB4EFE
3CAA705A
3BE57710
3D19BCD9
3D8BA2AA
BCF469DE
3DB78C48
3D6229B1
BDD68916
BD46EDB2
3DA5F84E
BD40A33F
3D684860
BD9986B7
BB9AE840
3D5267F4
BDBAD962
3CCBE860
BDB25E0A
3DBF438A
BD44A914
BDAB5BC3
3DAD3FCA
3D918CE0
BCC70F58
3D3692C4
BDC656D0
BC4B8ED8
3D685424
3D4F4A78
3C9296A4
3C88D324
3D343898
BDC6F2D0
3D0B1018
3D6C29E8
BD912D90
3DB53C56
3DD09676
BC459A10
BB81A730
BDA75D64
BDA87240
BCEF3724
3D026788
BDCB6765
3C850888
3D3E8B04
BD801809
3CDCBEC0
3DC9A642
3D62A460
3D247E90
BCE03C00
3D63D424
BD3A1FEF
3D64972C
BCE79194
BCBB8878
BD376EF1
3D88B0EE
3C1A3840
3D98B63E
3DD0664C
3DC66CE6
BDCD5298
3DB51484
BD03B5A2
BD15A3BA
BD3E729F
3C13B6D0
BD0F3C12
BDCBD22D
BDC238F2
BD3DD70D
BDA8293C
3D27572C
BD9045BE
3D75B614
3DA116C2
3B6A0060
3CA3E430
3D85851A
3CE92540
3D179CC8
3CD55680
BD105B94
3CA58C84
3D8637F6
BDBA0042
3DADF950
3D17FE0C
BCC55F00
3DABF71A
3CE275E8
BDAF757B
BD85FF0D
BC895004
3DC62972
3DCDA7BA
3DC89EE6
3BF23250
3DBC2E66
3DB94576
BD8E7E9B
BDB6BBA1
BD57E6B7
BD1E15E6
3E1E2A9E
3CB1D40E
BCD8EACC
3DB17FE1
3D5468C5
BDBF0E24
BD91F893
BCDB2E0E
BB5A6320
BDCC64DA
3E813CF4
3D8A03A8
BD972A90
3D34F2C7
BC1A406B
BCED77FA
BDBB2AFB
BD914157
BD75095F
BD132336
BCB7F67E
3E39E41B
BDC871C0
BDB3E2EA
3E30AE1E
3D9ADDE8
3CE38CC0
BD8734E4
3D82738B
3D967F73
3D266E88
3D2618D8
3CD58380
BBEFDC70
3DC8C40A
3D0125DC
BD6443F9
3C6A3A48
BDBBA364
3D5CF71C
3D809B74
BD6793B3
3D93D882
3DA6F870
3D84C464
BCA77CA4
BDA4205B
3D50E05C
BDB1DD81
BCF7884C
BD86002C
BDC40593
3D9D8920
3DAB19B6
3D2246E8
BD1C8C5C
BD747173
BD0807FE
BDB0293A
3DB85F42
3D073358
3CE37140
3DB160BC
BDC5598F
3D5642EC
3D8FFE2C
3CA94DA0
3DA0A2A0
3D9543BC
BDA90F4C
BDB3C40F
3D179CE8
3D7E01DC
3D96A0D0
BC93F618
BC7A7CB0
BD2FEFBD
BDB8C54F
3D759C68
BD041B2A
BCA96614
3DA82112
3C1FDAD0
3D9A94E6
3C1DD128
BD8FDFC8
3CC36E00
BDC41950
3D98D858
BDB743D5
3C920310
3DC1B060
BD329286
BD8E2E6C
BDA6C0E9
BDBCB5C0
3E86CD4A
BD1376AC
3C23A968
3C1ED43A
3EEFA48F
3D8410EC
BCF07B85
3D90B8B6
3CB0DD76
BC028D5F
3E90C1EA
3E99811C
3D4BC459
BC254A06
3CE2072F
BE6C9A31
3D32943A
3B640203
3A5A6275
3D96A001
3ECE7EE0
3DFBAB64
BE98243D
3D849804
BABD5149
3CB18FD2
3DCDCB58
BD2A410A
BD3FFCAD
3DB9F553
3DA958FE
BBC3C785
BC96C9FD
BD790366
3CD73010
BD80ED12
39E39D2E
3DB84D03
3C49F6E6
3D313AF3
3C91D2F0
3A9C195A
BD20B072
BDAD36BC
BCA9C831
3D9D6FBD
BD926306
BB221AD4
BD3E17CE
3DB061B8
3D7551EB
3C12173B
BD305ABE
3DB6080E
BC4ED669
BDE3C150
3E008ECF
BD18D4DC
BD0330EE
BD23C62A
BB8058E6
BDB3C4C6
BE1DBEF4
3D96BD37
3EAB9784
3D3791BA
3DB6232A
3DB73628
3EBA1CE4
3C742C95
3C5E1E2C
BDC4A28A
BD44CC6D
BCBF4AF6
3E898063
3E8E23A7
3D8D2AAD
3E16D2CD
BE23899D
BE6A6958
BDBBB06A
BD6AF665
3DBF3C33
BD7E323F
3E7A9A60
3E9500F6
BEA218B1
BD796407
3EB290E2
BDD85615
3D364BBC
BCEFB1A8
BCA5510B
3BA29D64
3BAF5A8B
3D53B99D
3CDEEC5A
BD6C6C61
BC498F20
BDA96976
3E5926B1
BB9CB2DD
BDDB5B3F
BDC9822C
BD8B09FD
BCB4F41C
3E803D13
3DF3936A
BDC900D6
BD245FBF
3D9B3FBB
BD10FD32
BC6337C9
BD980C18
BD205CA2
3D969692
3EA89882
BDEF83F8
BE424AB9
3D903ECC
BE455A71
BD6EE327
BD952225
3D71650D
3C177223
3D4EB28E
BE767B29
BC998E9A
3E98D6AA
BDAAAB4C
3DA0C870
BD29E9A6
3C5FB3A6
BCDCA5A2
BDBBCDE9
3D96AC7F
BD00892F
3D110358
3E44DC8B
BBB1A8A1
3D647907
BE320C4A
BD00BC6D
BE2A7722
3D6E5CE8
BDB1AFFD
BD0A4796
BDAC6818
3E3B06AF
3E8624B7
3E15FDA4
3D58B2A5
3E0DCFEE
BC49E047
BD6B3218
BD5E8F02
3D7D031E
3C818AB6
3DC88384
3D537BB3
3D480CB4
BD0DF6B5
BCDEA4A0
BC9C51FD
3C77D446
3DB1F299
3D07723A
3D3265AD
BD232CAC
BD01E87C
BD9CE3FB
3DB29284
3C16E189
BCF01D70
BD86480D
BD3A1A68
BC4E6FF6
3D97CFA4
3D32424C
3C41E199
3DD83490
3DD3E1F7
BDD0B6AD
3D4A00F2
3DB9C991
3DAAFA16
3B5AF4E0
BD1AAD6D
3C38D38C
BC8B636B
BD6C9A07
BBA85780
3CE94A2F
BD01FEB5
3C4448F0
3CE70934
BD997699
BD548387
BC8B9660
3D9121E6
BDAD161C
3D20A4A3
BDC3294F
3D730AF0
BDAB5163
BD51F367
BDCD6B4D
BD0211D8
BD959630
BC84BB6C
3D9572D2
3D3C05A8
3CA0D9D9
BCB80D59
3D0219B2
BD2CC4C7
3D04084B
3DD09F77
3DACC3DC
BDC980B6
3D8FBD72
3DB0345A
BD34F159
BDC08676
3DE40A8A
BDD2AD3E
3B33A6C0
BD50AEBC
3DC017AF
BC4D5529
3C757ABD
3D9A155D
3C939977
3D5439CF
BD03D8A7
3DAC2295
3D30430C
3CC2C41B
3DF089C0
BDC7AB96
BD67FF0F
BC3DF4A0
BC008732
BD40EEBF
BD23BE30
BD6BEFD9
3D2AF49E
BD177099
BC5A43E9
BD91B30A
BD4B6721
3D42F237
BDD22236
3C9FCD38
3DB1087D
3D8F0016
3B84D7BC
BDB72BB5
BCE63CD8
3DBE4D4A
3D8EF9EB
3DB05638
BC201098
3CF21830
3DBE72A2
3C3CFFF8
3CC9B5F5
BD882F3A
BC0DA0C1
BD6CB9C2
3D972A7A
3D337DE5
BD5D67CD
BA6D1F80
BADE7D42
BD73F023
3CDDDAB3
BD5C8566
BDB7C1D8
BD99AD0C
BB81B1B0
BC191808
3D40D614
3D854294
BD8CB5AC
BC1E5C52
BE1F767F
BD6379E3
3E07E15C
BDB5FF27
BCF92D68
BDD90304
3DCB2DCC
BDA8FF26
BD8E9828
BD297C34
BD2BA26D
BD81BDC4
3BBABE0F
BCC3C9AF
BBFEF090
BCFF9A6E
3D87878F
BD97D91D
BDCFDA98
BDAEEA82
BD861D3B
BD980F1B
3E06C7A4
BC977187
BD705FAE
3D437471
3CD9F93D
BDC535B6
3D674E0C
BDBC4EB1
BD96A100
3CFC7401
3DBBB4DE
3D1B23AC
BCD51DCC
3D65299C
3DA7AF60
3CC84500
BD630402
3D909686
BCDE8B34
3D03F298
BCA84E20
3D978B30
3D39D9EC
BCEE1F60
BD972476
3D2EB0E4
3DA407C6
BCC46C18
3C458D30
BC865A74
3CDAE1E0
BDB405FE
BD2064AC
BC973598
BDB1942C
BD8C6860
3D9151C4
BDAD6FE0
BB2B4E80
3DAC5EFC
3B3922C0
BD147E46
3D5E3164
3C2DD240
3D85D998
3DC891D6
BDBC2008
3D3157EC
BD2A5FE6
3DA8BB38
3D4E2B20
3DBFFA48
BDB1B585
39C69D00
3D8799C6
BD2DDDEF
BD8FE360
BD48568D
3D916E90
BD0992EA
BCC80578
3D1FECD4
3AEA6F00
BB97FE20
BD53E7A0
3DCEB9BC
BD4BBB13
3DBBBFA0
BAB2E880
BD4887A4
3CBFE0C8
BD883CB1
3D7783A0
BC80A524
3CB5C9B0
3C267CA8
BD663018
BD44B09A
BD30F99C
3B8A80B1
BD4201A9
BD959CF9
BD8FBA2C
3D28D770
BD5F9DFD
3DBC5B8B
3D267AE8
3CBB0803
BC19EBDC
BD3946C8
3DD5B2D4
BBBEDC30
BBA236AA
3C6EAB1A
BCCD131A
3D9A9E6A
3D410024
BD1FA500
3DA21169
BC1D8F47
BB8A7663
BD55DFD0
BDABE796
3D91CB60
BB1EE7C2
BDB5300E
3D9C9AB0
3CF47438
3C084608
3C22E988
3D3AF9C8
3D596284
3D46F664
BD13B81E
3D3C5204
BD5EBBA2
BA9D3E00
BDC64AE2
3D8335AA
3D3FE2D4
BC17D088
BC8F93D0
3D4A3118
3C9F2D90
BD71DFBC
3C0DA020
3C8B2AF8
3D20CC24
3D2AA078
BD8F3958
BB9A93B0
BD93B8A7
B9B49000
3D83AE3C
3D8BF796
3D26A10C
BDCE4CDD
BC839168
3CEC03B8
BDCEAD71
3D6DC1A8
3D244474
BD8E8384
3D5A177C
BD96081A
3DBB88C4
BDB8ACF4
3C1D1648
3D6C24F4
3D831348
BCA797BC
3D8B8CEE
BD959CC6
BD721ADB
3D0FEFC8
3DA2AA08
3D145C70
BC5D85C8
BD715BC5
3D474468
BD2BC79D
BDCD05C1
BCEA4078
BCE36D00
BC862F24
3A8F3B40
BDC3CC48
BD6AB920
BD70F961
3DB7D636
3DC6F652
BC184060
BDC7B920
BD52F8DA
3D819838
BBBC0888
3DB961D7
3D37E78A
BCF60304
3D6DED40
BDA735B4
BDB0CF90
BAB0853C
BDAF3333
BD5A3090
BD5E4E5C
BD9DD5D2
BD019E4E
BD7210A6
3B3BC740
BD5E1F38
BD4601A6
BD44AEF3
3DC50821
BDC5E2D9
BDB322EF
BD16B755
3CA4AAA2
BDB83090
3D60FF6C
BDA9C6EE
BD8A7C8F
BAE46ACF
3D9A98F4
3CC26D41
3D99FB08
BD9409CE
3C485B48
3CC9AE0A
3CDAC8A8
BDA5EB26
3D97528B
BD4EC3BD
BD8D23B9
3DBBBD17
BDB9D510
3B94A680
BD082AE1
BDBE9249
BDB9BD86
3D02F940
BD395473
BC44E390
BD5DDE7D
BC8296D2
BDA79D78
BD756678
3D732C59
BD82E059
BD02CD72
BCAC97CC
BD8D48A5
BCEEA684
BD7F8350
BDEA99B8
BC417BCF
3E149C04
BD80DC0E
BD9A8FCF
3DA4EFA4
3DAEC62B
3CF50FF8
3D978A43
3D6E9904
3DC0CDD7
BDC0DB2E
3E0E9360
3D8190EC
3C62CF49
BDD2D00F
3D9EEF99
BDBDE53B
3BC9D63D
3C845816
BC4B98A5
3D2B3CC9
3CCC9FCA
BC82ED69
BDC128C7
BDA66DDD
3C4E6878
3D915721
3DBAAA0E
BD35D71B
BD131D8B
BDC1CAB7
3CF12DA0
BD0B4FC2
BDC80B1A
3C23B6F8
3DAC4A10
3BCA79A0
BD72CCE0
3CDB0ED0
3C8E96F4
BDB18827
3D97D9CA
3CE00AD0
BCACA8B2
BCCD159E
BD714B47
BDD00D4C
BBDACA3D
3DC4D7B8
3D9527B2
BD99903C
BD4F29E8
3CA0995C
BD7839C3
3D9D63A1
BDB2E273
3DBE9C60
3D9D4320
BDA27FBD
3C338DB0
3D18697C
BDA83F16
3DCEE5D8
39BDAAA6
3D2DC629
3DD745C9
3C42F153
BCEE7E9C
3DBE4948
BCE009E3
BD65F041
BC4C58D8
BD9DF982
BD182D6F
3D424C37
3DD92F59
3DB4ED7A
BD640A57
3DC28D01
3D724D88
BDC2D43A
BD2623D5
BD972BA1
3D316F45
3D86F0B6
3DB3B622
BDE296BB
BE35C98D
BD99F95C
BDC5663F
3D87BBD3
BCDEBBF0
BD50B5FE
BD59BB6C
3D771F32
BDC78C23
BC4E1158
BDCE51E7
3DCA7628
3DCF4D70
3D92E998
3D63ECE4
3CB518D4
3D06E920
BD1DCE36
BCC19B3C
BD2223C1
BD47BEB5
BDB8A591
3D9C0A6E
3CDA66B0
BCC053AC
3DCAC5FC
3D86A240
3D0AE638
3D0B6A58
BBDA7310
BDC57A4E
3D64DC18
3DA572EE
BC3FDF88
BD8BF8E9
BC3BC638
BD2B46FE
3DCCE818
BDB6174C
3D688F9C
3BE21A2F
BDB20F41
3D915A27
3C30ABE1
BC6DE058
BD4D31CA
3DBD7235
3C14ADD3
BD0DBE22
BD7AA9BB
BD9C1997
3D51BE79
3DDF7477
3DFD2F90
BDCC1229
3D938FBD
3D36AEB9
BDEB0762
BD95CF5A
3C6D3370
BDCAF316
BDBBE402
3E021C1C
3DB1EE42
BDD1BD40
BD3CEF29
BDAB0BF0
3D8920D7
3CFF64E8
BCF63F96
BC711683
BDCBF925
3E5ACD64
3DB5588F
BEC232F4
3CCA6FFF
3D4CE080
3C855B19
3D97AB87
BBEE2B6F
BD854C5C
BDC796D4
3DCF0003
BD181620
BE83EFCC
BEB24513
BBA8FB14
3EB98C73
BDD97947
3EAAC095
BD945578
3CF13EBB
3B818E21
BDC2E039
BDA71297
3EA769FC
3EE82D56
BD90DFB8
3ECF6923
BC5EA6A8
BCFD1CD0
3D891BD8
BDC54FA8
3DAE132E
BDD87424
3D93F0C4
3BF4E7AC
3DAB195F
BDAEF674
3C51689E
3E530F35
BD947C1A
BDC455BD
3DB75F82
BDA4A8BE
BCC242B9
BE0EF7D7
BE229B79
3D1BB8C0
3DE462A7
BDE911C3
BCEEC4A9
BC6B533B
BD9330EE
3BF461D8
BDCD797E
BCB1F5FD
3E0E1B71
3E6EB464
BD7A4096
3E4976BD
3D0F62FA
3D913E74
BD4912C1
BB403260
3D9A3102
3D43F878
BD6E6049
3D66F11D
BD6B2CAF
BDB0A803
3D4B44F5
3C119139
3C6B78D8
BB950A5B
3C70EA29
BD5068FA
3D958F90
BD8FA88B
3D82EBB9
BD0F6C49
3C4CFC82
3DD133FB
3D4D56DE
3D2B493B
BD8E1AA2
BD037415
3DC587A2
3E12FB9A
3D0C8ADC
BDF82B5D
BD41A3C4
3CD8F89F
BD80970A
3C5EA320
BD954BCC
3DA6DF68
3D1C881E
3D9F9410
BD3AA56D
3D2D8E94
BDA784A3
BD7210F4
3D7D6C56
3DDDA15C
BD8599C2
3D9B4DF6
3C744CE0
3D9F8E99
BB7B5C2B
3DB736CE
BC00DFBF
3BA8739F
3D5322DF
3DFB46AA
3D8BCCE6
BD208EE2
3C8B47A4
BD124102
BD09ADBB
3DFBCE2C
3DADD547
BDB1DD88
3CE94DA5
BDAF2304
BDD139B4
BDB51147
BCAA1FF5
BC926021
3D95DE3A
3D252D08
3BAD3580
BD019EE2
3D97B914
3D6B0BE4
BDA61A20
3DA09360
BD1ACAC6
BD8BA1CA
3DCC5BEC
BDBDEE22
3C7CADA0
BD8661A8
3C5EF1A0
3D9C507A
3DA7D226
3CF73D40
BDB6432C
BD09516C
BD96AB64
3DBD48C4
3D299A00
BBB5A5C0
3DCFB562
3D40C84C
BD4A7AF5
BCB27A7C
3BDE94E0
BDAF101F
BD3315FA
3D33EA94
3BE6AF30
BDB6FCE3
BD328DB3
BDCE6C53
3D9F3810
BC20FC78
3D573C20
3DBE7FD6
3DAEF1A8
3C1CC320
BDC96402
3DC49140
BC063750
3C2891E0
BC859CC8
3DBC5C1E
3D140474
3D231528
3D877476
3B7E3940
3D616D58
BDA55EBA
3B780540
BCC61CC8
BDA42A78
3C722588
BD0A33BE
BD066562
3D2DA1AC
BD08D1EC
BDCE3754
BD194B0C
3DA3FC74
3D37AAA4
3DBABFDE
3D07E274
3B947DA0
3C7589C8
BCB1BDB8
BCAFE118
BD921531
3D30163C
BD968B88
3C0E22A8
3DA1AD46
BDCEC696
3D24C184
3C088918
3D8268EE
3DB5D99A
BD42334E
BDBE5F4B
B9CCC000
BC906018
3B599020
3C814820
3D7A8C80
3D0D86EC
3D96792A
3D137944
BC459F78
3D3950CC
3C911414
BC539870
3D3CE7B8
BDB2BBA0
BD8CDDB5
3D0E4656
3D42076E
BDA5C3F2
BDB0E2A4
3DB59359
3D59EBEC
3DC2F3A9
3CF5DD60
BDD4C260
3D31F2DF
3DA3C36B
3DA2EAA0
BCB514BB
BE418E5E
3DC2C833
BDB15825
3D8B3637
BDA7E549
BD82AF1C
BC5F604E
3DFB0190
3DD5F38C
BE229782
3CEB71BB
3C96D00B
3C71C604
BDC49DDA
BDA0C27C
3CA566D4
3DA71DB5
BCC06078
3BC42BA0
BDB16A77
BD447E3D
3D22DA50
BD94274D
3DBAA0A0
3C98DB5C
3DC4A316
BDBD335B
3BA69950
3DAC9454
BD4ECA59
3CFBADC0
3DC22368
3C1A60C8
3B38C540
BD6F052D
3C7DF088
BCFB7A84
BC937AE8
3D3EB834
BDC17361
BDC105A9
3D9992CC
3C341900
3CB276D0
3DA22996
BDCD5FBF
3C31BDA0
BDAEDF9E
3D51C418
3D8A54E6
BD9AA700
BD524B32
3D2AB878
BC055A58
3C6B71B0
BD046E6C
BD436233
3D9E3872
BD5E59AE
3D6D934C
BD565993
BDC094E8
BBAA7DA0
3C14DA68
BDD09661
3DAB6BF4
BDB3AA22
BD567DA0
3C16AF10
3D170980
BD7997C2
3D2F8064
3D835C72
BD971684
3D951654
3D783FFC
BD25E908
3DB3DD58
BDA0B12A
3DC9AF24
3CD92420
BE9876B9
3CAEBE5B
3EC3D0B8
3CA0E3FC
BDBCCE16
BD12E653
BD5CC044
3D0FEA3E
BD2F3BC8
3D805AB7
BB5E7F4C
BDD459AE
3E8CC1DE
3DBE2351
3D7E6939
BE90C46D
BE5BEEAD
BE35A8E1
3C2CE269
3D9B43EA
3CA9E580
3CB40D65
3E9FF7C0
3EB87D97
3E5BEF2C
3D09E362
3EA60621
3DB0C76E
BD6233C7
3DCA0ABD
3D181E0C
BDAB0820
3D5F99EE
BC1B1844
BC6E8CA7
BCB7A043
3D8247A4
BDB52260
3D2A02CE
BD1360F1
3D7E5716
3D5F8CD9
BDD17FB3
BD589DDB
BD965F0D
3DEF3D62
3D56B3BC
3D1EB5E6
3D8269EB
3DB81B3D
3D88CC38
3D9DEB19
3CCF66D6
BDA060FD
BC1A489A
3BD759A8
BDEC6C98
BD6C1245
BE013CB5
3D132E63
BDCB5EBF
3C034BFB
BD077486
3DAF606C
BDFD89D1
3D98BCE8
3E5CBE43
BDC9EA8A
BDA5B5B5
BD980624
BB5CE2BA
BD87D62F
B9006ED3
BD4FDCC7
3BC11687
3B6FE0AB
3EA30C31
3E6FC517
BD2384BD
BE178F66
BCACB876
BD7D3A43
3C4B229E
3D4FCEE2
3CD488C5
3D6719B7
3E1160A3
3E14FA63
3E1B0BF2
BCD74A4C
3D7A08C1
3D806265
BD38C17B
3D02FFBA
BD7280CE
3D6F0E77
BE200CDF
3D8206B0
3E1B10AB
3DB4E173
3D64B938
BDD96BF7
3DFE8621
3C5681DF
BD623573
BC0AF0FF
BDD4FBFB
BC971EE2
BC4635CB
BDDCDA49
3CAC6B9E
BDFF1E5A
3CC7DB53
BBB49762
BC63AA50
3D8C158C
3CE3FED0
BB83633E
3DC84481
3E441AD7
3DC011EB
3D086804
3DAD9100
3C037F67
BDCB7183
BDA027F5
3D0F1B37
BDAC51C2
BE61B6B0
BD42C7BA
3E9314C5
BDBE98DC
BC5E4D50
3D8CDEFB
3D832731
3CFA9A4B
3D8C3028
BDAEB8FF
BCC80D40
3D6AF86C
3DA460EA
BD62C5B8
BD71DEDD
BD4137E7
BE19FBD7
BE97902C
3CEB8372
3DC094EC
BCB494E0
BB161A1D
3E9E3E98
3EA9BE8B
3D8712AC
3D9DCBFC
3EA2656F
BD12C23F
BD9CD8EE
3DA3F7A6
BBA159C2
BDA77F17
3D0FEE65
3CAB4EE7
3D9BC9D9
BDBB1618
BC966AE8
3C8F07C9
BBDDC582
3D455508
BD9FF6D5
BD9CB233
BDA6B3EC
BC645754
3D61B00D
BBC0A86E
3C80DB3C
BDCDF9E0
BCEAE30D
BB70F5DB
3D3B590A
3D8F4CBF
BCB2D2EA
3C503C26
3D89892A
3B2483E7
3D052777
BD8C2418
BBE3C7DE
BDABFA65
BCE39D60
BDBFC353
3DBB5775
3B1D1187
BD97B3F0
BC56F538
3C00A4A4
BC9CFF13
BCFFBF30
3D4AA5BB
3DB1D5C2
3CBB2044
BC79E8E8
BDB9F74D
3D8DDD74
BD7749EB
BD8D988E
3D4BD204
3D8E60C1
BC88026D
3D19FD92
3D23827F
BDA95084
BDA1B9E7
3D0B81C0
BD2CB6EB
3D967357
BBB7BC15
3D4837B9
3D80AD1A
BD14117A
BDAEEBEE
3DA41A9A
3C1B17E0
BDB7CA60
BDBFC36C
BD051691
BD290858
3D30A507
BD237137
BD47105C
BC68F561
3DB3CA5A
3A6D0B2B
BC430137
BCE1BAE1
3DB960E8
3D973F7E
3DEB2D7F
3D179112
3DA8FCA7
BCAD0EDD
3CE6693E
3D8A6E7D
3DB6FCB7
BDA6A600
BDB816E2
BD1FD4FF
3DEC6E50
BD9F150B
BE190C3A
BDBAC0D5
BDD3426A
BCFF2EC5
BDC3D35C
3D81F219
3D630B85
3C243C15
3D0CAF5C
BB85D080
3D923E63
BD3B67DB
3DBCD126
BCE498F8
BC88FB60
BCCF11F8
3DBCE656
BD939D2D
BC7D5360
BCDB0B05
3D57EAB6
3C1A1F9B
3D4E4F7C
3D6DA92E
BDD57AF1
3CA61134
BDAE2848
BD88FFE9
BDAEBE4E
BC30B60E
BCB16C44
BDC569BE
3D96331C
BCDE9F75
3DA5DAD5
BD944E33
3CB793E8
3D6B5380
BD4AB20B
3C3A34DE
BDA52CA0
BDB42935
3C706B5E
3B1AB3FC
BDC4E17E
BDCF9BDF
BE11B2C8
3D7CFC07
3DB765AE
BD6A4677
3D116193
3DA02C30
3CEA39B3
3D86D2D5
3D9FC23B
BD850479
3D8A7078
BD4F891B
3D406AF4
3D86E20F
3DC3F1EF
3DA48E63
3D5AB697
3D83C40F
BD720528
BCDE6555
3E30B3DC
BDA5BF63
BD8407CF
3B5F2CD8
BCAD5A69
3D19A228
3CAD2E30
BDC2AA94
3D4345EC
3CA32990
3CA93F80
3DA713FC
BDA468FF
3DBF9E4C
3C48B6F0
BCA3F634
3C9BECF0
BB16E960
BD6BCB12
BC2E75A9
BD463B1A
3D7A6290
3D9D16C2
3D1104CC
3D1E0378
3DCA9C68
BD8DE6F1
BD712D96
3CF1A670
BC5BA700
BDB882FE
BD4235D5
BDA9EAD2
3D662DCC
BCF63724
3D69A948
BD98A6BE
BD8D56CB
3D46C544
BDC24BED
3DBAD60E
BC160248
BADC3980
BDA77A0C
BCAB7B40
3C85B1E8
3CEC4860
BD19A62A
3C1B6AA8
3A3ADB80
3D1714D4
BD10E662
BC3F5728
BA98F180
3D5ACC90
3D178DF4
BDC94B1E
3DA976B2
3A9C5F40
BB5D3D20
3D5F986C
3D172580
3DB113BA
3CCFE3C0
3C7F74B0
3B3DA960
BD82D92B
BCF79D14
BDB46CF2
BD71BA9C
BD302539
3DCE75CE
3CA032FE
BD981BE5
3D12AF38
3BA26932
3D998CFF
3CC7FED6
BDC10D00
BCE15C7D
BC1919D5
3CCF70EA
BBB5D93D
BCFF2B93
BD11AD24
BDD459C5
BD159C00
3D9EC5CE
3CAF69B4
3C4A9533
BDC0E9D9
BC2580BA
BD1F49EB
BD558EA2
3D615D3B
3CA00AB9
BD285FBD
3B0A2555
BD66F0E3
BD739AE7
BD50DA17
BD716FA2
3D7B2DDC
3D2D0BF0
3DA933DC
BD52F3C0
3BDF7BF0
39282600
BD69E3E4
3CCFA7D8
BD2B403B
BDC01B53
3D878CE0
3D716878
BD4E9C72
3B8C9730
BDAB50F8
BDB2EFD8
3C0D5A68
BD8051E1
3D76D5D4
3DBAB71A
BDBC00C0
BD817FA0
3D4AB2DC
3DBD565A
BDA6D7AE
3D6FE02C
3DA37AB2
BD702C8B
BD7B7477
BD92BBE6
3D116484
BCA1E25C
3D018010
BC3F1A20
BAD72E80
3DB250BC
3DCDC3AA
3D0A3520
BD0A38B8
3C857A2C
BCC41BC8
BD8B8475
3D65A128
3D30DEAC
BDB2A6E9
BD7309B5
BCD76CD4
3D2DDAF8
BD95F8B4
B9E38600
BDCD1188
3DB1C08A
3D9B0DBA
BDD09606
BD24A333
BD2D706C
3C8D0C64
BD71E56D
BBC09B70
3DC1099E
3DA1ABD4
B9B62800
3DA0CE92
3C9806D4
3D0C2F43
3C5D3A08
3D1431C5
3D880A22
3BCF24A0
BCB1B985
3CA58973
BD251FD4
BD9BB2C1
3D20143E
BD3E4F79
BD4228A7
3DD767AE
BD2D4443
BC9790C8
3DBB0B1F
3D726431
BDCD995E
3D19F608
3D92DECE
3CF71F37
3D776339
3CED3496
3C94C616
BB468492
BCA18273
BC621224
BD36EF02
BD0E6352
BDCEBF8B
BCAD9274
BC7629AA
3D2330AD
3DAF997F
BCFE9716
3DBD590F
BDB0544F
3C2576B8
BDAD18BA
3DA2A2D2
BD0BD2F4
3C287E40
3C8B125C
3D231BB8
3BFCA110
BDBDC640
BD8C88DA
BDA72E06
BD5C4AAF
BDB97CD9
3DCF8906
3D9901D2
3D37D3D4
3D0EB47C
3D37B741
3D1533EB
3D896D82
BB267980
3DBDD13E
3D06A554
BDC31FE2
3DC50CE6
3D9A32F8
BD2F6341
3CE30EA3
BD61FF4F
3DA8F88E
3DB55304
3D856BAA
BCAE1355
3DA5331C
BC5CEB6A
BD966786
BD9747B8
BCF9525D
BD1E7904
BC70B478
3D95831E
BDA81A53
BDAB707D
BDB27A22
3D116992
3C2634E5
3D83E687
3DB817B6
BD3754A7
BC01AF8E
3C84C92F
BE07396F
BDDBA303
3D30A668
3AB1D5AE
BC54AFA8
BD52BAEE
BC7FE215
3BBA8F0C
BC5639EB
BD9FF4F4
BDC390D9
3D685FB8
BD13EB32
BD91FDB6
BDCA4517
3CA1C0A0
BD42FEF2
BCCF38C0
3DABE00D
BD10801E
3D2F60CC
3DA0D3EE
BCA96148
BC804881
3D4C3E6B
BC88002B
3DC78220
3DC83404
BD9773C0
3BE57597
BCCC868F
3DA302A3
BBC54F92
BD923A20
3DCBBED7
3D755E71
BD4A1407
3D34D1C4
3D96473E
3DC8907C
BD291BC3
3CFAECAB
3DB566D9
BDD2AEB3
3D12BB88
BDA315F3
3D6CF71F
3D891501
BDA55A5E
3D9F8E82
3D1A8F1F
BD85B7FA
3DF2D46C
3DEE551D
BDDB238E
3D0BEF9F
3C00AC77
3DC6D767
3D281269
BC402C2F
3D95BC75
3BFD05CA
BD94052B
3BC4B9BC
BD679568
BD5493AF
BE181F1C
3D9DD415
BBE14CB0
BC8410C8
3DC3783F
BCB8C9B2
3DC9550A
BD29BA26
BDB1C87A
BC88E5E0
BD8C3E0C
BCA1BA74
3CFBF3B8
3D9B6590
BCEA693C
3D13C46C
BCD844E8
3D198F24
3D89BCD4
BD35D536
BD4B2DE5
3DC90B2C
BC7D4220
BD787296
BD255CD3
BD5E50BF
3B9D0970
BD43C948
3D49AD9C
BDCB2817
BC863DBC
3C4FA390
BD0D6028
3C2C8070
BD8DE728
3D979AD0
3C85AB6C
BD319F70
BC93F633
BCF9CB12
3DEC13FC
BC8C52C7
3D11B2F0
3BA53FFB
3DF886EF
3C15B739
BCD69A63
3D2E82C2
BDAE0F3E
BD2AD9A3
3DB66B24
BD1F0214
BD3A1B5F
3D85AC30
BC664B55
3D76C754
BB61AC07
3C7C5E1E
3CAFEDC3
3CCC049D
3CBBCD71
BD95B139
BE243CB5
3BA83509
BDDF5733
BDA20636
3D3E9468
BD75FAD5
BD59455D
BD8549FF
3E712F38
3D7C146B
BE6F1FB9
BDD25FAD
BD90D884
BDDC4560
3E8FA830
3DBBAC33
BD0134FC
BDD2E19F
BDD0DBDF
3DA65059
BEBC4FBF
BE881425
3D636F5B
3E971226
3E71BA7F
3E92D6AB
BDAA8822
BCF97159
BCB57E27
3D110B28
3DEF6274
3DEB9500
3EDE2105
3D53A93C
3E53F049
BD8B6D76
BDBFDBA4
BDAC6488
3D83EE42
3CAE7AF5
3D4D3085
3DAD0A44
3CFBEAA0
3D5F3B40
BB3357A0
BD044AD3
3E6F84E2
BDABAF98
BD68521C
BD9D40C7
3D220B56
BDC514D3
BCE70719
BD9D6C87
3D235775
BE01E2A4
3E38671C
3D9384AD
3DAC101A
3DA51A2A
3C818BB0
3DAE609C
3DD98D50
3D18441D
3DEE09F5
BC76840E
BDE4C2D5
BB9EDE58
3DBE623A
3CF205D1
3D1BBF58
BB477D7F
BCB04ADC
BDD0F565
3DB9E080
3D15F1BB
3CBBE714
BCA7C4DC
BD14D3C8
BD000868
3D296DE8
BD1B5721
3DBA5228
3D3F92D4
3D89B960
3DD72157
3C87C377
BDDDCBBB
3CA3C0C3
3D95428D
3D5B1E6C
3BEB91EF
BDD519EF
BD7FD4B8
3DB68005
3C1C195A
3AE702AE
BD1882E6
BE0F331C
BD0144BD
3C81F314
3D1D850B
BDC8CBF1
3BC5BBBB
3BAA3227
3D1C8BA9
3CE12E62
BD1FA2FD
BDBDD8D3
3D1AD8CB
3CFDA42A
BCEA55CA
BDA16A23
BDC0554D
3D6DCB64
BD3220E4
3D554FAC
3D998702
BD9AE032
BD15E4AE
BCD683B1
BDD5CB74
BDB48058
BD43BB34
3D8FB116
3D73C17F
3D77E41E
BD045A3E
BE2F932C
3D746291
3A84F6F9
3D3B8BC5
3D98BAC4
3DAE13AF
BD97EF48
BDE7003C
BCE21EDC
BCF2DF80
BDAD4EF9
BD585BA9
3CB88AF4
3DA11632
3C97A9CC
BD62F55D
BD89B621
3D9869C8
3D85A33C
3DAEC5B2
3DAF9AB6
BCFE2C34
BC153938
BD18BB16
3D18BD08
BD9867A4
3DA2B3F2
BC63EA40
BC4E43D8
BD9FE6AD
BCC0E780
3DD0B2A4
BDC2DDBC
BD02B188
3DB338D2
3D4AFD98
3C8950E4
BD2FA597
3DBC6ED0
3D452718
3A735400
BBD5DA80
3DBBA8A2
3A3D0A00
3C1B1170
BD534E41
BBE2A960
BD96141F
3D75768C
3DC21814
3DB483DE
BDBBAA72
BC6B02C0
3D7A5078
BDC98217
BD3C0B71
3C655CD0
3DAC139A
3C42AFA8
BD991FF0
3CFB87B8
3DAAE98A
3BBF63B0
BA702A00
BCBBC034
BD8219C7
BDCDA57F
3B9E2730
BD9E7634
3DA09FCA
BD5DA4CD
3DC7D340
BDAA0B98
39E91C00
3D948E0E
BDD0AE64
BD1AD95E
3CADB7F8
BD836863
3DC98A78
BDBF81D3
3A48B100
BDA66EA8
BD35A5FC
3CE29518
3D315E94
BD6B9C3D
3D0A8268
BB9BE900
3DBC2C90
BBFCBFE0
BCDABE9C
BDB6CE6C
BD8EE6AF
BCA25100
3DAEAACC
BD3D9869
BDA70AF4
BD982410
BDB89546
3D86B89A
BD84CB1E
BD8FD276
BDC91D2A
BE5CEFE7
BDC3939C
3DD4AB3C
3D33BC17
3DC3AD3E
3B7391A0
BDDD5CCC
3D1FDAFA
BDB18E28
3BA66036
3D9C7621
BD3B4ABF
3DB072B3
3D2259AA
BDC8F3D1
BDBE6D0D
BD972CE5
BD15E875
3D570F18
BB803309
BDB1AC57
3D3DD96E
BD784045
3DE1B0E9
BE30017F
3D8F9098
3E8C86AA
BD280C87
3D9E8390
3D940B8C
3B6BD1AE
3C87C974
3DB33230
BD57B645
BD69C8A4
BCA9A8D4
BC8F0610
BC254D98
3DCA7650
3C9B0310
3CCE6180
BD886A94
3D9E3290
BD80E44C
3C97EB84
3D5A6210
BD7D6F6F
BD18B5CE
3C97E270
3D939FB6
3DADF69C
BDA8C76E
BD0F709C
3D975EC4
3D964CD8
3D8B8E52
BD23CB15
3DCEB712
BD159F84
3D9C3C68
BD2A7CEF
3CBF1AC8
3D10C010
BD9E0774
3C929B08
3C238788
BD8B32CC
BB194C20
3BE88510
3D98AB28
BC673D38
BD169ED2
BB58FC40
3C80639C
BD1047A8
3D64B8A8
BDC995FE
BCE09074
BD4B943D
BBCD5C90
3D4A556C
3DB08F44
3D7E5F28
3D098B98
BB9EE8C0
3D8DA8CC
3D40DE1C
BD08AA66
BC7F8B20
BD1CCB2E
3C7F91F8
3CD94658
BCBCF978
3CF9E2B0
3D2240F0
3D8C84E6
BE353BDD
3C38867A
3E8A0CAC
BC39EDA7
3C7F34E8
BCE88256
3D8B91BA
BCBDD40E
BDC8FC93
BDCEC8B1
3DBC1199
3D5C5707
39B161DD
BC65C3D0
BD6838D2
BD47E4AF
BDE7C717
BEBE65F4
3CC84894
BC2E113F
BC34E422
3D4C8134
3EB82005
3E85A444
3E6852BA
BDB84124
3ED3C480
3C36F5ED
3CD1D0B8
BDAF3F38
BC678877
BDE83D7B
3D38C74A
3D7201AC
BDCF9E09
BD84A31E
BD3124F6
BD4E7989
BCE637EA
3DA13AB3
3A47F255
3CA8408F
BD9B1DF4
BDC95EE7
3DA4ACEB
BBEE2935
3D985E09
3D9318DC
3D910399
BC2EF37B
3CC8DE82
3BEC43BD
BD0C8FCF
3D926154
BD95E421
3D09DE89
BDD43186
3BDABA5F
BCFA98AC
3D8207C6
BDC25A7C
BC38D104
BD738972
3DB7E2E4
BEAEB50F
BD405002
3E3EB82E
BDC7CA49
3DCC5404
3D0B7771
BE60A141
BD16C9AF
3DC24E99
BD9AC075
BDA8E705
3DC6CBD8
3E964C10
BD9452D9
BD52B558
BDF0576E
BE22BD0B
BEB015EB
3C8E1954
BDB4D099
BDAD6AF0
3BBF4F6E
3C82B9D1
3EC5EDD7
3DE20350
3D5B41D7
3EBE57DF
3C416ED4
3CE119A0
BCDAC9BC
3D8E6637
BD9EB3F0
BDCA20A1
BDB8BDB8
3E8B6C95
BCB732D4
BDCD06AC
3DAF0B30
3E59CDDF
3C8C939B
BD905466
3CB1481B
3D8450F0
3D2ADBE4
BD1BD4A9
BD16EA11
3D253C27
BE2A878D
BCA640D4
BDEEF5B0
3CD37711
3DC074E7
BD703C63
3BB4D01B
3E9FEB5C
3DCC84ED
3E3A9F81
3D6652A4
3E3E4D40
BD4BE038
BD68144D
3CF77393
3D778962
3D2A016E
BDC7CAE6
BD8612D8
3E6CA7DF
3CC3418E
3D3249DC
3D806583
3E2101DE
BDAB0471
BD7A7303
BC60D17A
BC34BD1F
3B0F184B
BD306D78
3D0025C2
3D20180B
3D68ADDE
3D7BEDC5
BE773393
3C0D6E65
BD2CEAFF
3DA454E1
BC96BB51
3E7A5197
3D32D341
3DE050CD
BD89FDE3
3DFE29C2
3DC2156E
BD71D38A
BD35E594
BDC9BF84
BBDE3850
3D9777E0
BDB83D5E
3DC0D0D1
BDCE0EF8
3DC55C32
3D0383F4
BD2F7B2D
BC17E328
BD4E6B3D
3DAC03A7
BDBC1D89
3CADB205
3CE3AB05
3CB07271
BC7EA788
3AE551F6
3D598753
3DC0FBE4
BD587D70
3D78A42D
BDC88AEA
3C5A7AE6
BCFC2C02
3D8AE5AF
BD7A6C14
3D347CB7
BD43150D
BDB50A97
BDB1AFD8
3D884839
3D881DD5
3C14E869
BC9DDE50
BCAB1D74
BD3038C6
BDB9249F
3DAD8024
BD995261
3CCCB67D
BCB3422C
3D0C0F18
BD4351E9
3D8443AE
3C9C4398
BDC15890
3DA9795D
BD72B0F0
3DC4EEC4
3D63220F
3DBCE678
3DAD5AAC
BC077CC8
3D9CAC74
BCAEEA3E
BD2ECBB7
BD7F5B72
3D77EF36
3C027B81
3CDFD5CD
3DD00216
BD8ACA9E
BBEB9130
3D4C9D04
BDC5E66C
3D41EAFB
BDCBB916
3D630FDC
BD127ECE
BCF8CEA4
3D05FC30
3D942E16
3D2B4F14
3C66C451
BDB89A59
3B631C9C
BDAE99FD
BD08540E
BD984CE1
3CD0B593
BC715F9A
3D1A90E8
BBCD4C1A
BD5ACBD8
BDC8CFB8
BCFD920C
BD88604E
BDF537A2
3DA45DB4
BBBAACDB
BD572502
BCD3DF36
3CBB5E53
3CACDB68
3D5EB270
BDD33F65
3CE16F42
3DC21E2A
BCBF3020
3DA0CD49
3DBE11F0
BC92CD68
3DA56F10
3D3E0B86
3DBA27BE
BC91CB14
BDB37B4D
BDA81AF5
BD9EB7DC
3D50FB44
3B9B7DF8
3DA29A5D
BDBE18AD
BDD3F5DC
3D780EB0
3D852F03
3D969CC4
BC91C75B
BD698A1C
3DB17F34
3D9C01CE
3DBE0117
3C13B3D0
BDBDC51A
BDC44D7E
B9395200
BDA5D678
3C82F43C
3D9970F2
BD4141FA
3CE61C63
3DB37612
3B6D6DE5
BD4E22C3
3D1CE7CB
3DCCA716
BDA697F3
BD063568
BC926CFB
BD19FB95
BDD283F0
3A859764
BDA36903
3B99E14A
BDAC30A1
BB06DC6E
BD7478A9
BD8F54A6
BDA02E3C
BD988F3A
3D2262DF
3D6F63BD
3E4ADEB1
3D7FF0E2
BCD7C6B9
3E554F34
BD69A69C
3A3EA880
BD131B6A
BDC44812
BCD56F5F
BD529727
BDB59CCC
BC133F6A
3D1F1C34
3CDF24B8
BD61426D
3DAE0E92
BD29FFE8
3D812968
BDB24E9D
BDB3FADE
BDBF7352
BBF34EE6
BD0E1C91
3D537530
3D62238C
3C8A880D
3C90E048
3DB28606
3D2A9034
3D73D7EC
3DBFC628
3D7EAE38
BD8F604B
3B6FF320
3CDAD298
BDA70042
3CAEE970
3D51182C
3D507470
3D222FC0
BDB9BBB3
3D5D1248
BD0FEAE8
3D8B1376
3D682DA8
3CEAE548
3D525E28
3D0677E0
BC1F0BD8
BD75AF2B
BC8D1510
3D50D22C
BD3CB67F
3D39E5E4
3D43E180
3DCAE152
3D3C61E8
3DBA6CD4
3D15EAF8
3DA4B56E
BDB60580
BD15303E
BD7522E9
3BA624C0
BCFA3E44
BDC6092B
3D03C68C
BD93D848
BDAAAAF0
BCB32DC4
BD95DF44
3DA3F640
BD25FAB0
BB4C88F5
3C8D4A97
BDE1CA8C
BDC08DB7
BCAF4190
3CB98FD9
3C05FD2B
BDBEB763
BBEE1FCE
3D986ED5
3D4F5E73
BC6814F3
3D4899A7
BD36DFF2
BD992857
BCC890C2
3DB64BB8
3D27DC9D
3D705AB0
BDB6ADB9
3D086FDD
3DB0009C
BDC0B00A
BC90A0A6
3D451FC7
3C9FC743
BD292F5C
3CC34250
BDCE446E
BCAB6DBE
3B8493BE
3DAE8A27
BD283F7F
3D355E70
BCC5DFDC
BCECDB08
3CC82758
BDAB73A1
3DB3356E
3D5CB218
BCC0DED4
BDCD4A0F
3D3CFBE0
3CAF9AFC
BDBF8E20
BD5F3945
BC2345C8
3D0B0990
BD9073D2
3CD30888
BD893DED
BD9B45D3
BC818EA8
BDC8F736
BCC61E44
BDB5AF3F
3D993C94
3CDBC8D8
BCC21378
BDC93A5E
BCE07BBC
3DCD8014
3CDDDA58
3C3C41A0
3C917160
BC4AD4B0
3D89AF1C
3CA5D020
BD525B80
BD6C2365
3B2732C0
3D751FC4
3D5B1F30
BD3478ED
3DB937D6
BCB4CFA8
3CCAFB38
BD8A3D98
3C92C2C8
3D63731C
BDAB44BC
BDA1F93E
BD32FC28
BD202938
3CC96918
3C5DB0C0
3DB29CF2
BD9775E5
3DB4F14E
3DB0C39E
BD05941A
3C94E0FC
BD90189A
BDAD237E
3D55B4F8
BD02884C
BD6D6199
BB6A7580
BD02C5F0
3C3B82EF
BCED4710
3D5D7DB4
3D220E13
3DAD1A82
3C80189B
3D4E8B61
BDB807F5
3D664618
BD725469
BD43573A
BD79C63F
BD2431E7
3CA904CD
BDA03E79
BD008C5C
BD64657A
3CD3FF1F
3DBFDE50
BDBF2AFB
3D252756
BAC50FA3
BBDB912D
BD1EFE8B
BD50C213
3BC09C70
3D664624
3DA4F34E
BDC454C9
3D0D2A60
3D2CED73
BCB05AC6
3C83B5BC
3D61A030
3C800930
3D8EF78F
BC8DF564
BBB1C890
BCF86E0C
3D0F7180
BD0C8640
BDB42D4B
3DC3E64B
3C4F0DC0
BD9D2E38
3C7D448A
3D8E2C12
BDC5EC7A
3D3BD748
BDB9ACA5
3DC81425
3D8B19D6
3DA38B61
3D2CD6EB
BD9053F0
3C6908DB
BDC8D55D
3D97122E
BD9889BA
BD711770
3DAB35D7
BD0C1009
BDC1B5A8
BCD29714
3D0C72C2
BD4D229D
3D370EB6
3D9024D9
BCB1A4CD
BC8B6BD7
BC93DB12
3D1ED90C
3D40F9E0
3DEAB668
3D806864
BB4AA742
BD052073
3D2270C4
BDD89D4D
BD1368F7
BCD7ED50
BDA5B3A4
BD5769DA
3C819D4C
BC8F40C2
BDAC89F6
3C86BBBA
3DF77056
BDC9E4AA
BD94AB62
3BF22970
BDC3F551
3B732D06
BDCBDACC
3CD28B40
3D93BCA4
3DA2398C
3DAAF5F4
BD199F95
BDCFF526
BC2A62F8
3D8D758B
3D67797E
3D2EDDAC
BDC27EB3
BD3B0E18
3B9B23DC
BDBE3A04
BDBA0551
3DB3086D
BD8E1F7C
3D539788
BD33DEB6
3DCAFDC7
BBBEFB70
BD33F45F
3D50B39A
BCD2BA9D
3CA3688F
BD09A7A5
3DB01AF9
3D735C94
3DBD6D74
BCD57810
BD2A9F28
BD180011
3DB096BF
BC99D9AA
BD79A6A5
BDCA6037
BCADCE07
BDA2C2BB
BCE9128B
3D913EF0
3D587F97
BDA4FFCD
BCBCDE2D
3DF049EE
BBD624A5
BD95AEB7
3DAA2395
BDCD8CFB
3DCD46AB
BD837A28
BDC87700
BD4EE51F
BD73C47D
BDED2216
3DB939D7
BD8E3F43
BDD7E5F8
BCB5972F
BB535DB8
BBEE88F0
3D2C361F
BBAD273E
3D411DDF
BD550525
BDB1F22F
BC012C68
3D6D6C6C
BDC3D8E3
3C82C19C
3CB3B4C8
3DC5925E
BDA1453F
3DB52090
3B4BA200
BD6AA4F1
3D5E7C5C
3D4A942C
BD7B1F4B
3D6588E8
BD28CCB3
3DAD7A7A
3D6334F8
3D04A2C0
3DA85786
3B5E3F20
3A6EDA00
BD41E13F
BD752D65
BDAF6A52
BD143F94
BDC97432
BD00DC94
3DCA8FD0
BBDCFF10
B9375400
BB6EE1BF
BD834F53
BC3CDEC3
BC04E561
3CD10BC0
3DA1DE34
BDB2E970
3DB880C4
BD9951D5
3CF5CC26
BD929716
3D6B916D
BC4DE7C0
3C43FBAD
3D2EE039
3DC58B19
3CD132AB
3C99C24B
BD52D64D
BC90CC44
BDB5CAAA
3D3E10C4
BB3F32B6
3DC438F7
BE0D6C51
3D8D0DA2
3D435AE6
3C79A613
3CA2C420
BD59BAEE
BDBAD4A7
3D8ADA93
3EE2AB01
BDAE9C50
BE4FCD11
3CD7234C
BD98D310
BD3E8EDD
3EAA9E55
3CDA9533
3D620041
3D995622
3D609CAF
3D53D7AE
BE994EF3
BDA91BA3
BD1C16A2
3C6E2FD9
3E4BECA9
3ED83CE4
3DAF66D4
BD699422
3DA91FC6
3D2B3F56
3E020565
BEEFC210
3EC549B3
BCF6098E
BED7F952
BD704C1E
3CFB6880
BCFF3D31
3D6DF251
BD4D5F98
3E0CE639
BCF1CBFE
BBA88D38
3D216BE7
3D263F20
BD2D29C6
3D8BAFE5
BA84252D
BAF600EF
3D8EBEC5
3DBBB05C
3D7DD926
BC07C486
3DC34B0A
BD6BDBE5
BE6CEED1
3E11E6E2
3DD3CBBD
BDBEC7F7
BDCC0BD9
3D434068
BDD7C7D8
3E284B53
BE36C567
BDC80F1B
BD4E2618
BE937938
BBA302ED
3DC5A2D6
3D080ECF
BD66C4F3
3CF0C94D
BD406D34
BC4BAF88
3DAF943D
3D506142
3DCA7F54
3D88EB8D
3D17CABC
BDC35226
3DBB3FCC
3BE3A228
BD7585A5
3D9C50F2
3E02ADE0
3D1CDD2D
BD8CB485
3D120940
3BDEFCB3
BD41A57B
BDB2FAF7
3D3FC500
BD57F8B9
BDA0301C
BCF647C3
BD9EF7F1
BC372540
3D67949E
3BFC13D1
3DA0A58E
3C4C77A8
BDC35E60
3DACDE95
3DAA9D30
BDAECB62
BD684891
BC299023
3C828580
BD1584A6
3D241C4F
BDE07489
BD285FD8
3DA3B91B
3DB96E43
3DA57805
BD5EAF8B
BD2E81BA
3C8BF0C4
3C289295
3D195B30
BD4AFA27
3D10B634
BD8D2587
BC127610
3D69E0F8
BCC13B74
BD9BF219
3E0E4571
BE0A4612
3D1B2831
3D23FC5E
3D855243
3D64CE84
3D9599EC
3BDDB9B7
BBCAA91E
3D82A038
BCABCFD0
3D837628
BDD03862
BCF09034
3D369EF0
3D90519E
3D259508
BD970721
BCAF8880
3D355EAC
BCABBCE0
BDAB4623
BD031038
3D9FD5E6
BDCB700C
3D6D975C
BB8003C0
3D789BCC
3D9224C8
BC94B500
BDB527B5
3DBA1848
BD54BD65
3DB4ACB6
3DA531F6
3CEC5700
BDBA25FF
BCE39D08
3D8717D6
BC8A6078
3DB3A4F4
BDA4F0C0
3CD47168
BBED2600
3D94F404
3D94207E
3D726C9C
BD6D9DB0
3DBF6040
BDA684C7
BDC133EC
BD2898E1
3D7F4A7C
3D649B8C
3D0EC39C
BD82E76E
3CD47520
3B23E140
3D6290E4
3D96CFD0
BCB472AC
3DAFF840
BDB23986
3DC791AC
BB012520
3C81915C
3AA1EE40
BC9BDC80
BBDCFCD0
3D94BD5E
3D637554
BDBFAC70
BCFCC2B0
BC00E928
3D90B4AE
3D95219C
3DA3DFF4
3DA0FB20
BC208A58
BCF0555C
BD9F70A0
BDB08DF9
BCC0F0A4
3DA11442
3C50FB18
3D812670
BC038DF0
3CEB4440
BDB8C742
3CFA54D8
3DBBBF96
BCB85778
3D74CEFC
BB5AA900
BA2C2E00
3A9FFF80
BDC91D34
3D554B50
BD39497A
3D107960
3CE01320
3CE06270
BD50EA29
3B610020
3D98245C
BD74E4F6
3B004534
3D7D2859
3D31DB63
3DA5BAC8
3D1CF444
3D3D018D
BD105B79
3DA9BC25
BC67882D
BDD058CB
3CAB6C1D
3C388AD6
BD99934A
BD62905A
3E0B007B
BE19C86B
BE04623E
BD9DF2EF
3C7B131C
3D5E6D4F
3BBE6A19
3E874A08
3E9D0C48
BC685E6E
3D86CB47
3EA8D2E9
3DB12487
BDB8C4A8
BCB22DD7
3CCF39E0
3D0B40AA
BD015CFA
3D0E40D8
BD9E3A5F
BD57777A
3CBE7930
BD70BE9E
BDC2842A
3BBCE980
3D54E26C
BCF0E174
3DA0573C
3D035CA4
BD115490
BD9C48E8
3DC1D182
BDCA4746
3DA5B0FA
BC723540
BDA6A77E
3DA8F946
3BF115C0
BD9DACAC
3D0BC6F0
3C5F67B8
BD721608
3DB6AFBE
3D8D4A82
3C9E1128
BC893320
3D164D20
BD19234C
BD856F28
3CB9848C
3CE22760
BCA6AEB8
3B407FA0
3C1A82A8
BDA17E7D
BDB46009
BCE83954
3CB24DF0
3D35E134
BDC08C2E
BD712806
BD493EEC
BC744DE8
BD027DA8
BD92D0B4
BD2F6C1B
BD57BAC2
3D0C955C
3BA98400
BAE9ABC0
BCC5BE48
3D5C6BE0
3D09352C
3DA8CF08
3CF4E3A0
3C816934
3DC04DD8
3D7B3338
3D2C14A4
BD2549CA
3DA391A6
BE83CDF9
BDB8EFD3
3E8C3FA5
3DA87C5C
3D126684
3DA96676
3E710A3E
BD801E52
3D6ED202
3D9B47EA
BD77CD78
3D3B25C6
3E21C381
3E852EDE
3CB8B5CA
BD5A5377
BDC680EC
BEBE32B5
BD58368F
BCB644FF
BD8DD159
3D4FC437
3F010E20
3EA0F96C
3E3CAD02
BD7DCD03
3E9AF851
BD95A1EE
3CDF3690
BD86DFA5
BDCA07F4
3D420EE2
3D6E139B
3D4D950A
BCB19821
BDAEC9E7
3D34EA78
BDACD656
BDB1C206
3D8711A6
3BDA80EA
BC1401BA
BD60D00E
3D527290
3D9F06D6
BCC7234C
3C60E4C2
3D7B6C09
3D6D085F
BD1CEFA4
BDB7E9A4
BD911224
BB99422F
BDCF0C42
BD8790D6
3E1DDFE0
BDC60CF2
BC5BA60D
3DEA2A35
BDD8D678
3DB0BA00
BD16BAD8
BD3D63CE
3D375855
BE4331C0
3D9A8141
3EADB5DC
BD8B756C
3CB0698C
BD14682A
3E45DE12
BD94AA8C
3D1C5007
3BE4EF59
BCC8F250
BD7BCAAD
3BB1AE43
BE19D060
3CF50C19
3CE6CE45
BE1584F4
BEAF1F55
BDD72CAA
BD17B4B5
3D980ED8
BD99AE78
3EC5D7D3
3EE08695
3E8719DD
BD77D5A8
3ED41CF3
3D0430AB
BDC0C5C5
BC80F543
BCA7DA80
3D8F6E9A
BE120435
BDDFDF00
3E353BE9
3D320C8B
3DAA276C
BD606EDA
3E1B8E0F
BD89F2E1
BD8FE143
3C3C1749
3D714DA4
3D4101F2
3D3EB62A
3E5C3147
BD0B1A57
BCD53082
BBFE9469
BE02265C
BBD89C29
BD827B71
BD9B7BE8
BD9A2B93
3E51C942
3C26EC54
3D09ED3A
3DAF2E4B
3DFD39FE
BC585D2E
BDD04918
3CE26BA2
3DB29E57
3DB46DE5

