283C
069D
05C6
11D3
3071
0FED
1A17
2F1B
296F
3FB6
3BCB
2F27
1153
377B
35CD
2A94
04D4
17C8
12C5
1464
1438
326A
09C8
16B4
313E
03E5
3DFF
0F52
0F34
089A
28A9
1823
0106
0E49
36C0
102D
10E9
3281
32D7
38C8
079C
1125
090B
0268
170E
3F01
3544
2E2A
3252
0E19
0E3B
24DC
04D5
2C9D
2956
0625
2DE5
17CB
336D
2B80
3A42
3670
3C79
343F
3221
3BB0
0417
2E0D
0958
3E61
28BF
0325
10FE
0BE0
04CB
1612
07B1
308F
059F
0975
0F87
3956
2803
2B20
33EC
0BD6
174B
0543
2EEA
268B
2AF9
0CA3
32C6
35F6
09D9
069D
2E97
328C
15EB
3F83
0E5F
26CA
1682
0B32
24B7
17A6
0B16
00DD
17FA
3A0B
3315
3330
2BAB
2825
2BA4
30DA
369F
14DC
0BD4
2CDE
3C9D
036D
0E21
3836
076A
1556
04EE
0F7E
377D
3936
1153
0C38
0F20
00DC
0E17
3382
0BFC
3E8A
04B3
187B
3DB9
10CB
01AC
25A8
2999
38F4
148E
3051
3BC4
0DD3
344E
36AC
27FE
364C
2EF0
0DB3
3665
267D
0429
2F25
3A47
3E56
01F1
1085
0E0E
05B7
2D3A
2AAC
31B1
397D
0A63
0835
3F67
39D6
0ABC
1867
084D
10ED
08F7
3582
2E0A
2F95
2CCF
2693
2DF7
058E
3E20
11FF
36C8
306F
0B79
3139
2AAA
3720
37E0
25AA
291A
2940
0E52
1912
33B4
028B
0A44
32D0
133F
2FE4
028E
030B
194E
02C2
0653
1563
314D
2B0F
12F7
13E7
0128
0C20
33B8
0AAB
0507
3A42
26C2
169C
282C
289D
3B18
35C8
3449
009A
0519
3DA7
2CFC
32D0
164A
1101
17AB
16AA
0E85
25AA
3BB8
3B9D
25B4
0DF3
095F
3605
327A
002F
25EA
0B3B
3AB2
3F66
3D18
2F6B
2706
3A46
061A
263E
28DB
36D8
17C2
00ED
09F1
0E82
27EE
3899
052E
02EE
041D
08C7
1447
3065
0ED6
3DEC
06B9
0A16
0D06
0414
25F8
129E
147B
0B1D
3288
00C0
150F
2A26
2E91
0B20

