E83C
069D
05C6
11D3
F071
0FED
1A17
EF1B
E96F
FFB6
FBCB
EF27
1153
F77B
F5CD
EA94
04D4
17C8
12C5
1464
1438
F26A
09C8
16B4
F13E
03E5
FDFF
0F52
0F34
089A
E8A9
1823
0106
0E49
F6C0
102D
10E9
F281
F2D7
F8C8
079C
1125
090B
0268
170E
FF01
F544
EE2A
F252
0E19
0E3B
E4DC
04D5
EC9D
E956
0625
EDE5
17CB
F36D
EB80
FA42
F670
FC79
F43F
F221
FBB0
0417
EE0D
0958
FE61
E8BF
0325
10FE
0BE0
04CB
1612
07B1
F08F
059F
0975
0F87
F956
E803
EB20
F3EC
0BD6
174B
0543
EEEA
E68B
EAF9
0CA3
F2C6
F5F6
09D9
069D
EE97
F28C
15EB
FF83
0E5F
E6CA
1682
0B32
E4B7
17A6
0B16
00DD
17FA
FA0B
F315
F330
EBAB
E825
EBA4
F0DA
F69F
14DC
0BD4
ECDE
FC9D
036D
0E21
F836
076A
1556
04EE
0F7E
F77D
F936
1153
0C38
0F20
00DC
0E17
F382
0BFC
FE8A
04B3
187B
FDB9
10CB
01AC
E5A8
E999
F8F4
148E
F051
FBC4
0DD3
F44E
F6AC
E7FE
F64C
EEF0
0DB3
F665
E67D
0429
EF25
FA47
FE56
01F1
1085
0E0E
05B7
ED3A
EAAC
F1B1
F97D
0A63
0835
FF67
F9D6
0ABC
1867
084D
10ED
08F7
F582
EE0A
EF95
ECCF
E693
EDF7
058E
FE20
11FF
F6C8
F06F
0B79
F139
EAAA
F720
F7E0
E5AA
E91A
E940
0E52
1912
F3B4
028B
0A44
F2D0
133F
EFE4
028E
030B
194E
02C2
0653
1563
F14D
EB0F
12F7
13E7
0128
0C20
F3B8
0AAB
0507
FA42
E6C2
169C
E82C
E89D
FB18
F5C8
F449
009A
0519
FDA7
ECFC
F2D0
164A
1101
17AB
16AA
0E85
E5AA
FBB8
FB9D
E5B4
0DF3
095F
F605
F27A
002F
E5EA
0B3B
FAB2
FF66
FD18
EF6B
E706
FA46
061A
E63E
E8DB
F6D8
17C2
00ED
09F1
0E82
E7EE
F899
052E
02EE
041D
08C7
1447
F065
0ED6
FDEC
06B9
0A16
0D06
0414
E5F8
129E
147B
0B1D
F288
00C0
150F
EA26
EE91
0B20

