BC4F74F0
3C570BF8
3D96277D
BD07C55A
3D675522
BB35DD04
3DA1191A
BC13709F
00000000
3D693AB5
BC64267A
3D6E64A6
BCB48FFA
BCFD4FE5
3DD45559
BB25371D
BCF8F109
3CB9F950
00000000
BC57BEE0
BB6CF38A
BB9F377F
00000000
BC5591D5
3D4CBC3D
3BC017B3
3D88D32D
BB3ED386
BC3EF165
00000000
BD218311
BC36B5BC

