BCF337C3
BBDF1A32
BC9824AF
3D3BB17F
3BD73113
3D7A9950
BC0B169A
3C92D847
BC060DEE
00000000
BC8B362C
BC7DB1C8
3CBE3A01
3BD65E89
BC568DCC
BB43AF54
BC151237
3C851BF6
3D6FE9B5
3DC3D198
BD14B86D
BC85C141
00000000
3A933D10
3D6251D0
BB6C4D25
BB989B66
BB906587
3CAAE46C
3BBC029F
BC9C2C9D
BB2DFBE9

