004C5
01806
02986
1F3B8
1ED36
1ED58
01072
00053
1E740
1F0B5
0147D
1F91D
1F071
1F90C
1EC9D
00633
1ECA6
0052E
1F526
1F5E3
1EAC3
1FF17
01213
00AAE
00395
01871
00816
1EBAF
1F8D5
1F621
01188
010F6
00D95
00D39
02D8B
1EAEF
1FA29
1F4F9
022A0
00759
1F989
1F370
00851
0161E
025C0
004E3
001CF
1EE6F
1FF03
1F6C9
1F104
01704
01114
0148A
00023
01C72
1FF34
1EE3B
0068D
00057
00D8F
0076A
1F421
00657
0038A
018EA
00885
1F08C
00DCE
1FCAB
016B4
1F2F7
1EB67
1E550
1ED6C
1FECC
02903
015D8
1E904
1EC70
004A1
0071E
1E69B
00DC9
1E540
00215
1FB39
1FB11
0051D
006D9
00FF2
00464
00017
00CD3
1FBAA
1F434
1E504
1E890
1F9B5
1ED4C
1F0A6
000FC
0060C
016A2
001C0
1E961
0072D
1F27E
02213
00675
1FB6C
00E49
1EEAD
1F171
019B0
00EE2
00E76
01268
01100
00BF0
1C705
1F706
1EDB1
01807
00FBA
01134
1EA3B
1FC93
1F860
1FDE9
01FFF
1ECBA
00FB8
0071E
1FBF9
003B1
1F714
00D81
01962
01729
02668
00258
0173A
1EC99
003AB
1F715
1F85D
1ED2F
1F199
00B5A
014B6
0196D
1B9CB
1FCE7
1E5CB
1FEE0
1E6F6
1FB5D
00923
1FC21
017BD
1E769
1EFBC
01856
1E710
0179F
1F8DF
1F394
1EF3F
1FEC8
1F7DE
1F746
02656
024BC
0139B
01006
01418
018BB
00AE4
1F0CB
1FD25
013AF
1F488
1F928
1F17B
01890
1CE5A
1FACC
01701
1EDD7
018CB
1EAD1
1F95C
1F30D
1ED98
1E7EE
017E1
1EECD
1E959
1EA6C
1EEC9
1F388
1F25A
01648
0018E
1E9F3
002AA
00166
019C3
1FE68
008CE
00BB5
009BC
012D9
1D655
01194
0134E
1F754
1F76E
014C4
1E687
0168A
01858
1F32A
1F70F
1EB03
1CD4C
0060C
01629
015CC
1DD77
1EB36
01228
01148
1F200
1F43B
1E2F5
1FC8B
1F7B7
1FF2B
01ADE
1F515
1F57D
1EBC2
00399
1EA0B
1E875
1D093
1E8EC
1EA91
1D69B
1FDE7
0149C
1F8CB
0078E
010DD
01376
00DB2
1E12C
1F62E
00BCD
01786
1EB7A
00617
002DF
1EA1D
0017A
016A4
1D8D6
1E1DA
00833
1EC46
01AC4
0097F
004F4
1FE48
00D62
00521
1ED96
1DA6D
01036
1EC07
1E838
001A1
1F7A6
01607
1F802
0146F

