7972
7D05
77BF
1037
6FCA
1703
7FF7
6A71
6DF3
7B00
16E8
7720
02B9
69FC
0E06
5EC8
6430
07EA
731E
084B
1370
7D6A
7BB9
0450
7195
041E
74B7
75C3
0211
016C
71B5
01AC
6D8E
6C13
0F86
01BC
1718
6CD8
0A8E
0ABB
1530
1193
7B8F
6607
007B
02A1
0706
7AB5
10CE
0033
7275
7BFB
6E55
7190
0809
05D7
7409
68AF
659C
1860
1849
14D2
67D6
107F
664B
7B59
7DC5
7F2C
7A73
70FE
764A
0C99
7949
68D7
0D2E
6656
0BC9
0874
0A87
08D9
6E49
0590
7486
02B7
73AB
69D7
10E7
62D9
7CE3
75BE
63EA
7D66
77A1
7A0C
068B
6F5E
0A2A
1580
0056
7F08
1537
66D2
0394
7AD6
7AF3
0D89
6850
7829
0D0A
7D17
0A9C
0E07
720C
1276
7C63
7D82
0A09
6E50
04A2
6DA5
6294
6E5D
6EC3
67D3
77D4
6E05
78A7
0EAB
7376
06D0
72DC
1391
0AAE
6E15
66CC
6F75
001A
0CEC
70DB
794D
0294
72DA
7163
656F
6726
77B9
6CA8
09A5
02E5
05E9
7EF2
67F7
059A
7221
037B
69F4
6ACE
6966
02F4
15E2
0935
0384
0FCD
0414
7A77
1254
1282
1520
6E82
09A4
764C
6ABC
73D9
6BED
7626
046F
6E7A
767E
70E5
0042
121E
736C
6526
65B9
02BC
7305
6602
097A
0651
7EA5
19EC
0260
10A8
1819
636C
76DA
14E3
0364
0D4F
6EC2
1937
06E5
19CE
6DA8
6199
72D9
7475
0026
6BEE
66A4
7C42
7922
7909
72F1
7C07
6265
61B9
79EE
14DA
1564
0689
0E1F
0DF6
6D68
6F5A
007A
6BFC
1780
0CD8
17B2
0B2C
155F
0E7A
194D
0FC8
052A
02A4
6BB9
12C6
0068
07E6
69B1
138F
7C9D
771E
0879
0E9F
047A
73D1
0EC8
7952
054A
1777
6661
6D2E
0FFF
6ECB
0623
0D6F
6FA0
6D24
6C45
676C
6630
72D1
0FE9
025E
0B01
0660
0DF2
65F7
03C5
686A
0079
0512
01D9
0486
000E
668B
0C3D
070D
044F
6B6E
1089
05D4
7F71
6BB2
1034

