1186
0B32
2E3A
155D
1773
14B0
0BF2
18C1
3761
3341
068C
09B4
38CA
0A99
2887
3E02
03F6
010A
02AC
304C
2905
05FC
0ADC
2C05
17DA
14F8
3BBD
25FD
158C
3322
0A77
2DD8
00BB
2708
173E
2D3F
2D15
02A7
2765
3D53
0208
3573
39AA
182D
0917
0D52
14D0
2259
3B57
253E
30C5
2777
3466
3B2B
3861
0943
071F
10C2
138A
022B
0F37
3597
1878
3B77
34D3
0472
36D7
1793
1459
3740
0C36
2E66
354D
3169
341C
392D
3B37
0CB3
2DBA
12CC
0DE6
0E03
3DFC
0937
3F20
15A9
3145
031D
2F78
135E
36AB
1602
3613
0C3B
10E4
0B65
2B7F
2BA5
2FF0
066F
2D3B
1139
1450
3766
28A9
03AD
3CA1
346E
3A9C
17FD
1428
0F62
001C
31CE
37C8
366A
2C15
2595
3A53
116A
2EC0
0643
0604
00E7
14C5
16EB
32A8
3DB3
2A42
2C2A
344D
343C
18CF
12F7
3B28
034E
1157
0DA7
2F1A
030F
1145
0A3A
10D6
0470
0F2B
3B7D
335B
03D8
0AFF
14CB
33C8
35B8
3B7C
39B6
33AA
0AF6
12B5
124C
32C8
3E0F
2516
0837
3FDF
3645
0BAE
1739
341C
0CA7
1170
3DC6
3D93
262B
19D7
14E6
0B39
0131
2DEF
0707
2674
38D7
113B
0F8F
0494
1316
0713
30AF
2F3F
027F
0036
0F55
17E7
35FA
375B
0B24
12AE
3DFD
3F90
2F3C
06D7
0075
3997
0459
30EA
321E
3CEC
3CD1
330D
0B16
08B6
26A1
0103
01E8
37C8
36DB
17A9
2B54
3B7C
2FAA
3B64
0970
054F
067B
06A4
071F
3A5B
3A69
08B8
28FD
2A28
187E
2E43
004E
27E2
287F
1361
07B8
0B7D
1702
2D11
12B7
013A
057F
3A54
040C
255C
11F6
3CC6
07DC
2926
29CA
3708
3EC2
3D2C
3737
2A52
30FC
148A
26EE
1395
3813
3B71
2CEE
0F3D
36AC
0886
3BF3
064B
069F
28CA
2B49
195F
3311
150A
2946
1523
0C34
3280
0E9E
3B5A
15FF
3F25
0DE6
01E2
3F8B
2E45
3ECD
1301
2C90

