BB7CE630
BD3206CD
BCB19769
3D75A4AE
BC6C11A5
BC843B75
BC6C6730
BC0C7D66
BC327D32
00000000
BBCCD752
00000000
BC69D66E
BCECCFA3
00000000
BB8499BC
BCA04B17
BCA5926A
00000000
00000000
00000000
3A378346
BC470823
00000000
BC0C1285
BD70A84A
00000000
BBEF79D0
BCAC215A
BC214BC8
BBA5939A
BC32F3D3

