048E
3F4B
29C4
2ABB
1553
30BC
0BA3
2CA3
3989
2D65
2EAC
0125
13F7
2958
2B73
3821
3FB5
2FEC
3A05
321E
094E
034C
0E85
1529
3234
0B48
124D
2D43
291B
05CD
1098
26A4
305D
059A
12EC
27DA
0ED4
39BF
2F33
2EC4
0FD1
02D6
0CFC
0AA0
386B
2FA4
27E6
0259
2EB7
2498
0DC1
3FF1
3501
3841
13E7
0071
306B
09DF
0526
31A0
0C24
0C19
35BE
3AE3
3A36
0EE6
105B
16F6
05E9
3424
3AEB
3F15
2C7A
3E4E
15C6
059F
14B1
3D1F
2791
2F28
14B4
115D
10C3
0196
24A7
16E4
01F4
2778
36FB
1010
19E1
2789
1620
3730
3B86
1715
0053
0D70
0A8F
030F
122E
2BCA
03A8
0B92
3F6F
055A
0804
3E37
0613
37EC
0CCE
3787
3BCF
131F
39A7
15DF
3397
024E
056F
2604
2999
250A
04BB
38F1
3D1D
0E0E
0E0F
0AE6
3452
3BC7
0F61
3EAB
3BB0
37F6
0CD9
2D63
31FA
07AF
0C44
0208
36B7
023C
2A83
31BB
0A58
1851
0146
1459
3E25
3F66
19F2
2968
1002
0D2C
2B80
145E
3C3C
3A34
03DF
03C6
3DFC
2891
3530
3F52
1953
2CB8
2739
1881
3182
0B0E
360C
3B9F
2733
3570
17BB
014A
3702
2F1B
089C
11DC
04AA
385C
16A7
3418
01E4
135B
377F
2917
058C
3672
24F5
3111
3CD8
155F
1A13
2DC9
3D9B
2759
2A52
3377
32A2
1075
0047
0525
37D3
122A
2BB0
10F7
3D10
1124
3C85
08F6
2FED
25D8
01BD
0ADA
3CE9
03C7
1445
35A1
1618
0932
100C
020D
36D3
2A80
2A22
3806
2D76
2B48
0E62
00BD
008A
30FD
1821
3491
086A
0058
0F55
13BA
02B2
2BBF
2E92
3EC2
37EB
0BB8
0CAF
013C
28ED
357F
1387
06CA
02DB
1040
0305
3341
1842
295E
1A00
05DA
2776
3165
0577
2AAA
061A
26D8
04A7
32F3
26E5
26C3
1603
3F2C
26D1
03E6
30FB
3EB9
1414
10AA
28BB
3E46
0700
1624
04F0
1809
2D4B
24E5
0843
3C9E

