00000000
BCCD602C
BCA7E072
BC0D2112
BBC3C54F
BC7B4539
BB621767
3D3219B4
BBF87430
3DAEB653
BBF768E3
BC832A75
BC884830
BCA1B63A
BC1378D4
BD495A42
BBD10D46
BCBC845A
00000000
BC8A1E73
BCE4D877
BC7249A1
BD500BBA
3D01AF7E
BBA386A9
BD05BE95
BC0E406C
3C077298
BBC4C2FB
BC8820E1
BCAA5D62
BC8AB2C4

