0B80
001B
3A66
31B8
3F9E
164B
048C
278A
01E3
2960
14C8
15F3
3074
12AA
13B3
0473
36B0
144B
00D4
0BDB
1D7D
37A9
096C
241D
3BFB
2A35
2E2B
1379
00B8
3791
27A1
1772
3F29
2726
3BB7
3DEC
0B08
1093
2D84
1082
0242
3A65
0D05
25E7
3DE0
3B7F
2D42
30B6
0D96
26AD
26D2
0950
3F12
04D4
125B
2C0D
227D
397E
0327
0D8D
3A70
2638
3E2E
1613
0D8A
2F9F
0143
01DE
3484
3EDC
16A7
0133
2AA8
2F31
02B3
1109
394F
2CB3
0A6F
3691
34D6
043F
2AFB
2E63
3A11
14CF
0048
3BC0
260B
318F
3B2B
2E02
0116
341D
16B5
1170
29DA
30B7
0561
0720
2EAD
043D
3FA2
3611
3F2B
0136
2E53
169F
0D2B
3981
16F5
28DD
01B5
0E54
3A84
33F7
18A6
3E34
126C
396D
10D4
0B09
00AF
038C
2A3A
398B
331D
281C
3D1D
2E54
372B
289F
0448
3D9D
145B
33E4
3932
123D
10FA
1492
366C
01D3
1728
0D28
3DD5
0E74
164A
3D58
2EBF
048B
0D07
29FC
1311
19B4
39C8
264E
0A0A
005C
2821
35D5
3B62
1956
0A3E
2961
049B
36B8
34D5
30AC
04F7
13B0
0CDA
3C7E
1477
2D53
0CB0
2A61
0229
3527
3758
03C6
068B
34FC
3F14
00E4
2C0D
254A
3781
333C
2A80
2A87
0128
0389
094F
3478
3B12
0521
34B8
3C9C
116F
28F2
0274
261E
10C3
11F0
26BC
292C
3503
3236
09A1
12BF
3A88
342B
37A9
25F8
3C9F
1987
2CCC
3CFB
356D
0976
19AF
317C
366B
010F
035A
2A4B
00F2
324A
2CD6
2764
32DE
041C
39DB
3701
2FC5
2A0A
32B0
28A9
3095
3878
13C0
0CCF
130C
15F7
0C13
3284
3795
3051
3DA3
3A8C
2E34
3249
0F73
11D5
00CE
34E6
3B52
1276
2558
3A15
1844
3D37
0634
151B
3E73
18A3
1285
1671
312F
01B9
1210
3E29
2E9B
368A
120D
183D
1B93
0275
0179
1221
337C
10FC
2883
3B33
1046
3A4E
33DB
3629

