F79F
F75A
FFD1
059B
F6BF
F780
F8B6
077D
02C9
1997
FB3D
EC93
FED3
0EFC
E984
F2FB
F3C7
EB98
0757
F432
0C85
030A
07C3
FDEF
F0B5
E814
ED86
F6C7
0886
0F77
01EE
F562
1555
E489
F346
EE2A
FBF9
0994
10CB
1329
EA5D
EDAE
021D
F4B4
1A1A
134A
068A
10A3
0302
1489
1802
EB27
FA36
12AD
137F
E783
0A5C
0636
10BD
F4EA
F8DB
FAE2
1190
F5A7
0A4F
064E
F8E6
F5F2
FA52
EB9E
0D4A
F1AB
ED67
1071
F100
FB87
FC52
FB84
F912
0261
FBFF
00C7
00B2
0398
0E6A
E379
16B7
05BA
120D
FD5D
070F
EDC2
0BDA
14F1
01D7
EF02
0506
04A6
FE3F
E828
17D5
F2C2
0504
1644
0030
F5DF
EA50
E91D
FF16
F7EF
E943
E666
FCC1
02B1
ED8F
0E16
00E5
1491
E780
E998
193A
F35F
060B
033B
0836
FE6A
F942
03DD
14CC
105E
05DA
00FF
0018
0593
EDDA
F5F8
063E
F239
E629
F0FD
06C3
0549
0D24
F63F
0CDD
EE50
1121
0CA3
F731
0825
0388
F6B6
18CC
1577
FA46
1380
EE45
0C74
FFB1
159C
0C0D
09A9
16F5
FB06
F653
13F2
EF73
0F1B
0343
1960
0F17
0AE6
EC67
0384
058A
E906
0ACD
119F
000E
157E
FE50
F9BF
F3F5
F886
EAFA
F61E
0A61
E754
E869
FE78
12D7
0D3B
FB33
0D37
FEAF
E7EF
11E0
F1C8
09B2
02B7
0299
07A3
E62A
FD9E
1353
FCFA
F74B
0ADC
FCC7
E9BE
16AB
127E
F119
F455
015A
F4D7
1757
EE64
0188
ECAB
0575
FD93
1317
1040
F3D3
055A
FCA4
F56F
FEF4
E97A
E7AA
E7B6
19CE
0AD0
FD03
0374
15F3
F1E0
EC01
07D7
F564
F831
0FC1
15A1
E5E1
09C8
F869
FE54
001D
E78D
F284
028E
02E2
0F20
F3FA
E8E8
EF3D
E8F8
FAA7
E688
FA06
0730
E94C
F701
046A
0B55
FCD4
FF15
0ACE
E7C9
0694
1612
E9C1
EF96
EA2C
F871
FCD1
F17B
FAA1
06A3
1216
0080
08E4
0711
E8E2
0CD9
1350
E404

