0A9D
033B
3942
1210
343D
343F
00A2
2DDA
3228
3842
3F6B
0A45
19ED
3591
020A
32AD
2828
3AEC
074E
081C
165F
067C
3C55
001A
08DC
1362
12A3
2B14
3369
0CEB
0E46
33D8
3D0F
00DE
3E64
39E5
2F2C
2C45
1165
1308
10E5
1995
286A
0ED3
1528
103A
3891
3501
35EE
2E2D
26C7
0DFB
39CC
00E4
0C62
31DD
3ABA
3592
00FC
0D9D
0153
2758
1803
333E
15DD
38AC
2B6F
1227
0921
3909
2677
3E2A
0675
0FA3
375D
3D5D
381E
3628
0B6A
3C97
3483
3077
1840
3E59
3A57
0B81
17DB
350A
3319
0EC5
3582
17B2
049A
119C
3094
0154
362B
2B39
3FB1
296F
132B
31BE
37C1
0128
3842
1341
01F0
02D3
1005
27D2
0725
0AAE
3EB0
2AC8
0240
302A
0020
3137
1493
25EE
1785
09F4
3528
19EE
075D
35CB
1787
0735
26A1
336A
168B
1029
268C
39CA
3CCE
100F
0F1B
30E6
0B06
2D5D
39EC
3BA7
3096
3C28
3B6B
2A92
3B00
3144
063B
32D9
2E1D
26B4
3612
0853
0B2C
0A6A
0D45
3DCC
3FD7
0B23
3A6B
0F39
0E0E
3294
29E1
3526
19C2
0EEB
2CEF
17B0
2B18
2FE5
13D0
2A68
28E2
24A2
305D
3107
25A5
2DB8
3C0F
2B0A
0D26
0BE8
1422
162F
0812
1414
027B
2FE2
16E6
2AD2
3561
3B1D
0738
32F5
17C9
24DF
0642
0B15
0115
0D96
0DA1
3E87
0321
149D
0194
17C9
125D
332C
042A
0345
0CB4
0FD6
2B3C
0D73
3A72
29E3
2D7B
03AD
36D1
295B
2CFF
24D2
119B
0478
0CAA
3C5C
38DB
260C
14E2
2B10
0144
000A
08A3
3A72
0295
3A8F
2DC0
2B9D
3AF2
014A
2477
37BB
3AC1
09AD
1422
32CB
056D
00F3
3D6A
1315
38BB
3318
08B7
15E1
100C
0838
2CD5
085F
14AD
09CE
31EB
0D25
05CC
2A91
313D
0DD7
0400
0B70
3666
3A91
0416
143B
3417
352D
111D
0A41
0B69
0F26
3D7D
09CF
30F4
2BD0
152C
2A65
36B9
31F9

