EEA4
0194
D9C2
FA4E
1196
14E6
D750
11C5
1866
02BC
E616
EFEF
C4CE
C6D5
EA43
0C23
E87B
F5EF
F0FE
F5F2
19DC
FE6D
D7E4
D3A9
1E3C
0A98
E152
0201
1934
15A9
0565
E5A8
15C5
046F
AB18
02E3
094F
FEC4
C914
14DD
EC1A
F7B2
F35F
F7C1
BC98
E834
F8F7
108F
0CA8
1D83
ED03
106B
09BE
02B7
D6F8
B6FD
FDD1
F240
C975
F00E
F254
FCAC
EE04
0281
F8F2
F66D
CD80
0B5A
04F5
ECBD
00D6
FB29
FA8E
E8F7
176E
09A7
DE9B
C255
ECE9
0CC8
09B9
124A
FD68
FBC6
FFDA
061B
E0F4
BDB4
0ADB
0451
FE64
1090
0198
082D
13E8
07C2
0DA3
F652
4C09
0037
E716
010C
1A9C
F618
05A5
05DB
ECB6
071E
FFE6
1460
09A9
EA15
F520
1370
08FE
E89B
FBD5
FFEA
3E96
31CD
3902
0835
1C50
01CB
F2F3
F280
0A5E
0ABA
1E09
F682
10AE
EBFE
18A9
0F33
E93B
0443
0C2F
0AAD
F25F
0CD6
072B
CDCF
103F
1251
EC90
21E7
FAAC
1938
F619
FDBC
FBF0
3816
2784
E96E
333C
0814
09CB
14C3
F2C1
F681
1A76
EDC3
F89C
E9C9
08B5
F67D
F551
030B
FF41
EC7B
0C21
1235
0F60
00E7
F6DA
09A8
140C
09FB
F80C
1256
10CF
EE8B
D692
02D3
2B66
0FA9
187C
08B7
EA5E
1024
F797
E5C2
DF6B
E974
2C62
FB66
04A9
EB6B
2366
F4A3
F520
F73C
FD90
F3FA
4F75
4825
1B6B
0178
F373
E2C6
F296
E743
F1DF
F744
1BA2
F652
D0FA
EB9D
FB4B
F170
ED96
E618
0388
0A00
DA0E
F4BE
4437
19C1
0BEE
12CC
2F94
F303
F02D
0319
114A
17E3
46A7
5292
F62F
06B8
E6C6
FD7C
EF9B
03E7
FFE4
F96D
3007
1D71
065C
05D4
297E
F476
EC21
0F37
F481
F41F
FE58
1A57
220D
1174
03F4
0869
0166
F7AC
FD32
1638
0E65
FD12
0F3B
2B2D
1BFA
02C3
DD97
054D
EF47
FA71
136E
F310
2F86
258D
0701
00A2
154A
E9C6
06E0
0A93
F7DB
FF5F

