1478
3EB8
360A
3F16
3CAA
3E76
343B
3DEC
3654
3D4D
3D0F
3E38
3DD2
34A5
1590
3C93
378A
3DCE
3C7D
3E40
0000
34B8
3D84
34D6
182B
168B
3D22
3CDB
3DE1
3D50
3E9F
0FA9
3928
3D35
3CD7
369C
3B66
3516
1007
3E09
0216
3FD3
3C74
3CE6
3C3B
3EE0
0E59
3D89
3FC7
0000
1240
3768
3EE3
3EB8
0E2D
3CA9
0000
111B
0484
35E6
3E42
39B9
3C24
3996

