1097
E889
18D1
130D
E6B6
0CA1
2C5E
115B
F2DE
0A5B
FEC5
0A3B
1404
F2DF
FA73
0B07
E63F
0923
159B
F393
17CD
1436
055B
F737
108C
1960
FF90
EB87
E8E5
00E2
0A35
F7B6
E7BB
156B
2169
0389
E9F5
F370
09D2
0604
E7E6
F29C
F96C
E6D9
1D03
15C3
E8A7
E56E
F832
F6DF
F83E
0E81
00D1
10CC
2EA1
1C18
0DED
0FF6
033B
034C
05C9
0AC8
10C2
ECEF
E894
E82C
0FA8
E8DC
12D9
F377
0416
EAFA
01B0
FD5F
097B
E6F0
0747
1027
053D
E61D
0608
E996
14C1
F758
F11C
FE2C
EDCB
1F35
286F
E5F1
2454
0AD7
E7B5
09F1
F59F
172A
F940
0A59
DE8B
FE54
F111
11BA
016F
1467
F645
E8BC
0ABE
F8E0
E189
0034
0C1E
FFB6
ED50
03E2
0318
176A
05B4
EBA0
10A1
0BDB
EA5F
15A7
EEC7
0C29
0EB2
05D6
F8EF
130B
0D77
EA35
14BE
0983
09E6
13A2
1C39
0168
F5DE
F210
0177
E4F0
30B1
2E3E
16AE
EBBE
09CF
09B0
006A
14A3
E8D3
0F47
1457
0E7F
E447
F47F
0FA4
EA71
09BC
0E99
F0E3
FABD
EFA6
F1F3
35B9
061A
036B
EAF2
0756
EF85
08D8
ED6D
038B
0CB0
2185
04BB
006B
15F4
0972
DFAD
FCB7
E864
0E1F
023A
2124
4013
F70E
07F4
0F7B
03C3
E722
F160
F31B
127F
EEE6
019C
DB03
F133
0389
EC47
0826
E690
1694
0C72
EFE9
F5D2
D266
E704
F153
0DD0
159A
0869
F177
F22B
04D5
EB10
F014
F075
15E1
EB12
FA28
F86A
0853
EF82
080B
F943
0229
FE95
F79C
0D9B
0016
E746
1EBF
0C3C
F09A
11BB
F54D
117C
166A
1F5B
F7B0
1449
0CCA
0043
048F
043D
FCF7
FBE0
15DC
E849
0D2D
E246
038D
10DD
17B6
FE28
FAF3
1676
060C
10B9
F9A5
E88F
1895
1238
1107
1126
F34F
0BAF
FFBD
EA61
F7C5
F256
1923
EF10
E771
EE2B
1366
F9A1
FC9C
0333
269F
0E68
498A
02C8
1081
1275
0FF0
F397
06B3
0982

