43E8
1226
E81E
FC64
E75D
E326
0D0C
F0F1
E292
1633
F78D
F4B8
F7C7
E51E
035F
E83D
056D
E274
7AA2
2C2A
ED61
0724
1758
EA0C
F818
EA54
F250
0A6C
5E1F
E2F6
160A
3D30
5314
E815
FFCB
010F
EFDB
091E
1970
EA1F
14AE
160D
0D17
E92C
ED50
E63A
1916
DD04
0861
ED50
3A46
E68F
E251
ED10
06B4
036B
FA49
3A04
15B7
F042
53DF
E0CD
7E52
2B8F
256B
FDBA
FCBE
F3E5
0ED7
0B12
0DB6
04E6
0EC4
0D97
EC49
F078
13EC
F5E2
EC15
FE51
FBD1
E247
E61E
BB70
ECDE
1442
0E09
111F
F9D1
4925
F8F8
0D4E
4302
F677
56AC
29C3
359C
0EDA
0E43
EFB1
FB80
1233
1633
F6E1
E97D
05DC
0740
F0E7
F497
FB87
F66C
01F3
EED7
E6A4
12C4
0587
11C5
048B
FE81
F96D
0657
1E60
F1A4
FDF4
60C8
11E4
4541
46F3
45FE
0E32
F40E
0ADD
057D
3740
0360
E5EF
0CA4
F22D
0838
E8B8
111D
26A3
E7C4
FE51
047B
FA6B
A058
D863
EF55
157D
EE1E
EBFC
EC17
5779
0928
1116
5240
FF68
4ED0
29B0
48BB
0092
1872
0067
E7D0
1999
0DDC
1521
0227
FC31
EA02
E9F8
F888
00BF
14AB
FB36
0940
0F0D
9849
E8E4
1192
1CC8
15A7
0E3D
F6FA
409E
127B
FB60
4860
F5F4
44C0
401E
3137
EC63
E79A
F7C2
064D
0175
0B9D
10F3
0A67
1066
FAC3
FFA7
1777
23A4
FA9A
1B25
F384
1BEE
BE08
DC42
EE0A
16E6
EF33
02A2
E627
1478
F313
E7ED
4660
ED34
5186
FCE7
148C
0E1B
EE4C
1D65
0D7E
0751
F143
0971
FE94
F316
E9AB
1AEC
01F9
FC3D
0AF6
1E5A
1137
16CD
A1D8
F8C7
1137
0D54
15F3
FC53
0714
160E
04BF
E6CD
0016
1495
4B26
F642
F4F9
071D
E7D4
F77A
0D0F
0042
FE19
0B9E
0C89
E80E
0657
F0DA
E97A
1D56
F44F
1E09
0DE7
FCC8
B358
FDE0
20AB
F517
EA97
0E49
1024
02E2
F6EA
F36C
2870
13E0
0163
0BEB

