048E
FF4B
E9C4
EABB
1553
F0BC
0BA3
ECA3
F989
ED65
EEAC
0125
13F7
E958
EB73
F821
FFB5
EFEC
FA05
F21E
094E
034C
0E85
1529
F234
0B48
124D
ED43
E91B
05CD
1098
E6A4
F05D
059A
12EC
E7DA
0ED4
F9BF
EF33
EEC4
0FD1
02D6
0CFC
0AA0
F86B
EFA4
E7E6
0259
EEB7
E498
0DC1
FFF1
F501
F841
13E7
0071
F06B
09DF
0526
F1A0
0C24
0C19
F5BE
FAE3
FA36
0EE6
105B
16F6
05E9
F424
FAEB
FF15
EC7A
FE4E
15C6
059F
14B1
FD1F
E791
EF28
14B4
115D
10C3
0196
E4A7
16E4
01F4
E778
F6FB
1010
19E1
E789
1620
F730
FB86
1715
0053
0D70
0A8F
030F
122E
EBCA
03A8
0B92
FF6F
055A
0804
FE37
0613
F7EC
0CCE
F787
FBCF
131F
F9A7
15DF
F397
024E
056F
E604
E999
E50A
04BB
F8F1
FD1D
0E0E
0E0F
0AE6
F452
FBC7
0F61
FEAB
FBB0
F7F6
0CD9
ED63
F1FA
07AF
0C44
0208
F6B7
023C
EA83
F1BB
0A58
1851
0146
1459
FE25
FF66
19F2
E968
1002
0D2C
EB80
145E
FC3C
FA34
03DF
03C6
FDFC
E891
F530
FF52
1953
ECB8
E739
1881
F182
0B0E
F60C
FB9F
E733
F570
17BB
014A
F702
EF1B
089C
11DC
04AA
F85C
16A7
F418
01E4
135B
F77F
E917
058C
F672
E4F5
F111
FCD8
155F
1A13
EDC9
FD9B
E759
EA52
F377
F2A2
1075
0047
0525
F7D3
122A
EBB0
10F7
FD10
1124
FC85
08F6
EFED
E5D8
01BD
0ADA
FCE9
03C7
1445
F5A1
1618
0932
100C
020D
F6D3
EA80
EA22
F806
ED76
EB48
0E62
00BD
008A
F0FD
1821
F491
086A
0058
0F55
13BA
02B2
EBBF
EE92
FEC2
F7EB
0BB8
0CAF
013C
E8ED
F57F
1387
06CA
02DB
1040
0305
F341
1842
E95E
1A00
05DA
E776
F165
0577
EAAA
061A
E6D8
04A7
F2F3
E6E5
E6C3
1603
FF2C
E6D1
03E6
F0FB
FEB9
1414
10AA
E8BB
FE46
0700
1624
04F0
1809
ED4B
E4E5
0843
FC9E

