0398
1848
3FB6
3C78
0062
15FA
0704
2AFE
3973
039B
3ACE
061F
356B
0DD1
3730
1477
299A
1494
377B
2CC1
33BB
192C
3245
30AB
0880
092E
0A14
2843
139E
3D64
0CDF
042F
0E1A
2EE6
0FEC
034A
0087
14A5
3568
1114
2AF4
3317
356F
0972
2818
163A
0507
0B67
07C0
1373
0949
3386
2879
05F8
009E
01D8
2E48
01D3
05F4
27D9
0136
0E11
11EA
0F05
0A3B
3599
0FBA
0716
09B4
3C81
0CA4
268F
3290
38AD
0090
2F52
02F9
280F
0F81
03F5
30BE
3AC9
16C2
17C8
2ECD
13F8
3A46
2D31
128C
3BF5
02D4
0B49
1446
108C
32E3
2E76
3FD2
077B
106B
3D6A
29A9
0539
2812
3652
37F2
3778
356A
0A18
3BDB
377D
0BE9
0F82
3297
344D
3B16
06D2
01D9
2801
03D0
393B
16EB
1602
037E
3980
16EF
11EA
2D53
3EA9
39F9
35D8
3017
069A
39D9
3042
2CCB
0A59
0F13
15E0
115A
3056
06C7
075E
344F
016F
2BB4
2D52
0F26
19E4
331F
3FD5
3210
10B7
39CF
0E74
2897
06D0
06DE
0C41
3023
16C7
3F7C
2CA9
3F3D
2D2B
37AB
282E
33BB
03E4
1856
3B07
38F9
3C5C
3BF6
26FF
2CDA
031D
2A17
3E16
06C8
3F0E
18CC
34F8
12E1
08F7
3506
1190
3E78
2C2B
0B98
32F7
1362
18F4
090B
08EB
27BC
1228
04C7
03B8
15A9
16DF
0D13
3792
156F
3226
3CC0
38D0
3C76
03C5
3E77
39FF
089F
3DB1
04E2
0D74
2815
0BD9
1174
2FC7
0E1D
2A6D
2F15
17E3
3B3D
3282
2B5A
14C2
286D
27CA
3D9C
1538
2A9B
2BCF
1388
2B04
2620
1426
048C
254B
086A
13D6
3840
29FF
32A5
0C02
0FEA
2ED2
1125
0BC7
3A2F
0C7F
35E9
3F39
3918
145C
33C3
0DB8
3320
1148
38D1
0132
2B8F
3E61
30E9
0D45
0CFD
2F0A
2D38
15DD
00FA
2F05
0D7D
169E
28E0
1295
2A26
3DB9
377F
0324
0551
27CB
3406
376A
31CF
04BA
28A9
3E22
2CB2
2FA8

