1E99B
00A73
1EA16
01825
1F429
1E494
1EC46
1E7A1
1F59E
01527
01126
011E0
01525
02049
0019D
1F4D1
00E80
1FBC1
05E4A
02E19
007FB
01B1E
1ECA5
1FAC4
1FFEC
1FDCE
1F982
01A0A
1B801
0247F
1D381
1FF91
1A508
1ED92
1FA9A
00DD2
00562
1EAD1
00CCC
00C42
00640
1EE0B
00BD9
1EA57
1F6E4
01731
00DCF
00823
1FAA8
00EBF
04DEE
00B71
01C51
1F58C
1FFB2
1FC9F
00629
1C26C
1EA0D
1FB2D
19E39
02086
1A405
1FD48
1D9C6
1F610
1FDA1
1F343
01935
013FA
1EAC9
1EC54
01758
00E16
1F38E
1F39C
0033B
0159F
01116
1FEBC
1E64D
00F64
028FA
1DA44
1F7E5
01A5D
1FAC5
1FC1C
1F9F0
0057F
004EE
00454
1C007
1FFFD
01644
1CF50
1FC19
00F25
1FD14
1F617
1F695
1E557
1F213
1EAFB
1F283
01680
1FD85
1FAC0
00513
1F2F4
00936
00A22
1F527
007B1
08092
0609F
00D37
1EDDF
1E85D
00787
1FAC3
1CA31
003FF
00424
1F0C2
01181
1CF60
0343D
1F681
00B5C
0033C
005A2
1ED16
1D409
00925
1E879
1EC49
00813
1F138
1FD24
001A7
1F197
006C7
00CE2
000BD
00584
05771
032DB
1EB63
1E811
1FD56
1F1D2
01393
1DEFA
008CA
1F14F
1F9C7
1E698
01078
1F4F1
1DCA2
1F28B
01938
0084F
1FAD6
02D96
000C0
1EDE6
00768
0132D
1EFDD
1FED1
1F787
1E375
1E618
1FD82
1ED14
00CE5
008D4
19E80
1E693
01174
1EDDA
1F6A5
01913
02C2B
1F0B8
0131B
1FFA1
02023
05948
1CEA9
02373
01739
00840
1FC96
1FEFC
006CF
0122A
1FFA6
1FEEB
1FFE9
1FBCE
1F694
1EFA3
00339
013A8
1E753
1EE80
1EA9E
067B4
0325D
006C7
1EA1B
1FA6C
1F799
00937
004B6
00593
00F83
05303
1DFB0
00FA0
015B2
05132
1FE38
1F6BE
1E597
014BB
02C2C
1EAC2
003FD
1F57A
0146F
1FE7E
1FC77
017BA
00B0A
01977
1D9F8
1F729
1E415
034FC
1E367
1DC33
00042
01667
1E64B
1ECFB
04643
1F6A6
003FE
069E2
1F82B
05F2B
02F93
01FC5
1F3CE
006FE
1F961
1E847
03553
1EB1F
1ED84
1F56D
1F9EF
1F7A6
1F610
003A4
01EEE
1F765
1FA53
1F6BC
00C35
19403
1B643
001F8
00A3F
00762
1FB21
00907
05469
011A9
0040B
04D7C
01D45
06A0E
01FA7

