1E854
1F564
1EDD6
00729
000F5
00C2F
009C0
00141
1F726
00813
002EE
0033F
1F83A
00201
1F862
00BD4
00982
1EF8A
011A2
1FDC9
011DF
1F75F
0155D
1F043
0071E
1F9A9
1ECC4
00732
1FE61
1F209
017DC
1F76F
00DC7
1FB72
1FE02
01712
1EDD4
1EC26
1FC3E
019F0
00EA0
01818
1F79F
1F818
015C9
005CC
004E4
1EE7A
01764
1F639
00BB9
1EE8E
0087F
1F0A6
00E41
00F4D
0090D
1FD23
1EA48
1F981
00577
0036F
1EB3C
018BC
1EC35
1F994
1F866
1ED49
1FDD9
00781
1FD45
017C0
1ED91
004D6
1F987
00DCA
1F46F
1F68C
00DA1
1FECD
1EB96
00C99
1ECC1
1FF32
1FD64
1FC13
00156
1E632
009BC
1FC1D
0163D
1FB7E
00514
00F73
1E93A
1F008
0123D
1EDBA
00663
1F3E1
0071A
1FB8A
1EE23
00890
0030A
1FA19
007BD
00CE0
1F29C
017AB
00DFB
000BE
1E8B0
00717
00C73
1EC4E
00FF8
1E93C
1ED22
1FA34
1EA5B
00CAC
1E6EF
1E899
01844
1FC46
1FF2E
0025A
00E3D
1EF6F
01318
00120
1F7E1
1F305
1EE46
00C06
1F0B9
1E608
1FF95
0158A
1FF7F
1E9FB
1F333
1FCE8
1F164
00DDC
01410
1F83A
1F4A2
1F9A1
1EE66
1F6E8
1F178
0022D
01164
1F718
1F705
00477
002A2
1E540
1EAB0
1F0D7
00095
1EE4F
0193A
00B69
1EB23
01518
016A3
1FD61
00F51
007CF
1E674
1E804
1EDCB
1F019
012B6
00E54
00FE1
011F8
1FDA5
1F791
000AC
1FF54
0114D
1FA99
1ECEF
00C9D
1F797
00A66
00C0D
011AC
1EA27
1F455
1EDCA
00773
00C13
003F7
00BF6
00092
00FF8
1FD37
00CBB
1F5D8
1E965
1EAF0
00DC1
0010A
1EC8B
00457
1F3CB
1EC84
1F958
1FC03
1FD21
1ECBD
1F476
1F926
001D4
01027
1ECA1
1EE8F
00CBF
1F3B7
1F954
012E1
01651
002D5
0155B
00CDC
015B2
002F0
1F3E5
010B8
00342
00ED7
1E90C
1FFE6
005C2
00C73
00DFB
1E813
002D6
1F802
1E5CF
1EFC7
1FC3D
1FEDD
1F418
1EAD0
00E42
008D2
1F752
1FA38
1FD1A
007C5
0184A
0182B
1F64C
01A01
00059
01230
01131
1F7D6
1FE30
1F85D
001C5
008E4
00D4B
013E7
1F791
00897
01615
01062
0101C
0116C
1F528
1EA02
1F509
1F4C4
1FFEF
00768
00CD4
0180A
01291
00DDF
1F56A
1FDA7

