3A81
2593
0306
08D0
18A0
2B6C
0E0C
388E
0E05
13C6
0ECE
11AC
0FE6
1384
0DD5
2EA2
2A02
168B
288A
03EE
31AB
3DCE
2AFA
1797
3580
28DC
0644
19F2
2AC3
1396
3824
0078
020A
2EA0
3098
1368
1062
1845
0F31
2FB4
154A
155D
2EBD
15E9
0836
1826
3D46
275B
0A52
399A
33D1
2E6B
2839
060D
3029
0860
0718
24BF
1801
00F9
385F
0BB7
08D0
0E39
0110
3E64
1049
33C1
3219
0510
1807
3265
2FD6
3DD6
363C
2663
29A3
2F0B
26ED
02BE
0BC9
074F
0551
0013
26F1
0306
269B
00D5
1114
2D25
351C
3028
2652
13FE
3F40
019B
25D3
38CA
2A39
3FD3
305C
3ACE
306F
04FC
294C
08DF
002E
3BD4
33FD
0AE9
3AF1
107C
32A2
1614
2624
304A
2763
0C66
06B7
2F3E
3CD8
3C86
0A0D
2F8D
34A7
1439
0968
3C29
0D90
3CE6
2DF0
0F2D
360B
042A
1156
3255
0B05
0C0E
0422
196E
2B6E
09BF
396C
0C48
3D7F
360A
179A
0D49
08B4
32B0
1404
2EA3
1536
02C8
29E0
0485
2D89
2AE2
0C4D
0DAD
3967
0B39
2FD0
0E74
269D
143C
3E7A
2667
37C9
06C8
3BAE
3FAB
3C6D
2EC6
32F9
0940
07F3
2CAB
16CF
1047
2BE7
31B4
33B5
0A47
0979
3F25
1013
0FE0
0586
048E
33B3
2E9E
37F7
35CD
2A5D
049C
17CE
3545
3ABD
29C9
3206
3FB1
0EC2
2B19
3313
1819
12FB
367D
39F3
2C7C
19E0
2B6A
32F9
13F1
2842
1892
0238
2567
014D
0ED9
3F21
25D0
0182
2560
39BF
2B29
11BB
172C
3C0A
0916
04DF
026D
3D9B
10F1
0E5A
341B
0458
3835
157C
09A8
393D
2A3E
25E4
0A20
174A
0EDC
10B4
1690
2B32
138E
13C6
36FB
1782
2C9C
2AE3
108A
3D2D
287C
1088
00E3
2AFC
3660
2980
0D0D
0CF5
0BCF
1726
28FF
08F7
09ED
0AED
2B60
00CB
2DAD
0E09
1776
30A7
14AF
0B55
3576
1422
25F4
140A
27EE
3083
31F2
39B8
0F14

