1D1CF
00974
1E79D
00E02
1FB22
01493
1FCC9
006E5
1E77F
01444
1FB55
00CAA
0018E
00020
00A7E
01B9D
1EFD9
016EB
1B37D
1F478
02096
00E82
1ED94
1FAE9
1ED8F
02538
00B02
1FF5B
1A8DC
0095C
1DA39
1CBEB
1D8E5
1F61D
0006D
0202C
1F654
00186
1FD14
1E75B
1F13F
01959
1F4F8
00014
019E6
018DB
009F6
02420
1F3B1
01E1E
014E9
02E61
01B9C
1FE0B
00E04
003AE
00F1F
1FB2B
00A25
1FA4D
1AE9A
02086
1BC22
1F675
1F558
1F3D3
1EA77
0112A
1FA0A
00EE4
00558
012A3
1E7B2
1E83D
1EC16
0161E
1EB6E
01352
1EAC1
01530
0108B
01D32
01D84
02722
013CE
0173E
013FA
00208
012E5
00990
1FAEF
1F539
1CA3B
1F666
1C66E
007D1
1ABAB
00E8D
1FAB7
1F430
014B7
1D990
00F7F
01756
00FDD
00AB9
1FE96
1F8BF
008C8
1FEA1
0096C
02316
00F45
000B2
053F4
01D46
01A2D
01186
0125A
1F3E5
00A22
1DBB6
1F41B
1F823
189BD
00ED7
1B838
1BCA5
18AAC
019BD
00236
003CC
00737
1D6ED
1FC68
004CD
1F14E
00826
1F797
00668
006E7
1FAC5
00ABB
01762
1F3D8
01062
07563
03D36
1F831
00BD2
00D51
1E61B
1E9BE
1A184
0177B
0074E
17E53
00328
185DF
1E908
1C685
1FD96
015C2
015EC
1F8AC
1DE99
009FB
01600
00CBC
00AF5
01754
1F727
1F478
00229
00258
1F638
00366
1FD88
053D2
0223F
1E558
001CA
008B1
016A2
018C5
1E6F1
00A24
0061B
1B3ED
1FCC4
1AEF3
1CF6D
0257F
1E5E9
00821
00AAF
1E907
1F0FA
1E9CD
1F344
01442
1FECA
1F8AD
1E743
1F0A9
1E7DA
1E9A3
1D28D
014AE
1E5C8
07416
03BAD
1E0FA
1E9C4
00C0C
003C8
008D8
1D75A
01332
1ED1D
036FB
1E272
026C2
01802
010E2
00852
00C83
1D9BC
012C6
1F0DF
1E8EF
01622
00E15
1EB25
00468
1FF39
0112D
1DE31
1FE75
1F186
1FBCE
1D6F0
06F10
01DC1
00073
1D41B
1E7A4
1FA21
1F426
1D3FF
1F5C3
1FC01
03A14
1E579
01C40
02EA7
01C0A
1F059
00F7E
1FE8A
017C0
00FFF
000EF
1E73E
00C51
01327
0169E
1FF9D
00ACD
1EA6E
1F96A
1EE38
1F0AD
1DCA4
062A4
1E6FE
1FD23
1DD6E
01695
0040C
00D54
1FC5E
1F0DE
01519
02F2B
1E73E
0438C
0089E

