3FBF
30B0
34B8
3D0E
2D97
08AC
0F28
12F8
01D5
3323
0524
2FB7
2754
0141
199F
1505
0530
25BC
25B2
0137
2CE4
1694
0764
1452
31F1
1317
3502
00EA
29FC
2645
25F0
3CD5
3FB8
38E2
031B
1678
3525
0F7F
282F
0AD3
387F
16A8
32D1
271E
1456
1855
2B34
0A1D
0C42
0B67
2AF9
1295
26EF
29E5
037D
036A
3F37
0F4A
2A98
12FA
2E23
0C15
072E
28D1
1657
3052
310E
0E22
3396
05B9
148F
3526
28FF
0F66
15C0
0E33
35CB
39C5
0EE3
0A57
07E5
38AD
13F9
3482
3202
3D56
0FC5
0FC2
0EAA
077B
2772
2FF6
3BBF
27C6
2CE5
14FD
34EE
0234
06FD
0047
3E2B
2A50
012B
37C0
087A
04B9
29D2
3CA0
33D5
155B
33D4
342E
3370
12CB
0520
31BB
17D9
1445
077F
2AED
0B40
115F
1537
1459
017C
0D2F
2E28
1927
0099
3A14
17DE
2D16
33C9
3CB7
3448
33CB
05B2
28D3
35E7
153E
36DC
27B6
31D9
13F6
0C2A
28B6
18A3
1431
2E72
2E58
0CD9
0266
119A
0618
337D
33BA
2A3E
3F1C
0043
3D16
2ABB
0A13
2B44
096D
14B6
1885
3004
3F9D
0E43
1999
2D4C
32F0
291D
074F
0358
3F6A
046D
2DCA
3712
1900
12A3
0E22
3CE9
370C
1728
2F19
170B
1836
355B
35C3
3882
0F16
3217
3655
26CF
0C2F
10A8
2876
158B
2EF8
1239
0A6A
3154
0E0F
2E56
34A2
0986
32F4
199D
384E
1123
336E
2D56
3AAF
34CE
2639
0488
2BE7
02C6
2BE9
1941
020D
082F
2BFB
147E
2807
026C
103E
0EB5
00DF
0E9A
3843
30C6
2DA8
3FE9
2628
18A1
32D4
0B4D
3BDF
12F3
30A0
2A73
0790
09D8
15C2
3505
1413
2F66
1281
05F8
07CF
2A18
3D1C
3929
07BB
34A1
1109
3E28
0DEB
2B45
36CE
0D07
2D44
3AA4
19B0
2A5B
0E64
2CEE
01E4
17AD
0AC3
1951
3264
3806
0880
2794
12B3
10E2
0E37
32F1
3A6E
0964
0AC1
2F24
3694
3BF8
0713

